票
˕
▁१००
621
▁सिल्भर
football/16
khabar.com/?p=70
किटानी
ӄ
▁सन्देश
▁संग्रौला
幅
ादी
ڝ
T
▁पहिरो
अधिकारसम्बन्धी
▁डुङ्गा
▁नलागोस
▁आधारशिविर
तमाम
▁असाधारण
▁कञ्चनजंघा
▁(राजपा)
ȃ
▁नाचे
▁कालोबजारी
☺
एलईडी
▁उब्ज
उड
黑
भरपुर

▁ba
͑
4%BE%E0%A4%89
0%A4%B8%E0%A4%AC
▁सामूहिक
▁अर
2019/03/30/15539
ꆷ
कवच
ҿ
▁आएको
▁बनाएर
▁'मेरो
उज्यालो
▁बे
खोला
▁आसाम
▁जुध
Ͻ
麗

Ϥ
▁ब्यवस्था
▁बचन
्न
लुम्बिनी
...	बिस्तृतमा
ईओ
▁चाहनु
援
▁दक्षिणपन्थी
四
▁मगर
न्यायधिवक्ता
Έ
▁खटिए
िरहेकी
▁(पोर्
▁अघ
▁भट्टराई
▁In
▁जिन्दगी
हालतमा
޾
▁मध्याह्न
marg
▁फेर
这
▁बालबालिका
%E0%A5%81+%E0%A
▁मांशपेशी
यू
􀀀
▁आफूले
▁आइरहन्छ
because
▁लामखुट्टे
저
▁या
▁छोडेको
范
पुगे
%E0%A4%AE
as
▁नामावली
▁प्रान्त
▁सिद्धान्त
▁अन्वेषक
고
▁स्थापनाका
बहुसांस्कृतिक
ɞ
犁
राले
赋
ય
+%E0%A4%AC%E0%A
खिम
▁झण्डा
15
▁सुनुवाइ
জ
▁'पार्टी
▁आलोचक
▁ठूला
▁पञ्चायत
郎
네
▁परिवर्तन
▁अन्नपात
▁विभूति
▁हिँडेको
लुङ
पुर्‍याएर
▁मर्मत–सम्भार
촬
ember
废
▁चुल्हो
घेराभित्र
5%8D%E0%A4%B8
▁डराए
देल
▁सगरमाथा
खोजेर
尸
▁हटाउने
▁ट्यांकर
▁सृज
▁फिटनेस
▁कुमाल
▁द्विपक्षीय
सम्भव
विक
▁हदसम्म
渊
霊
▁स्ट्रोक
ordpress
▁पारिसके
접
и
▁५१
▁असोज
▁गोल्ड
▁प्रिमियम
▁बदमासी
괎
▁कोपिला
▁डिजाईन
▁कत्र
飣
를
▁गमला
▁घेर
भ्रष्ट
▁योजनामन्त्री
4%AE%E0%A4%BE+%E
扮
gat
确
▁आउला
लीले
▁सिमा
सार
ितिसक्दा
▁डेरी
▁युनिभर्सल
▁किलोलिटर
凝
▁टाट
+bha
्याउँछन्
घटनाबारे
▁बालगोपाल
▁पहुँचवाला
ंकलन
▁मनी
Ů
▁नसुने
4%BE%E0%A4%B2
隐
▁मेगावाट
▁अनुसन्धानका
▁सिद्धार्थनगर
已
▁पहेलो
♂
▁७५
र्जियो
▁पर्सनालिटी
▁दर्लामी
▁देखिने
5%8B%E0%A5%A4
随
भरी
▁क्याप्टेन
▁कल्
ｌ
▁आश्चर्य
▁अंग्रेजी
▁डेयरडेभिल्स
ਲ
▁गतवर्ष
4%A8%E0%A5%88
▁झाँक्री
▁खेल्नुपर्ने
▁काटिए
मुखी
▁मापदण्ड
▁सम्बन्धि
▁संवेदनशीलता
▁यज्ञ
♔
▁गाली
▁अफ्रिकी
Ӧ
▁उही
▁पाखुरा
यहाँ
सँगै
▁भाइचारा
▁तुम्बाहाम्फे
▁मादल
▁नपर्ला
谷
▁बलिउड
▁निरोगी
▁कलेज
▁राजदूत
उता
▁गेस्ट
录
ϯ
▁खेतीपाती
▁थालिए
▁प्रभाकर
धारा
▁निम्त्याउँछ
बलजफ्ती
▁राजपुत
▁नेपथ्य
▁थाल्छ
▁देखेका
▁बायो
▁डिभाइस
▁गायिका
脸
Ｏ
▁इन्डिज
▁स्काई
萝
滞
२-१
▁परमेश्वर
▁अम्बर
▁प्लाष्टिक
▁रेजिडेन्ट
ម
▁दुवैतर्फ
▁प्रशंसा
▁गुरुकुल
▁पठाई
▁जनचाहना
भारततिर
र
Մ
▁प्रेमी
▁साता
+nai+
▁सानेपा
पास
▁पर्छ।
▁po
݄
▁देउवाले
माथिको
pradesh-7/201
Ȅ
अभियानअन्तर्गत
蒲
▁जाजरकोट
▁ढु
लिट
▁कन्सेप्ट
▁vaye
ボ
▁हड्ताल
뒲
ढुङ्गा
▁कोरियन
ƀ

ung
Լ
▁घान्द्रुक
लक्षित
▁मान्दा
▁08:1
を
▁सर्भेक्षण
▁प्लेकार्ड
▁तमिलनाडु
▁होमस्टे
▁नराख
˚
⛭
▁सञ्चय
▁थियो,
ˮ
बढाइएको
▁रसाइली
%E0%A4%82
▁सकृय
▁छ।
▁सुनिश्चितता
▁नेपाली
▁पर्यटक
▁ठाड
khu
उसका
▁परिवारको
▁मरण
च्यूत
बेग्लै
▁आमहड्ताल
▁साक्षी
description>
▁बखत
歌
▁नदि
ᤵ
▁हकमा
age
▁घण्टौं
妙
्या
योग
▁स्वरमा
冕
एनपी
+%E0%A4%95%E0%A
▁भैसके
し
︢
▁निद्रा
▁मुकुन्द
▁दिदि
▁फुक
Ŗ
समातेर
▁नरसंहार
减
ta
▁खपत
▁मुख्यालय
ेस्
▁दाङ
弾
▁बिद्यार्थी
▁कुर्मी
▁सम्भोग
ั
▁हुन्।
▁ओगट
mo
▁ब्रम्ह
z
闊
▁गराएको
लिङ
ể
▁३९
▁शुभचिन्तक
षित
▁ओखर
एकचोटी
론
듖
आधिकारीक
▁अज्ञानता
▁आश्विन
▁गे
▁निखार
▁तस्बीर
▁लाभांश
▁बताईन
▁कुन
▁स्वास्थ्यसेवा
▁बलि
头
भएका
▁अल्मल
program
्छिन्
▁गल
▁विपन्न
▁चाकरी
▁राखियो
节
辦
▁सात
स्तरमा
▁अर्बपति
▁बोलिरहे
राज्य
▁वजेट
35/feed
चियापत्ती
्व
邦
संघीय
▁प्राण
室
सायी
▁कठिनाई
4%A0%E0%A4%BE
▁बन्ध्याकरण
ǩ
▁पुल
86
strict
鬼
է
α
▁अचेत
▁!!
▁राख्दछ
ʷ
+%E0%A4%A4%E0%A
ֳ
खुलेर
बलात्कारपछि
仏
铬
▁झन्डा
▁लगानि
बिइङ
▁दुःख
록
▁बनाउँछन्
एफडीआई
पाल
▁हुटहुटी
ǲ
▁कीरा
▁समाचार
▁मोटर
▁संयोजकत्वमा
栗
▁७
पति
▁मृत्यू
5%8D%E0%A4%A3
▁रोजाई
▁नवयुग
⦁
▁गएका
▁केदार
哩
▁रहनेछ
섯
▁पुनर्वास
ʗ
▁दायाँ
▁नामाकरण
Date
आपसी
▁निस्कँद
▁चाहेका
螺
क्लो
ځ
Ǵ
िन्
▁हस्ताक्षर
▁ज्ञान
2018/04/673
ർ
नौं
▁पेन
▁प्राधिकरणको
▁बिमानस्थल
▁रिङरोड
World
孞
▁कुरालाई
्दछन्
ब्
▁गुण्डा
▁लिइएका
ӣ
▁हाइड्रोमेकानिकल
▁भयौँ
顺
▁लगाउनु
▁कुवेत
gi
▁चराउन
▁प्रकोप
▁माइनस
द्वीप
Ց
pisode
©
स्ट्रो
▁web
▁हाटबजार
भ्लादिमिर
▁औष
प्रध्यापक
▁गाउँपालिकाले
▁नबनाउने
व्यवहार
▁प्रशान्त
नगरपालिका–५
थाह
▁जून
मजदुर
▁अब्राहम
▁क्राइम
▁सहायक
済
६.८
▁असुले
+%E0%A5%A4+%E
堯
ध्यक्ष
▁कार्यकर्तालाई
襃
▁कुन्नि
▁दुग्ध
विभाग
ﯢ
▁भौगोलिक
▁युके
▁चिकित्सा
▁ठाकुर
▁प्रखर
▁जुरे
🙌
2,
▁सहायता
▁पार्किङ
▁प्रश्र
दलबीच
▁सूर्यबहादुर
▁write
▁बिस्
굼
२१
▁बनाउदै
▁दवाडी
團
एकाएक
▁क्यानडा
▁नगरपालिका
▁मनाए
▁अटोमोबाइल
▁सर्वसाधारण
धूप
६–३
▁नजिर
ӝ
ܭ
र्ना
▁८४
मारमा
▁तपाईलाई
०४
▁इन्ष्टिच्युट
4%BE%E0%A4%97
▁सिक्टा
▁शिवरात्री
短
▁विधा
ѭ
▁आत्महत्या
4%95%E0%A5%80
▁उडाउन
▁पौड्याल
❤
▁नपाउँद
▁रहेका
▁त्यसलाई
▁ढङ्ग
▁आह्वान
▁जयन्त
や
ǹ
▁चौं
▁योञ्जन
抬
▁आन्तरिक
शंकर
▁बेसीशहर
Narayan
▁सूक्ष्म
फिक
▁जीवनसाथी
ױ
▁दिइए
ʚ
▁आजसम्म
भच
▁भिजे
.]]></d
▁राजनीतिज्ञ
▁माथागढी
▁मोबाईल
साह्रै
▁शर्त
os
▁आमसञ्चार
硬
▁जाकार्ता
khabar.com/?p=
総
▁स्रोत–साधन
dg
▁डिफेण्ड
▁छुट्याउन
膨
▁नेपालबाट
▁निर्धा
'मैले
नुपर्छ
낣
▁किंग्स
ni
महानगरीय
112
▁फेस्टिबल
▁रैछ
▁कोलोराडो
▁फाइबर
▁देखाइएको
ेज
▁बगाए
ाएपछि
▁पुगिसक्
▁तामाङ
▁मुला
▁इन्काउन्टर
▁कलंकी
▁भएछ
छड्के
िल
ूरी
▁प्रभावकारी
▁दिक्तेल
▁व्रतबन्ध
聊
˜
▁हो–
पिका–संसद्
片
학
▁hola
栅
▁एकाधिकार
▁तत्
越
▁बाम
▁बर्खा
▁८१
▁08:4
▁धरपकड
▁आईपीएल
▁समाबेश
▁लगाइदिए
४५
䒵
▁एशोसिएसन
▁२०६७
▁गराइरहे
▁सातौँ
;
▁पुरुषहरु
▁सिक्दै
脂
▁मोनो
▁थोपर्न
▁दुवै
▁बल्झ
▁प्रहरी
ぃ
▁शून्य
▁भर्ना
▁दिन्न
▁दिएँ
▁नाचघर
▁गार्मेन्ट
肺
which
▁भूगर्भ
▁मालवस्तु
ौं।
अपराध
▁फ्याक
oc
▁लेखाइ
जुल
▁भिर
▁उपमहानगर
▁अवकास
▁गुमाउँदै
▁भाग्ने
▁कृषक
▁सञ्
▁सामन्ती
▁Kathmandu
▁चित्त
ौँ।
▁काठमाडौँ,
Ѱ
Ж
बलात्कारीलाई
气
डल
▁सर्वेन्द्र
▁यतिखेर
▁डोरी
▁'हिजो
▁अधिकारका
ang
क्की
ス
▁सन्दकपुर
▁रनरअप
▁पछ्याए
▁अफिसियल
4%95+%E0%A4%
▁आफ
कर्
▁कर्मकाण्ड
▁ग्ल्यामर
▁हर्
▁चेतावनी
▁झुक्क
लिएपछि
5%8D%E0%A4%AE
९५
▁कमाण्डर
निरुपण
टाढा
▁होसियार
आर्टिफिसियल
अन्तरास्ट्रिय
̯
剂
▁वीर
检
▁खुल्दुली
▁पुँजीपति
quote
▁समता
খ
▁दायर
्म
Ԇ
▁आउनुपर्छ
तीन/चार
build
▁पक्की
ĥ
维
▁रुपैयाँसम्म
5%8B+%E0%A5%A4
▁बर्षमा
▁खग
ंगुर
▁भियना
aune
▁विश्लेषक
ating
Ψ
िसन
▁लेखिए
▁टुटे
▁अल्डरसट
▁ट्रयाक्टर
▁प्रसस्त
▁झर्
▁कडा
about
▁देवेन्द्र
Ⲫ
त्यसभन्दा
Կ
▁वास्तुकला
▁रेखा
गणेश
&ndash;
▁प्रतिकूल
传
cause
मुरी
肌
Ɍ
ィ
नियाँ
▁त्यसले
पर्नसक्ने
गयो।
ン
▁निवारण
▁बधाई
▁जैसी
明
मुलक
▁वेभ
確
Ȑ
ठीकै
▁हाउजिङ
܀
▁दिदीबहिनी
ǐ
▁शीतलहर
इन्ड
Ԗ
ootball
▁विभेद
बेमौसम
६.५
▁चकलेट
▁टाउका
▁मल्हम
▁सम्वन्ध
试
फोर
▁जङ्गल
ुम्लिङटार
Ý
▁नानी
47
ׅ
箱
ｰ
16/
▁कसरत
▁सम्वत्
▁अहम
镀
▁बुझाउनु
▁बज
▁उचाई
६८
▁पुर्ण
▁२००
2019/05/769
▁अभ्यास
▁जलाउने
▁नत्र
जिक
依
▁हर्मोन
▁विपरित
▁स्वाथ्य
प्रक्रिया
▁अखडा
▁क्वालालम्पुर
▁क्यारे
▁पाल्पा
▁चिनजान
▁(एन
𬧟
▁प्रतिपक्ष
▁विश्वको
͟
▁यार्ड
संसदीय
▁काँडा
डिजिटल
距
▁थिमि
▁पाइलट
뺋
▁भेटिने
▁झारफुक
将
▁पुग्छ।
他
螕
▁बेत
रान
▁पस्न
▁रौनक
▁मतान्तर
ষ
▁लेख्नुभए
▁ल्याइएका
▁कम्युनिष्ट
िन्छ।
▁छुटेका
▁सोधिए
Ӕ
▁बिबिसी
▁खरिदार
▁'उ
ुस्
19/
such
इल
३-१
लोअर
▁थारू
▁ट्रक
▁गुपचुप
礼
မ
विपरित
▁घण्टासम्म
▁वीरेन्द्र
✍
▁आयोजनाहरू
▁बालाजु
▁लुकाकु
2019/03/751
ब्यवस्थित
▁इन्द्रबहादुर
恶
▁दम्पत्ती
̆
बोल
▁पिथौरागढ
▁सुब्बा
▁रन्जित
▁समृद्धि
▁सम्भाव्य
▁तान्जानिया
▁फैलाउने
΅
▁नायिका
▁सेवासुविधा
▁गजल
▁पन्त
▁दम्पती
▁12
▁टिकाटिप्पणी
▁ढुकढुक
พ
扩
蓝
▁गराइन्
̏
▁भोली
▁लाठी
▁नक्षत्र
风
▁बनावट
▁ओबामा
▁मर्नु
ാ
▁ठट्टा
गठित
Ь
हरूबाट
้
▁देशभित्र
▁उत्पीडित
▁कोट
football/30
幸
▁दृश्यावलोकन
😲
▁बाटो
हदै
▁'हि
▁परशुराम
▁real
▁गराउँछ
बागलुङ
▁स्मृती
▁अपील
▁शासन
4%BE%E0%A4%AF
増
三
▁कार्यान्वयनका
▁बित्न
塔
▁मनोरंजन
腰
ഞ
ोट
सु
२०४२
▁नवनिर्म
▁समाजिक
▁इमान
×
▁होला
ुम्
▁गाइड
2016/06/43
▁पाउण्ड
त्यहीअनुसार
認
▁क्रममा
स्पेक्ट
▁computer
क्
▁ठमेल
透
▁बन्छ
▁संस्थालाई
▁प्लटिङ
៉
▁उत्तरतर्फ
▁अधिवक्ता
▁(एमाले)
2018/04/17/15239
虚
ԃ
ट्याक्ट
▁निरज
reserv
दिएपछि
केन्द्रित
⁣
▁उत्पादकत्व
ुपथ्र्यो
▁भास
⇨
रिट्रिट
▁तिर्ने
▁नेता–कार्यकर्ता
▁जोडदार
प्रयास
%E0%A4%98%E0%A
▁अन्धकार
▁नेताहरुले
भन्नाले
2019/05/11/15575
▁आर्टिस्ट
▁Uni
▁संगम
▁मेडिकल
व्यक्ति
▁हाजिर
emocratic
け
ઓ
▁प्याकेट
▁इण्डियन
▁रविन्द्र
控
शंकित
▁जोडिन
यख
<![CDATA[
गाल
▁धान्ने
▁भेडीगोठ
ency
▁हर्ष
जुङ
वरिपरी
ތ
▁आगलागी
अधिकाँ
▁दुब
▁स्वास
bi
ारी
▁फर्काउन
▁उनीहरुका
ۼ
▁स्वीकार्य
▁धर्ना
▁बोल्ट
▁गाईपालन
▁ताक
▁फैलिएको
痛
▁फसे
▁अखबार
Ф
▁टार्न
▁डुवान
रोन
▁नआउला
▁सामग्री
▁राष्ट्रियता
力
▁अघिसम्म
▁भुवनेश्वर
択
▁बनेपा
▁पहिलो
陸
Ӱ
मिट
▁T
ज्यूले
▁इरानी
भने
▁गृहकार्य
क्यल
सम्पन्न
부
覆
▁ढाँट
चाँही
仁
ੜ
:
▁ढिलो
▁प्रेस
उच्चस्तरीय
▁जेनेभा
▁दमकल
▁राडार
्लान्
础
▁शुरूआत
🇦
%21
▁स्वराज
▁निशुल्क
▁मेलो
▁'पहिला
☎
▁ताम्राकार
▁बसाइँ–सराइ
▁दुखे
ર
击
ܡ
▁अनुभुति
肩
ƴ
भल
ल्लाह
झैँ
कतारी
रामनवमी
र्त
People
▁प्रादुर्भाव
▀
▁अडिसन
鮡
ौला
▁यसबारे
पुग्दो
▁(युएई)
दुरुस्त
–आ
▁तपाईहरु
▁'भारत
▁हुसेन
alaya
▁सिक्किम
▁आइपरे
▁अर्गनाइजेशन
▁मिलिलिटर
॰
▁आउँने
▁pani
▁गन्तव्यमा
tell
▁संघ/संस्था
4%AB%E0%A4%B2
▁प्रशिक्षार्थी
▁बिहानी
शिरीष
▁छोडेर
आउँदो
पिँजडा
ܞ
호
देओस्
▁ज्ञापनपत्र
▁आत्मसमर्पण
4%B7%E0%A4%BE
▁हर्कत
+cha
ка
वलोकन
कपिलवस्तु
▁नेपाल–भारत
̥
٬
▁कांग्रेसभित्र
4%A5%E0%A4%BF
▁जुटाए
▁भएअनुसार
▁थाल्यौं
तेब्बर
֎
▁भन्यो,
nai
▁क्षेप्यास्त्र
坊
▁आइओसी
▁वस
सचिवस्तरीय
▁आइल्यान्ड
64/feed
Î
87
chhan
एउटै
쏄
▁किल्ला
१)
▁आएँ
較
+%E0%A4%A6%E0%A
▁गुरुङ
विकासोन्मुख
▁दीगो
饭
B
▁चुन
▁रामपुर

▁हुन्थ्यो
ुभो
▁प्रतिलिटर
टू
咽
▁बुक
ﴼ
▁बनाइन्छ
दिनभित्रै
◎
▁पेन्टिङ
▁चित्रकार
▁शरद
▁एमबिबिएस
渍
अधिकांश
▁जताततै
▁डडेल्धुरा
▁झस्क
s:
Ǡ
▁दिएनन्
▁गर्भधारण
ठिकै
伪
▁सुरक्षा
ग्रो
▁साल्ट
▁एन्फा
▁गुमे
ȶ
▁पारे।
एमएस
▁चिफ
ョ
▁स्थानबाट
펒
▁असुल्ने
▁निखिल
▁मुस्कुरा
4%8F+%E0%A
赥
▁डान्स

▁ईकाई
पीएल
▁पुरुषतर्फ
▁कर्मचारीका
प्लस
▁चोपडा
%E0%A4%AF+%E0%A
▁ठड्याउन
जात्रा
कि
先
▁बोटबिरुवा
▁शनि
▁हल्लाए
शिवप्रसाद
▁प्रशिक्षक
खेतीयोग्य
▁ईपीएल
▁डुब्न
▁अत्याधिक
स्टार
▁सानु
▁तुल्याउँद
渔
税
▁छाड्यो
▁छुटेको
弄

▁ra
▁सम्प
0%A4%9F%E0%A5%8D
같
▁राधिका
▁ग्वाटेमाला
ۨ
▁पार्वती
ᇎ
▁बटुवा
孔
▁उदयपुर
▁पुरातत्व
▁भण्डारीको
▁संसारमा
▁कंडेल
▁जन
▁उफ्र
विपरीत
▁शक
ܘ
柄
▁सतर्कता
▁शीर्षकमा
11/
ꊳ
५
▁विदेशी
मुक्त
話
실
ग्य
▁दुष्
汽
▁बताए ।
▁सिम्खडा
▁माइक्रोसफ्ट
秉
▁विश्वविद्यालय
ʾ
▁ब्यांक
उत्कृस्ट
▁party
ほ
4%9D+%E0%A4%
ェ
ỉ
ส
▁प्र
▁हिंसा
स्तरबाट
▁नाप
यौँ
▁गर्नका
▁लागुपदार्थ
∘
▁वर्षको
news/development
々
▁फर्ज
हेर
याेग
▁जिरो
ƥ
▁मोबाइल
only
妻
▁देव
汁
▁छिराए
▁सहमती
▁भीर
▁सभाध्यक्ष
क
▁अवसर
▁घर
▁बुढानिलकण्ठ
▁रामेश्वर
▁खसीबोका
▁श्रेष्ठले
▁फोहर
߲
񪺟
危
Β
▁बिडम्बना
▁रहेछन्
अप्रिय
▁गराउँदै
▁नगर
▁आवाज
▁बुढामगर
▁वाइवा
▁विन्ध्यवासिनी
▁जन्ती
ე
▁आउनेछ
▁जोर्डन
▁ख्रीष्ट
पुटी
▁तिघ्रा
le
▁आत्म
रहन्थे
क्रमिक
▁ठेकेदार
vi
▁पथ्र्यो
▁देखाएको
नेस
▁(म
▁संक्रमण
▁कैदीबन्दी
२/३
멘
ˠ
ή
▁जाला
0%A4%B2%E0%A4%BE
सहभागितामूलक
▁विक्रमासिङ्
▁फर्कन
सुन्दर
विधि
▁इनिङ्स
▁सडकमा
査
ְ
वटै
▁समर्थन
▁सखुवा
ाइरहनु
▁चार्ज
▁चाहि
▁९७
▁बुझाउनुपर्ने
विन्दु
▁मिथ्या
▁रोकेको
▁पढेलेखेका
▁बताउनुभयो।
बापत
▁घाईते
▁भ्यान
黄
昧
爆
▁बिर्से
▁पुर्या
▁महाकवि
▁भ्यागुत
ٹ
द्घ
▁महाभारत
jana
▁देहाय
▁कार्यान्वयनको
▁प्रकारको
▁हराउँदै
बहुप्रतिक्षित
▁अझै
▁इन्टेलिजेन्स
¡
҆
सक्छ
ɷ
मेल
▁अर्घाखाँची
▁हिँडे
▁वृत्तचित्र
▁मन्त्रिपरिषद्को
–१३
▁स्वशास
गम्भीर
▁घटाए
勿
▁२६
▁मित्रता
ǀ
▁पाइरहेका
▁साँझ
Ѡ
▁फेटा
▁class="f
डब्ल्यू
东
भैंसी
▁जित्दै
▁जनवाद
▁भन्डार
▁मान्य
च्छ
ꠒ
रुकुम
▁काभानी
▁माध्यम
▁सिक्री
▁गुराँस
समूहगत
▁प्ले
▁उम्रिए
▁सङ्घ
ち
▁सेल्सियस
▁भेट
ǥ
店
▁टप
▁विकसित
▁क्रिसमस
ù
宿
टीए
▁वेश्या
ाइल
रासस/एएफपी
奇
箭
▁जले
▁नाका
Ʃ
त्यसबारे
▁रक्तश्राव
😪
॑
ҷ
▁इसारा
▁गैह्र
▁अभिभावकत्व
खुट्टे
्चर
▁जानुभयो
नगरपालिका–१२
▁अनुमति
▁२०११
▁गुडाउन
▁लाउने
▁दीपाश्री
起
२-०
841
򎐃
꧜
महान्यायाधिवक्ता
彩
族
岐
#comment-830
▁लेखि
▁चर्किए
▁गाला
▁बालगृह
▁२०
▁छिचोले
უ
▁सम्मानित
▁८
ൢ
富
%E0%A4%9F+%E0%A
सेन
२०२३
१९८७
education
ვ
ाएकी
▁निकाल्दै
һ
▁नं
▁हुन्छन
▁पुत्ला
ه
ʸ
▁काँचो
जेन
▁भविष्य
▁महìव
लाई
देब
▁चिनिन
+lai+
▁बेल्जियम
▁चिडियाखाना
理
765
▁बार्दली
唆
्वाय
▁रवैया
2018/09/705
भ
ir
click
्जे
担
मरी
▁ताप
▁चाहने
▁अन्त्यतिर
बढी
《

▁पाउनेछन्
▁बाँफिकोट
रहेको
▁गाँस
怀
▁शुद्धिकरण
▁घन्टा
▁हर्षोल्लास
▁साधनहरु
▁राजु
▁बनाउँदा
0%A5%AE+%E0%A4%
▁लापरबाही
▁फर्किरहे
▁सासू
令
歧
▁यस्ता
भदौं
58/feed
ीय
▁राहदानी
▁मौलाए
请
뺧
▁रमिते
न्ती
▁समिति
▁फोक्सो
A
financial
掉
후
▁लिओन
dress
으
wonderful
▁बहालवाला
▁सर्वस्व
એ
强
त्मक
▁उपाध्यक्ष
▁डी
▁भारत
▁जनाए
▁सुनिता
0%A4%95%E0%A5%87
白
▁५९
底
▁ठे
▁चिलिमे
clear
▁महालक्ष्मी
床
लाग्नुभएको
▁दशौं
▁टिका
्यान्ड
绍
सहर
ພ
▁माइत
हेरेँ
降
no
▁सहसंयोजक
▁उम्मेद्वारी
ߵ
▁फाफुरा
▁सहि
तलेजु
खाप
गाउँमा
七
▁खोसिए
िन्छ,
पाती
▁सुस
Ċ
UT
▁मन्जु
▁खलंगा
ear
▁प्यालेस्टाइन
follow
थ्र्यो
氓
▁निर्णय
▁उच्चस्तर
▁टिप
▁जाल
ַ
▁एफएम
烠
구
जिर
▁बचत
चित
वृष्टि
▁युवाहरू
▁नि
▁प्रजनन
▁लिंदै
र्बाध
ग्रे
▁दिक्क
▁जनाइन्
/५
▁निक्र्योल
▁तिहार
▁क्व
▁खम्बा
▁जगदम्बा
ula
रिस
▁होस्टेल
▁सुरक्षामा
▁भिड
▁सेकेण्ड
खुला
֫
▁स्विकारे
▁गएको
▁कलेक्सन
ड्क
0%A4%B8%E0%A4%A6
▁इमान्दारिता
ओछ्याउने
▁विकिरण
▁डीएनए
伝
▁सगुन
▁गद्दी
▁भारु
00
删
▁अस्ट्रेलिया
▁गराउँछन्
▁सोध्छन्
👧
▁९,
▁खस्द
ზ
▁गुजारा
😶
﮷
洋
▁ओसाका
▁उजुरी
▁र्‍याप
ღ
▁पर्यटन
▁विर्तामोड
5%87%E0%A4%AA
'bout
▁त्रिपुरेश्वर
१९९२
▁सोधेँ
▁गोताखोर
रुपमा
▁निस्कन्छ
▁हेरविचार
▁आममानिस
संगठन
content/-3
▁सरकार
must
▁भुषाल
ten
▁'अनि
6</span>
▁देखियो
ऐलानी
▁देखिरहे
▁साम्राज्यवाद
▁(आइ
ァ
▁सुँघ
▁पुडासैनी
called
बर्षीय
▁शोक
चपेटा
▁टाँस
▁पुष्पलाल
िड
▁नबिल
प्रति
िन्दा
▁टोखा
▁विद्यालय
भित्रै
▁प्रतिपादन
लिइसकेको
િ
वासीलाई
▁ललिता
▁ठम्याइ
颗
▁रौनियार
झन्डै
िस
चेतनशील
news/editorial/
गाउँ
न्दु
▁कुलपति
ओ
समर्थन
िफिकेसन
▁डिआइजी
क्षेत्र
▁एक्सप्रेस
▁लगाव
la
▁वली
साइड
仍
▁मासु
▁बिमस्टेक
त्
▁संस्कृतिको
除
2/07
▁सद्भावना
ț
▁वर्गीकरण
ऑ
.....
𽩞
造
सिलसिलामा
▁महशुल
▁छाडिदिए
▁गरे,
▁लगाएको
</span><
▁पाइए
रक्षात्मक
▁खड्ग
ú
▁लफडा
▁धनुषा
▁६९
हाँस
경
▁७४
चेट
▁केसी
▁कठोर
▁सदा
हुनेछ,'
▁विलासिता
銢
▁मिलि
पाई
៍
फिल
؋
▁चेल्सी
iya
▁पश्चात
▁२०६६
▁कव
4%AE%E0%A5%87
▁माइक्रोबस
ीएको
愕
▁पाएको
सचिव
▁भन्छन्।
▁निराकरण
▁पुगेँ
्‍यो
▁गाउँबस्ती
▁औसत
▁मछिन्द्र
繁
▁जानुपर्छ
鉴
▁विभूष
>
कम्तीमा
▁लाङटाङ
▁मेकानिकल
▁'मि
⃣
▁जना
▁चोभार
▁माहिर
▁थाहा
▁बर
▁दिँदा
▁रामजी
िमस्टेक)
ाउदै
fa-
्रम
▁re
ӡ
管
這
適
वल्र्ड
▁यार्सा
जोग
▁बस्नुपर्छ
▁फर्कंद
▁भयो।
▁पोल
▁शान्तिनगर
ुङ्ग
▁माहोल
ŕ
▁समारोह
६)
▁शक्तिहरू
▁नाघ्
▁थुना
ߦ
▁गएँ
६४
▁श्रीलंका
चि
▁इंग्लिस
▁गंगालाल
▁ग्रिड
Ŵ
▁गठन
▁अहिलेको
५-०
▁"एक
▁अगस्ट
▁संवेदनशिल
तिरै
▁दार्जीलिङ
Ż
맞
食
▁चैत
▁दीपावली
एजेन्सी
२०३८
▁चुनिन
ʞ
▁प्रविधी
▁अल्पमत
▁संकीर्ण
सेट
▁नार्कोनन
1/
:४५
ߜ
▁भन्छन्–
4%BE%E0%A4%B5
ǡ
▁हिँड्नु
▁भेनेजुयला
+%E0%A
约
४९
▁निश्
सास्कृतिक
▁समयसापेक्ष
▁नीति–नियम
▁जनाउन
ག
्ाा
श्री
▁नहुनु
▁पहिर
▁खुसीयाली
▁१,
ѯ
5%87+%E0%A
▁आचारसंहिता
ायर
ेशन
▁रेफ्री
▁खाम
▁प्रांगण
कृति
▁कलाकार
ശ
▁पर्ला
▁प्रचार
ँदै
▁फाल्गुन
▁आकाशमा
जल
प्रज्ञाप्रतिष्ठा
▁फाल्गुनन्द
俯
▁डिभिजन
▁तीव्र
▁जनविश्वास
–१९
更
▁थप्दै
內
▁बन्धन
▁कर
▁२०१७
▁प्रताप
त्कार
▁आइपुग्यो
पिङ
▁मार्गदर्शन
▁सिरिया
興
戏
▁उपनेता
4%B9%E0%A4%BF%E
▁क्षेत्रमा
▁खराब
▁पूर्वसन्ध्या
▁टेलिग्राम
▁संघ
▁उपाध्यक्षमा
▁सम्राट
पाउँछन्।
▁बस्नेत
▁"ब
▁लेख्दा
▁निजीक्षेत्र
वीर
站
▁कम्युटर
▁भण्डारी
▁पक्का
▁बलियो
िक
▁छरिए
😞
Ŧ
पीओ
म्ब
4%8F%E0%A4%B0+%E
▁जलबिद्युत
गान
भञ्ज्याङ
▁अनियमित
▁महोत्तरी
गन्ज
▁पठाइएको
देखिएपछि
▁झ्याल
▁इनार
ξ
▁उपस्थिति
क्षेत्रगत
ɸ
बैंक
▁लगाइयो
盧
▁थिइनँ
▁विपत
0%A4%88+%E0%A4%
▁तोडिए
म्बा
▁विरासत
▁प्राधिकरणका
▁यातायात
पत्नी
ोग
¼
▁रमाइला
共
Dis
▁प्लानिङ
▁गुड्ने
ोमो
▁फुट
▁ब्राण्ड
핕
▁पञ्चासे
ाहकमा
पाठ
%E0%A4%AD
नुदिन
況
▁पहिचान
▁अनलाइनखबर
▁पेशा
old
▁थिङ
्यालय
▁गाउँपालिका
नाले
گ
▁डकैती
ộ
जिव
▁कामरेड
फेदी
▁गैरजिम्मेवार
第
▁औषधालय
क्रिया
▁टेण्डर
▁सार्वजनीक
बस्तु
▁एपिएफ
अहँ
राधे
▁बैंगलोर
▁प्याकेज
Bank
मणि
▁फ्यान
▁प्रेमिका
시
指
浕
▁बिबाद
4%BE%E0%A4%A8
▁लिलाम
▁असहयोग
▁नगेन्द्र
Υ
▁प्रत्यक्षदर्शी
▁फ्रान्
▁ठाउ
▁सैन्य
4%BE+%E0%A
▁२३
▁खाँदै
त्यत्रो
未
醋
▁बन्दरगाह
▁अञ्जु
▁die
▁बोलेको
छेक
💐
सामान्य
洲
▁होइन
▁स्वतन्त्र
▁बन्दोबस्त
▁हीरा
詩
▁उत्तरपुस्तिका
▁पौडी
▁जनवादी
▁गाम्
4%BF%E0%A4%9F
娱
質
▁जोडिएका
▁आदी
current
....
▁बगर
점
▁दैनिकमा
▁पितृसत्ता
%E0%A5%8B+%E0%A
ಳ
▁शान्तिपूर्ण
ߒ
׾
▁पढ्नुहोस
▁टाइटल
▁ह्योल्मो
´
▁धोए
▁वच
थुन
▁पीपीए
▁सार्वजनिक–निजी
िरहन्छ
▁शल्य
indow
au
▁पायौं
▁रोयटर्स
▁भइदिए
▁बताउने
带
▁करार
▁वटै
▁काठमाडौंको
श्रीमान्–श्रीमती
서
▁हेर्ने
channel
▁मेनपावर
填
꯫
2018/11/719
▁गोल
Ǌ
११
▁अभिन
▁१६०
a,
▁नेतृत्वकर्ता
नेटो
परम्परा
ता,
ाइटिस
🌿
गर्दै
क्रम
बाज
4%BE%E0%A4%81
▁सहानुभूति
▁सुम्पे
▁अन्यत्र
▁काउण्टर
▁प्रश
▁स्तर
हरूका
▁मौल
ず
▁मयूर
▁इच्छाकामना
0%A4%95%E0%A4%B8
▁पहाडी
▁चाहिने
पट्टि
▁(अस
ҽ
▁किटाणु
▁गाढा
▁लगायतका
दृश्य
▁मान्छेको
펥
▁विद्या
▁लत्याए
争
▁so
–२०७५
ंदै
▁श्रेणी
▁सुमित्रा
ペ
बर्धन
ट्वेन्टी
▁थाल
सप्लाई
շ
終
जोरी
-१०
▁इन्टेरियर
688
ेस
秋
▁ग्रह
娴
संँग
ye
ট
▁संस्कृति
▁इंग्ल्याण्ड
ǰ
▁यमन
▁मिठास
▁दिन्छौं
▁ग्वार्डिओला
▁आउँदैनन्
ष्टर
▁परिपूर्ति
▁मोरोक्को
ʔ
बहादुर
उनकी
टे
ɿ
▁आइसके
▁त?
▁सकिन्थ्यो
▁क्यापिटल
▁आत्मघाती
糇
▁चिच्याए
्त
▁उन्मुख
ˈ
겠
▁वाग्मती
yo+
律
▁कुर्
就
फिन
▁आमा
S
▁विभागले
वर्षायाममा
ल्स
▁कार्यसूची
न्यायपूर्ण
पृथ्वी
診
▁बि
▁सधैं
▁बाह्र
▁आइपुगेका
了
िदिने
▁आईतबार
▁बस्
▁लाटोकोसेरो
余
क्रि
▁बिजनेश
▁भवनमा
▁पुग्नु
घुलन
सि
▁०७२
購
▁भनाई
▁पारिवारिक
▁जग्गाधनी
▁मास्टर
▁बहुउद्देश्यीय
▁रंग
▁स्याटलाइट
भिक्षुणी
▁जिद्दी
▁तोड्न
4%BE%E0%A4%B9
១
▁समाए
4%AF%E0%A5%8B+%E
news/corporate/1
▁सिलिङ
▁कन्सल्टेन्ट
▁परमप्रभु
▁अधि
एक्स
▁परा
▁सप्त
钥
ad
▁लिङ्क
क्वार्टरफाइनलमा
▁अर्थात
रोजगार
▁याङवरक
정
▁वेद
▁गर्नेछौं
▁गृह
चाहँदा
駆
▁बा
▁अवधि
▁sarkar
▁दोहोरिए
偷
▁समयसम्म
▁चतुर
सूचित
▁गर्छौं
▁२००९
▁भारततर्फ
Ԏ
▁याद
▁चीर
▁पर्यटन,
▁कत्ति
इङ
▁ब्रिफिङ
ە
ޔ
៊
및
▁सेमिनार
59/feed
ն
직
▁निर्माणकार्य
▁छैटौँ
์
▁नाटक
▁लगाउँदै
惑
▁चौपाया
right
▁जोड्दै
▁पर्फेक्ट
▁सुदूरपश्चिम
हर्ष
▁बिश्व
▁कालोसूची
▁साङ्
見
▁होल्डिङ
▁धनगढी
▁राजधानीको
ཁ
▁प्रिमियर
藏
▁सीमांकन
ाएर
唐
ԓ
▁गोरखा
pl
▁आन्ध्र
▁लगानीको
top
▁'सा
▁सार्वभौमिकता
瓶
🏦
छाप

▁गाइ
▁गर्छन्।
▁बादशाह
磨
▁सालको
▁अड्क
कल्याण
▁धिताल
लाजमर्दो
▁क्षेत्रफल
ک
精
▁पछ्य
▁हस्ता
▁त्यसैले
へ
▁ओभर
▁८००
73/feed
▁आफूहरू
पिएस
ाइन्थ्यो
▁बितिसके
news/country/
2018/12/727
ɒ
운
꣕
ง
मुख्य
http://
रहने
ポ
▁हो,
धेरै
覇
▁हस्तमैथुन
▁बेखबर
पञ्चमी
बस
▁कसले
▁नगए
नाकाबाट
बाजे
碎
펭
ث
▁रह्यो।
▁जुटे
▁'प्रधानमन्त्री
血
▁सीमा
ɐ
▁पदमा
▁सुरेश
▁राजोपाध्याय
▁घटाउने
海
̛
▁०७०
▁बाध
nish
▁रहेकाले
वर्षीय
▁अनलाईन
▁छाति
ᤛ
▁जापान,
क्रसकन्ट्री
सकेसम्म
▁गइसके
▁22
▁'बि
निर्जीवन
हन्छ
ड्ढ
▁जेरुसेलम
▁व्यस्तता
टाइफस
▁सप्तरी
▁दिनुभएको
विद्यार्थीहरुलाई
਼
혜
▁च्यालेन्जर्स
▁तत्त्व
▁टंक
िंँदै
▁जुध्न
्यौली
▁अभियानको
▁पिता
▁चिप
साय
▁रोक
▁खाई
▁आत्मनिर्भरता
▁खो
压
▁पूरै
भौगोलिक
त्रिशूली
▁आगो
दायक
▁राजीव
Download
मिडिया
▁मजदुरहरु
Ï
̹
o
ϼ
ӑ
▁पचाउन
▁भन्नुहुन्छ
▁शिक्षाविद्
ॅ
▁पाँचतारे
▁गोबिन्द
ṅ
▁एसोसिएट
▁बिहीबार
▁हो'
▁घुम्ने
▁अदुवा
▁च्याम्पियनसिपमा
▁थियौं,
th
ָ
▁खुल्ला
4%BF%E0%A4%AF
▁खान्छ
׿
थरी
▁गरिसके
▁लाम
१९८६
▁छुर्पी
׎
सेस
超
▁व्यापारघाटा
🌻
▁काँकडभिट्टा
▁नलाग्ने
▁मरि
▁दिउँस
▁इमानदार
▁मात्रामा
▁देशलाई
one
▁अत्यावश्यक
samachar/
▁रु.
▁केन
▁पदम
िदिन्छ
▁एडीबी
▁फैलियो
▁समक्ष
▁बिक्रेता
春
▁भइसकेका
▁सामाखुसी
▁छाड्नु
▁स्थलगत
▁भुपेन्द्र
▁टावर
▁गेम्स
Ĩ
▁बोलाउन
रण
▁मन्च
▁अपेक्षा
061
0%A4%A4%E0%A4%A8
▁व्यापार–व्यवसाय
▁प्रस्ट
▁महासेनानी
杂
剰
ۉ
▁रीतिरिवाज
घोष
▁सुपारी
▁तालिवान
▁कँडेल
तार
यातायात
▁नआउँद
▁बाँचेका
्छ,
业
ܻ
कारा
朕
क्वा
熊
▁करोडौं
भि
वृद्ध
▁साउथ
嶗
񄂇
ुङ
ga
▁जिताउन
▁मान्न
ӎ
▁कहिँ
▁जनप्रतिनिधी
▁कसै
चिभमेन्ट
▁मेशिन
▁बेलाबेला
ौनी
▁गुमनाम
▁जनाएको
▁ट्रान्सपरेन्स
伏
▁मुचुल्का
भिजन
एयर
▁मनाइदै
傜
▁सुधार
2018/09/703
ﾉ
▁खटाइए
फट
▁पुछार
▁इन्भेष्टमेन्ट
▁छुट्टी
लक्ष्यअनुसार
¸
यो
इन्
सिटी
Ύ
▁क्यामरा
हुँदा
America
लाङ
▁भारतमा
▁धन्यबाद
▁सोलार
▁मध्यान्ह
▁लैजाँदै
%3F
▁गहिरो
पोल
आंगिक
▁प्राथमिक
▁गाईघाट
122
鞭
ڒ
▁दिउसो
术
ѷ
▁लक्ष्मी
Ʒ
पित
▁आयआर्जन
▁जुगल
news/author/
Ը
納
▁माध्यमिक
▁चन्द्रपुर
▁पढाउने
ted
▁उपयोगिता
㰝
िना
激
▁पत्ता
▁स्वयंसेविका
दैछ
▁घटाइए
▁एक्स्पर्ट
紧
故
▁बुझेर
▁आँट
जिल
▁नवरात्र
▁हाँक्ने
▁समेट्न
▁ग्यारेन्टी
▁वृत्त
▁समूहले
뱻
???
hoto_feature/201
असंवैधानिक
▁बाग्मती
▁निदाए
▁चुपचाप
▁एग्रिमेन्ट
▁निति
जाइ
ٛ
▁रहन
▁करेन्ट
▁कमै
लट्ठी
▁मापदण्डअनुसार
▁एकाप
0%A4%B0+%E0%A4%

▁सकिन्न
4%AD%E0%A4%87
▁टिकट
▁मारिने
सबैजसो
सम्बन्धबिच्छेद
ाङ
▁समातिए
▁दूरसञ्चार
NC
▁नछो
▁छैन।
▁एच
▁बुझाय
▁नबुझ
▁रत्नपार्क
निक्कै
▁अन्तरविरोध
ंक
▁निस्क्रिय
प्रशासक
%E0%A4%B7%E0%A
▁खडा
elt
▁बुझ्छ
▁लेखिसके
भरिएका
▁विषयहरु
ń
ਵ
▁२००५
▁आर्शिवाद
▁रहेनछ
▁अर्घ
▁कक्षाकोठा
▁गर्यो
पूर्वाधारमन्त्री
▁स्थितिमा
実
most
शिष्ट
▁सुरक्षा,
हँु
वाट
▁स्याङजा
▁ल्याइयो
▁शर्मिला
5%81%E0%A4%B2
▁प्रदिप
▁दूरी
▁लिङ्ग
▁भैरहेको
▁विश्वकपमा
▁नाकाबन्दी
▁समयमै
िनी
▁पुराना
▁थान
▁अनिता
▁लाप्राक
▁समर्थ
▁पाइसके
存
墜
▁पाउडर
▁के
▁फर्किने
▁नेम्वाङ
ै
▁लेनदेन
figure

▁एरेन्ज
२९
▁हेमराज
▁सू
ゅ
▁सेवाका
▁बटुले
name
78/feed
▁अर्व
ँदैन
ভ
▁क्लब,
ޝ
▁सेलिब्रिटी
▁समाजसेवी
/१२
▁महाराष्ट्र
34/feed

ܓ
4%B0%E0%A4%BE%E
याँ
▁पानीको
cha
▁गर्न
▁जिल्लाको
拜
लाइन
▁कृषकहरु
▁सुनील
गङ्गा
football/17
या
▁अनुपम
मधुवनी
▁'मिस
위
▁वडा
▁साबित
▁प्रभुत्व
नेकपा
प
▁त्यसपछि
▁बसाई
犬
▁पशु
▁महोत्सवमा
▁उत्पादनको
▁हालिए
▁(माओवादी
4%AF%E0%A4%A8
01
वाई
▁बस्तु
▁रितिरिवाज
Ә
ใ
▁झल्किन
▁बाँकी
dc:creator>
▁१४०
▁नल्याए
mit
4%95%E0%A5%8D
▁दीर्घ
▁लज
▁टेलिसिरियल
纯
▁ह्यारी
251
▁साँठगाँठ
▁शिक्षाको
▁जड
दायरामा
▁सि
▁दूध
सक्तैनन्
▁दुगड
▁योगदान
▁चारवटा
▁नामिबिया
▁अवरोध
▁आमाबुवा
▁चाडबाड
▁इन्डोनेसिया
▁रोजिन
▁प्रतियोगिता
▁ईन्टरनेट
▁कुटाकुट
4%95%E0%A4%AE
È
ǧ
एकलाख
聾
酶
भन्सार
रूपी
▁स्तुप
▁उत्प
▁निम्ति
lement
ό
▁बढ्दै
05
कम्पनी
भूपरिवेष्टित
茶
▁मन्त्रालयमा
▁तै
ƫ
▁वाल
▁बिरामीलाई
▁सेन्चुरी
ܗ
▁आठबीस
▁मिठाइ
▁पुर्वाधार
▁प्रत्यक्ष
what
▁काठमाडौं:
▁नपाइए
Ƶ
▁साम्य
▁आउँछ
▁वीपी
▁अधिराज्य
▁लेकाली
जू
Ŏ
▁सुनाउने
圈
▁म्याग्दी
▁उपदेश
▁महराले
▁नमस्कार
हम्मे
容
ॽ
▁उत्सुकता
▁टक्कर
▁सनराइज
▁नराखे
▁सुधीर
rl="https://www.
▁सुशिल
慢
㩪
भरि
▁मण्डली
▁बुने
▁बाटोमा
▁शत्रु
ीया
▁रसिद
▁खुसियाली
▁धामीझाँक्री
▁ओसार
▁खत्री
▁राष्ट्रवाद
्याम्प
▁खोल्सा
▁दिइयो
▁पाङ्ग्रे
䯻
▁दोषारोपण
惚
आई
▁गर्छ
▁करिश्मा
घ
▁प्रतिनिधी
यथेष्ट
▁एशोसिय
单
刘
झै
▁वाइडबडी
▁हुइँक
सुन्तली
ᷠ
5%8B%E0%A4%A1
्स
द्ध
▁क्लिन्टन
▁भन्यौं
मीटर
बहिनि
▁जाँचबुझ
▁पेसा
ate
▁मेडिसिन
ぴ
▁'ह
▁नाबालक
▁अस्विकार
䙑
▁मनाङ
त्ति
▁पाचौ
滨
▁टीकाटिप्पणी
▁चट्टान
▁चौबीस
角
अन्तर्गत
भन्दा
▁फेला
ऱ
▁गण्डकी
football/36
▁लिबरल
uilt
ួ
▁जाँ
लोकबहादुर
▁मध्यपश्चिमाञ्चल
▁नगरपालिकामा
▁सतह
अद्वितीय
▁अधुरो
▁पन्थी
▁ब्रेक
▁अनुभवी
संरक्षण
▁चलान
‏
賞
▁कोटेश्वर
google.com
▁भाइबहिनी
▁आर्
मन्क्री
▁बिना
4%A8%E0%A4%A4
▁समितिले
▁नास्ता
▁खन
मिनेट
▁रसाए
ắ
▁विकासमन्त्री
প
सेवा
▁इस्
▁फैलाउन
▁बढाउँछ
+K
▁वाक्यांश
▁युएस
सल
2018/10/715
एफए
▁शिक्षा
▁पराल
▁बुलन्द
ूत
֛
▁चेन्नई
संगत
0%A4%AD%E0%A4%8F
ប
</s>
▁अंग्रेज
▁दम्भ
▁एकरुपता
▁उसलाई
सिंह
▁राजन
▁चलाउनुपर्ने
Dhara
▁(नेपाल
▁क्रियाशील
▁शमशेर
▁लाँडो
▁मेलवर्न
▁लगानीकर्ता
१
▁विछोड
4%AD%E0%A4%BE
▁असहिष्णु
ें
▁उपलब्धता
▁Ri
勲
दिर्घकालिन
▁दृष्टिले
▁आम्दानी
न्जी
▁सार्ने
▁धातु
▁बैंकर्स
▁ट्रान्समिसन
차
▁पत्नी
▁वार्ड
55
futsal/
▁जित्यो
▁डुबे
football/23
▁परेपछि
▁खानु
▁रोमाञ्चक
▁नटुंगि
▁बिताए
9/05/13/15577
▁न्युजिल्याण्ड
▁गैँडाकोट
▁चुप
▁पालामा
▁सुशान्त
▁मामाघर
मुग्ध
▁शैलीमा
he
वाणी
4%A6%E0%A5%80
▁पुष्ट
धनको
ڰ
▁गीतकार
▁aa
ाओस्
▁तमोर
▁सोधें
▁जु
学
विभेदकारी
▁जोत
▁प्रमाण
जिया
लिनुभएको
4%B0%E0%A5%87%E
▁पेश्की
▁बचाउने
▁P
ڷ
▁गुरुयोजना
업
ist
▁साकेला
▁आमन्त्रण
▁अन्वेषण
▁खैर
ए
▁निर्बाचन
▁रेमिटयान्स
अर्जुननरसिंह
▁सिँगार
▁१९७०
▁कोदालो
▁ताजिकिस्तान
！
甚
≡
▁दिइने
याङ
▁हिक्मत
̓
행
何
▁अल
▁लोकप्रिय
▁क्लिक
س
树
▁चारैतिर
▁प्रज्ञा
▁दिनदेखि
▁सावित्रा
▁भिडियोमा
▁यातयात
번
▁उपप्रधानमन्त्री
जान
▁देउखुरी
ά
꺂
थो
ोङ
ल्फ
ाईएको
▁धनबहादुर
呀
तुङ
▁<
羊
कोट,
धनी
ߧ
▁निजामती
मध्ये
▁थुनुवा
攝
ꦱ
▁गाउँपालिकामा
貴
▁उद्
▁मागदाबी
▁तपस्या
▁मिनाहा
櫿
2019/04/754
▁परिवारका
腐
him
▁अनलाइन
▁पुग्नुभए
25/feed
處
ल्याएपछि
▁पेल
ago
▁आउटलेट
▁रोगहरु
▁ओछ्य
▁कुटनीति
रेस
я
football/32
▁इनिसियटिभ
▁अष्ट्रिया
֨
▁माछा
्याइ
ޒ
▁शुक्रकीट
脐
▁पैदा
▁फ्रेस
▁हतार
ount
▁त्यस्तै
▁पारदर्शी
▁व
▁बिजुक्छे
स्थान
ސ
▁विद्यमान
鬡
ɋ
▁कुण्ड
▁ल्यापटप
▁सम्वोधन
▁नपाउँदा
▁मुक्त
ļ
HE
▁अचम्म
▁जनाउँछ
▁क्याच
鉄
▁गर्छ,
Ӈ
▁टे
▁बोल्न
▁न्यूनीकरण
ग्लो
▁मतभेद
费
▁थपे
▁दियौं
▁सपना
▁दुर्घटनाग्रस्त
▁पेप
ئ
ͤ

ko+
▁किरिया
+%E0%A5%AB
颁
▁प्रतिशत
▁राजसंस्था
▁रहनुपर्छ
#comment-5
2</span>
▁आइ
▁थियौ
▁जेभी
▁पोर्टल
▁कसर
㣙
ܼ
▁काग्रेस
घटना
▁संघ–संस्था
▁व्यक्तिको
राजकीय

▁रुमाल
锻
्चे
▁बढ्दो
ও
֓
thi
▁यूएस
▁हट्न
雑
ग
जीले
%2C%2C%2C%2C%2C
▁बालकोट
▁परिचर्चा
▁दलको
ڳ
▁first
▁हरियाणा
appreciate
鶏
कार्यगत
》
Ա
▁us
▁गर्छु
फाई
매
▁दिलाउन
कप
局
▁हाई
▁निष्ठा
▁(आ
▁दुस्मन
宝
▁विमर्श
態
सम्मत
ツ
▁हृदयघात
बरा
▁जिन्दावाद
퇻
▁टेलिफोन
▁गर्ने,
▁उदेश्य
▁सुदिप
पु
नवनियुक्त
अपेक्षाकृत
▁प्रजाति
कुन
誇
▁हानिकारक
▁संस्कृत
▁म्याड्रिड
▁प्रहरीलाई
▁वाषिर्क
▁विधान
▁ओमप्रकाश
▁फालिए
▁उत्रिन
मार्पmत
▁चाहानुहुन्छ
▁हुनुहुन्थ्यो
▁घरभाडा
▁नियात्रा
え
▁मुन
너
4%B6%E0%A5%8D%E
डक
%22
YO
▁इन्भ
▁la
%2C+%E
▁एयरलायन्स
܁
▁होहल्ला
須
▁कुर्नुपर्ने
शारिरीक
ुम्बा
/2016/07/45
▁लुटपाट
▁हेरी
शा
▁रा.प.
▁कराँते
懸
▁सोधी
खरो
▁भौंतारि
ाउछ
▁घटनाहरू
2018/05/678
▁उत्तराखण्ड
▁उपविजेता
इन
उपलक्ष्यमा
▁३५
विमर्श
▁भनौं
▁'ब्रेक
▁बन्दै
ׁ
▁गरिब
पानी
▁भोजपुर
▁गर्दे
ĉ
जगेडा
▁बैं
▁दिपक
▁पुनर्निर्माणका
लभ'
▁उप–
०६५
19
▁किनारमा
丟
4%A4+%E0%A4%
▁मानवअधिकार
▁घोर
संरचनाअनुसार
呆
ம
▁सहारा
0%A4%AA%E0%A4%BE
92
▁शुभेच्छा
▁मिल्नेछ
&
▁भुक्तान
▁पाले
▁जापान
聘
▁हेर्छ
▁समाजवाद
▁सिमान्तकृत
▁गच्छे
च्चिकै
२.८
ꅕ
▁प्रमोशन
▁श्रमस्वीकृति
▁रहि
सुपरिन्टेन्डेन्ट
▁गर्नुपर्ने
▁चाहिएको
對
▁प्रचण्डलाई
▁पासवान
▁जटिलता
▁पकाउन
▁जितिन्
▁पठाइने
▁प्रोडक्सन
Գ
｀
▁भुर्तेल
▁पूर्णबहादुर
▁आउनु
/2016
▁स्मार्ट
▁फोर्स
▁एअर
ण्डो
▁लौ
▁नरक
▁मोटा
▁बन्च
▁बोलपत्र
2019/06/03/15595
घु
ޡ
त्व
71
vo
▁ho
▁जुलाई
ve
ħ
▁मच्च
▁भैरहेका
▁क्षेक्र
▁टर्
Ē
▁बस्नुभए
daina
प्रभा
▁दोस्रो
▁विकास,
▁Mar
▁समस्त
▁नेभ
टो
▁सन्तान
बन्धु
ԧ
▁काउन्टर
▁मानी
▁जेम्स
▁ओपनिङ
▁निकालिन
▁अनमी
▁हुन्छन्,
▁<lastBuildDate>
ासी
सीसीडी
▁अमानवीय
पट्टी
▁राष्ट्रपतिको
免
▁कम्पन
ნ
▁कुरो
त्यतिवेला
佀
परिषद
▁अनुमतिपत्र
सम्म
▁चलाउँछ
▁सुनियो
▁अयोग्य
▁बिकास
र्य
▁जानुपर्ने
凋
▁ब्रेक्जिट
▁गुम्न
▁नागबेली
एफ
अप्ठयारो
揭
▁पत्रमा
football/19
▁रोल
4%86%E0%A4%89%E
プ
पाला
牛
▁सेमिफाइनलमा
▁सयौँ
▁स्टेट
%E0%A4%B8
▁फणीन्द्र
Ӭ
▁इटालियन
शील
ˬ
▁आयाम
▁बैंकहरु
竞
៨
▁नेदरल्यान्ड
लु
▁नगरेका
▁एक्जाम्टेड
ṭ
ở
逆
थाल्दा
▁फुल्ने
▁अना
ⲓ
▁आएपछि
4%A8+%E0%A5%A4
days
▁भिसा
▁तिब्बती
▁फुटाए
▁बुवाआमा
▁छौं'
장
ު
▁गाडी
▁फ्याक्ट्री
当
▁प्रसंग
▁हाफ
हे
▁Off
सह
▁बिराए
▁उल्लेख्य
kha
आधा
▁पुँजीगत
議

63/feed
农
됩
▁मनोवैज्ञानिक
▁निकासी
視
ܠ
▁'डि
▁आइपुग
▁जहाँ
▁गति
▁इन्धन
▁सम्बन्धी
▁ठम्या
▁एक्जियटा
▁बनाएको
▁आमन्त्रित
#comment-4
▁शान्तिसुरक्षा
34
end
डाँडा
्रे
▁समाजमा
लार्इ
▁अर्का
▁सम्झ
रहेछन्
(आज)
▁मावि
गिक
▁पद्मरत्न
▁नबन्ने
▁सम्वेदनशील
遥
▁स्वयं
767
▁प्रकाशित
▁नियति
▁फिल्म
▁कस्ता
ϲ
▁जन्मजयन्ती
▁सुर्
▁घोराही
▁कटौत
日
▁वनस्पति
▁शब्दहरू
pradesh
वर्ड
▁मनिषा
▁अनुष्का
▁डिस्क
▁जोडिने
ce
▁स्वर
щ
ɪ
▁'क्याप्टेन'
▁मच्चाए
▁शेर्पा
▁कुरुप
▁बिगाहा
泵
▁नोक्सानी
▁प्रजा
▁रोजे
▁अभय
▁विद्वान्
▁हिन्दी
ेछ।
0%A4%96%E0%A5%87
衃
ेरा
願
बासी
▁सवाल
▁भोगे
钟
▁आँसु
▁दबदबा
ӽ
登
त्यसबाहेक
▁शङ्ख
ข
पूरक
▁मनपर
Ҧ
륲
▁कैयौँ
▁पाइएला
▁पाचन
ʿ
▁छेत्री
▁माथि
▁underst
▁राजाराम
▁गुरुङ,
▁बनाइरहेका
▁भ्यालु
▁मनोज
दिएकी
दास
थी
▁बेथिति
▁लु
kripa
▁अन्योलमा
亡
▁किसानहरू
▁महामारी
ाउदा
हेक्का
▁पुर्जी
police
▁उज्बेकिस्तान
识
▁प्रश्नमा
売
▁हुंदै
َ
▁पार्टीको
▁गण
▁बसुन्धरा
▁यात्रुहरु
트
▁But
대
ांक
ѫ
▁बदला
▁टुङ्ग
▁थैली
▁प्रधानमन्त्री
▁अस्पताल,
▁निश्चित
▁आध्यात्मिक
▁राज्यले
荣
▁जादै
▁पाख
▁कदम
हिम
▁कालापानी
▁सेफ्टी
▁दिए
偏
▁प्रस्तुति
▁धरहरा
ाउँ
▁गइ
▁बृद्ध
▁मिश्रित
▁मेलिना
▁बडादसै
▁९३
रुपान्तरित
▁सदस्य–सचिव
▁फरक
▁व्यक्त

▁सरल
▁अन्ना
era
▁श्रृजना
▁डेस्क
▁उठाउनु
%E0%A5%AA
▁विद्वान
▁पारदर्शिता
द्
ठ
62
Ƥ
▁प्रेसर
▁बैज्ञानिक
▁लाग्छ
ञ्ज
▁घोडाघोडी
夫
▁न्यून

▁प्रसार
रुण
इबोला
्थ्यौँ
▁जलजला
▁अवस्थित
रोह
▁टाठाबाठा
▁थर
द्वारा
डिङ
▁विपश्यना
▁गहिरिए
ुहोस्
▁वियोग
▁झमक
Л
之
▁आसपास
֚
▁मुलुकभर
जेन्ट
▁अगुवाइ
户
▁मेसी
▁सम्पूर्ण
▁डंगोल
▁गराइने
▁तापमान
▁'मन
–बेला
day
app
▁फस्टाए
35.html">
햇
news/interview/
号
उ
र्तीजन्य
拆
▁आउट
्कि
▁ब्रिटिस
प्या
ᝳ
स्वकीय
▁स्थानिय
▁आक्रोस
पोखरा
Sharma
▁चुहिने
▁निराश
▁प्रकृति
▁भान
▁जयराम
▁चुके
्याए
▁भत्किँद
८५
▁ममी
▁लोकमार्ग
▁छाता
8
▁सिचुवान
कमसेकम
gen
▁नेपालमै
#comment-825
▁चमक
陕
▁हेल्प
🙁
▁अस्वीकार
▁छेड
▁उर्ल
▁०.
▁इनिङ
ढुङगा
नीले
जबसम्म
ў
▁श्रीवास्तव
▁मिल्दो
叶
िरा
▁कम्प्युटर
▁एक्लै
ឹ
देखि
▁मैनबत्त
▁थिएन।
ङ्
۱
भाषी
ဗ
जम्ने
▁साप्ताहिक
जनिक
0%A4%B0%E0%A5%87
▁सर्बसाधारण
ս
贸
▁सेटिङ
▁बनाइदिएको
नभएपछि
喺
▁जाली
側
अक्टोवर
▁उम
स्रोत
▁झर्ने
▁इजाजतपत्र
मला
߰
▁सुप्रिम
%E0%A4%A8
4%B2%E0%A5%8D
れ
▁संश्लेषण
▁व्यहोर्नु
▁सानीभेरी
▁डार्क
▁सुविधा
▁६१
▁'सी
▁पूर्वाञ्चल
▁अभिनेता
▁महत्त्वपूर्ण
ദ
▁चिरा
बर्षअघि
▁तोडे
एक्जिम
यसैगरि
▁बिक्रम
▁सुशीला
▁नक्सापास
नियोजित
▁पक्ष
▁प्रकट
▁उपयोगी
▁अठार
▁खाद्यपदार्थ
몸
▁पिए
▁हुदाँ
▁जिप
ጛ
▁पुर
>T
Љ
▁रेडक्रस
फ्ट
▁लग्यो
दिए
च
▁आयल
米
▁म्युजिक
ί
▁झर
न्ड
▁फर्केका
▁खने
▁उपेक्षा
▁भाँचिए
5%8B+%E0%A4%
˱
▁संदेश
▁थपे,
▁मच्चाउने
▁पाउनुपर्ने
▁कठायत
डेढ
▁अन
▁मन्सुर
▁सर
▁जिल्लाबाट
▁कम्युनिस्टहरू
▁निजगढ
▁'संघीय
online
概
enerator
▁विवेचना
▁भएका
▁असन्तुष्टि
साफ
😔
+%E0%A4%86
ꕄ
विवाह
▁भाइरल
▁खुवाउन
▁सन्नाटा
▁बूढी
▁नियमावलीमा
▁गरेर
▁ड्युटी
▁चाल्र्
▁मुकेश
▁जोङ
महाअष्टमी
वाही
जोखिमपूर्ण
ौली
lot
सहकारी
▁गर्यो।
cricket
–काठमाडौं
▁सोलुसन
लागे
▁खटे
▁जेसीज
▁बालबालिकाहरु
▁तीर्थयात्री
▁व्यवस्थापन
▁सच्चा
▁रुकुमकोट
즣
0%A4%95%E0%A5%8B
5%A8%E0%A5%A6
▁शेख
▁कुँवर
▁शिक्षकहरु
▁गुटबन्दी
कृष्ण
▁उदाउँद
football/45
▁आवश्यक
▁राज्यको
▁अनाथ
▁न्युनिकरण
▁बुढाथोकी
▁किसान
▁हार
▁pra
प्रमाण
▁सृजना
▁चोकमा
▁किमी
▁एम्बेसडर
ԫ
▁स्वावलम्ब
ाहा
▁आईटी
▁कराए
滋
▁नगरपालिका–२
▁चिने
पुरमा
▁खेपे
▁पढ्न
▁वेला
▁मल
पायक
▁लागिरहेको
▁स्वस्तिक
▁बैंकहरू
aru
✅
बन
▁धेरै
ڮ
-७
▁समसामयिक
▁अमरसिंह
▁किसिम
▁वार्तामा
ต
cld-count-wrap">
ुरी
▁टिप्न
▁एनजीओ
मातहत
▁एलिना
ाइदिएको
船
▁पुगे
器
सरस्वती
ैपर्ने
▁गराएका
▁बीमा
▁फाले
▁टेप
⚠
刮
ʜ
्रेस्तेदार
▁गरियोस्
▁धकेल
▁दृष्टिविहीन
▁म्यान
▁डेटा
साच्चै
28/
▁फ्युजन
▁ध्रुव
▁कार
Ϊ
▁सम्पादन
▁फूलको
▁एब
▁पश्चिमा
▁अक्टुबर
▁हिस्सा
सुर्तीजन्य
▁चाङ
▁दीक्षित
▁तत्परता
?]]></d
एसपी)
▁दूतावास
सक्दा
▁प्रतिक
▁वहु
牙
+with+
▁पुग्नेछ
▁कोसी

ⲕ
惧
ाउन
View
▁भगाए
▁चि
नाकानी
▁मलेसिया
▁समालोचना
चुनाव
▁राजनीति
▁उपयुक्त
▁निष्क्रिय
4%B6%E0%A4%BE
▁मन्त्रिमण्डल
▁लिएर
▁धरा
नैतिक
ँदा
▁प्रतिष्ठित
▁प्रतिवाद
सङ्
▁help
0#comment-
큉
வ
▁मुगु
government
▁खल्ती
▁निर्वाचन
▁बजेदेखि
▁कालिकोट
२०३३
▁एलोपेथिक
六
▁निरञ्जन
▁श्वासप्रश्वास
泊
▁निस्कन
▁आक्रामक
नौ
ru
बजारमा
▁कालो
▁'मु
▁हाक
is
पिपुल्स
▁तिलाठी
4%82%E0%A4%B8
स्थानीय
&nbsp;
ɾ
步
▁डोर्‍याउन
▁तपाईंहरु
▁टेम्केमैयुङ
모
▁बाइक
▁बहुमतीय
宗
▁घार
▁अनावरण
ჩ
▁यसका
▁चुनौतीपूर्ण
रोज
▁अमलेखगञ्ज
▁विरुद्ध
▁'घटना
▁थाले।
▁विजुली
चौतर्फ
▁'सबै
▁sp
▁सिलिन्डर
拳
▁महिषासुर
▁ढल
▁"आ
ग्ने
किम्फ
現
▁फुटबल
▁अभिभावक
▁गार्ड
▁विष्ट
▁चलिरह
हेलो
뢽
▁संस्था,
might
क्सवागन
▁बेबी
▁उनीहरुलाई
▁'ओ
▁प्रहार
▁बिद्युत
▁कमिशन
ੁ
भीषण
▁तिर
▁लहड
▁आश्
ƙ
▁भानु
roma
ј
ट्स
ݛ
02
▁प्रतिनिधिमण्डल
▁रमाउन
▁चुकाउन
▁तपार्इ
▁सङ्क्रमित
랩
मी
▁लक्षित
▁समृद्धिको
लो
ΐ
▁गरें
▁राना
–ठूला
▁टीकाराम
▁०६२
०६२/०६३
▁(सी
▁बुहारी
▁बीए
▁थि
ង
ۇ
忌
疲
▁गरौ

्किन
▁ब्यवस्थापन
▁भाका
सक्दो
मर्यादित
▁चिकित्सक
▁एमाले–माओवादी
▁चौधरी,
▁हुँदैनथ्यो
δ
▁पाकिस्तानमा
藵
ठा
स्टाइल
▁लाभदाय
अनु
预
▁सत्तामा
▁नील
▁अडान
▁जनसरोकार
▁सेन्सर
▁आर्सनल
▁झेलिरहे
▁इन्दु
▁देशका
मिसेस
0%A4%B0%E0%A4%BF
▁गराउनुभयो
सिल
▁दृष्टान्त
%E0%A4%A4
▁गुरिल्ला
▁व्यथा
4%95%E0%A
ܵ
ȭ
णी
ʤ
▁चल्यो
▁रक्सी
◊
合
ܹ
▁लगाउने
football/6
▁खण्डकाव्य
▁हताहत
ः३०
野
▁मेहेनत
観
पर्छन्।
▁बन्नुपर्ने
▁हतियार
▁दरबार
▁हाम्रै
▁मन्त्रीहरू
मान्यताप्राप्त
हाले
▁दर्जा
▁भुँडी
▁प्रतिरोधी
▁इञ्जिनीयर
▁निर्मात्री
限
談
▁समुद्घाटन
ბ
▁व्यवस्थित
▁बालविवाह
ट्र
▁रोशनी
▁दुव्र्यसन
膜
沉
ൽ
▁त्यसै
▁व्यवधान
दिवस
▁बाह्रै
बिरुवा
शो
▁उडिरहे
▁बहिष्कार
▁रामबाबु
सैनिक
苏
▁भलिबल
▁हैकम
विजयकुमार
説
▁क्रम
▁वर्षदेखि
▁सुगम
▁आश्वस्त
चार
墅
ख़
閲
▁दिवा
▁सविता
▁सल्यान
साँ
स्या
Ϯ
ݸ
▁आदिकवि
云
蚀
समय
अनिश्चितकालीन
ek
▁कम्बोडिया
बिस्तृत
▁अवस्था
▁नर्सरी
▁प्रतिव्यक्ति
पूर्वक
5%8D%E0%A4%B0
अग्रस्थान
kaam
खराव
▁निभाए
समुदाय
Read
संवाद
▁स्पोर्ट्स
कार्ड
«
▁हट्ने
Ծ
▁गौतम
▁अधिकारवादी
पक्ष
▁बोरिङ
▁स्तरीय
▁जेसु
▁वि.सं
众
NRN
मंसिर
薢
▁द्रोण
▁कोर्न
▁ल्याउन
जिम्मेवार
티
▁मिरा
▁मीन
চ
அ
▁कुबेत
521
▁निमावि
ヨ
▁हानाहान
Ր
ts
տ
श्लेष्मान्तक
閉
खल
▁टाढ
news/society
▁न्यायालय
ý
│
▁लडे
▁निन्दा
체
▁व्यक्तिहरू
▁ग्यालेक्सी
▁kina
वाण
孟
▁जनता
▁सबैले
▁बग्न
▁विद्यार्थीको
जिना
▁सुम्पि
▁छोरी
䢩
▁क्षेत्री
▁रोजगारीको
旱
▁विद्यालयहरु
4%B2%E0%A4%BE%E
▁ट्रयाक
▁रोमान्टिक
▁सुनको
च्छिक
ʋ
▁पारवहन
4%BE%E0%A4%8F
▁काटिएको
▁नाला
ꇯ
Ͷ
▁(यु
夕
ियन
▁माथिको
तारा
▁महिला–पुरुष
स्क्वास
▁तोडफोड
<s>
ݡ
▁मन्दिरमा
मापदण्डविपरीत
▁शत
▁जोत्न
▁हनुमन्ते
▁खरीद
डीसी
▁number
वाल
"
कालमा
▁डोल्पा
गि
▁सावधानी
०
▁क्यामरुन
▁सिताराम
ान्वित
▁उतार–चढाव
▁बहिस्कार
▁रेमिटेन्स
परे
▁लोगो
ᤱ
ǆ
▁गौतम,
키
ந
+%E0%A4%97%E0%A
32
▁हव
▁चिली
▁विदेशिने
▁साडी
▁गरिदिन्छ
विद्या
▁हेमन्त
पुराण
▁फेर्न
▁सेवा–सुविधा
ュ
̷
र्ब
▁दराज
▁फलानो
▁स्थगित
▁"स
▁पार्
प्रकार
▁'संविधान
ड्ने
सहित
▁उत्तम
▁***
ȑ
ぬ
▁बां
▁पुन:
▁रामचन्द्र
▁व्य
-२
睄
▁प्रपोज
▁२०४६
हाम्रो
▁युरोकप
冷
▁गरिए
▁लाइन
%E0%A5%A4
л
▁गहतराज
▁मर्यादाक्रम
▁इनिसिएटिभ
▁खगेन्द्र
▁समानुपातिकतर्फ
▁जन्म
▁कोहि
▁घाँसे
▁जनशक्ति
▁राप्रपा
▁खोजेका
▁चौतारा
▁प्रतिनिधिहरू
4%BF%E0%A4%A6
▁रात्री
쉞
▁पुरै
▁रोमान्च
%E0%A4%AE%E0%A
▁हिंसात्मक
璃
▁पिरामिड
ᱱ
哔
तेल
९२
ाला
▁इङ्ल्यान्ड
▁गतिविधी
▁औपचारिकता
▁नृत्य
▁बाँडफाँट
વ
▁पखेटा
▁गाडिए
若
▁वक्तव्य
▁नदेखिने
▁05:2
送
▁खोला
會
▁७२
▁केन्द्रिय
विप्लब
▁वर्षात
▁थिम
▁लगाइएका
▁सभापतित्वमा
▁कनिका
▁बलबहादुर
՚
▁योजनाकार
▁लालीगुराँस
4%BF%E0%A4%AE
▁दुर्इ
▁सप्ताह
लाभ
▁नातिनी
चिकित्सक
▁बोसो
ﲥ
▁एकआपस
pos
▁बुधबार
0%A5%AB%E0%A5%A6
<a
Η
'आयोग
▁गुरागाई
74
▁प्रतिवन्ध
봉
▁मतपेटिका
▁सुवेदी,
荒
मुन्द्रे
न्य
पाद

კ
ഗ
〟
▁चौराह
Ƨ
▁रू.
▁जगत्
▁स्वस्थानी
ఓ
拡
▁बन्दुकधारी
देन
邸
▁बुलबुल
ӵ
竟
kal
▁टेक्सास
߱
▁स्क्वायर
▁कमेडी
▁बुटिक
▁चिठी
▁विज्ञ
▁साट
#comment-823
▁ग्लास
▁व्यानर
▁ओम
▁घरजग्गा
निङ
▁बर्मा
0%A4%A8%E0%A5%81
ey
Ӑ
३–०
▁फिनिसिङ
▁माक्र्सवादी
▁केन्द्रीत
ฟ
乾
▁करियर
▁वजन
▁प्रादेशिक
▁बाहिरिने
▁कृषि
▁रू
▁कहिलेकाहीं
▁ठान्ने
▁साबिक
खोर
▁बलर
211
'यदि
वातावरणमैत्री
▁शुक्रराज
▁खल्बल
▁दरभाउपत्र
▁ऋतु
▁भारोत्तोलन
🇮
▁दोलखा
–१७
▁निस्सा
▁बदली
▁भने,
▁प्रवृत्ति
▁आँप
▁आर्चाय
▁भिड्ने
😠
गैरकानूनी
ಶ
मात्र
हूँ
▁बुढ्यौली
ਂ
▁संख्यामा
ۗ
खो
▁धर्ती
िष्ट
▁भूमिमा
/
▁नाडा
跌
▁आभास
्ति
नायक
ौं,
▁बुढ
▁आउनुपर्ने
▁मर्ज
▁दैवीप्रकोप
ึ
腕
▁नतिर्ने
▁स्वदेशी
▁सिप
▁नआउँदा
कारण
▁गर्थिन्
▁मोवाइल
पुर्ख्यौली
▁संघर्ष
▁संसारभर
6.html">
ल्या
▁नबुझाए
忙
▁थपिने
pra
▁आऊ
पुरी
2019/05/765
▁कठ्ठा
▁मैतीदेवी
▁बनाउनुपर्छ
ीत
▁२०१२
▁मह
▁दुर्लभ
पखाला
▁अगाडी
▁जाँदैन
④
▁बैंक
2005
ॆ
˰
▁अरब
▁निर्भर
ुस्,
▁२०७५
▁लायन्स
▁संचार
न्तर
▁मिल्छ
▁प्रतिस्पर्धा
▁तान
▁ठूलाबडा
▁खोल
Ӝ
दरबार
▁आकर्षण
▁पछी
4%97%E0%A4%A4
781
킸
▁खार्पुनाथ
▁जीवनको
▁भोगचलन
अवैध
▁ग्याजेट
▁नदेखिएको
宣
▁पुग्छन्
墠
्याउँदै
▁पाइ
▁साइड
▁बनाइयो
llo-sukrabar/201
▁निजामति
▁परनिर्भर
然
▁केन्द्र,
इङ्लिस
▁दिगम्बर
▁टिकाउ
▁लामाले
ound
in
▁गौरव
%E0%A4%B8%E0%A
▁कुट
our
▁पूर्ण
off
▁उपत्यकामा
▁प्रदुष
कन्दरा
巴
བ
ाउँछ
▁तालिम
▁धड्कन
पूर्वअर्थमन्त्री
˸
▁होला?
▁सविधान
तम्
▁मानबहादुर
▁रावत
▁नदिन
ö
나
िहरु
Ϣ
게
▁राउत
▁कलाकारिता
▁उपर
▁छाडेको
▁०७:
▁तिम्सिना
～
蜂
▁गाउँको
▁आजै
▁वृद्धभत्ता
▁१४
▁कि?
ƒ
▁विहिबार
▁'निर्वाचन
▁डाइभर्सन
自
߈
▁अनुमोदन
͵
▁कोइरालाको
▁देवता
▁कार्यलय
७९
एकदमै
▁कमला
▁हुनेछन्।
▁धुम्बाराही
▁घरायसी
न्ह
26
冬
▁उदारवादी
▁रुसी
よ
नेपाल
▁बेहुली
▁शताब्दी
▁रिफर
޿
▁नागरिक
4%9D%E0%A5%88
▁दलका
▁भेडा
▁वाई
▁छाँया
▁एकपटक
▁एकदिन
▁उठ्छ
▁क्रिम
ऽऽऽ
▁गढ
Ӵ
応
▁रङ्ग
▁निकास
सूर्य
▁गंगा
▁डरलाग्दो
▁हेर्नु
▁गुनासा
+ha
▁उपमहानगरपालिका
▁सक
▁class="
&amp;
फोर्ड
▁मौखिक
0%A4%B5%E0%A5%8D
货
▁ड्रिम
g
佛
▁जो
पौवा
▁रसुवागढी
बेस
▁उजागर
▁लिभिङ
#comment-770
▁जीर्ण
▁ठोक्किँ
मादकपदार्थ
政
▁रुचि
▁वर्षभित्र
▁देखाउने
▁निर
▁जनह
▁टिके
ले
▁मितव्ययिता
赛
▁डरलाग्द
▁बदलिए
▁पर्छ
▁पुनः
0%A4%9F%E0%A4%B0
Ѥ
बापतको
▁अष्ट्रेलियामा
▁कुद
▁चेपाङ
Department
壤
ाऊँ
608
▁प्रतिकेजी
गृहस्थी
▁हानी
▁वर्षा
66
奉
खेत
▁सारे
पटक–पटक
▁कार्यतालिका
▁दमाई
content/-
▁फिर्ता
सिंगो
▁बढद
에
ん
থ
+is+
▁राम्री
से
▁झरी
ᤓ
▁२०६३
▁09:5
塞
▁आरोप–प्रत्यारोप
▁भद्रकाली
▁पुर्‍याउने
▁'घर
어
➧
▁जालसाजी
▁चोरे
comment
▁एएफसी
▁ह्याक
▁साट्न
0%A4%A6%E0%A4%9B
²
थेग
▁चतुर्दशी
效
▁विमान
秒
📢
▁भिन्न
सिवाय
झो
▁ग्रिन
▁मस्त
▁भुसाल
▁आठराई
▁खेल
䣰
▁सञ्चालन
88
▁समारोहमा
ૌ
▁ज्याकेट
▁वरदान
▁ढकढक
▁राखेको
▁सिध्याउन
▁गर्नुस
▁उत्साही
▁'रो
पी
🖕
▁पूर्व
mesh
0%A4%B8%E0%A5%8D
▁बुद्धिमान
▁२००२
नुपर्ने
▁ब्यवसायी
▁हेर्न
विशेष
↑
👌
▁दिँदैन
▁कन्स
लज्जास्पद
▁पशुपति
हुँदैन,'
▁अख्तियारी
बीच
▁प्रेममा
܂
et
क्यु
▁अपडेट
▁हनुमानढोका
▁पाथीभरा
▁लगन
▁क्याप
4%99%E0%A5%8D
▁सिंजा
▁कमाएका
▁कमिसन
▁अनुसन्धाता
▁भा
▁थेग्न
▁तपाईको
▁निर्मित
问
▁स्थानमा
▁धन्य
▁बर्ग
▁मिया
75/feed
ll
峰
▁भत्काउने
ʯ
些
パ
+%21
#comment-783
▁एजेन्डा
▁अन्जन
▁अस्पतालमा
ƞ
霍
托
▁शो
िस्केट
▁गोल्डेनगेट
विहिन
155
应
ो
ेली
▁मूर्त
▁कार्यान्वयनमा
▁एशोसिएशन
▁आइसकेका
分
▁गरिँदै
कृपया
▁थिइन्
▁आमसभा
▁लखेट
▁नरुचाउने
स् थ
पर्ूण्ा
्याउँदा
ܸ
▁अमेरिकामा
▁रनवे
ⷙ
▁सिर्जनशील
▁नचल्ने
ガ
▁उस्तै
▁भाँच्चिए
型
赢
ڑ
桌
▁कसैलाई
गोठ
▁आश्रित
ism
架
▁अव
▁च्याम्पियनसिप
▁भोकमरी
हँ
쑔
計
▁दीपक
▁परराष्ट्र
ꍱ
▁कोलम्बो
▁बाल्ने
▁एलजी
्रु
▁बुलेट
▁काका
नौँ
▁बगे
Bhattarai
▁सम्पर्क
गुलाबी
भए
ਇ
ur
▁एकअर्का
Š
▁स्वरूप
▁नभई
▁वैद्य
抜
▁बिबाह
▁ऐनमा
▁महानगरपालिका
फरक
▁गर्छौ
▁योजनाहरु
▁वि
▁रक्षा
▁चिठ्ठी
at
Communist
設
Asia
߫
蓋
Ş
­
֖
न्,
莉
चलचित्र
▁थाल्नुभयो
लगत्तै
हाङ
▁भैरहवा
▁भन्नु
⊗
▁सुन
給
मिटर
▁क्रेज

▁प्लास्टिक
▁क्रु
▁न्युन
▁विलासी
廊
▁सकेन।
▁पञ्चायतकाल
टीसी
<br
▁नगरकोट
▁फाल्न
ピ
▁अह्राए
4%BF%E0%A4%95
Dr.
▁राइनोज
▁जंगल
দ
संक्षेपमा
आउदा
ਦ
▁लाक्पा
कालीन
▁दूताबास
▁दक्षिणपूर्व
▁श्रृखंला
विलास
ap
▁मुठभेड
दर्श
▁बिन्ती
युद्ध
पुगिसकेको
أ
▁मेक्सिको
仓
ـ
▁वस्ती
▁मुलुकहरु
्याउने
J
▁गाउँपालिका,
▁पदपूर्ति
丵
्याइएको
▁कम्पनीलाई
▁प्याक
▁सीएनएन
▁अंशबण्डा
줍
When
ाचार्य
ٚ
▁चर्काचर्की
▁सापकोटा
À
ޭ
स्वदेशमै
▁ताइवान
प्रद
▁पर्नुपर्ने
4%B0%E0%A5%87
ឯ
घनमिटर
▁पुज
▁उक्साए
▁सिपाही
▁मंच
▁अव्यवस्थित
pre
▁अड
▁बोलाइ
40
习
ذ
▁महिनौ
▁हैनन्
▁त्यहाँका
एलए
▁ब्याट्सम्यान
4%9F%E0%A
򜮖
䡛
▁जफत
ल्ड
▁बोल्ड
游
▁मिलोमतो
啦
▁कार्टुन
वल्लभ
▁रक्त
▁व्यवासाय
ेश
जहाँ
समीक्षा
▁डाटा
ल्ने
▁एसियाड
蹭
납
4%AD%E0%A4%8F
わ
बिध
▁ठग
▁देखाए
▁मिलियन
भू
सामू
▁फो
▁हेडक्वाटर
楽
≠
▁सुरुवाती
▁छोप्न
ぶ
ڽ
▁नोमिनेसन
▁विकृति
▁दुईवटा
▁बिजोग
▁झुम्
▁ओमान
हीन
0%A4%98%E0%A5%81
▁पुष
▁पक्षहरू
▁नेक्स्ट
▁चल
豆
▁फुकुवा
लंघन
4%95%E0%A5%88
▁पाइन्ट
▁धवलागिर
च्न
▁झैझगडा
▁बसन्तपुर
कृष्ट
▁अजरबैजान
चिकित्सा
गाम
सले
▁अर्थशास्त्री
ाउँने
字
परेकी
चुने
▁पार्टीहरु
▁जत्ति
▁भासिए
▁प्रारूप
▁निरक्षर
▁भागबन्डा
᎟
4%A7%E0%A5%81
▁यथास्थिति
▁गुन्ज
死
हत्ते
printedition/

ផ
परम्पराअनुसार
▁रेष्टुराँ
▁थेसिस
▁मान्ने
▁कैय
👻
▁ठग्ने
▁जापानी
ढी
▁"अ
▁तौलिहवा
बैशाख
▁दोश्रो
जीवन
▁पिताजी
%2C

▁खण्डीकरण
0%A4%B0%E0%A5%81
Christian
ँग
▁पल्टिए
8</span>
▁रोबोट
▁समझदारीपत्र
ᤢ
▁शक्तिको
-१९
▁काण्ड
४.६
▁ग्याँस
▁डुड
▁can
▁सिट
यन्त्र
आइसी
▁काठमाडौंका
▁उल्लंघन
▁कार्ल
회
▁आवेदक
56/feed
園
▁बेच्न
▁बुँदा
',
week
▁सविन
िनु
लग्न
ƃ
▁सुवास
ियम
दिइन्।
▁सम्बद्ध
▁काला
▁गर्दछु
▁na
video
▁पोलिटव्य
▁घट्टेकुलो
߽
▁नारायणकाजी
▁आवेग
▁अभिनय
▁फोटा
▁सहकार्यमा
ˣ
▁प्रेसिडेन्ट
▁बट्टा
▁सम्भावित
facebook
▁पत्याए
▁गोलभेंडा
▁भोग्नुपर्ने
▁ग्रन्थ
ney
ڈ
१/२
״
▁जर्ज
–रसुवागढी
贊
▁लोकसभा
▁मैदानमा
▁खोलिदिए
筋
▁पुख्र्यौली
助
د
▁निराशा
▁पुग्यो
▁प्रविण
▁भिक्षु
폿
v
ぜ
▁डर
▁हो।
▁पन्च
AYE
▁सेल्टर
補
▁सर्वसाधरण
र्ट
▁अम्रिसो
eko
▁बुन
愛
नोभेम्वर
粧
▁जमानत
▁ऋ
<![CDATA[S
嘉
▁इन्स्टिच्युट
▁'हामी
▁पटेल
停
兄
ȡ
▁कार्य
ortal
▁मत्स्येन्द्रनाथ
▁राज्यमन्त्री
▁लवज
▁ल्याइने
▁भनाइ
▁फुड


્
यी
▁परिक्षण
ज़
▁ग्रीन
र्पा
▁रम्भा
▁जिल्ल
Ӥ
▁आर्यघाट
▁नवदुर्गा
▁जबरजस्त
४-०
ल्कुल
猫
▁अल्
▁अनिश्चित
▁टोकाइ
▁धार्मिकस्थल
बित्दा
▁दाउफिन्स
離
हरुमध्ये
DI
者
▁धुर्मुस
ब्यापी
▁रवाफ
▁पचास
बखत
बल्ल
What
ږ
▁छुट्याए
򊼱
할
मार्फत
黨
कतै
▁बुद्धिमानी
់
ɽ
▁रेमिट
ŋ
릭
सित
टहरा
िन्छ
▁अनुष्ठान
▁रुपैँया
唱
▁थप्ने
▁बझाङ
▁श्लोक
▁त्रिवि
ō
▁बेलुकी
f
▁देख्छ
धार्मीक
▁इ
▁तेक्वान्दो
欲
▁द्रौपदी
▁संरक्षक
▁महादेश
▁उपेक्षित
▁उँभ
▁आलोपालो
卜
▁इन्टरनेशनल
ښ
ഥ
▁(२०
䒛
–अ
碳
▁निर्माण,
▁घुमघाम
▁चलाउँदै
we
%E0%A4%9D%E0%A
▁स्वाभिमान
隆
▁एयरपोर्ट
स्ट्री
宠
▁बास्कोटा
▁गते
▁लुगा
▁साम्
त्यसयता
▁भनें
▁तात्काल
▁च्यालेन्ज
ϣ
▁भए।
Ԍ
▁कपि
▁प्रोत्साहित
ब्य
필
˭
▁थपलिया
्सा
▁कार्यक्षमता
टान
▁बाचा
न्छ
▁सुस्मिता
ाँस
▁संशाधन
▁चैते
हेरिटेज
贡
▁अर्याल
▁दिने
넓
▁साँच्चै
▁दे
न्डो
▁राष्ट्रसङ्घ
▁भाउ
विशेषतः
▁जलयात्रा
▁आयोजना
▁आशिर्वाद
卫
ថ
do
熱
间
▁मड्रिड
कल्प
2019/04/30/206
▁ठान्छ
s
▁वीरेन्द्रनगर
▁नफर्क
▁खवास
▁क्रिकेटमा
▁चोखो
▁जनभावना
▁औषधोपचार
蓮
ꭷ
हुँ
▁नाग
▁शासकहरू
▁दक्षिणा
▁सलमान
ac
▁विज्ञप्तिमा
▁भट्टराइ
▁सम्भावना
▁परिसर
▁'किन
पाइलट
▁पक्षले
▁निकाय
▁वृद्धि
▁थाल्न
馬
▁people
†
▁लिला
▁न्यु
▁एफ
▁न्यायोचित
्दी
▁पार्क
▁प्रसारणलाइन
▁रोपिए
Ｌ
सहयोग
▁गरेका
▁मस्र्याङदी
news/migration/
ⲏ
बहुभाषिक
漢
▁भिœयाउन
属
▁सम्प्रदाय
▁लठ्ठ
2019/05/767
▁बेचविखन
खोलामा
▁बडापत्र
▁केजरीवाल
4%B5%E0%A4%BE%E
विभिन्न
▁ईटहरी
वापत
बेगर
▁अल्छी
宏
🙊
腾
▁जवाफदेही
▁केन्द्र
▁छुट्टयाइए
▁घुम्न
鴚
0%A4%AC%E0%A4%A2
▁जीउ
सन्देह
▁बसिसके
पेट
ुःख
▁संघियता
हामी
▁भइ
▁विषयक
▁लुटे
▁पिरियड
रौता
▁चलाइरहेका
▁भन्छ
▁वर्षौं
▁शिवाकोटी
근
▁आत्मियता
▁काठमाडौंबाट
ुला
古
ᤏ
ݝ
▁पुर्‍याइ
▁लगाइन्
展
5%81%E0%A4%B8
▁टिचिङ
▁दि
▁'आफ्नो
खड्गप्रसाद
▁जुवाडे
怎
▁निर्
▁गर्नुपर्दछ
+gar
▁बनाइदिने
▁महात्मा
▁आरुघाट
潮
▁पोष्ट
ive
▁होराइजन
रातारात
कुमारी
▁२००४
ค
▁मुस्किल
▁राजमो
[
͞
Ε
मणी
▁छुट्याइ
ाइयो
फल
▁देवघाट
▁इक्विपमेन्ट
ถ
▁अस्त
▁ओभरमा
▁२०१९
▁रायमाझी
▁चौधरीले
▁डीआईजी
ाइरहन्छ
▁ढंग
̼
ۆ
▁हल्ला
▁नभएका
▁अच्युत
▁२०५४
68
▁कन्ट्रक्सन
Ҁ
र्ध
▁नेप्से
▁हार्मोन
▁चिया
गाछी
父
▁व्यवस्था
💥
▁तीनजना
▁ध्याउन्न
▁१९९८
▁कान्छा
▁गाविस
madhes
▁४००
ゲ
▁खोट
▁क्वाटर
0%A4%89%E0%A4%A8
▁अविश्वास
वादी
▁योग्यता
▁किबोर्ड
▁मैथिली
सक्न
मेरी
ف
绵
▁ब्याग
▁पुग्यो।
▁प्रवर्तक
▁उद्धार
▁ठुट
-up
▁रक्सौल
र्न
लास
▁अश्लील
▁उत्रिएका
充
▁प्लट
▁दिनभित्र
प्रताडित
▁विषादी
▁सस्तो
濟
▁ठम्याउन
▁महाधिवेशन
▁खेलहरु
▁पिट
विच
जिल्लास्तरीय
▁दलहरु
टेक्स
▁घर,
731
औ
बै
▁सरसफाई
%E0%A4%BE+%E
developed
˯
उँ
ǻ
बाल्यकालदेखि
▁उपकप्तान
बहाली
▁घाम
▁प्योङयाङ
▁मजदुर
▁स्थिरता
नगरपालिका–८
▁प्राज्ञिक
▁खोल्ने
▁फ्रि
▁पुगी
ԥ
▁चाँजो
▁सम्हाल
▁विम्ब
▁मुलुकको
▁तथ्याङ्क
▁भन्न
▁अस्मिता
२०३१
ក
ɳ
▁विलियम
4%B8%E0%A4%B0
▁'प्रचण्ड'
▁भविष्यको
▁पाटी
▁खच्चड
▁भेटी
▁समस्यामा
▁कृषकहरू
▁शिवपुरी
️
華
К
यदाक
만
0%A4%A6%E0%A5%88
▁अभिनेत्री
▁चमेना
隢
▁चरित्र
䶅
▁भाषा,
▁श्रृङ्खला
ݭ
▁तानिए
ाउँदो
▁पार्थिव
▁हाँक
″
▁'प्र
▁ताज
▁रथ
肪
▁उल्
尿
4%9F%E0%A5%8B
▁जादु
▁निहित
▁सामना
▁३.
ё
▁विष्ट,
纺
▁उत्ताउल
ঠ
▁गर्नुपर्दा
▁खोज्दा
हुल
影

ाइने
▁असली
ोधखोज
सर्वोच्च
इपिएस
▁बाबु
▁गर्नैपर्छ
▁कम्पनीहरु
▁पल्टन
▁अप्सन
▁पुर्जा
▁राहत
▁महाकाव्य
ฮ
ं,
▁कृष्णप्रसाद
▁प्रायोजन
▁शृंगार
▁साथ
69
थ्य
▁'ड
ರ
▁महत्त्व
वे
烈
up
践
▁रोके
▁छोराहरू
▁भारतको
▁मुसा
▁वस्तुहरू
核
际
▁'ग
ុ
时
ȵ
グ
▁भिडियो
एल
43/feed
तल
▁मकै
थाङ
▁बेकार
▁दाम
▁कांग्रेसका
ٳ
▁फर्क
▁विकट
▁थवाङ
पुग्छु
Τ
▁संसारको
टिजर
▁personal
▁खेलेका
▁गैरसरकारी
▁पुगिसके
▁बनाइने
▁कालिका

▁पछुतो
जन्मजात
▁भ्रुण
软
राखेकी
▁पारिदिए
▁तराई
▁संभावना
▁नुहाउन
महानगरपालिका
▁आज्ञा
▁तताए
ര
्मथलो
▁इंगल्याण्ड
▁मानिन्छ
ǿ
रुङ
▁चुनिएका
▁बामपन्थी
अद्भुत
妄
▁पोषक
▁परिक्रमा
▁जावलाखेल
▁संसारभरि
प्रिन्ट
▁बेहोर्नु
▁पोष
▁भरतमोहन
▁शान
भैरहवा
69/feed
▁जिस्क
▁शेयर
क्षी
▁डिल्लीबजार
▁ढिँडो
▁न्युरोड

्कारो
न्यास
관
▁आन्द्रा
▁प्रयोगमा
߀
▁रातमा
ｇ
ś
kopila
िदिन
▁म्यानेजमेन्ट
▁मास्क
▁कलम
▁बिद्या

🤩
▁सिरिज
▁बन्यो।
▁ni

▁झरे
▁सहभागितामा
याफ्टिङ
सङ्गत
▁द्वन्द्वकाल
▁भूल
▁सेवक
▁झुन्ड
¾
▁भरे
ʀ
▁थप्पड
मिनिस्टर
܋
िरहेका
यसकारण
ities
▁लगानीकर्ताहरू
▁प्रपञ्च
▁काट
▁कनिष्ठ
5%80%E0%A4%AF
कायमै
ਘ
आपत्कालीन
▁'यति
▁वडाअध्यक्ष
▁भइसक्यो
於
▁उन्नति
範
垲
▁नाम
▁सम्मिलित
पठाउँदा
▁घैंट
▁वटा
▁खाल्डो
▁ढाका
%E0%A4%A6%E0%A
▁दस्ताबेज
सक्नुभएको
मति
▁पुर्‍याउँछ
▁'इ
language
▁गुमाई
आयोडिन
▁हराउने
▁जनतासँग
▁छँदा
0%A4%AF%E0%A4%BF
▁दिइएन
शासन
▁बिनोद
▁अर्धशतक
▁नहट
▁विभागीय
▁फण्ड
▁योगफल
▁गराई
▁Ar
▁पशुपक्षी
▁नोकिया
▁नेताले
▁रहेछन्।
▁सुम्पिए
??
▁जलविद्युत्
▁थापामगर
2017/08/
▁असुल्न
▁हनन
▁कद
▁वी
र्थ
भान
最
▁आयत
😥
▁गह
▁तेह्रथुम
establish
▁कुहिए
べ
पाकिस्तान
▁जम्ब
🤦
딩
+%2C
原
Œ
▁सोझो
▁मुत्यु
▁लेखापरीक्षक
Ȧ
升
▁परमाणु
걸
迭
価
▁आइपुग्न
सांगठनिक
विराटनगर
▁सधै
▁रेणु
rit
पान
▁मुरली
▁छेक्न
दिशातिर
2019/05/17/15580
衆
▁सुजाता
ɛ
働
良
▁हेर
ुरे
▁केशर
▁लाइसेन्स
▁देखाएर
▁भनौँ
७२
▁अनौपचारिक
▁भूकम्पपीडित
▁गर्नुपरेको
유
▁म्याट
▁संस्थाहरू
%E0%A4%A0
१४
定
▁टेलिभिजनमा
▁we
▁विषयहरू
▁सिरियल
▁ko
▁महिनाअघि
▁मीरा
न्याय
▁पञ्चकन्या
▁भयो
▁पोग्बा
▁शिष्टाचार
कट्टेल
चाहिँ
금
भी
मृगस्थली
▁फ्याँक
如
▁०७३
▁बेक
pradesh-4/2018/
▁मल्टि
ﾟ
袜
▁धोती
ڣ
῟
݀
▁अन्तर्वार्ता
▁अनिवार्य
▁एक्सरसाइज
▁भल
▁sanga
👈
▁मेरि
ó
ɠ
▁परिवहन
शसस्त्र
▁दशमी
▁ठुल
386
06/
▁६६
शरीर
▁लैजानु
सरह
▁माहुरी
▁कप्तान
▁पथ
▁नजिकिए
आत्म
▁राष्ट्रका
Ԛ
▁महारथी
▁क्यान्टिन
감
▁अधिग्रहण
शिल्प
▁बोल्दै
▁गोपनियता
▁टाइम
▁संयोजक
▁डर्बी
▁किम्बदन्ती
▁तस्करीमा
▁२०३५
▁अब्दुल्लाह
▁फ्लोरिडा
प्रतिघन्टा
▁असिस्टेन्ट
▁प्रियंका
▁मार्ग
अस्पताल
▁प्रकृतिको
黒
▁फाइदा
▁धिमे
▁रहनसहन
▁प्राप्ति
外
▁नहोस्
प्रधान
▁समय
▁क्वा
谈
स्वरुप
▁​
▁जोखिममा
▁आयोग
सोग्गी
▁भेदभाव
담
▁राम्रा
तर्फको
嵪
▁शर्माले
▁गर्नुपर्‍यो
mod
▁भोग
▁कार्यकर्ताले
식
मल
▁दलहरू
▁स्विमिङ
😅
▁राख्ने
ܙ
▁ठकुरी
▁04:5
▁कोस्टारिका
▁नाममा
▁अटेर
🙋
ԛ
थ
200
मस्तक
ङ्ग
▁पुगेको
छन्
private
侧
&#8221;
▁सुपरस्टार
▁हुदै
▁सशक्त
▁पठाउनु
मोहन
▁चिल्ड्रेन
נ
肖
▁'न
म्बे
▁राख्नुभयो
▁लगानी
ν
徳
फाइनल
ात्मक
://twitter.com/s
क्ष्
▁एप्लिकेसन
▁कार्यविभाजन
射
▁मिलाए
ফ
ﭧ
߾
会
抗
▁आगम
प्रयोग
▁सुचि
खि
▁ईमान्दार
८६
▁पार्टी
▁उखु
▁खुलामञ्च
▁वाद्यवादन
박
गठन
▁चुहावट
▁आइपीएल
▁बनाइदिन्छ
▁फ्रिक्वेन्सी
▁अम्ल
ะ
▁सौर्य
८१
आन्तरिक
▁थलो
▁पुर्याउँछ
▁इण्डोनेसिया
뿐
सुम
सोनाक्षी
▁सुरुङ
▁पस्क
▁अं
प्रस्ताव
貌
▁कञ्चन
▁ट्युसन
▁सम्हालेका
▁मिल्क
निर्णय
▁अण्डकोष
岡
▁इन्डोनेशिया
03
▁चयन
रहँदा
▁महिनावारी
त्था
▁शाकाहारी
Қ
ር

got
▁दबाए
रूपान्तरित
श्‍व
▁डोटी
▁होमियोप्याथी
ِ
ਯ
घोषणा
▁बुझ्दा
स्ती
कुपिण्डे
▁गाउँदै
खुलाइए
▁दिलिप
4</span>
भास
▁चिन्तक
હ
▁सिस्नो
▁नामांकन
▁प्रेम
▁विजेता
मध्यरातमा
▁Bi
▁पाए
san
▁खोजिरहेका
अल
साल
▁डिप
ʃ
繁
؀
यसरि
Օ
▁न्या
▁एड
▁ड्रोन
▁जन्माउने
Ʉ
च्छा
िइसकेको
▁बस्तीमा
▁Su
▁रामग्राम
下
▁अन्डा
拝
▁लगाइएको
्हो
4%B9%E0%A5%8B
▁एमए
▁ठक्कर
▁वैष्णव
▁नेपोली
▁क्रिया
football/24
ۣ
▁टेलर
際
ण्ड
▁खाने

▁सिमरा
शुल्क
▁रुपान्तरण
▁सिलबन्दी
▁'कु
▁नतिजा
而
▁म्यासेज
ᤪ
▁प्रबिधि
▁विकेट
き
जनक
र्‍या
4%BE+%E0%A4%B8
हाबी
▁पहलकदमी
▁सकिने
एस)
▁महाशाखा
ाइरहेकी
तले
शासकीय
▁सुडान
▁आगलाग
▁चौडा
ST
▁नआएको
कृया
्टर
ﾧ
▁तिलिचो
▁यी
▁चुरोट
▁राष्टिय
कन्टिनेन्टल
希
▁अपनत्व
▁परिवारले
͝
᤻
आएका
▁भिजन
▁मुलुकका
▁हुनेगरी
0%A5%80+%E0%A4%
▁मदत
▁राखे।
▁युभेन्टस
ज्योती
▁बोस्टन
憎
▁ट्यांक
कलेज
▁खेप्दै
▁ठान्दै
▁अवैध
▁जितेका
▁ह्यु
ice
▁कुशल
212
सर्वसत्तावादी
▁स्टिभ
▁झिलिमिली
▁चौलागाई
▁फुयाल
薪
ਾ
▁तुइन
ेरिया
bal
落
.html#
˃
▁लचकता
साटो
▁निष्पक्ष
#comment-820
▁ज्व
▁एसिया
▁लगत्तै
बन्दी
आठौँ
ₒ
˧
वश
5%87%E0%A4%B9
▁मारवाडी
努
▁वढ
▁ताँती
▁फ्लोर
्दे
▁अपवाद
▁काठमाडौँमा
净
जु
▁रात
ँच
▁दुर
▁रचना
٧
▁अघिल्तिर
छेवै
豚
▁श्रीनगर
▁प्रतिनिधिसभामा
je
▁लभ
▁हसिना
ع
▁मानिसको
चरी
तोड
through
दु:ख
▁चौधरी
ीमा
▁२०४७
▁झडप
▁जडिबुटी
अभूतपूर्व
▁कोहलपुर
अघोषित
▁२९
▁बिबिध
豪
ڲ
Κ
👨
饰
▁मोडेल
▁गैंडाकोट
▁चाल्न
क्सी
4%B5%E0%A4%BE
▁मांसाहारी
▁H
▁एसईई
▁अकुपेन्सी
का
▁बोक्सी
▁गर्नुभएका
ल्लो
盐
鶴
बाली
▁फु
5%8B%E0%A4%B2
▁लागिपरेका
▁पाटन
અ
ͱ
▁भनिन्,
リ
▁पाई
▁किशोरावस्था
▁काट्ने
▁इन्फ्लुएन्जा
▁देवीदेवता
▁बिदाई
गिरि
▁इमेज
Ȕ
ק
▁हुदैछ
परेन।

刂
▁गुमाउने
वृन्द
▁भिन्नता
१९७१
▁किशोर
▁दुर्व्यवहार
과
▁राजेश
सुधारिएको
▁शंका
▁बालकृष्ण
▁अप्सरा
娩
िहाले
▁जुवातास
चाहिं
▁श्रीपेच
स्वेच्छिक
▁जिविस
セ
▁चुडामणि
विश्वेश्वरप्रसाद
4%BF%E0%A4%A8
omplete
▁मानिसले
▁मसँग
✓
्ट
▁कठिनाइ
▁उचाल
▁पायो
जेठ
▁लिग
▁मठमन्दिर
1</
ult
▁एयरवेज
▁ल्याइदिन
▁खनालले
▁दररेट
▁रहिछन्
▁घुमाउने
गोचर
नेपाल–भारतबीच
▁मिले
कुनैपनि
▁गराइनेछ
ਕ
݋
▁उभिने
दिनयता
度
ぐ
ọ
途
劇
ߘ
▁स्वार्थ
दोस्रोपटक
ाब्दिक
▁ठट
啪
ಕ
▁हो,'
▁नग
विरुद्धको
▁प्याराग्लाईडिङ
ޛ
▁भारतीय
员
५६
▁कर्पोरेट
क्वाटरफाईनल
▁'केही
▁त्यसमा
Ҕ
%
趱
बाट
▁नेटवर्क
ṣ
▁थालिहाल्
▁मत
दर
▁देखिन
▁काठमाडौं–
हेन
ेटरी
सामने
▁खोज्दै
लगायतका
▁अपांग
ाड्नुपर्ने
▁फुत्
▁स्वास्थ्यमा
▁गर्नु
po
葬
................
▁बिर
▁मर्यादित
▁लेखापाल
कट्टी
▁प्लेट
▁शव्द
ੇ
▁दुर्गादेवी
▁नागरिकहरु
▁तपाईँहरु
▁पठाइयो
▁पुर्‍याइरहे
िन्हो
76/feed
▁छन् ।
ight
▁लोकार्पण
▁बाँस्तोला
▁लाने
級
011
+%E0%A4%96%E0%A
▁रहँदै
▁गरेअनुसार
ुपर्दा
▁पुतलीसडक
▁दिनभरि
▁पीडित
財
😫
ގ
▁खाँचो
▁राज्यमा
▁छाक
▁बायोमेट्रिक
ܣ
▁कर्णबहादुर
▁बस
ल्यान्ड
will
दिँदा
▁पल्लो
▁सबस्टेसन
▁हवाइ
ꭝ
▁थबाङ
▁फणिन्द्र
▁इक्युपमेन्ट
牌
०६६
▁थुप्रो
▁परमिट
▁खेपिरहे
边
ំ
▁गुठी
khabar.com/?p=73
关
▁गुरूङ
▁कन्टेनर
▁सर्ब
ʠ
▁सहयोग
▁औषधि
▁हलमा
▁यत्रतत्र
扒
▁बनाइएको
▁पन्छाए
▁प्रतिवादी
▁कहीं
▁हिमायती
4%A4%E0%A5%80
Ӫ
▁पालन
▁जलविद्युत
▁बुझाए
4%AF%E0%A5%8B
▁खुवाए
▁नगरपालिका,
▁गर्यौं
▁निमुखा
पारि
२०७४
임
▁हुनुपरे
▁(१)
$
▁सिमल
▁तिलक
ence
戴
淇
▁सम्पत्तिको
▁बोल्छन्
▁नभइ
▁राजनैतिक
▁कि
▁सफल
▁ताकि
ud
17/
▁कमान्डर
▁पक्षपोषण
▁युक्ति
ाउादै
▁छाड
▁भोलि
्‍
▁भय
▁आपूर्तिमन्त्री
▁पुर्‍याएका
∙
जसलाई
漫
▁सिग्नल
ザ
證
▁डायरी
鵍
▁सेमेस्टर
▁तला
2018/10/716
ね
▁महसुल
▁सापटी
▁भर्ने
सम्झौतापत्रमा
▁वित
্
念
▁पुनर्निमाण
टिक्स
؊
까
׳
▁बैङ्क
▁ब्यापारी
▁नम
ภ
ヤ
エ
▁भरतपुर
▁कम्पिटिसन
▁नगन्
फु
摇
ल्प
▁गरिँदैछ
comment-id="80

वेट
▁हकदार
▁चाम्स
列
▁नपरे
उसो
हिं
言
रास्ट्रिय
▁तदनु
▁प्राधिकरणले
विज्ञ
▁ग्रेड
ĵ
▁सन्धि
▁विधु
▁मेहनत
▁सम्बन्धविच्छेद
4</g
▁बाथ
▁बिर्सिन
Щ
जङ्गली
▁आहृवान
▁सोध्यो
ेका
▁बायोपिक
▁सत्
▁कालीगण्डकी
▁बैँक
▁तन्नेरी
▁कविराज
nove
▁आउँछ।
軌
▁मन्त्रालयको
▁हुन्छन्
▁शूद्र
(ख)
▁2018
news/employment/
▁बदले
▁अबेर
遖
▁प्रदेश
兴
떹
▁२०५८
🇾
▁विमल
▁(रासस)
▁बूढो
▁तिथि
▁अकाउन्ट
蒙
▁सन्धी
4%96%E0%A5%8D%E
▁मकालु
ब्याक
जिङ
▁स्वस्थ्य
▁मौनता
양
news/corporate
ril
▁सचेतक
▁अवसरमा
▁फेसन
बेर
▁बेइजिङ
▁गहुँ
▁अधिकारी
दिशातर्फ
▁निश्चल
दर्ता
1.0
ị
जावत
 
▁शरण
撮
▁फरेन्सिक
▁छिमेकी
▁गेट
रात
患
▁डिन
▁मुसिकोट
▁गाउँलेहरू
▁ध्वनि
จ
0%A4%95%E0%A4%BF
৭
▁देखायो
▁निस्केका
▁The
▁उपल्लो
▁प्वाइन्ट
▁गुमाएका
▁not
称
एसएल
無
▁ट्रेन्ड
▁Jan
▁अचानक
▁वर्षमान
ĕ
+%E0%A5%A4+%E0%A
▁सङ्गठन
V
46/feed
३२
si
▁भारी
▁गाउँमा
al
मुलुक
▁कार्यान्वय
"Ma
チ
そ
▁आफन
▁श्रीलङ्का
与
▁गलत
दण्ड
段
▁लर्को
▁दर्जनौँ
▁कल्पना
▁गजुर
▁हानि–नोक्सानी

▁नियाल्द
焼
▁ओलम्पिक
▁तिर्नु
▁अनशन
▁(अ
▁बोलाउने
–२
▁शाहरुख
Ǣ
摩
▁ग्राण्ड
4%9C%E0%A4%BE
׋
▁सब
ử
▁अनुत्तर
▁थालें
▁हेलम्बु
▁वाङ्मय
▁डु
▁सुदीप
responsible
▁चम्चा
▁सांगीतिक
▁पुर्न
▁बढाइरहे
▁'ऐन
ide
वर्ण
▁पनि
▁नियालिरहे
▁जनादेश

ुपरे
▁पर्दैनन्
▁डाय
अलि
▁सीट
pati
▁सरुवा
स्व
0%A4%AF%E0%A4%B8
▁सुनकोसी
फो
2019/04/757
▁स्केच
▁झार्ने
财
▁विकासको
5%8B%E0%A4%B8
▁सुदूर
5%8B%E0%A4%97
ेश्वरी
ۧ
स्थलमा
ǚ
▁ताने
चैत
▁रेल्वे
手
務
խ
ǅ
▁भन्यो
▁ब्र
▁तेजबहादुर
▁'विश्व
▁मन्दिर
▁सरोकारवालाहरू
▁ट्याक्सी
▁कसो
岳
ϴ
舗
tr
Т
▁सक्नुहुन्न
֏
▁ढाले
▁सुभाष
राेध
ोल्सोनारो
▁जिबन
▁अछाम
▁टोटेनह्याम
▁सामाजिक
+S
औं
草
▁एकेडेमी
बू
कम्तिमा
प्रायः
▁अक्टोबर
football/28
݁
؝
首
42/feed
템
▁भनिदिए
▁टिभी
▁सुट
▁भाष्कर
▁पूर्वसांसद
▁थालियो
football/21
▁चीन
▁अस्ति
ɉ
▁छान्न
˞
炼
同
孕
▁श्रद्धाञ्जलि
आजकाल
▁आशिष
4%B0%E0%A
Һ
▁छाडिए
2019/05/768
4%AE+%E0%A4%
text
▁लागेको
ायल
4%A6%E0%A4%BE+%E
▁हुन्छिन्
▁वायुमण्डल
प्रणाली
▁महिलाहरुको
▁डायमण्ड
▁पृथकतावादी
बाख्रा
肃
#comment-814
▁उचित
ი
▁अल्ट्रासाउन्ड
˾
▁(१
ố
▁बनेको
▁by
▁गरेन
𘡎
平
नयाँ
▁फाइभ
▁पात्रो
▁दिनुस्
რ
▁आर
बनेपछि
▁ज्यादा
▁प्रदेशका
ʆ
▁हिच्किच
▁खिच
's
要

▁२०६०
▁रुचाउने
▁धो
別
▁समूह
▁छिरे
ल्ला
भेल
५/७
'यस्ता
दह
▁बसेको
ম
ா
▁घोड
एस्सी
ド
▁लिपुलेक
▁चन्द
▁बजेतिर
▁बुझाउँदै
4%9F%E0%A4%BE
Ľ
Ϝ
▁तुलाचन
><
▁pain
▁सह
▁लीला
짗
▁नवौं
▁परिपत्र
जन्य
बिग्रिने
▁२०१३
जिन
入
%E0%A5%AD
監
डब्लु
0%A4%AD%E0%A5%81
▁गीतसंगीत
ݷ
१९८८
प्रतिरोधात्मक
▁गर्दछ
転
▁रहने
वासीले
雇
रमण
▁औल्याए
▁बिज्ञान
▁फलाए
▁रानामगर
თ
▁तिनै
▁रिफ्रे
▁पुनःस्थापना
▁विष्णुप्रसाद
▁रिसोर्ट
▁पार्लर
ช
4%BF%E0%A4%8F
क्रा
▁युद्ध
▁आएकी
प्रविधि
2017/04/
▁मोल्न
洞
▁महिलाले
ers
▁प्रस्तावमा
∞
केन्द्रबीच
्नुपर्ने
लोन
▁पूर्व–पश्चिम
पटक-पटक
▁उचाले
%E0%A4%88%E0%A
▁थापा
ऒ
լ
▁आ–आफ्न
▁गायक
एपेन्डिक्स
ेश्वर
r
▁थाइल्यान्ड
▁राजकाज
▁उपस्थिती
49/feed
▁संविधानको
▁एनआईसी
pal
▁खेल्दै
अवसर
Federal
▁अक्षम
▁'जन
ाउला
靠
▁आकास
人
▁बिजनेस
▁खडेरी
▁Home
ਈ
छु,'
▁विधेयकमा
First
祭
초
क्षे
▁प्रबक्ता
व्यवसायी
▁मस्ट
▁खसे
▁उकास
▁अनौठ
寂
ɬ
▁संज्ञा
निर
▁(एनआरएनए)
▁सिन
▁फिलिपिन्स
​
▁स्काउट
▁विश्वास
▁एन्टोन
▁'जनयुद्ध'
छौ
▁लगाउ
▁उमा
▁चन्दन
▁औलो
4%9B%E0%A4%BF
▁सबैलाई
मस्तिष्क
आन्दोलन
▁फैसला
▁संकेत
▁बास्केटबल
दिल्ली
֪
▁केन्द्र)
▁इष्ट
▁छरितो
▁दोर्जे
▁गृहिणी
▁मध्यपूर्व
▁फैलिए
▁भैँसी
▁त्रिवेणी
哲
ރ
▁शङ्का
▁सार्की
▁राय
▁थापाथली
▁बार्षिक
तापूर्वक
▁सेप्टेम्वर
▁निन्द्रा
▁विनाश
ӆ
秩
–ब
▁उद्योग,
刊
▁(पी
दानी
▁खुमबहादुर
▁भन्या
▁समानता
ݱ
ī
▁गुणवत्ता
招
jan
▁वुद्धि
▁नामक
1.
▁असहज
▁कार्यदिशा
<![CDATA[A
२०२४
▁सन्दिप
१-१
▁टाढिए
▁पदमार्ग
4%BF%E0%A4%B0
Ｓ
राख्न
▁दोषी
▁विदेशमन्त्री
▁लैजान
▁चन्द्रौटा
▁छापामार
पुगिने
▁सेयरधनी
en
▁लगाइन्छ
▁सिष्टम
रञ्जन
गुरु
▁मल्टिप्लेक्स
▁भिœय
▁युवती
▁भौतारि
œ
▁रोकथाम
हरूमा
म्य
▁युवापुस्ता
˴
▁उदार
▁बालअधिकार
ự
आबुधाबी
准
▁निशा
िय
ெ
▁हजुरबा
▁औद्योगिक
▁अतीत
ाइज
ल्ह
▁फर्नान्डेज
▁कच
馩
▁नकाट
%2C+%E0%A
फोर्स
▁स्वीमिङ
▁भव्य
/2017/01/52
featured/4
▁तहमा
▁रिपब्लिक
▁महत्वका
▁लोग्ने
▁पाएपछि
▁हुंदा
巅
▁गीतमा
▁छानो
▁सुझबुझ
▁सर्वसाधारणले
▁तो
▁नजर
▁घण्टी
善
환
▁सिलिगुडी
ान्त
▁क्वाटरफाइनल
▁उत्तर–दक्षिण
ߖ
▁चन्द्रमा
▁सन्नी
其
मिश्रण
▁प्रधानमन्त्रीले
▁डाँडाकाँडा
4%BE%E0%A4%B0%E
▁भित्रिने
仔
्टन
▁देशहरू
▁निम्त्याए
▁रोल्पा
▁जसमध्ये
▁एसपी
▁सन्तुष्टि
दिया
▁जस्
▁स्टर्लिङ
ལ
▁दोहोर्‍याए
▁गर्नुहोस्
+%E0%A4%B6%E0%A

▁विरोध
ुली
▁सिरिसेना
▁सुदृढ
▁कोरिडोर
̳
ទ
▁पाइनेछ
▁ग्राहकहरू
▁चलाय
沈
▁गर
胜
▁एजेन्सी
▁९२
▁इन्टर
▁विनास
▁समाप्ति
62/feed
2018/06/68
▁Le
ठी
0%A4%AA%E0%A4%A2
񄔁
आईएस
▁विक्रम
▁बच्चा
▁थिएँ,
Z
पाए
होला,'
杭
▁हो।'
⛹
link>
चेर
पट्यार
raj
▁ब्यक्तित्व
案
▁खस्क
՗
▁दु:ख
▁व्यवसायीकरण
▁मुल्यांकन
पत्रकार
2018/09/708
▁प्रवल
▁आह
Ɏ
ণ
रहनु
突
∀
▁राजतन्त्र
▁किर्गिस्तान
펣
链
▁विध्वंस
▁'यो
−
चितवन
oint
▁खटाउने
ें।
▁संसोधन
आठवटा
▁रेल
▁स्टाफ
▁जेन
▁पढौ
▁हरायो
▁एनआरएनए
▁हाल
圼
▁रिभर
पाठापाठी
主
ֈ
▁आस्था
national/2018/
dar
ﴄ
▁खेलकुद
▁समाधान
▁गर्नेतर्फ
̇
▁सुनाइए
碍
▁दोष
लौरो
देवी
▁फर्काए
▁तारे
▁फसेका
▁सोनी
▁mu
ﯗ
给
अलोकतान्त्रिक
▁बाझिन
▁दलीय
▁युनिभर्स
▁मन्दिर,
▁प्रजातिका
प्रभावित
ल
▁सङ
अध्ययन
▁यूरोप
संचार
▁फेस्टिभल
जवर्जस्ती
▁आवेदन
含
▁रोय
टिए
िएका
ं
▁समिट
▁कार्यसम्पादन
▁कोलेस्ट्रोल
Ϫ
氟
art
▁ईश्वरी
▁पुग्छ
▁ज्ञवाली
▁हुनुअघि
▁यथ
£
😏
cannot
▁किशोर–किशोरी
Њ
0%A4%9B%E0%A5%A4
▁आइपुग्दा
▁न्यानो
▁योगी
▁चिप्लिए
▁कलैया
▁६
ोसिस
▁वृक्षारोपण
▁एक्स–रे
▁फ्रान्स
▁करेसाबारी
微
4%BE%E0%A4%A5
❺
系
▁नबढे
टीएस
▁घरघर
▁छाला
▁यहीं
टेन
▁हिँड्दा
हरूबीच
▁नमोबुद्ध
0%A4%AC%E0%A5%87
▁११
▁दण्ड
अध्ययन–अनुसन्धान
급
▁दृश्य
󹡱
▁भारतबाट
▁नागरिकले
want
▁अभियानका
दिऊँ
▁भनिन्
▁फेद
▁ढाल्न
▁समाजसेवा
▁भनिएको
▁साउद
▁उपहास
▁हास्यकलाकार
′
रूसी
仰
▁आन्दोलनकारी
प्रो
▁व्यवस्थापिका
▁सभामा
▁मान्छे
सेरा
▁श्रीदेवी
▁धमिरा
▁एसेम्बल
奣
▁गौर
▁11:2
▁एन्
▁उभिए
▁नतिरे
▁कोषमा
▁'बो
▁हाइपर
우
▁सेक्रेटरी
▁नकारात्मक
书
交
▁टोली
▁त्रयोदशी
▁भन्छ,
the
बजाज
▁टाइब्रेकर
▁सिफारिस
͙
▁आभाष
޹
▁टोयोटा
▁पूर्ति
▁चढाउने
▁म्यानेज
athakmanch/2018/
▁ब
▁पारखी
ायिक
▁बेइज्जत
▁अरू
▁अवधी
包
▁बखान
▁कुश
▁विद्य
6"
▁मानसपटल
2
सम्झेर
▁कष्टक
गन
▁सङ्कुच
▁भएकाे
्टो
▁मजदुरी
▁लक्ष्मण
▁राजभण्डारी
▁भवितव्य
▁लगानीमा
▁विपक्षमा
▁मायालु
▁इन्द्रजात्रा
▁बाल्न
▁सङ्ग्रहालय
ꑝ
4%AE%E0%A4%BF
勤
▁वितरण
▁जीवनस्तर
▁'
हरूको
▁तिव्र
ි
▁अघि
웩

▁लिंग
ul
ኛ
▁सुरक्षण
ियो
डु
▁अर्ब
▁हाल्ने
知
कालागि
▁इशारा
अफ
▁ओभ
។
▁२०५१
आईए
क्कल
億
τ
疃
ऋ
▁आर्कष
Ȓ
▁जडीबुटी
र्श
▁जनआकांक्षा
▁ध्वस्त
▁उक्त
▁इङ्ग
dai
▁रकम
▁सूचीकरण
ਬ
▁आड
▁किराती
2019/01/735
▁कायम
्क
▁एक–दुई
▁सिम्रौनगढ
फे
▁जान्ने
▁बरामद
股
㻖
▁काल्पनिक
▁much
▁धिरज
▁गज्जब
▁वर्षीय
टाइ
▁लेखाए
▁पृथक्
懲
▁मैत्री
▁प्रज्वल
門
贷
▁वास्तविकता
▁तोप
▁लोकप्रियता
▁स्वास्थ
▁हैदराबाद
लाय
एक्काइसौँ
۝
▁आँ
▁प्रभाग
硕
▁माग्दै
सबभन्दा
▁चल्ती
▁हार्
▁बाराको
▁साँसद
Ɨ
टोपबहादुर
▁सिक्न
▁पुनरागमन
▁अपरिपक्व
63
▁भइसक
▁सास्ती
याम
謝
▁वर्चश्व
▁धुन
▁स्कुल
▁स्थायी
▁इस्लाम
पोट
▁पड्काए
विस्तृत
कोणबाट
▁चाहाना
ͥ
㝞
▁यार्सागुम्बा
▁नेपालगञ्ज
▁संग्राहलय
▁थाल्छन्
ቧ
लले
0%A4%95%E0%A4%BE
▁३४
▁साँढे
▁सर्भर
▁नौबिसे
겨
▁बग
▁बेर
<![CDATA[<p>
▁वाध्यता
महिलातर्फ
▁प्रत्युत्तर
▁गएरात
ｵ
▁पोख्रेल
▁गेम
▁प्रतिनिधिहरु
刻
▁अधिनायकत्व
▁बाहुल्य
▁दिनचर्या
▁बगैंचा
▁अल्झ
▁सुत्र
畑
▁खटाए
▁करिब
▁महामहिम
Ё
▁परेड
▁उभिएर
लेखन
▁डायमन्ड
▁प्रगति
▁तागत
▁समान्य
▁विषालु
ི
▁पो
▁मेनेजर
▁स्पोन्सर
▁सीएमसी
削
्छौं
महिलामाथि
▁हत्केला
創
▁अँध्यारो
▁बर्षा
▁जिम्बावे
किशोर
ptions
सेवक
▁आप्mन
▁अनुराग
स्तर
7.html">
▁सन्धिखर्क
▁बाहिरबाट
▁घरबार
▁"क
अधिकार
▁इम्प
िकिस्त
52/feed
▁न्यूयोर्क
▁चक्लाबन्दी
▁विषेश
सुविधा
▁फ्याट
х
▁बडिमालिका
१९९३
▁बेग्ला
▁फोटोग्राफर
▁खट
▁नभएको
▁वन्यजन्तु
沿
▁मलेसियामा
▁यिन
▁शाखाका
▁सघाउन
▁मनुष्य
▁जीर्णोद्धार
▁exa
एच
ुभएकी
▁देखाउनु
▁जन्मदिन
▁वैधता
▁सिन्ड्रोम
सो
▁भरत
▁छैटौ
商
▁प्रोस्टेट
▁पौष्टिक
▁घण्टा
▁मर्स्याङ्दी
阴
礴
▁अप
▁मादक
भएन,'
▁कार्यक्रममा
▁जिउने
▁कारण
W
▁एकाउन्टेन्ट
純
尺
π
▁आशंका
逐
▁time
낭
▁बाकस
▁कार्यनीति
▁स्टोरी
स्वर्णपदक
几
贤
▁विल
阶
ె
▁सुचारु
보
▁बित्यो
▁हनुमान
जि
डेन्ट
हवान
▁इनोभेटिभ
जात्रै
▁छवि
53/feed
▁१९९९
▁लाजिम्पाट
▁रुपन्देही
▁भनाभन
▁तिब्र
顾
desh
臨
बाबा
▁झर्न
िनामसिना
शास्त्र
िरहनुभएको
▁औचित्य
नसकेको
苗
▁इङ्ल्याण्ड
र्व
4%BF%E0%A4%A4
▁बोल्नु
娜
▁कटारी
▁पछय
▁इम
▁नरहरि
ﻺ
ни
ݳ
▁मत्स्य
▁नरिवल
?v=
रहेछ
पक्कै
▁कागती
▁छाड्ने
▁जैमिनी
▁गर्नुहुन्छ
▁पर्खे
▁शिखर
ビ
share-text="
▁अन्त्यमा
▁पठायो
▁दम्पति
▁दिँदैनन्
मोचन
▁स्रोत
धेर
▁लागेन
ט
▁ठान्दछ
▁गस्ती
▁स्वारेज
▁ताल
▁रिसाए
咨
💦
▁ब्रिटेन
▁गराइदिन
परिवर्तन
२०२५
▁दायित्व
▁अहेब
垻
▁जसमा
सान
वृत
नेशनल
▁चलाउँदा
▁घट्यो
市
▁निर्धारण
원
▁रेशम
▁सरिफ
▁साेमबार
▁सदस्यको
▁नदिइए
ូ
▁पोर्चुगल
快
▁चाहान्छु
यथार्थपरक
▁पुगेन
▁परिबर्तन
Ђ
04
तैपनि
▁बेर्ना
▁वाइबा
त्यतिबेलासम्म
्थी
जा
▁एन्टि
▁लिन्छ
ق
B8%E0%A4%AE%E0%A
판
पश्चात
Ɉ
#comment-749
घारी
▁करणी
▁मेगा
ṏ
聚

िदिन्छन्
जलाशययुक्त
▁बन्दुक
▁मित्रराष्ट्र
रमाइलो
▁समस्याहरु
ȗ
▁जीवन
▁अध्यात्म
▁प्रक्रियागत
▁भित्र्याउने
▁रेस्टुरेन्ट
振
▁नजाने
▁नाङ्गो
द्रष्टा
▁पेमेन्ट
写
▁खेल्दैछ
▁मन्त्रालयका
ли
▁फन्
▁अस्वाभाविक
▁व्यूरो
▁कहिल
▁राखी
▁खनाल,
߳
▁हिउँदे
▁विवश
艾
甒
e+
份
▁२००३
▁पार्टपुर्जा
▁५
▁प्रर्वद्धन
▁सिरी
गलौज
ے
why
▁मुस्कान
्दिनँ
▁घेरिए
ड्यन
赶
▁उभिएको
関
▁बम्जन
म्व
▁14:29:
▁बब
▁काठमाण्डु

ޕ
▁जित्ने
चुक
▁कानून
ख्यात
गमन
गण्डकी
❣
▁इच्छुक
▁मिस
श्व
▁निर्वाचनमा
▁चाहिं
▁शैल
▁परिष्कृत
F-
▁बनिसके
▁गठबन्धनको
▁आशय
鷣
▁अपार्टमेन्ट
▁चलनचल्ती
▁दंग
▁सताए
▁घटेको
▁<p>
▁फ्रिकिक
▁थियो ।
▁देवराज
ক
▁छन
२३
ck
विदित
हा
सानोतिनो
आतंक
▁ट्र्याक
ǉ
▁आमाको
چ
▁मेलमिलाप
▁प्रशा
▁नगर्नुस्
싸
▁लगनखेल
甘
▁हुरीबतास
兜
शिव
▁अग्नी
▁श्रम
▁निरपेक्ष
तेन
▁प्रगाढ
हाइ
▁न्युज
▁पोस्न
without
▁रैथाने
御
▁नह


▁lai
▁उठाइए
র
▁रिलिज
洒
▁भएकाले
▁विगतमा
▁बनाउँछु
⋳
पर्यटकिय
०६९
決
협
▁मधुमेह
簡
▁औजार
ाधिकार
ट्रिक
सुरक्षासम्बन्धी
配
▁जता
4%AD%E0%A4%88
肉
ầ
▁उहाँको
ण्डी
∛
▁बास
▁लिन्छन्
▁लोकल
▁(यूए
▁मोरिस
▁माइकल
▁सँगसँगै
▁आमाबाबु
पुरा
संशोधित
▁स्वीकार
▁थियो,'
▁गान्तोक
▁हत्या
▁अग्रिम
區
▁सोध्ने
▁भू–भाग
ठिक्क
▁खाता
▁सार्वजनिक
"><
ाँ
▁कार्यालयबाट
▁जनवरी
▁धितोपत्र
▁सकेनौं
▁शेर्पा,
अगाडि
ुल्लाह
▁इक्वेडर
▁वाहिर
͈
▁मदर
٦
anda
伺
▁आश्वासन
鲁
▁छेउछाउ
集
▁(एन्फा)
▁थाके
▁बु
२०३४
▁निर्वाच
▁रामशरण
ც
̴
▁हुन्
궁
≤
▁बस्थे
▁लम्पसार
王
विन्द
▁ल्होत्से
▁शाही,
▁भइरहेको
▁स्वायत्तता
2018/02/659
5%8D%E0%A4%B5
०७५-७६
ȁ
▁कार्यकक्ष
0%A4%B2%E0%A4%AF
▁'जे
▁उल्टो
▁हामीसँग
▁सामुन्ने
▁पु¥याइ
्द्रराज
▁दिनको
▁अल्टिमेटम
▁रुपैयाँको
आइएमइ
¨
▁सुगन्ध
धि
▁गाई
执
▁निस्किन्छ
5%80%E0%A4%95
▁भयो,
+%E0%A4%AD%E0%A
▁विधयेक
▁अङ्ग्रेज
▁किर्ते
cricket/5
१/१
▁वैध
,खे,खो,गा,ग
耐
栽
▁माध्यमबाट
update
▁शैलेन्द्र
制
general/3
▁मेलामा
ּ
▁विशाखापटनम
▁बाँड्न
▁नाट्य
▁for
▁थन्क
▁मनु
ს
▁परिच्छेद
џ
▁यहाँ
▁१९८०
▁घेराबन्दी
粤
▁हुर्किए
0%A4%96%E0%A5%88
economic
545</l
▁सन्तुष्ट
बाटै
▁श्रीकृष्ण
眾
gain
्यास

⨿
%E0%A4%BE%E0%A4%
▁माउण्टेन
तिरेर
▁भन्छौं
सास
▁गाह्रो
सामरिक
▁कामी
ٞ
75
▁प्राथमिकतामा
▁विरामी
▁हुनसक्दैन
▁लिने
▁जँचाउ
♦
▁आहा
▁चलन
▁भेट्टाए
▁जुत्ता
▁मिडफिल्डर
▁नपाउ
▁रेकर्डिङ
▁बनाउँदै
▁सद्
ैया
思
▁नगरप्रमुख
▁सुपर
रुप
261
पर्व
▁पूँजी
नपुग
ст
▁ढकाल,
▁म्यानेजर
▁प्रथम
▁ब्य
ۏ
▁हिमताल
Ѝ
▁किनार
▁ओपनर
▁विराज
▁पूर्वमहामन्त्री
sa
भूषण
▁पठाउन
块
▁सिस्ने
祺
멋
▁२००७
▁दख्
▁देखिदैन
͠
ϱ
khabar.com/?p=72
🎹
香
ժ
निकुञ्जभित्र
▁महाधिवेसन
▁देखाएका
आईसी
news/world/1
̶
ुपर्दछ
▁एआइजी
▁किलोमिटर
▁नेदरल्याण्ड्स
कटहर
▁परिवर्तनको
▁पढाइ
▁परिचालक
▁लियोन
▁कुर्सी
▁खटाउन
难
▁क्याबिनेट
▁जरुर
▁Sad
▁बदर
▁स्तन
施
बिना
▁चाइना
Ո
▁निकालेका
▁सिद्धार्थ
▁फुँयाल
▁सामेल
有
▁खेलौना
▁माटा
▁पतन
▁उमेश
पुस्तक
mar
रचना
▁आयात–निर्यात
▁सक्छ
▁छिमेक
▁हुँने
tag
▁रन
▁फर
堵
̺
SA
▁म्यूजिक
秀
▁अध्यन
Ի
▁वर्षिय
▁नारा
▁अफ्रिकन
याल
瘯
▁निर्भीक
▁सम्भार
▁थिएँ।
▁माध्यममा
▁उद्धृ
▁अनैतिक
▁२०१६
▁अधीन
▁सेभिया
लागेकी
67/feed
▁ना
कार्यबाहक
ㅎ
ř
▁अन्त्यसम्म
विद
ियौं
▁सहयात्री
▁विकिपिडिया
▁स्कटल्याण्ड
एउटा
when
尊
▁क्वालिटी
▁गरीबी
捊
▁प्रभावशाली
▁नश्ल
▁सघ
▁ठीक
▁शाखा
🚨
▁वर्षमा
फा
▁निर्वाह
,जे,जो,ख,ख
▁पकाउने
▁मोटरसाइकलमा
Samachar
▁कारबाही
▁गरिनुपर्ने
कथित
ाउँछु
▁थोरै
▁मलमूत्र
평
शेखर
▁देखि
▁अक्षर
▁दत्त
▁षडयन्त्र

ி
ल्याउँदै
तर
बादी
▁फेहरिस्त
▁रोपाइँ
▁दु:खी
2019/06/01/15593
▁गल्फ
Ʋ
慧
▁छौं,'
▁गतिशील
▁उन्नयन
ाउनुपर्ने
▁website
▁पार्नु
▁आफै
▁पुम्दीभुम्दी
0%A4%B0%E0%A4%9A
都
▁उत्साहित
4%A4%E0%A4%BF%E
विनाशकारी
🔱
सियस
s.
▁अफ्ठ्यारो
▁सक्रिय
▁यिनीहरू
▁भुमरी
▁याे
+sabai+
▁फत्ते
▁गोकर्ण
▁नगर्न
यतिमात्र
▁गलैंचा
टिया
्याप
؉
2018/08/702
杉
तेस्रो
▁कर्माचार्य
▁संदिग्ध
▁जीवनका
▁हिमानी
满
▁दिउँसो
▁एयरलाइन्स
छैठौं
灿
▁वञ्चित
लम्वन
˘
बजेट
▁बाजी
▁स्व.
▁लछार
▁निर्वा
▁केयर
▁यदि
-count-wrap
▁मास्टर्स
▁स्वभाविक
ᵻ
▁उपप्रमुख
չ
▁सामाग्री
験
▁लडाइँ
▁फूलपाती
▁छाप्ने
▁अगुवा
4%BE%E0%A4%96
辰
▁rel="
▁ढक
显
る
▁पृ.
핏
▁हराउन
▁वसन्त
▁गैरे
▁कट
स्वप्न
▁भनेको
▁भिनाजु
▁चल्छ
▁आँकलन
product
Ӻ
+%28
▁विस्तारै
▁फिरौती
२–१

▁माक्र्स
آ
▁महामन्त्री
ь
▁हठ
सुदूरपश्चिमाञ्चल
▁कमलामाई
football/49
21
θ
▁उहाँलाई
▁सुझाए
प्रेस
उल्लेखित
▁दिसापिसाब
„
實
ﹾ

帐
被
▁पार्टि
▁बेलुन
▁ब्रोडब्यान्ड
假
▁शुद्ध
▁ब्वाइज
▁नाना
▁बाहुन
sharma
ीन
▁पश्चिमाञ्चल
मुख
▁कांग्रेस
सरो
▁दायाँ–बायाँ
▁साविक
▁टेलि
गामी
Ó
▁घुमाए
▁कापी
▁सिर्जना
▁दर्शनार्थी
▁मानसरोवर
▁अडिट
न्यु
▁हस्ती
况
ᤔ
ѕ
▁शीर
उतिबेला
4%A2%E0%A
▁उम्कन
ớ
▁खस
尼
▁हलिया
पुरानो
▁बदमास
▁जुलिय
कर्ता
▁अध
▁आईओएम
▁नेपालको
▁सत्कार
▁पुकार
दुल
▁हामीकहाँ
बद्नाम
ाइड
▁कुटे
▁'तीन
使
὆
भारत
▁६०
▁खण्डन
चाल
तिव्रता
गाउँपालिका
स्वैच्छिक
▁मार्गचित्र
क्ष्य
रेन
que
▁मरासिनी
▁filename="
▁पद
▁कोड
▁अपहरणकारी
ং
▁गोष्ठी
मेन्स
▁निबन्ध
▁जग
▁मस्यौदा
ഭ
ཾ
✴
㥏
▁every
▁हिमपहिरो
▁भइरहँद
▁दिशा
Ւ
▁वर्षसम्म
▁पौराणिक
▁गणना
▁आफू
▁अक्स
विरुद्घ
▁मिल्यो
▁पर्ख
▁प्राचिन
▁आउद
they
▁सुआरेज
挨
切
▁टुगेदर
सूचक
hai
4%9B+%E0%A4%A4
▁अपारदर्शी
▁लैङ्गिक
▁उपमहा
吾
႗
踢
１
▁फिदिम
▁मासिक
▁तिमि
▁मदिरा
ừ
▁बुढी
▁फेवाताल
▁किनेको
▁जलवायु
▁सम्बन्धन
摸
खचा
मुग्लिन
▁आर्जन
矿
कालदेखि
ेल
▁सिटौला
𖾄
▁बुद्धि
▁प्राप्त
▁प्रशंसक
▁व्यक्तिसँग
ुपर्दैन
▁सुनाउँदै
▁काभ्रेपलाञ्चोक
⩌
भाषा
२०७३
▁विरोधी
▁बिमा
यूहन्ना
向
٫
з
▁भनि
code
प्रतिष्ठा
लिप्त
▁दक्षिणकाली
▁धन्न
▁विवरण
ment
व्यवसाय
権
▁फुल
▁आत्मविश्वास
▁पाउदा
񾘤
▁निलम्बन
▁३
संविधान
▁लगाएत
▁उत्खनन
된
▁बैंकले
▁जोगाउन
तीनवटै
▁साहित्यिक
▁हटाई
▁बद्ल
▁बूढापाका
🏻
体
▁गायन
Ό
4%95%E0%A4%BE%E
▁तृष्णा
ײ
▁बिरामी
ident
湿
▁महासचिब
▁चल्ला
#comment-821
गोर्खा
▁जनस्तर
▁मधेश
▁शोभा
▁लापरवाही
5%83%E0%A4%A4
4%A8+%E0%A4%
+hun
▁बिचरा
▁कन्फ्रेन्स
肾
▁अष्टे«लिया
ʹ
▁'डाक्टर
▁चुनौती
▁ईलाका
▁भनेर
▁विधवा
恒
▁सुम्पन
沙
▁जनतालाई
cho
▁बक्यौता
ڸ
▁कम्युनिस्ट
皆
▁बुझ्न
▁भेनेजुएला
▁पढ्नु
▁सिन्दुर
िएपछि
▁गरोस्
▁हित
नाखो
ादि
पढ्नुस्
▁हुनु,
컬
▁फुयाँल
copy
▁लाइभ
▁तराई–मधेश
▁चुम्बन
▁पूर्वसभासद
▁भेटघाट
▁कोषाध्यक्ष
▁मेसेज
संसार
देवनागरी
▁उर्मिला
ճ
▁फुकाए
▁पाक
▁विशेषता
ेरै
▁गच्छदार
▁सालसम्म
egional
޺
▁भेटिएको
%E0%A5%88%E0%A
ाउँदै
▁घरखर्च
제
संस्कृति
?
▁जात
ʡ
▁पछाडी
5%8B%E0%A4%9C
ꁝ
▁गुफा
ahanagar
निर्माण
नवनिर्वाचित
ेरो
▁भोगेका
▁डिसेम्बर
अन्दाजी
▁बीउबिजन
4%AE%E0%A5%81
▁गर्नुपर्छ।
▁सत्य
▁उल्ट
तातो
▁आकांक्षा
▁राँगा
▁पोलि
惊
▁पासो
▁पछिल्ला
ؼ
669
▁रेलवे
▁डलर
▁सञ्‍चालन
4%A4%E0%A4%BE
nized
▁नाफा
news/world/
already
▁श्रद्धा
▁तेरो
▁मनाइरहे
सधैं
टिकाराम
៕
ुहोस्।
175
▁अलाव
वारी
हैन
Ｔ
録
▁६,
ڠ
榺
▁परिणत
▁पच्चीस
86/feed
▁झन
迂
߄
ȉ
▁तिमीहरु
该
▁चाँडो
ुभएछ
▁विमति
गोर
▁जीवनशैली
ैपर्छ
Congratulation
▁शुभकामना
मिट्यान्
▁गरिदिने
pradesh-1/201
▁अप्ठेरा
▁प्रतिशोध
▁इन्स
▁थुप्र
▁हजार,
्सको
बोटे
▁कृति
▁०७५
能
▁वै
▁हुन् ।
▁कट्टेल
हो
▁garne
समर्थित
▁प्यास
왔
▁आईपुगे
▁छैन ।
▁थालिन
▁बोकेका
▁हल्ल
治
ۮ
▁सुने
▁सेनामा
ग्या
▁जनताले
शमशेर
comment-id="77
▁प्रभात
▁गर्नेछु
▁बैंकिङ्ग
▁दसैं
▁आँचल
▁सडक
Ƕ
▁सातौं
▁जोर्नी
▁लामा,
▁विश्वकप
▁दुर्घटनामा
षण
▁टाइगर
▁भूत
▁हिन्दू
▁चलाउँछन्
▁वायुसेवा
स्ट्र
䭯
▁book
▁बिल्डिङ
▁अन्तःशुल्क
▁पोखरी
27212
▁प्रिया
0%A4%89%E0%A4%A0
▁विक्रमासिंघे
▁पुलामी
▁जरा
Α
釚
ऩ
िप
जेल
▁समुदाय
▁शल्यक्रिया

ਜ਼
▁आम्दान
▁बनाए।
雷
िकरण
▁आचार्य,
일
ट्या
분
▁बुद्द
▁नेमकिपा
▁अभिनेतृ
讓
▁गरिन्छ
▁filename="news/
▁इण्डिया
۬
▁क्रसर
▁मानवीय
▁'उपभोक्ता
▁लडाए
卵
▁नि:शुल्क
집
4%AA%E0%A5%8D%E
▁ताम
□
4%B2%E0%A4%BF
▁उधोग
सिसी
७१
▁भण्डारीलाई
▁बिवाह
्झट
▁छोडेका
质
▁विश्वव्यापी
▁८६
व्यवस्थापकीय
केही
▁भूपेन्द्र
类
▁फारम
▁क्षमता
▁कटान
▁प्रष्ट
▁गरिदिनु
▁think
▁आउँदैछ
फ़
银
दिइसकेको
▁दगुर
▁filename="2016/
▁जैसवाल
※
暂
▁विद्युत्
feel
विश्वभरी
▁थालेपछि
0%A5%A4+%E0%A4%
遠
0%A4%9A+%E0%A4%
產
񬊾
▁गड्डाचौकी
▁आधुनिकीकरण
据
거
▁समुद्र
▁गगन
▁पेस
▁अल्ट्रा
▁प्राक्टिस
▁प्रति
पुगेकी
करिब
०७५/७६
˵
Ü
Ｋ
▁सिइओ
5%82%E0%A
घर

ы
📻
▁दक्षता
विक्षत
भूपरिवेष्ठित
얘
▁देखापरे
दुर्गाप्रसाद
▁तुह
▁औपचारिक
▁लम्ब
रेन्ट
▁२०००
远
ލ
▁मोही
▁जन्मोत्सव
वमोजिम
news/sports/
運
17
्नो
ẵ
▁पोषण
ば
▁संरचना
▁लालबाबु
庫
किङ
ʛ
▁कोणसभा
▁हिलो
फेडेरेसन
霉
▁विपरीत
भावना
尖
▁फ्र
▁छ,'
min
▁भेला
▁धम्क्याए
▁महिलाको
▁झुण्डिए
▁अण्डर
泥
ͼ
ྴ
▁भइरहेका
▁उदासीनता
52
डोर
ҳ
▁भइरहे
▁माफिया
▁स्ववियु
▁An
ノ
▁३१
▁अत्यन्त
▁दुनियाँ
▁खड्का,
ंदा
▁नागार्जुन
किनार
Ή
▁थोपा
殿
▁Media
▁भने
▁दोरम्बा
ᨵ
झिमरुक
...
▁नभ
統
옰
▁रास्कोट

शन
jha
▁चिन्न
मती
▁आइफोन
▁निस्
▁स्ट्याण्डर्ड
▁बढ्नेछ
▁बर्चस्व
圳
▁मिचिए
▁बिताउँद
▁हिटलर
▁सुनार
▁यमुना
ೆ
▁डाके
▁६४
ү
व
Sun
वानी

निया
▁ह
▁दिन्थे
5%8B+%E0%A4%A4
甍
स्थाई
掌
▁आएका
▁निर्वाचनको
▁भन्छिन्
Ԟ
▁सुर्य
٨
▁महावीर
▁गर्छिन्
छोटी
खी
あ
33/feed
래
Ķ
ѓ
˙
▁जनविद्रोह
4%A6%E0%A5%88
▁चमेली
भयो
ਔ
प्राविधिक
▁स्वाधिनता
▁सदस्यसचिव
▁आईसीसी
football/47
▁राखिसके
मागअनुसार
▁समर
▁उठाउने
▁झार
ວ
敵
치
▁छौं।
▁दिएर
▁काँधमा
▁चाख
चौ
題
4%A8%E0%A4%BE
5%8D+%E0%A5%A4
观
▁मज
filename="news/7
▁पक्रे
हू
▁सिंह
▁मार्ने
▁तानसेन
▁क्वालिफायर
▁स्तब्ध
▁सानोठिमी
▁ढुक्क
▁क्रिज
‬
▁मौलिक
4%B9%E0%A
4%BF%E0%A
▁तृतीय
▁खातामा
▁अमेरिका
▁पंक्ति
्र्या
पनी
▁तामाङ,
६०
version
悷
▁प्रधानन्यायाधीश
▁डा
吞
▁उहा
घरपालुवा
▁राजा
▁डेसच्याम्प
Ζ
140
अर्थपूर्ण
0000
▁ढाड
पटकपटक
ड्
▁हिजोआज
▁बताइरहे
▁बनाइनुपर्छ
▁प्रेरित
▁ताजा
肥
▁चाडपर्व
៏
▁वैदिक
ત
▁इन्द्रावती
叫
▁गैडाकोट
▁काशी
۳
ओटा
▁खाद्य
▁१५,
▁Shrestha
▁प्रतिभा
▁चलाउने
▁रंगरोगन
▁त्यस्ता
रहेकी
▁पुर्‍याउनु
▁प्रशन्न
Ɓ
▁सहिष्णुता
▁ठेगाना
▁महँगी
पूर्णरुपमा
चन्द
दुवैतिर
छलफल
0%A4%B8%E0%A4%82
▁जरिबाना
rd
टाइब्रेकरमा
पेनाल्टीसुटआउट
苹
读
▁हेर्छन्
▁सदाचार
▁अपनाउनु
ត
▁२०६४
▁आना
पो
▁विकेटले
▁हुन्छ,'
यौट
CH
१००
Զ
╪
▁महत्त्वका
♯
ताको
▁नदिई
Ò
棉
अतिक्रमित
▁थाम
▁गराउन
(हाम्रो
▁सिभिल
▁त्यसैगरी
크
२०४३
ㄩ
̿
k
н
▁जिन्सी
▁नरोकिन
▁मुद्रास्फिति
४२
목
ात्
हुन्छ
चोटि
57/feed
本
Thanks
֭
투
▁ठप्प
鵗
राह
▁अध्याय
परिषद्
▁धार्मिक
▁रफ्तार
चल
▁कीर्ते
▁'त्यस
▁बन्यजन्तु
46
▁संगत
uk
▁प्रबुद्ध
0%A4%85%E0%A4%AC

▁महिला
डे
ਟ
ਝ
▁हावापानी
setting
▁Ba
उन्मुख
म्भ
▁बगनासकाली
▁आराम
▁ब्यबसाय
▁लगाए
▁क्षमायाचना
▁थियो
▁सर्वसम्मत
▁कवि
#comment-813
▁कर्फ्यू
्छा
▁जन्मथलो
4%9C%E0%A4%BF
दूर
ڍ
comment-id="79
转
▁सुवर्ण
pi
Ś
हि
पृथ्वीसुब्बा
▁मध्यरात
031
▁सर्जक
弃
▁Previous
▁क्या
便
▁मुड
算
▁भूभाग
भुत
चिन्ताजनक
▁गुलाब
sert
▁भइहाल्
点
5%87%E0%A
전
वैदेशिक
▁रास्ट्रपति
▁गौचन
/07/15
▁लिङदेन
▁par
▁बर्दिया
ः४५
Ñ
͹
▁पिरो
▁विजयी
▁४४
like
ानो
▁वास्ता
▁समाजवादी
ाइसकिएको
▁तरलता
֗
ȧ
֒
▁उतै
▁कागजी
प्रतिदिन
▁'ब्ल्याक
▁Kha
▁मिति
▁जान्छन्
▁युनिभर्सिटी
▁नरहने
तः
▁ल्याइए
▁विपी
सोमबार
ाउ"दै
㉠
▁जर्मन
▁(नेकपा)
▁शाह
▁इराक
▁ओढ
▁जोडिए
▁श्रेष्ठको
41
▁बाबुआमा
▁सिन्धुपाल्चोक
▁डेलिगेसन
▁बीपी
▁फाउन्डेशन
▁आकर्षित
浮
▁बाल्टिमोर
Ũ
▁मिर्चैया
💪
▁घाँस
龙
▁इनोभेसन
▁पेन्सन
+le+
051
दिइसकेका
▁लेखिरहे
▁घटाउन
悪
▁सर्ट
▁खाल्टाखुल्टी
在
▁सघाउ
▁इश्वर
▁be
▁भनिरहे
ट्ठा
▁अभिलाषा
▁खतरा
▁सर्वस्वीकार्य
&#8212;&#8212;
जमिनमुनि
˷
ం
Д

बी
▁पवित्र
ध्द
एर
विद्यार्थी
▁डब
निर्माणाधिन
▁धर्मशास्त्र
अनुशार
▁पर्वत
▁जागरण
▁गढी
▁ओखलढुंगा
ˌ
具
决
疶
▁रवि
▁दीपेश
4%BE%E0%A4%87
&#8217;
ानु
चारित्रिक
भाउ
Ƚ
界
痩
ी
ुद्दिन
▁डुबान
▁मालपोत
Ӽ
▁कास्य
▁कृष्णबहादुर
▁दृष्टिकोण
ˆ
▁वेशभूषा
हास
▁कन्ट
ster
▁नगरिएको
▁सुवाल
▁भनिन्छ,
ba
▁अपि
0
▁बन्नेछ
邮

ँडी
▁वाम
▁आवागमन
-८
pradesh-3/201
il
▁रिहर्सल
▁भ्राम
Love
▁जेठो
▁पुनरुत्थान
सहनी
Ŷ
pathakmanch/201
▁२५०
▁संरक्षण,
▁काँक्रो
▁दुर्भाग्य
▁किसिमका
▁सेप्टेम्बर
輩
पशुपति
▁घिमिरे,
▁मसान्तसम्म
▁नउठ
खोलेर
▁खर्चमा
▁फ्लाइट
ʰ
垂
▁वाटर
▁तेन्जिङ
0%A4%A4%E0%A5%8B
▁गराउनुपर्छ
जननिर्वाचित
▁मगर,
▁योगमाया
लागि
го
▁उद्योग
▁नीलकण्ठ
▁बैठकले
▁नबिग्र
▁घरभित्र
भाष
▁नेकपाका
सुख
弹
ど
▁मिहिनेत
▁लिगा

▁सकिन्छ।
35
护
आरएस
▁'राज्य
Ϳ
▁रोकियो
▁घुम्दै
⬇
▁ओभरसिज
news-details/19
▁बस्ती
+%E0%A4%9B
अनुरुप
▁संस्थान
▁रहर
हिन
▁गर्नुस्
▁पहिल
▁हेलिकोप्टर
▁जोकोभिच
ȓ
▁ह्वाट्सएप
▁दिवश
▁अप्रिल
▁भ्यूटावर
▁परिवर्तनका
▁पु¥याउन
never
▁नेट
अन्तर्राष्ट्रिय
點
▁बढ
▁त्रुटि
▁पर्खाइ
संरचनागत
▁विद्यादेवी
▁"हामी
▁रोबर्ट
▁सिद्धि
ク
tu
▁निर्माण
▁'रे
छिन्
development/
त्याग
▁छ
▁छँदैछ
▁निवृत्त
4%9C%E0%A4%A8
▁गरिदिन
▁राजस्थान
î
▁शास्त्रीय
▁न्यूनतम
152
३५
भूराजनीतिक
▁९४
▁कम्मर
▁धाउने
▁युद्धविराम
💔
🇱
▁ठेगान
लगानीयोग्य
는
▁मनोरम
₹
▁विराटनगर,
अ
▁संचारकर्मी
▁स्टोर
個
▁क्रान्तिकारी
ɵ
D
▁मूलत
ƨ
ޞ
▁खाले
▁खुलाउन
जयबहादुर
मातृकाप्रसाद
5%8D%E0%A4%9A
▁मंगलबार
bo
it
Ǔ
▁उन्मुक्ति
沟
▁निम्त्याउन
州
ᡬ
▁प्राविधिक
▁पाउँछ
SH
▁क्रमश
▁उत्पादित
▁भिलेज
‹
另
蓎
+%E0%A4%AF%E0%A
尬
०३
वित्तिय
5%87%E0%A4%96
general/5
▁स्याउ
▁चुनाब
域
։
▁भूमि
▁मानसिकता
青
▁चू
▁कहा
▁आमिर
😈
▁Lo
▁बुढा
Ã
▁कुन्दन
▁मानक
▁छापिए
▁राणा
▁बाग्लुङ
निक
▁संघले
▁भलिवल
काठमाडौं
ɻ
断
▁ईतिहास
▁जिदान
▁न्युजिल्यान्ड
男
▁फिजिसियन
▁ट्रस्ट
सूस
▁लनटेनिस
ʪ
द्धार
▁पाके
रहे।
▁बाहिर
सार्वभौम
▁गर्नेछन्
線
▁होला।
▁काभे्रपलाञ्चोक
ana
!!

ӂ
ً
+%E0%A4%A7%E0%A
▁तिम्रो
▁दस्तुर
▁सुरुङमार्ग
▁पक्षको
▁ब्रुनाई
▁भेटिए
▁लड्डु
▁छनोट
▁कमि
▁गुण
कानुन
▁गराइयो
धर्म
▁जीटीए
覩
▁कांगे्रस
송
档
र्गेन
ԅ
▁दुनिया
तीनपटक
▁पत्रकारहरु
4%B5%E0%A4%BF
▁रमाइलो
▁मुद्धा
乳
▁कुस्ती
Samacha
▁गुड
hirish
4.html">
▁प्रयोग
kati
▁दसैं–तिहार
才
२
忠
▁life
▁हटाउन
▁तिन
▁पाउनुपर्छ
▁भयावह
▁वाचन
݌
▁सुनिए
▁समेत
▁उठ्ने
शान्त
▁कर्तव्य
▁जापानमा
؃
▁किमि
▁यतिसम्म
▁कुसुन्डा
िन्।
▁शौचालय
▁सुराकी
▁गाउँ
ݎ
▁दी
▁ब्यवहार
󠆷
०७४-७५
▁तोला
▁छानिए
ाई
▁भिटामिन
▁नसक्ने
▁सिरहा
▁पठाइसके
ीकरण
▁टो
बिस
▁यात्रुहरू
▁रूप
▁इजाजत
पिया
4%A1%E0%A
प्राकृतिक
Janata
̍
ﶂ
▁जमघट
▁स्कूल
▁इकाई
؁
congress
साङ
ޯ
籍
▁गरिएको
▁इकोनोमिक
ेसन
▁वर्तमान
▁२०१४
癌
▁नेतृत्वको
▁घरपरिवार
▁निरुपण
▁उतार
ൻ
▁नगरवासी
▁समाप्त
▁टोटनहम
२०७२
volleyball/
ٸ
▁दुरुस्त
泡
▁अभिव्यक्ति
ग्रह
▁आउँदै
▁तुवाचुङ
低
▁मितव्ययी
责
▁खानेपानी
▁बोल्छ
▁पाराग्लाइडिङ
Ƒ
▁हस्तक्षेप
▁विपत्
▁राष्ट्रघाती
督
४.८
▁लोकेन्द्र
▁क्रोएशिया
▁कङ्ग्रेस
▁अन्सारी
▁सम्बोधन
▁चलि
▁निहुँ
▁कुसुम
▁exp
▁युआन
football/43
▁भारद्वाज
▁16

개
▁प्रतिमा
ۈ
▁डा.केसी
▁अस्पतालले
their
觕
0%A4%B9%E0%A4%BE
▁खोजेको
▁बिहीवार
▁जस्ता
▁बुटवल
न्जेल
शूल्क
嵕
▁यज्ञराज
वर्तन
ƚ
▁wo
뎒
ल्भ
▁झुन्डिए
&#8230;
▁सौहार्द
▁संजय
▁कोरियाका

▁शोषण
▁दुईतिहाइ
似
comment-id="76
▁प्रदीप
दैव
▁उपदफा
कन्ट्रयाक्ट
▁आइओएम
▁झरना
▁data-
▁रूपन्देही
オ
िलो
ヘ
▁भू-भाग
ড়
▁झुल्क
▁रघु
फ्लोरिकल्चर
रसुवागढी–केरुङ
ソ
ȍ

ँझ
सेफ
ݓ
▁न्यू
▁बाँड्ने
▁सन्त
ש
Mon
▁बाव
▁बिहिबार
nest
▁भेटिँदैन
▁रोइ
▁इन्स्पेक्टर
▁धुर
pradesh-5
▁अर्काे
▁रुचाए
सोचेर
ध्वज
▁धनी
▁नेता
▁or
सानैदेखि
▁मनोनीत
जातीय
पूर्जा
들
瘠
िकृत
▁साधारणसभा
written
मुहूर्त
지
か
▁देखिन्छन्
निस
वक्ता
▁ठगे
▁टहरा
मानेर
महा
▁बताइन्
▁सालिक
▁त्यतिमात्र
4%97%E0%A5%8D%E
▁गराइसके
▁घटनाक्रम
▁उच्चारण
▁जान
▁मातहत
▁बाँडिए
▁नङ
ɔ
▁ठगी
▁ते
▁पीएचडी
▁जुट्ने
ेन्ड
away
%E0%A5%8D%E0%A4%
▁•
▁संवत
ฒ
▁इथियोपिया
▁ओखलढुङ्गा
▁सुरेन्द्र
▁बजाउन
ঝ
ेजाब
等
略
▁सिक
▁गलकोट
▁राजिव
▁11
सग
▁बिर्ता
,'
岁
▁संस्थाका
특
▁गुज्रिए
सिय
临
बजार
u
▁फन्दा
ԍ
苦
▁जम्काभेट
मैत्री
▁लिँदै
▁प्रतिवद्ध
▁प्रगती
4%9D%E0%A4%BE
▁केटा
न्त्र
ाउँथ्यो
▁घरधुरी
▁मानिसहरुको
▁शंख
▁स्वाद
▁छाप
5%8B%E0%A4%B0
ぁ
Nepali
ाँउछ
▁१२०
▁बढाउनुपर्ने
▁बिकाश
▁प्रतिनिधिसभा
रास
▁बक
▁छोरीहरू
–२०१८
▁क्रान्ति
▁भीमदत्त
▁कमाए
▁छ्याप
▁सुनिन्छ
ौं
पुरातात्त्विक
▁सुनाखरी
▁जयन्ती
▁नयां
▁शिर्ष
확
▁छैन्
शकुन्तला
▁पश्चिमी
宮
▁नआए
▁घोटाला
▁–
▁गोकुल
▁११,
▁हार्दिक
太
▁सङ्खुवासभा
▁माइक
प्रेषण
▁टोलि
मधेश
▁ट्विटर
̟
▁फराकिलो
पछी
▁२००१
瓴
스
–
▁खानी
▁पुस्तकहरू
본
▁चलाउनु
▁क्लस्टर
5%80+%E0%A4%
舟
▁&#8216;
▁महासंघका
▁चेतना
सकेपछि
4%B9%E0%A4%BF
履
▁खडग
扑
▁अनुकुल
▁न्यूरोड
⇒
#comment-782
▁शक्ति
गा
▁जादा
▁सर्वोच्चता
▁गाउँले
फिया
少
▁इमरान
▁गौचर
▁फूलबारी
अर्को
輿
▁त्रिचन्द्र
तीन–चार
▁हुँ।
▁बढाउँद
0%A4%A8%E0%A4%
▁कर्नर
߆
▁वल्र्डलिंक
▁सुक्न
▁गाभिए
ȷ
▁मधेसवादी
▁बन्जाडे
▁हराएका
▁वर्
▁बनाउने
׹
▁class="cld-
▁खिन्न
▁गर्‍यो।
▁जमाना
▁is
खोजी
▁स्याङ्जा
▁प्रतिश्पर्ध
▁अनुकरण
No
होस्
▁सप्तकोसी
▁चुक्तापूँजी
ề
रू
गौडा
▁क्यूएफएक्स
▁काठमाडौं
措
▁पैयुँ
▁माटो
▁गद
▁शब्दमा
▁बतायो
▁खालको
ting
▁मिलन
थ्यो।
▁कात्तिक
▁राजपरिवार
मध्यावधि
申
टुबोर्ग
▁गंगामाया
▁अबिर
▁नपा
▁कफि
▁बचाउँछ
▁पुनःसंरचना
妹
49.html">
सुत्दा
▁तेश्रो
▁रिमाल
चालक
स्पोट
▁गरिएका
▁एकान्त
गत
▁खहरे
ֵ
▁अपर्याप्त
▁जोडिएको
研
▁ह्विलचियर
▁आएन
अनुसन्धान
嗷
▁तिमीहरू
मस्कट
नाजायज
▁मान्छेहरू
▁फा
▁इज्जत
▁सशस्त्र
▁हद
撰
▁कोर्स
प्रदर्शन
▁हराभरा
▁फलोअर्स
▁गद्य
िदा
▁नेयमार
0%A4%B9%E0%A4%BF
+jasto+
Ҝ
難
छेउ
नाथ
▁युट्युव
▁बढाइने
जसअनुसार
吴
ध्या
▁लघुकथा
▁नया
कुट
▁स्याफ्रु
▁एक/दुई
▁निर्धक्क
▁घराना
绩
कली
▁आशि
ქ
▁देवि
▁हातमा
्&zwj;य
马
ԏ
▁पठाउनुपर्ने
휴
िज्म
똖
▁गेहेन्द्र
▁केशव
▁थापे
▁मिडियामा
▁अधिकारीहरू
्ते
ंदो
▁भलाकुसारी
▁चुलो
4%AA%E0%A5%81
Thu
फिल्ड
▁कोशी
▁लुक
▁सुखद
हिजै
▁थापा,
島
▁नआउने
询
証
▁हुर्के
तथापि
▁प्रवाह
हुन्
ड़
air
▁खि
▁केसीले
श्वेत
बैठक
ᤍ
▁ढुंगे
▁सुरज
▁सक्छौ
▁अजय
▁पिउने
क्कै
0%A4%98%E0%A4%9F
▁महानिरिक्षक
׊
▁आईसीयू
ग्रेस
था
▁हलिउड
▁निर्मम
विध
▁मध्य
0%A4%96%E0%A5%81
▁imp
截
Ϩ
▁गाँसिए
▁लापर्बाही
▁बेन्जाम
परिभाषित
▁क्यान्सर
ݙ
▁सङ्केत
▁इलेक्ट्रोनिक
▁असुरक्षा
↩
▁प्रत्यायोज
▁ईन्
वेश
▁सुव्यवस्थ
▁निस्कियो
प्रतिक्विन्टल
ۥ
प्त
▁अर्बौं
▁दिपेन्द्र
ფ
錄
▁पछ्याइरहे
▁विश्व
▁तेस्र्याए
९८
▁खोकना
▁सुु
▁टिपर
辽
▁गरिन्थ्यो
▁खेलकूद
▁आइजीपी
सक्ने
▁जवाहर
मेन
▁आलोच
l
क्क
नास
▁परिमार्जन
▁उपाधी
▁हाँसे
धार्मिक
▁ब्यान्ड
堻
ᤷ
▁भूमण्डलीकरण
▁कर्तुत
ैं
▁माओ
▁दिपेश
▁रोजगारीमा
▁निगम
▁रहे
▁४८
▁देख्यो
▁फेस्टिवल
͉
▁जनाउँदै
▁पाठेघर
▁अग्रगामी
µ
▁भेट्न
イ
4%85%E0%A4%AC+%E
▁अनमोल
专
चउर
▁बाझिए
३.८
िटी
गेट
▁अफगान
▁'आर्थिक
▁थमाए
▁२०१५
▁मष्टा
%E0%A4%87+%E0%A
97%E0%A4%B0%E0%A
통
छौँ
▁कालिगण्डकी
्रिन
%E0%A4%9F%E0%A
▁रोज
▁साँचो
▁नदेखिए
बगर
▁बताए।
▁महासभा
▁लम्बिए
सुझाव
▁सुत
▁पाँचथर
▁जेठा
▁अस्ट्रेलियन
▁चिनिन्छ
▁काट्न
▁समृद्ध
０
पार्टी
िटि
急
▁प्रचार–प्रसार
▁समुच
खेल
▁एन्टी
३/४
कान्तिपुर
0%A4%95%E0%A4%B0
郡
▁ब्रह्म
pro
▁जीत
▁रोह
▁खुसि
▁सर्वाधिक
▁टुप्लुक
ډ
5.html">
▁गुमाएको
आफूखुसी
▁तेस्रो
▁सर्वप्रथम
▁५,
▁आहार
बारीमा
राक
付
හ
冠
▁जानेछ
▁गने
▁तीज
▁निमार्ण
▁निकट
▁ताक्लाकोट
▁सञ्चारकर्मी
▁dis
%E0%A5%80%E0%A
ft
▁लिङ्देन
िकार
▁गिरिजाप्रसाद
क्ल
्रा
С
▁पेटी
䗬
囲
▁तयार
▁मदनकृष्ण
▁सुशील
4%85%E0%A4%AA%E
▁पाण्डे
▁राष्ट्रसेवक
序
▁तिमीलाई
▁खस्ने
▁मखमली
▁विदुर
▁ट्रम्पले
▁घनिष्ठ
हँुदा
▁न्युयोर्क
▁नभेटिए
om
΀
केश
▁किरण
▁खुमलटार
닩
%E0%A4%81+%E0%A
▁पुग्नुपर्छ
▁बिग
दीक्षान्त
ジ
▁भुवन
▁प्रवन्ध
ven
▁निरुत्साहित
2019/04/758
▁कुस्मा
🇺
튼
▁बढे
खाने
▁२०५५
▁स्टु
▁अनुसरण
ᑀ
▁क्षेत्रबाट
ˁ
जस
▁स्टार
▁भइसके
▁"पहिल
▁सोचिरहे
▁लम्ब्याउन
▁टोकियो
▁शेरबहादुर
ri
▁तामेली
▁बिजुली
Ѓ
▁एकीकरण
▁मेसेन्जर
▁उपधारा
▁आमनागरिक
▁चुनिए
कानून
▁हो ।
▁इन्चार्ज
ग्रस्त
▁पर्छ,
쉠
⋆
漸
%E0%A4%99%E0%A
泉
竭
▁जन्मदर्ता
▁जन्माउन
▁वाल्मीकि
▁हुन्छु
पूर्णरूपमा
भिस
ろ
▁भजन
ེ
▁कोर्ट
▁विश्वमा
▁ब्राह्मण
▁बजारीकरण
▁सेरोफेरो
पुरुष
括
▁युगमा
▁ल्हासा
▁चाड
▁सं
ful
▁बी
जापान
६२
▁निलम्बित
▁सर्वोत्तम
▁संगीतमा
髅
411
500

キ
भाव
▁थाह
▁तन्दुरुस्त
hool
popular
▁पेभिलि
Җ
▁करण
chh
▁मर्मतसम्भार
डोनल्ड
▁मस्यौदामा
प्रसिद्ध
㢙
▁पुछ
एउटी
▁जर्मेन
｜
▁सैनामैना
▁नाँच
▁शुक्लागण्डकी
▁गाउँ–गाउँ
▁पासवर्ड
▁जोमसोम
▁चाह
▁जलाशय
▁प्वाल
▁निस्क
▁हान
典
߉
4%9C%E0%A5%80
▁व्यवसायमा
▁खेर
▁खाएका
गडा
समानुपातिक
즈
▁ज्या
▁(आई
軽
ភ
%E0%A4%95%E0%A
▁Ju
Թ
▁ठाउँ
ﷺ
▁कहिले
ứ
䣒
▁आगामी
位
▁जुर
▁पटकथा
ह्

▁बुझाउने
▁नवलपरासी
pm
▁असन्तोष
▁बिग्रिएको
▁ठान
▁लगाइसके
😙
▁बन्दैन
▁बाइस
果
Ҥ
जितसँगै
▁संविधानसभामा
▁मेनुका
▁रेसुङ्गा
妆
ഇ
▁निवासी
आ
▁निरंकुशता
▁हिजो
▁झेल्न
ne
64
缚
▁बेलायती
5%8D%E0%A4%9E
▁आन्दोलनमा
▁नवीन
▁जुद्ध
▁बस्नेतले
木
▁communist
▁संस्थामा
मेरो
अथवा
▁'क
हेटौंडा
▁किराँत
▁युद्धमा
▁हिट
▁प्रस्तोता
mission
ް
थियो
▁भात
kuro
थ्यो
वर्षौदेखि
▁यकिन
▁फुस
▁अन्ततः
सहितको
č
ì
▁निकायको
0%A4%A6%E0%A5%87
Radio
ۍ
▁गुम्बा
▁त्यसका
▁वक्ता
▁मनीष
गार्ड
湛
̠
▁ब्याज
▁खादा
▁गजुरेल
▁यादवले
▁देब्रे
▁किरा
▁ईयू
ڔ
4%97%E0%A4%B0
▁मलेशिया
▁गर्व
यसर्थ
▁आरती
▁मानब
ｏ
अव्यावहारिक
▁चम्क
충
5%A6%E0%A5%A6
रिष्का
Good
▁त्रैमास
ǭ
..and
▁पाण्डुलिपि
बिरुद्ध
/feed"
▁अभिबृद्धि
賤
▁प्रर्दशन
ੱ
▁गोरखपुर
▁१०२
▁वाचा
Ȥ
▁स्टोक
▁१५०
▁युवतीहरु
▁प्रतियोगिताका
▁योग
▁सम्झना
 ?
▁काली
ाइसकेको
▁असहमत
购
▁कावासोती
भन्ज्याङ
०७२/७३
▁बिग्रँद
राको
▁रामप्रसाद
▁नलि
▁भनिने
▁परेनन्
▁सोधेको
▁मेष
▁'विद्यालय
▁यार्चा
▁नतोक
▁पाथिभरा
▁पोम्पेओ
▁बढ्नुपर्ने
▁कार्यक्रमहरू
阳
▁पु¥याउँछ
▁डुम्रे
ં
▁चितवनमा
कप्तान
君
▁गाय
▁गाउँपालिका–१
▁पुन:स्थापना
番
թ
डायलासिस
हिंस्रक
▁मेची
ज्ञ
踹

▁पाइने
▁problem
▁धादिङ
▁पुगि
▁प्रतिशत,
▁जबज
▁स्टेशन
▁गुज्रिरहे
▁पु¥याई
सोमनाथ
2019/02/19/15505
▁राष्ट्रहरु
욎
अभियोगमा
दोबाटो
▁भ्रम
ʮ
र्द
▁पराजुली
पात
परी
▁व्यव
痶
Ð
▁ठाउँमा
▁युनियन
は
▁बजेटमा
4%B2%E0%A5%80
▁संगै
▁वृद्धिदर
▁अध्या
▁कुराहरु
ol
▁टक्
届
▁क्वारेन्टाइन
߶
▁खेलमैदान
▁नसके
ती
▁विशेषज्ञ
सहजै
गरिँदा
▁आयकर
ச
.gov.np
एफसी
▁जित्दा
▁खोजिए
▁साहित्य
जाति
Ū
▁प्रतिबेदन
▁चतरा
▁उपनिवेश
बेहोर्नुपरेको
▁मध्यमाञ्चल
नान
▁आबद्ध
ौचा
😁
131
¢
堂
▁विडम्बना
▁Mo
प्रेमी
▁सीमाङ्कन
▁एनएमब
▁हिसाबले
Maoist
،
▁केन्द्रित
ԕ
ങ
▁एड्भेन्चर
眉
▁१९५०
▁उत्तर
4%A6%E0%A4%BF
contact
熟
▁दुव्र्यवहार
९३
▁हेडक्वार्टर
▁मौसम
▁५०,०००
kas
बीज
媲
हन्ड्रेड
▁मुकाम
▁गोर्खा
ष्‍ट
▁सुमधुर
▁चिन्ता
Why
नभन्दै
▁आइपुग्छ
▁सभागृह
▁भेषावकर
ादेश
विनायक
▁यादव,
渤
▁तरंग
ोचित
▁ब्राजिल
़
रोध
हाई
▁अम्बिका
异
▁म्यान्मार
▁शि
न्थ
4%A4%E0%A5%8B+%E
▁उनीहरुले
目
▁क्यारिकेचर
▁परे
▁प्रा
उल्लिखित
▁तिर्नुपर्छ
Ǧ
맗
▁उनका
▁सातवट
▁हातहतियार
▁शक्तिकेन्द्र
▁लाओस
▁चौकी
स्तरमै
̀
Խ
तल्ल
脳
▁अभियान
पहिले–पहिले
ill
स्तु
ી
▁बनारस
▁समाजका
भराउ
鹹
सम्पदा
涢
न्छ।
गार
कूल
▁बुढापाका
🎊
▁आरिफ
▁बाजे
▁अग्रपंक्ति
ỡ
really
捂
斓
▁ढिला
▁गर्दछौं
▁अभिभारा
▁बचे
Ǫ
हाल्यो
▁स्पोर्टिङ
阅
4%AB%E0%A4%BE
却
▁सचिब
▁मृगौला
▁रिब्दीकोट
0%A4%AD%E0%A5%82
▁प्रोडक्ट
▁जेब्रा
ष्
▁बंगलादेशी
Տ
4%BE%E0%A4%B0+%E
▁होमपेज
▁रुघाखोकी
5%87%E0%A4%95
म्यानचेष्टर
ສ
askar
▁रेडपाण्डा
▁प्रवचन
▁तडकभडक
▁बाटोघाटो
â
▁हरि
आर्थिक
Ι
खोजिरहेको
時
शर्त
.९
बुटवल
এ
鞨
򖳗
▁कथानक
▁रहँदैन
주
▁किसानले
▁नखा
गं
▁out
▁डडेलधुरा
▁देश
४६
त–जावत
ݢ
▁पुर्याउने
▁त्यसमध्ये
571
▁रिझाउन
प्रशिद्ध
%E0%A4%AC
मेण्ट
▁छुट्टा
▁जन्मेको
와
盂
▁गोरख
▁हु
▁भित्र्याइए
रामजानकी
▁नैतिक
▁टेके
▁गृहजिल्ला
▁सोच्नुपर्ने
ʝ
▁प्रायद्वीप
▁ट्रान्सप्लान्ट
▁with
▁महिना
帕
मुनिको
态
▁निमन्त्रण
宇
किनकी
后
▁कोइराला,
▁छक्क
▁डिस्प्ले

▁नर्थ
▁थ्री
पछि
▁पूर्वाधार
ठाँउमा
▁हैन
▁गर्छ।
▁समानुपातिक
▁आफ्नो
▁सत्ताधारी
▁निचोड
▁नाक
▁सत्यमोहन
▁किंवदन्ती
▁"सबै
▁अभिकर्ता
罩
▁पछौटेपन
▁बाँड
▁अर्थशास्त्र
▁ल्याउनुपर्ने
▁कागेश्वरी
िरहे
▁सिंगापुर
▁विभागमा
थरीका
🤚
▁गर्थे।
Λ
▁रियाद
▁उपाधि
방
▁सान्
▁स्मार्टफोन
▁मेघा
'हरेक
▁पदोन्नति
女
तर्फ
Ұ

▁सिकेका
支
▁कलाकारको
0%A4%AC%E0%A4%B8
▁१९९६
▁कस्सिए
▁शेर
り
🇨
▁बनाइदिन
組
▁नाता
▁गर्दैछ
ाते
㢘
▁अन्
܎
▁डिग्री
▁स्टार्टअप
▁पर्चा
▁'के
▁शहरमा
▁चिन्ह

▁गीतहरू
▁दवाब
▁निरन्तर
▁देउसी
▁free
▁परीक्षणका
▁सक्दो
२८
▁मख्ख
विहार
६.६
▁रोवर्ट
ߙ
輡
▁फ्रेन्च
अमृतसर
Ժ
Ղ
ुपर्‍यो
▁अपर
नै
▁काठमाडौँ
▁देख्न
▁फसाउन
▁पितृ
▁क्षती
▁शिब
ओराली
ケ
♥
ℑ
▁सक्यो
व्यतित
जे
▁पुर्‍याउँदै
速
▁२०७१
▁जसरी
▁थालिसके
▁अङ्ग्रेजी
느
श्
▁उपज
ाउ
M
नजिकै
▁निः
▁अमन
▁चलिरहे

▁महान
ൈ
на
▁स्न्या
ۑ
▁सुनाउन
▁एकरूपता
릎
▁बर्डफ्लु
▁शिव
उँछ
▁आचार
एकताबद्ध
▁आन्द्रे
▁हीनताबोध
ഡ
▁भद्रगोल
▁गर्थें
Ͽ
튜
–सु
▁जारी
▁रहन्छ।
▁यहूद
▁भन्नुभयो
▁पहरा
▁थिचे
ま
并
▁निर्वाचनका
▁कर्मचारी,
▁<description>
▁मन्त्रिपरिषद
▁जौ
▁आयातित
▁आन्दोलन
勋
▁मान्नुपर्छ
▁कालोपत्रे
▁सत्तासीन
36
▁विक्री
例
%E0%A4%9E%E0%A
),
▁श्रमदान
▁राजनितिक
शाकुन्तल
輼
▁वहन
लिखित
▁चुचुरा
▁मेरो
▁जथाभावी
मेट
▁९१
▁बरिष्ठ
▁ट्रायथल
▁शालिक
▁घरधनी
उपचार
▁नलगाड
कृत
पाँच
▁पस्ने
복
ད
▁डिएनए
▁परित्याग
▁पहल
▁बेन्च
▁वडाध्यक्ष
97
ב
▁रोक्ने
▁लाचार
बालुवा
▁सार्क
्पु
9/05/20/15583
▁गुज्र
▁देख्छु
▁क्यानेडियन
वादको
▁कविता
▁टेलिश्रृंखला
ᤶ
▁उपेन्द्र
▁न्यायधीश
̌
▁भनिन्छ
र्क
mantri
▁त्यही
▁न्युनीकरण
▁अपरेशन
떻
孙
厘
साइटमा
▁चस्मा
▁ठि
▁रंगी
▁वाणिज्य
楚
)
▁एकाइ
▁सिंहदरबार
▁किचलो
▁प्राक्टिकल
▁स्पिड
▁विश्वव्यापीकरण
ਢ
▁अपुग
ݦ
▁राखिएका
ाउँथे
▁आकष
▁हाकिम
▁देखिँदैन।
▁डेभलपमेण्ट
▁बिदाइ
०६२/६३
ἀ
दि
शुरुवाती
▁आक्षेप
ञ्जेल
Ğ
क्षमता
▁बढ्न
्तु
▁उमंग
ԁ
▁प्यालेस
건
ग्राफिक
▁नविन
▁उर्वर
▁सम्झाउन
▁पाण्डेय
▁युवा
▁दिनेश
स्त
▁बेत्रावती
▁जिब्रो
display
▁अमूर्त
▁ती
▁कोदो
▁प्रतिभाशाली
▁जनसमुदाय
Kama
▁भरोसा
देव
伤
सुवेदीले
fa
▁श्रमजीवी
लहै
▁उप्रेती
▁तिहाई
ʍ
▁क्र
▁५६
प्रतियोगिता
▁महा
▁२८
▁भेष
▁सपिङ
▁पाइएन
▁अब्बल
▁ट्रेनिङ
श्रृ
▁स्तरोन्नती
▁उत्
▁कन्क्लेभ
ॡ
▁हत्यारा
屽
ė
▁चाहनुहुन्छ
▁तानातान
▁भन्छन
▁नबढ
▁शोरुम
▁data-share-
▁नियन्त्रण
▁चितवन
▁भूमिहीन
▁थरी
▁जोगिए
▁प्रतिवर्ष
नीति
▁चिम्
▁ल्याएका
4%B2%E0%A
▁घटनास्थल
▁बिग्रन
▁भेटियो
विनिता
ঁ
▁तातोपानी
▁नख
▁दुरी
▁खाती
▁यहि
▁प्रगतिशील
▁अमेरिकी
▁प्रकाशन
▁रचनात्मक
▁चाहिँदैन
▁सानिमा
▁टिप्स
▁साक्षात
完
▁२१
현
▁सिलसिला
टीय
▁दुर्घटना
▁फागुन
▁चिन
▁सम्झिन
चेतनामूलक
▁सेलाउन
▁हरिप्रसाद
廣
▁प्रशासनले
▁स्वयम्भु
2018/04/670
▁बढदै
▁सरकारले
▁खायो
िभर्स
▁बन्गाड
्याङ्क
▁उज्वेकिस्तान
▁बिबेक
ӱ
▁बदल्न
▁जवान
▁भ्यू
▁सर्कस
񵒋
▁घिमिरेले
▁गर्दा
▁प्रबेश
▁भित्रका
कुशल
▁trans
請
¥यो
▁मिल्स
仪
也
▁दौड
▁तानाशाही
𫿮
Ł
केभिन
Ѽ
भोज
Government
▁the
▁नेपालीले
▁पाल्ने
М
AN
负
末
▁दिमाग
इकन
▁Bha
扱
▁हुनुपर्नेछ
तलमाथि
▁R
▁परियोजना
बाँया
▁दुर्योधन
▁लाखौँ
4%B8%E0%A5%8D%E
▁शनिबार
▁सार
▁रजस्वला
ܛ
ाइएको
▁थक
▁पढ्दै
१९८२
football/34
▁उपन्यासकार
؟
यसबाहेक
▁शिवराम
gust
्मी
बि
4%BE%E0%A4%9F
ु,
▁फर्नान्डो
▁प्रतिवेदनमा
▁गोसाइँकुण्ड
▁स्थानीय
समाचार
▁चुनढुंगा
▁एलेक्स
▁मेसिन
▁तोड
पक्षबीच
▁लोकेश
▁अपनाउनुपर्ने
܊
▁साथीहरुले
级
▁जन्माए
▁विज्ञप्ति
у
▁आख्यान
▁पौ
▁मितेरी
▁दार्
▁द्वि
▁जारि
▁दस्तखत
▁जमल
▁आत्मकथा
̚
钮
▁आफु
▁भ्रष्ट
▁कालीमाटी
▁फ्रेन्ड्स
▁गुमाउनु
մ
▁सेढाई
▁कर्मचारीतन्त्र
▁निमन्त्रणा
͘
▁व्यवसायिक
▁सामञ्जस्य
▁सरिता
▁गरिनेछ।
▁सिमित
▁रक्तदान
餐
▁नपुग्ने
<sep>
▁नेदरल्याण्ड
▁दुश्मन
享
▁लडिरहे
▁ओछ्यान
▁बिसाए
▁मोटो
▁कार्यालय
▁कच्चा
लोड
▁रिमोट
ɢ
▁सप्लायर्स
▁थुम्
준
▁देहरादून
सोमबारदेखि
Ϭ
▁वर्ल्ड
▁नघट
赞
+%E0%A4%86%E0%A
▁धर्मावलम्वी
▁इन्जुरी
▁हालीमुहाली
革
ۭ
▁ग्यास
16/feed
▁जगाती
▁न्यूज
实
▁मजा
▁कहि
छिटो
▁खुम्चिए
नीता
▁दशकौं
杀
▁बुधवार
▁लक्ष्य
रौतहट
▁द्वैध
ّ
▁कमाइ
▁यात्रामा
ख्या
▁चेस
▁राप्ती
项
line
▁याम
▁जोकोही
▁अन्त्येष्टि
▁मधुर
❷
▁छुटाउन
सातासम्म
Very
▁हटाइएको
▁बढिसके
▁हिउँ
#comment-773
जस्ता
ौरी
▁बोनस
▁सजाउन
▁नबढाए
▁शायद
▁सम्हाल्ने
kunai
▁भेल
▁क्रमश:
▁कू
▁पुँजीबजार
३-०
▁अनवर
▁तुलाधर
燚
पलिका
糸
Ʌ
儀
▁इभ
▁ओठ
खारिए
भा
newsofnepal
ine
्ती
▁सोच्दै
▁गरगहना
आईडी
74/feed
▁फिल्मको
पहिचान
▁त्यहाँ
▁आईएमई
▁शिक्षक,
▁अग
▁उछिट्टि
▁बिक
인
걯
▁बालसाहित्य
活
एमाले
▁भत्किएको
दिउँ
▁मागेको
▁संगीतकार
▁प्रतिकार
▁फस्ट
ہ
▁निकालिएको
▁नाइजेरिया
▁उठिरहे
26/
▁पूर्वाग्रह
▁कयौ
▁गोर्खाल्याण्ड
▁गरे।
▁श्रुति
▁जटिल
विवाद
हारी
▁लेखपढ
▁'दसैं
ԇ
『
प्रेम
▁समग्र
▁मयुर
▁सघाउँछ
）
▁माइग्रेन
🕸
͸
);
२०७४/७५
▁सपोर्ट
▁पारिश्रमिक
▁(क)
▁आइपुगेको
▁सामथ्र्य
ो,भा,भी,भू,ध,फा,
师
▁उसको
▁क्व्होलासोंथर
姐
ंडा
▁छोटो
▁अधिकृत
▁छोड्दै
घा
▁अङ्ग
幊
▁दैलेख
2017/02/
▁भिमाद
恩
अभिनेत्री
▁फोटोग्राफी
▁सुरक्षाफौज
▁छैनन्
▁वर्षयता
▁सामुद्र
▁त्यहा
▁प्रस्ताव
▁बने
¥
▁महाराजगन्ज
▁पारिरहे
▁'आधा
▁जनजाती
5%8D%E0%A4%A6
▁विभाग,
चौबिसे
ว
▁भनिसके
▁रसिया
शिल
▁कलेजो
▁करिअर
▁त्यति
4%B0%E0%A5%80+%E
▁एकजुट
▁खानपान
▁बस्ने
▁pro
내
泯
▁सोसाइटी
▁पात्रहरू
锤
ने
▁फेरि
▁थिचोमिचो
Ȯ
▁नेकपा(एमाले)
न्छन्
▁दाहिने
▁मार्जिन
▁बाच्छ
▁थपिएको
▁सहभागी
▁पेम्बा
城
а
▁'पहिले
▁सन्जाल
–१८
̣
Ҿ
ފ
▁बिदा
楈
2019/03/752
king
▁श्रावण
▁जगदीश
▁ज्यू
上
름
▁टेलिभिजन
▁शर्माको
벃
साई
▁विफल
▁विधानसभा
倉
▁रुस
ढ़
▁तोकिए
▁नगरपालिका–१
▁ग्रेडिङ
▁कंक्रिट
क्सन
▁खोज
▁अन्नपूर्ण
सहाय
▁ठगुन्ना
▁अग्लो
महिना
हँुदै
▁बजाउने
▁ट्युनिसिया
▁बारेमा
▁समाजले
2018/03/667
್
E
▁ब्यारेज
贵
कु
त
▁युनेस्को
允
▁कुलो
शब्द
▁पून
▁पाएनन्
▁बाँस्कोटा
▁उत्तरप्रदेश
▁सरह
नियन्त्रण
▁कञ्चनजङ्घा
▁विशिष्ट
▁लोमान्थाङ
東
▁झल
纪
▁देखेको
chha
4%A4%E0%A5%8D%E
ाउनु
केशर
Ѻ
⑻
▁अभिरुचि
勺
▁माडी
▁countries
▁ग्राहक
▁महत
परि
ical
-६
▁तामझाम
(लाइसेन्स)
▁उर्
ᤧ
▁उठाइ
▁We
A6%E0%A4%BF%E0%A
▁सकिनँ
▁शैय्या
%E0%A4%86%E0%A

▁स्प
Ă
▁९५
▁एक्लो
परस्त
पढ
۫
福
▁साथीभाइ
▁गराउनुपर्ने
▁हरित
गएराति
痖
▁प्रक्रियामा
ਸ਼
y
▁सुनेका
▁अमिर
▁द्रूत
+ba
▁सुशासन
ơ
▁लालबहादुर
▁चिसो
ȼ
हालसालै
▁नेगेटिभ
%E0%A4%95
▁त्यतिबेला
▁रहिरहने
यम
Ԝ
▁धुँवा
4%BF%E0%A4%A8+%E
ݧ
▁बिथोल
▁वडामा
▁साहु
Ǹ
▁सास
པ
▁मर्म
▁सँधै
▁धावा
▁चिरञ्जीवी
汇
▁समेट
लिमिनेटर
著
茧
▁कार्यक्रमको
4%AA%E0%A4%BF
▁पोख्
लमा
▁बलत्कार
协
before
▁उनीहरूका
▁फुङलिङ
Ě
451
▁विश्वविद्यालयको
▁दीर्घायु
▁यूनियन
▁गर्दैछौं
往
᷺
虐
▁स्विट्जरल्यान्ड
ाकार
▁वास्तवमा
华
▁पार्टीले
▁बालविकास
՟
▁फोन
▁आर्थिक–सामाजिक
▁पत्रकारहरू
-३
▁ठगिए
▁खड्काले
▁राजश्व
▁15
▁कण्डम
▁(इ
祉
▁हिस्सेदार
▁दान
▁तिलोत्तमा
▁'पैसा
कम
▁मट
चौथाइ
59
▁व्यक्तिलाई
0%A4%B0%E0%A4%B9
▁Nepali
▁एआई
េ
डायलाइसिस
▁अला
進
▁चिन्तन
가
▁विना
▁पठाइ
▁सरद
▁टेबुल
▁नेपालमा
▁'स
▁काठमाण्डौं
▁तापक्रम
▁बसि
करीव
क्ति
♢
여
药
塑
विकासशील
स्फूर्त
ญ
ч
▁अवधिभर
克
▁तेर्स
▁सकस
.pdf
▁बंैक
南
▁फार्मेसी
▁साइट
▁राखिरहे
˅
绳
▁स्या
▁जुम्ल्याहा
▁स्वयम्भू
▁बनाऊ
值
▁वर्कसप
▁मनोहरा
▁गृष्म
टी
4%A6%E0%A4%BE
▁परिस्थिति
वर्द्धन
▁सूचि
約
▁मात्र
▁लक्ष्मीप्रसाद
݈
थ्
भित्रभित्रै
▁त्यसो
बिहान–बेलुक
na,
▁चढाउन
ीना
▁कथावस्तु
▁उकास्न
थरि
ाइरहँदा
▁कुपोषण
ॐ

▁दाम्पत्य
饙
ڌ
９
▁तपाईँ
▁कमल
▁राखे
▁अधिकारीले
▁नाटकीय
▁लिस्ट
▁पीपीपी
सात
ानी
रेर
5%87%E0%A4%B6%E
▁व्याकरण
▁कन्सलटेन्सी
▁व्यपार
ਚ
免
𽲿
▁आशावादी
4%A5%E0%A5%8D
▁वातावरण
▁बज्न
▁गम
Ɩ
▁मापन
▁छानबिन
P
Ꞗ
स्टि
▁फिजिक्स
▁बुझाएको
▁भाई
⨯
▁खल
091
done
▁हेक्टर
▁ब्यूरो
▁दो
▁विश्वसनीयता
▁पैताला
▁तुलसीपुर
▁टिमुर
▁परिरहेका
違
▁बाँधे
▁नखुल
▁कब
▁विप्रेषण
सरकारी
▁डेब्यू
▁सुमित
▁जमीन
▁हुँदैनन्
]
▁जीवनभर
▁गापा
▁नेताहरुको
着
ʖ
▁इन्स्टाग्राम
▁मुस्ताफ
▁मुख्य
▁विरोधाभाष
ह्र
▁हात्ती
▁मन्त्रालयलाई
▁पुगें
▁प्याड
▁एम्बासडर
▁दुनै
▁स्वाधीनता
▁टुंगो
'त्यसैले
▁महासेठ
▁अग्रसर
▁भै
▁कम्पनीले
家
(नेस)
▁ठहरिए
碗
ͯ
▁संघ,
पायल
▁वाइन
▁अटोरिक्सा
Շ
▁डाक्टरले
▁'त्यो
▁नसोचे
▁बच्चाहरु
▁पुननिर्माण
▁हिल
▁बेलौरी
▁लाग्यौं
贝
▁Republic
▁लुक्स
▁बतास
▁काबेली
田
▁अमात्य
▁सक्दैन
▁सकिदैन
▁पर्नेछ
▁सन्यास
梦
▁निषेधाज्ञा
स्क्र
鬆
▁जोडे
स्कृत
􀇑
आइ
0%A4%A4%E0%A4%B0
▁सर्न
लिग
all
▁प्राणी
𯪰
▁झन्डै
नन्
􀃲
स्थिति
संयमित
ण
▁पाइन्
▁कालिमाटी
▁चाले
ahilo
撕
▁संसद
▁विदेशमा
▁लगायत
▁घो
▁सहपाठी
ἆ
<span
power
शीघ्र
▁महाराज
5%81%E0%A4%95
ׄ
̾
दिनु
66/feed
▁अग्नि
4%A3+%E0%A4%
▁पहिल्यै
4%AF+%E0%A
▁लोह
डी
▁वैधानिकता
▁प्रो
ɓ
▁कार्यक्रम
▁अराजक
ދ
▁आरोप
endra
जेपी
🇳
𗲜
▁पुस्तकमा
▁बौद्धमार्गी
रामा
ۿ
▁धरौटी
▁अर्जेन्टिना
साथसाथै
▁कम्पनीका
λ
▁चे
뀐
▁मुआब्जा
▁प्रविधिको
▁क्षेत्रका
्लु
▁जती
高
4%B0%E0%A5%8D
▁'राज
▁परीक्षक
▁लेग
▁ड्रेस
एकैपटक
▁आधा
गरेपनि
▁बहाल
▁सँ
▁सर्वे
֕
鶡
抱
चाप
low
右
▁कोसिस
▁धारा
▁छन।
▁अपरेटर
▁भारतिय
▁ऐक्यबद्धता
०७१/७२
https://www.
▁पेज
40/feed
▁अनुशन्धान
्स'
🎶
▁बीस
▁सोधिन्
▁सहकर्मी
▁बहुल
ӥ
▁एयर
利
ुपर्ने
▁नभए
▁सयौं
▁प्रसङ्ग
ற
▁गाउँगाउँ
सिना
निर्माता
Đ
ѡ
▁डेमोक्रेटिक
▁एकीकृत
+%3F
G
▁कानुनी
▁सीडीओ
▁कदर
▁आज
देखिँदा
▁प्यारापिट
▁बमोजिम
▁स्वर्गद्वारी
Nepal
▁देखाउन
▁सङ्
ाएँ।

▁समिक्षा
जाहेर
▁सत्याग्रह
▁नबनाए
▁कपिलवस्तु
층
诞
▁लगाउँदा
आप्mनो
▁रक्तस्राव
▁लैनचौर
खटिरा
्‍य
▁सत्तापक्ष
ǂ
▁ट्रेडिङ
▁ब्यक्त
तत्कालीन
ٿ
ન
▁कार्पेट
▁इन्जिन
▁प्रशंस
4%9F%E0%A4%BF
ϩ
▁उति
यद्यपी
▁खा
▁सुष्मा
ޘ
761
सिटिजन्स
▁नेपालीहरु
᮱
▁decision
Ɠ
占
ߣ
▁वैज्ञानिकहरू
्यान
ग्वे
▁जोगी
▁सङ्घर्ष
師
▁झिक्न
▁भकुण्डे
▁(२)
▁वार्नर
+din
▁मेरा
▁स्वीकारोक्ति
▁नज
iz
▁ड्रेन
स्थापक
जाजरकोट
▁'अब
▁सदन
▁बुझाउँछ
▁सूर्य
▁स्वभाव
ुभएका
खेर
▁डिजल
▁गोविन्द
18/
▁दु:खद
描
己
▁पुग्दा
▁केन्द्रीकृत
▁कोशिस
▁चुलि
吧
▁खाँड
▁प्राध्यापन
िझाउने
弥
आवश्यक
▁खयर
▁साभार
Յ
▁गृहयुद्ध
▁भर्दै
89
▁पासपोर्ट
▁३६
▁अत्याचार
▁चिनो
▁समयावधि
लगाएतका
▁डिस्ट्र
ಬ
▁सबल
▁एकाउन्ट
▁कामकारबाही
븳
ხ
▁मानव
▁Fe
▁छात्रवृत्ति
0%A4%A4%E0%A5%88
ठूलो
रेल
तोक
▁'जो
ल्हा
ाधिकारी
▁महंगी
2018/04/674
▁सुन्दरहरैंचा
क्ट
▁भोगिरहे
▁प्राइम
▁सहर
▁तालीम
▁लेखिएका
▁शौ
िँदै
▁बहुपक्षीय
▁हैदरावाद
舞
▁श्रीमान्
▁पहिल्याउन
▁सहयोगी
¯
🌾
दौलत
▁पोस्टर
▁धैर
▁गाडि
▁जनकपुर–जयनगर
▁कर्णेल
दृष्य
▁टेन्डर
▁निश्कर्ष
▁क्याल्सियम
eriod
演
▁सहचालक
+%E0%A4%B8%E0%A
▁लस
▁लाए
▁तयारीमा
▁क्यालेन्डर
▁पसे
बेठिक
▁शिक्षालय

&#039;
孊
谁
㠷
खाले
們
▁सिटामोल
%E0%A4%97%E0%A
▁सुनिरहे
འ
▁काउली
ɨ
퍦
सुदूरपश्चिम
ina
听
ry
नगरपालिका–३
▁बराल
▁कप
ic
▁उत्रिए
▁पुष्प
▁उल्झन
/dc
डीपी
提
延
ಗ
ƽ
▁किलोवाट
▁भित्तो
▁कठ्यांग्रि
▁तयारी
5%8B%E0%A4%B9
4%A1%E0%A5%8D
ire
비
▁गुञ्ज
[१]
▁मर्चवार
▁मार्केटिङ
▁नरम
वेन
ť
पुर,
4%A8%E0%A4%BE%E
▁सुपरिवेक्षण
जिवित
ͣ
▁मारुनी
▁जनश्रमदान
▁बर्दिवास
युत्त
▁बुर्तिवाङ
▁बाथरुम
▁बत्ति
▁विच्छेद
▁मोड्रिच
▁त्यसबखत
▁यस
▁बाहुबली
▁पञ्चायती
▁चिढ
来
मल्टिपल
0%A4%AC%E0%A4%BE
▁सुलभ

ğ
▁गरिनु
भगवान
▁परिपालना
▁बक्स
ⴚ
4%BE%E0%A4%88+%E
▁तृतिय
▁निलो
देशी–विदेशी
▁हेरेको
図
लता
▁यसरी
छन।
0%A4%B0%E0%A4%BE
AL
प्राध्यापक
वन्ध
▁आइरहे
Press
4%B2%E0%A5%8D%E
को
▁विहान
▁दाउपेच
▁इनर्जी
prove
웠
▁प्रतिशतले
▁जनाए।
▁राष्ट्रिय
▁हार्डवेयर
▁जोशी,
▁बदल
आवासिय
▁प्रदूषण
वन्त
✉
▁गोला
▁इँटा
▁जनकपुरधाम
▁पे
▁गोरे
्चामा
▁एसएसपी
▁ज्वालामुखी
Ltd.
३–२
▁बीउ
°
▁संख्यात्मक
▁तपाईं
▁आइपिएल
▁विश्वस्त
उप्रान्त
▁फिट
महिला
積
莱
पाइ
▁पाण्डव
ढुंगा
졌
▁पूर्वअध्यक्ष
पाँज
निकट
▁आइरहने
러
▁best
老
सिफ
▁तरीका
▁खबरदारी
▁परेवा
▁&#8220;
▁his
साध्यै
▁विद्यार्थी
▁छाडेर
😆
▁कुपण्डोल
घाइतेमध्ये
▁बीचमा
䠭
▁रोपे
▁हजारौँ
▁डिपार्टमेन्ट
▁Thapa
▁सारिएको
寺
▁एन्ड
▁वीरगन्ज
▁धैर्य
▁गृहमन्त्रालय
▁आबस्यक
▁(एम
–डे
▁मट्टितेल
▁अन्यौल
▁समाजको
▁गएर
▁कन्या
▁दिँदै
烂
▁तपाइ
▁आकस्मिक
▁पलायन
迅
▁रोशन
lo
▁जुवा
▁फर्काइए
▁गर्नुहुन्थ्यो
骟
▁मुनाफा
纏
▁छान
▁ओमेगा
निश्चित
Ӷ
嶽
nepal
▁वास्तवम
▁संवेदना
▁बाइबल
▁थपियो
劒
पदमबहादुर
▁'से
▁तलब
▁समिती
ोन्मुख
▁वर
७५
▁वहा
▁भागेका
▁भइसकेको
▁on
agarmatha
▁गोजमुमो
℃
▁भूगोल
▁बन्दी
सातादेखि
▁'दुई
सामाजिक
ion
হ
न्ज
अख्तियार
</
˫
▁अपांगता
२४
▁अप्रेशन
शून्य
▁सिमिकोट
▁निणर्य
▁लम
▁छाउपडी
▁मसी
4%97%E0%A4%BE
▁बिग्रने
▁बज्राचार्य
▁दावा
▁भारदार
▁बेसार
=
ঙ
锰
▁ट्ेरड
欫
▁फेर्ने
Н
▁कुरै
गाभिने
4%A4%E0%A4%BE%E
流
ɜ
输
▁फेरे
स्वत:
▁थात
▁देखिंदैन
▁गह्रौ
新
法
▁चर्च
▁शोषित
▁आँखा
▁औषधी
▁साजसज्जा
▁रतुवा
▁विसङ्गति
▁लगाउनुपर्ने
▁९.
KO
▁छोरो
郵
ǒ
कलंकी–नागढुंगा
由
婲
▁दर्जनौं
▁हत्कडी
▁अदालत
–७
▁परिवारसँग
▁रोनाल्ड
▁थिईन
शास्त्री
າ
हरू,
ʂ
मूल
▁आकर्षक
▁फँस
山
贯
圣
▁१५
▁हकप्रद
▁फल
▁लज्जा
▁कल्भर्ट
▁14:18:
▁सिहं
▁बिज्ञापन
2019/03/748
Ｗ
▁सरस्वती
▁हेल्मेट
▁गई
▁छाड्न
▁उभिन
▁नेकपा
ͩ
▁तिनाउ
玻
▁हँुदा
▁गरिदिए
▁आलोचना
纸
▁थालेको
▁हाइस्कुल
▁संस्मरण
▁विराटनगर
साना
▁सक्दैन।
▁नमूना
▁अथ
▁बेपत्ता
▁नियोग
'त्यहाँ
कता
▁कालाबजारी
▁gar
▁नहुँदा
श्च
▁सामान्य
▁भ्यालेन्टाइन
▁बीबीए
▁शसक्त
पञ्चायतकालमा
▁शर्मा,
细
؛
▁अपहेलना
ށ
▁आदित्यनाथ
छ
俗
랜
ന
कतिसम्म
▁बताउ
▁बोक्रा
बुक
▁गर्‍यौँ
▁निर्वाचित
▁चाल
▁माइला
विनोद
ল
ࢎ
नहस
▁सामान
▁सुपरीवेक्षण
्छन्,
▁ब्यबस्थापन
▁पुरी
cd6
▁हुनसक्थ्यो
cup-2018/2018/0
▁नलिए
▁योजनाहरू
13
▁प्रश्नावली
#comment-822
▁एकाध
्किए
#comment-835
▁उमेर
▁जाहेर
▁लेख्ने
▁देखिए
यूटीएल
ấ
▁निहुर
▁स्लो
act
򝠊
受
經
४१
▁भया
ë
वाहवाह
▁need
▁गर्नेछन्।
▁रगत
▁बताइसके
▁ग्यास्ट्रिक
कुटी
花
आइए
featured/5
▁बताउँछन्
▁¥याली
▁पटाका
▁गार्
▁बान्ता
▁थाल्ने
▁उनै
▁लाग्दो
वैज्ञानिक
विर
अग्र्यानिक
अघिल्लो
▁बाँध्ने
▁सोना
▁क्षण

▁औध
▁गोलरक्षक
ۤ
▁पाल्न
▁वृद्ध
▁गलेश्वर
Ӊ
▁चकित
▁बसिरहेका
ギ
5%87%E0%A4%9F
开
ारो
▁सावधान
▁थिए।
▁तोकेको
▁क्रिस्टियन
ៃ
▁विमानस्थलमा
▁नापी
वातावरण
▁भिडीयो
ԭ
▁भ्रमणमा
▁त्रिकोण
परिचालित
▁चुनावमा
%E0%A4%B0+%E0%A
▁निर्मला
▁र्‍याफ्टिङ
एमजी
▁यायोक्खा
👊
渉
पपुलर
सुरुमा
藉
5%87%E0%A4%B6
स्तरका
▁बिगार्ने
▁बिसी
▁खेती
Mother
▁दिए।
ai
▁छलकपट
▁फुर्सद
बाहिर
29/feed
▁भएपनि
ʙ
र्घ
▁सुनेको
football/18
हनिमुन
▁ऊर्जामन्त्री
▁पाठशाला
▁एनसीसी
▁प्रवद्र्धक
सूचना
▁दनुवार
五
▁बाफ
सातै
板
▁मलाइ
▁ब्राउजर
־
yes
▁तिर्दै
▁रात्रिभोज
▁डिस्चार्ज
▁महिनामा
▁औला
▁आउँछ,
ន
4%A8%E0%A4%BF+%E
4%9E%E0%A5%8D%E
▁Raj
▁जुनार
▁घण्टौ
‭
▁सिन्धुली
▁गला
▁भइयो
企
पार्वती
趋
▁जाती
▁पुगोस्
▁परिवारमा
▁समेटिएका
▁अँगालो
िँदैछ
▁चन्द्रागिरि
▁थुनिए
川
▁जिल्लाका
▁बालश्रम
锅
酿
冊
ڶ
▁२२०
▁बुढीगण्डकी
ē
▁सिङ्गापुर
▁प्राडा
▁सराङकोट
鏏
2018/10/26/15405
▁छाडा
pradesh-2/2018/
▁काइँला
统
▁कमी–कमजोरी
▁सांग
▁झक्झक
▁हे
▁सैद्धान्तिक
स्था
▁जनप्रतिनिधिले
ͪ
▁स्वार्थपूर्त
廃
▁सर्जन
खतिवडाले
▁तुलसी
▁उठान
▁डाक
ֆ
ស
▁गन्तव्य
▁नदेखाए
▁आर्थिक,
▁कार्यालय,
▁थाई
▁खलनायक
▁लियो
एस
▁प्या
▁पप
▁योजनामा
उपत्यकाबाहिर
▁एक्सचेञ्ज
▁अध्ययनमा
news/banking/1
♣
▁आई
▁बैकल्पिक
▁कुरामा
▁इन्टरपोल
▁व्यावहारिक
▁भनेपछि
▁६००
▁देवकोटा
▁फाँसी
पुनर्निर्माण
▁आम
Ｎ
▁फ्रेन्चाइज
▁जाति
▁बनाइएका
▁अनुरुप
▁समझ
ब
s+
khabar
▁श्रमिक
▁पराजय
%E0%A4%B5%E0%A
▁घेराउ
▁उत्सुक
▁garnu
每
▁अमेरीका
०६७
▁हेरफेर
02/
वित्तीय
▁पठनपाठन
4%9F%E0%A5%8D%E
玉
▁मोवाईल
敌
▁बल्ल
▁मारि
▁थपिँदै
Ĳ
#comment-70
▁कलि
▁पर्नेछ।
▁अन्नबाली
ञ्च
▁प्रकृतिका
ल्ल
▁बताइन्।
▁ढिलाई
ре
▁पिठ्युँ
▁रमाईलो
▁अन्तत
▁रै'छ
莦
da
ੀ
안
▁हुकुम
▁दशैं
4%BE%E0%A4%B2%E
挑
▁रहस्य
▁हाले
▁ब्या
▁जनाउनुभयो
े
▁संरचनामा
23/
606
ated
661
▁गोदावरी
▁रुपैयाँमा
▁Online
0%A4%AE+%E0%A4%
徽
▁फास्ट
42
ѣ
▁उनीहरु
▁खाएर
▁बस्छु
▁पिस
▁बेन
football/41
根
▁जाम
▁भेटाए
0%A4%95%E0%A5%88
६७
▁पाईने
्यौँ
▁सौगात
▁मझुवागढी
▁मेयर
▁'यहाँ
ǜ
і
▁झोलुंगे
पम्फा
नभ्याइ
▁तोकिएका
▁एमबाप्पे
怪
०००
4%A8%E0%A5%80
͓
▁भाषिक
▁बयान
5%8D%E0%A4%9F
黖
▁
red
कुरा
▁दिइन्छ
'एउटा
▁वो
▁डुबुल्क
▁कुण्ठ
▁आइसल्याण्ड
▁युनाइटेड
▁परिसरमा
840
▁आममाफी
▁तत्पर
▁शिक्षण
0%A4%A4%E0%A5%80
▁क्यास
ݥ
▁https://t.co/
▁सहमत
मत
▁विशेष
▁इटाली
▁खवर
▁बिगार
lar
綿
ג
लिटिल
▁धु
लुकाएर
▁गुमायो
▁आरक्षण
▁ज्याक्सन
▁सञ्चिति
杜
团
▁बढाउँदै
ाशं
ँगो
‍
▁बुझाउनुपर्छ
▁प्रश्नचिन्ह
▁hun
यस्तो
‌ं
▁नष्ट
▁कहिलेसम्म
ዛ
▁बिम्स्टेक
ﾥ
▁मारेर
▁रहनुपर्ने
हाल्नु
Ą
▁टर्बाइन
顶
▁लघुवित्त
▁मनोकांक्षा
▁उन्माद
▁वीर्य
▁ककनी
Ƹ
राम्ररी
▁दौरान
▁चिलाउने
你
崽
09/
▁एकतर्फी
▁कार्यसमिति
▁खाल्डाखुल्डी
▁देशमा
▁भुटान
ुना
ौरा
▁थे
ɯ
▁बराबर
▁साटासाट
׭
ل
ϑ
एका
▁छापाखाना
語
▁भेषभूषा
संघ
雄
▁मञ्ज
▁शिर्षक
ℷ
चिङ
▁भारतसँग
▁जनक
्तै
▁ढुंगेधारा
▁जोखीम
क्याप
ĳ
्रेस
▁लिबिया
directly
৩
८
▁शिर
▁टुंग्याउने
🇩
▁जोन
पश्चिम
▁एचआईभी
采
र्खा
self
▁धन्दा
▁देखिँदैन
03/
▁सक्ला
▁लक्ष्मीपूजा
बरू
▁तात्
▁डिफेन्स
▁तसर्थ
बहिनी
▁हितैषी
▁किलो
▁कट्टर
▁महोदय
▁अलिक
▁ह्वीलचेयर
र्जी
बर्षदेखि
સ
▁मेघ
सिला
▁M
▁नागरिकहरू
▁अत्तो
▁व्यवस्थापनमा
▁पेट्रोलपम्प
▁नलगाए
तृप्त
察
▁वार्षिकोत्सव
ẻ
बोध
द्वय
▁भ्यालेन्सिया
绿
#comment-816
ɼ
कसै
▁योजना
▁पाइन्छन्
▁मेलबर्न
賢
▁अप्रेसन
▁नियत
▁add
पुट
▁अमरगढी
▁कोलाहल
跟
▁मानन्धर
☔
▁भावनात्मक
▁सुमार्गी
▁हटाइए
▁लिच्छवी

▁उत्तीर्ण
▁ब्लास्ट
▁आउँदैन
▁डिसेम्वर
Ｇ
94/feed
▁चाँदी
ुरा
दृष्टि
ª
अलग
ด
▁विराट
िफ
ܰ
literature
#comment-778
▁मृग
ই
▁रंगशालामा
Ћ
▁दाजु
▁रासस/सिन्ह्वा
▁तर्जुमा
work
▁प्रयासमा
▁बेग
▁पञ्चाङ्ग
04/
4%AC%E0%A5%8D
▁आं
ഷ
▁प्रयोगात्मक
▁ट्याब्लेट
▁ban
▁असमझदारी
ϟ
▁आदर्श
हेड
赌
អ
▁क्लोज
रिझ
ood
▁राधाकृष्ण
ܖ
▁प्रक्रिया
ۡ
सेन्ट
な
答
दलबहादुर
५८
तराई
▁शिल्पा
+aa
▁कुवेर
▁लोभ
पोत
▁नपाउने
4%AE%E0%A4%AF+
燥
ۀ
▁परिभाषा
ظ
▁वाग्ले
ाउँथिन्
▁बिघा
लिफ
士
मोसो
▁रावण
⟳
▁पोजिसन
▁चन्द्रशमशेर
🎥
▁पठाइदिए
▁विजय
抠
2019/06/770
010
+%E0%A4%9B+%E
ᤕ
▁पान
▁भरिया
▁देखाउँदै
▁लिइरहेका
▁छोरीचेली
▁पराउने
ٴ
▁please
▁समकक्षी
▁लगानीकर्ताहरु
२०३९
रातभरि
▁ल्यायो
▁गैरदलित
वामपन्थी
捧
▁अन्तर्राष्ट्रिय
▁पूर्णिमा
▁बोलि
▁छैटौं
▁मारुती
ह्याप्पी
▁रानीपोखरी
▁भइरहने
25/
敏
씱
▁ट्याक्स
ల
▁समीकरण
▁जीवित
▁अभिवृद्धि
+%E0%A4%B5%E0%A
▁खैरहनी
▁वर्क
5%81%E0%A4%96
चुँड
गृह
▁स्रष्टा
▁भनिन्छ।
–६
▁भिषा
▁स्वर्ण
पूर्व
▁ट्रेडमार्क
▁आपतकाल
भत्स
श्रित
ي
▁हमाल
▁लन्डन
▁खाँदा
जघ
偶
भित्र
▁प्रशासन
▁उपलब्धि
ؠ
▁मिनट
वीन
▁सामीप्य
▁खोर
▁काउ
▁धर्मशाला
レ
൒
▁दोहोरी
対
▁इस्लामावाद
▁किसानहरु
▁कर्कट
▁चिर्न
▁भएनन्
▁राजनिति
0%A4%9C%E0%A5%8B
羁
▁ल्याउने
▁म्यागजिन
😖
▁नखे
▁मनोरन्जन
ϸ
बोर्ड
▁जैन
៥
lue
त्ती

口
▁अधिवेशन
▁भुजुङ
扬
▁महँगा
▁साउथह्याम्पटन
▁युगान्डा
▁भ्याउन
▁होटलमा
श्रेष्ठ
▁कश्मिर
ष्टि
ć
▁तल
कडभिट्टा
🌽
खशोग्
un
ु
焲
्ची
अप
RO
मुनि
▁ताला
▁पाउँदै
▁कन
पहिलो
समेटिएको
वंशी
▁पिँढी
ិ
ेसो
धन
▁अन्तरिम
ayera
▁अविनाश
▁श्रेय
ुस्याहा
ছ
񰎄
▁मंसिर
▁बढ्छ
팬
▁खोज्न
सद
▁सुनिश्चित
▁आईरहे
▁खोतल्न
ʑ
▁दामोदर
▁म्याराडोना
▁ओखती
0%A4%B9%E0%A5%80
टर्किस
▁चिनाउने
+%E0%A4%B9
▁02:4
▁विश्वसनीय
हरा
एक
▁छोडिदिन
▁म्याद
738
2019/05/763
▁क्रोध
Ҟ
眨
▁टेक्स्ट
▁माध्ययम
▁उसले
愁
▁कार्यक्षेत्र
▁बहिनी
▁४३
▁बोलाएको
पर्ने
हीनता
ت
▁भर्
३४
▁नाराबाजी
▁अन्तर्वार्तामा
▁तस्करी
▁इज
0%A4%AE%E0%A5%8D
▁पढेका
▁say
▁महायज्ञ
▁असहाय
ധ
मधेस
#comment-775
▁भगवान
▁आफन्त
मारा
背
▁खिल्ली
▁२०६२
▁उडान
▁करोड
ݨ
शरण
▁गरिरहे
▁ल्याइएको
comment-id="82
▁बलिङ
▁टीकापुर
▁मञ्जु
▁पार्टीमा
▁किर्तिमान
social
ؖ
उपाध्यक्ष
ݚ
▁बस्नुपरे
लोजिकल
▁लन्च
स्थानीयस्तरमा
▁केन्द्रीय
▁झुट
ब्रा
▁परस्पर
▁राक्सिराङ
֧
ƭ
▁बडी
耍
०७३/७४
̋
烟
▁सिमकोट
३
यौ
真
▁क्रियाकलापमा
%2C%0D%0A%0D%0A
0%A4%A8%E0%A4%BF
😜
३८
▁गाग्री
▁अरे
▁आतंककारी
▁खरानी
▁अहिले
▁लाभग्राही
▁आउँ
प्रजातान्त्रिक
▁नजिक
सुटुक्क
▁cld-
▁भुक्तभोगी

▁इन्सुलिन
▁अर्थनीति
सुर्खेत
जुद
 ।
▁असुल
▁'वर्षा
र्प
▁सुरक्षित
5%8B%E0%A4%87
गोटा
▁सूचीकृत
▁बन्दा
▁इनरुवा
▁23
ावो
▁लोकतन्त्र
▁सिन्
07/
▁बर्लिन
4%B9%E0%A4%BE
▪
與
▁कैफ
▁नक्सा
▁सम्पर्कमा
▁वित्तीय
▁उपभोग्य
छैन
▁गीतहरु
▁कट्ठा
▁योद्धा
▁हाउस
chan
▁अगस्त
٠
▁कोसेली
श्र
▁कारणले
▁असजिलो
सम्पादित
▁ढुंगाना
赏
सा
▁filename="2018/
束
็
医
▁हिमश्रृंखला
▁किड्नी
मूल्य
▁माओवादी
▁job
摄
麺
▁खत्त
▁भनिहाल
▁बाआमा
▁घुम्ती
ր
▁फर्कियो
६९
on:
▁लालनपालन
त्यसैबेला
露
▁कैलाली
▁हुन्थ्यो,
ê
सन्
ړ
▁चिल्लो
+va
हित
▁पालुङ
▁संविधानअनुसार
स्वास्थ्य
▁बन्नुपर्छ
▁हुनुहुन्छ।
item
▁मार्क
▁'आज
▁विकेटकिपर
▁05:1
▁रहन्छ
▁भइहाल्छ
▁कामदार
׮

▁इन्डियन
ご
▁डिनर
意
▁सर्वत्र
▁केभी
▁पाच
▁चालु
ꕊ
▁कार्यान्य
▁रातभर
ह्वा
̘
▁फाउण्डेशन
ܕ
▁(२०६
隅
Ў
▁क्षेत्र,
ྤ
ra
ܥ
㤱
▁भोक
郁
सिद्ध
▁टिप्ने
▁आश्रम
नी
▁मच्चिए
र्षरत
ᎆ
涵
ट्वान्टी
▁पुर्ननिर्माण
▁पाउँदैनन्
֑
लिएपनि
▁जिम्मेवार
ढोका
▁साँझसम्म
हिंसा
ศ
Ʊ
%E0%A5%A7
▁विद्यार्थीले
ҍ
ղ
▁टिम
ॣ
▁कालि
▁रोए
▁नेवा
为
▁हिमालयन
▁मरिसके
▁धनगढीमा
ाइदिन
圆
ूँ
▁माछापुच्छ«े
</a>
▁खोल्न
1531
▁सिलवाल
विमुख
▁दुलाल
▁आउँथे
▁Pur

値
▁चित्रमा
▁रञ्जित
मध्य
▁वर्षात्
▁०७४/७५
对
것
˿
खेरी
题
▁सच्याइ
覚
̢
यि
4%89%E0%A4%81
▁शैली
ਭ
▁चल्दै
▁साँघुरो
▁चाँडै
呼
▁तर
–ए
▁सत्यतथ्य
ⳁ
▁निस्किए
▁यसले
कुल
4%BE%E0%A4%AE
चोटी
▁लैजान्छ
▁नसोध
û
अस्ताउँद
旋
▁लगिने
▁चक्की
जन्मसिद्ध
▁!
▁तामाकोशी
▁एआईजी
▁हेर्दै
निधि
▁कृषि,
▁बिद्यालय
▁टुट
搏
▁महानगर
बाबुराम
dc
▁उपर्युक्त
each
स्टा
65/feed

ナ
ྷ
▁पछ्याउँदै
▁अनुदार
ारे
▁बनाईए
▁सम्बद्र्धन
▁More
दिइरहेको
▁कोलकता
▁(हाल
▁जस्तापाता
規
뷶
▁स्वतः
카
▁पैदलयात्रु
स्टर
▁अंकमा
▁हुनेछ
▁मङप
▁रिक्त
▁शोधकर्ता
▁'छा
▁नदेख्ने
हरुलाई
▁शक्तिपीठ
टिङ
 
ुइ
▁भेग
▁सुरू
许
▁जियो
ɗ
▁प्राय
arch
▁लि
▁गरि
▁शा
弟
▁आदानप्रदान
गर्न
▁चा
to
ỗ
▁डम्बर
▁स्वा
तथ्यांकअनुसार
▁कहीँ
▁छैनौँ
Ѿ
ؤ
▁फुरु
▁गए
胶
घुमाउरो
▁my
▁रूपमा
▁कहिल्यै
▁भण्डारीले
▁म्याग
छिट्टै
എ
路
む
स्पर्धामा
बिहीबार

जी
▁रोड
▁तत्कालीन
2019/03/746
ब्ध
読
▁अरनिको
▁बिमल
नायब
्छ
मोर्चा
▁गरे
▁आव्हान
पारम्परिक
%0D%0A%0D%0A
▁विमस्टेक
▁तिलौराकोट
स्वागतयोग्य
▁साठी
瞟
▁12:53:
▁स्वास्थ्य,
▁मातृभूमि
▁कण
▁पहारी
▁प्रस्ताब
▁शृङ्खला
▁सेनेगल
600
080
▁धूवाँ
▁ब्राइट
圍
▁समावेशी
पश्चात्
८४
'अरू
惹
▁वासुदेव
▁पल्टाए
▁एक्सन
▁बजारमा
▁थिइनन्
football/11
▁दौंतरी
▁लागूपदार्थ
प्र
किफायती
障
५३
▁माया
शैली
▁न्यायपालिका
▁चक्कु
짱
▁development
81
奋
ानुसार
▁सर्वशक्तिमान
ע
▁विताए
借
▁सिङ्गो
▁झुक्न
🤣
ܺ
िरि
４
▁अपनाइए
▁सर्राफ
▁बिज्ञप्ति
▁स्टे
ुन्
ル
養
▁सकोस्
环
–१६
▁स्टक
▁'प
۸
▁प्रारम्भ
0%A4%AC%E0%A5%8B
oo
▁नक्सल
छैनौं।
▁मारिए
▁भन्छिन्,
ട
▁लाग्नु
▁आ
▁क्षति
▁२०६८
▁कार्की,
▁भर्खरै
ुत
ाँै
जवाफ
%21%21%21
technology
▁प्रोटेक्सन
▁दुहबी
Adhikari
हारगुहार
征
ep
▁छलफल
▁सोच्नु
ञ्
▁सासु
ڪ
ᤗ
꯬
▁ल्याउँदै
4%82%E0%A4%95
㡑
▁कन्ट्रोल
प्रत्येक
▁खोकी
▁विपना
▁धारणा
능
5%8D%E0%A4%AF
▁आपराधिक
▁पुग्यौं
▁रत्न
▁लिन
▁उत्त
बाल
▁डिब्बा
守
▁सहे
ग्याल
र्ने
▁जानकार
ite
ile
▁माछापालन
▁हेरिरहेका
▁खेलमा
वहादुर
जय
▁निभाउन
ژ
▁लामिछानेले
▁बनिरहे
▁देखेँ
▁श्री
▁second
▁युरो
kehi
सेकेन्ड
▁रजिष्ट्रार
▁कर्मचारीले
ृत
▁बातावरण
▁सर्
▁सल्क
▁आइएस
▁खोज्ने
▁दुप्चेश्वर
▁मन्त्र
 
▁महिनाभित्र
▁संस्कार
▁राजवंशी
ǳ
▁महँगो
▁क्रिष्टियान
⚽
ﾞ
샵
▁मनाइने
樓
▁प्रधानाध्यापक
▁फड
CP
ाया
4%9A%E0%A
Ͱ
▁निरु
ཤ
2018/05/681
ाउलान्
십
▁लुटेरा
像
2019/04/762
贈
▁भीआईपी
%E0%A4%A8+%E
˲
▁विद्युतीकरण
mark
▁बौद्धिक
▁'प्रहरी
怖
Google
张
▁तत्काल
▁जिल्ला
邀
▁सुरुमा
论
ޖ
▁वरिपरि
▁Jun
▁पुर्
▁पिङ
अन्तर्गतको
कर्मचारी
▁वहस
▁ग्रसित
▁भइराखे
सञ्चो
▁गोलमा
फू
▁देवी
दर्शक
疆
▁उन्नाइस
▁डराउने

ݻ
▁चिनाए
▁विद्येयक
當
▁खालका
▁जागृत
▁प्रडक्ट
सीसी)
4%AD%E0%A4%8F%E
򡔖
▁नकि
4%BE%E0%A5%87+%E
▁जग्गा
▁भाषाको
▁च्याम्पियन
▁सानै
वार्ता
▁Program
0%A4%9B%E0%A4%A8
कती
▁हेलचेक्र्याइँ
联
h
▁उक्ले
दो
सम्ममा
सक्छ ।
▁वामपन्थी
辉
▁मेटाबोलिज
融
仅
▁चाइनिज
▁मोजमस्ती
▁आउँछु
▁अन्तर्क्रिया
▁खेल्छन्
恨
▁हर
स्तान
▁मन्त्रि
▁अरिङ्गाल
▁१९
▁हदबन्दी
▁वल्र्ड
ĝ
▁ट्रान्सफर्मर
▁क्ष्ँेत्र
िरलै
person
݇
६३
▁भीमेश्वर
▁सागर
▁अपहेल
्बर

▁भग
▁साँखु
捏
1
▁सार्न
▁उद्यमशीलता
▁थिति
▁शिकार
Ԧ
操
िसकेपछि
#comment-812
▁तीमध्ये
patra
▁गोही
▁07:2
▁नियुक्त
▁सुजुकी
▁चौलागाईं
▁स्कोर
▁वितृष्णा
▁लिम्बु
ʼ
0%A4%A7%E0%A5%80
▁होल
१८
▁संग्रहालय
4%A1%E0%A5%80
▁'म
▁पोलिटेक्निक
ल्हामु
कार्बनडाइअक्साइड
▁जनजाति
▁धर्मराज
▁बृहस्पति
ˀ
सुर
2014
普
अर्कातिर
▁पारि
टाल
▁महंगो
▁विद्यार्थीहरुले
4%B0%E0%A4%95
ुप
▁हिउँद
▁मेमोरियल
▁भत्क
▁पल्सर
▁मुद्रा
▁बुद्ध
▁उत्रने
童
▁नेपाल
अंग्रेजी
क्षित
▁कागज
▁पर्थ्यो
▁महापरिनिर्वाण
सञ्चार
흜
ोरो
months
सेवी
▁पाप
▁तलव
▁मान्दैन
▁डेढ
0%A4%A4+%E0%A4%

सञ्चालन
▁व्यवसायीले
ाऊ
▁(भारत)
विश्लेषण
▁मद्यपान
4%8F%E0%A4%95
å
?!?!?!?!?!?!?!?!
▁गर्नुहोस
▁गतिविधि
교
▁बह
सीप
▁कार्यक्रमका
ざ
શ
▁मौसमी
势
▁शिशु
▁योग्य
▁तुच्छ
mp
▁प्रतीक
▁चितवन,
HT
▁श्वेता
▁फाउ
▁कम्पोज
ﻘ
Ë
▁गम्भिर
फिज
▁हेम
▁प्लाट
नवउदारवादी
ᤣ
▁धक्का
4%A7%E0%A4%BE
կ
ۻ
▁V
▁गाँठो
▁थकान
▁धूमपान
▁दमन
▁रुपमा
▁minister
▁अध्यक्षता
▁'कनेक्टिभिटी'
％
▁ओडार
▁हल
▁लेख्दै
إ
श्रीमती
ठे
अनुकूल
▁मोबाइलमा
▁लुट्ने
▁एभरटन
▁प्राकृतिक
▁बाहिरी
▁मान्दैनन्
ट्युब
▁अभिप्रेर
.com/content/
▁लागेपछि
▁झगडा
bru
▁सेन्टरमा
4%BE%E0%A4%A1
▁भाइ
4%AB%E0%A5%88
▁जोड
▁थाप्न
斎
ܳ
▁आएर
▁पोलिक्लिनिक
▁आतिथ्यता
▁दशगजा
派
折
▁सिल्भा
▁पुग्ने
▁25
▁18
▁विज्ञहरू
▁पहाडमा
मंगल
▁छायांकन
▁लेखापरीक्षण
ീ
लोकतान्त्रिक
▁पेनाल्टी
▁दाउरा
▁महसुस
▁रेवती
车
pradesh-3/2018/
ỹ
▁कन्सुलर
▁ka
順
०६३
%E0%A4%B0%E0%A
▁जनगुनासो
स्ट
▁दिएका
▁दशक
https://w
▁फापर
▁नयाँदिल्ली
▁घाइते
26/feed
▁उत्साह
▁बाँडे
आफ्ना
▁हकहित
▁आमनिर्वाचन
नाइन्टि
▁पछाडि
▁राखिदिन
▁तप्का
▁बितिसक्
▁रासस
▁शितल
▁ब्याङ्क
४–१
▁फेवा
45.html">
Ӂ
▁शम्भु
▁यसैबीच
▁प्रव
▁ट्राभल
▁सहमहामन्त्री
▁कहानी
38/feed
▁कम्पनीको
޸
▁ढाक
समूह
▁मठ
▁अडिए
0%A4%B5%E0%A4%BF
ワ
रोटरी
ѝ
बाद
▁समुन्नत
▁बाँ
2019/04/761
▁कज
▁गर्लान्
🌺
▁बालबालिकालाई
亿
KA
▁स्वागत
डब्लू
▁कोलिफर्म
彦
▁गरिदै
劉
▁सकिएन
▁२०२०
🤪
住
▁प्रसूति
∆
▁सरकारमा
▁लाल
極
▁खटिएका
4%BF%E0%A4%AA
ोत्सव
ማ
▁प्रण
▁अनुरूप
▁थिई
▁ल्याटिन
0%A4%97%E0%A4%BF
▁संस्कृति,
िन्थ्यो
▁प्रतिद्वन्द्वी
▁यसलाई
▁कलात्मक
˦
ặ
Ϙ
िहाल्छ
पिठ
591
हरु
▁आक्रमणकारी
▁सनम
▁(स
▁कुर
▁पवित्रा
गढ
▁बासिन्दा
▁प्रधानमन्त्रीको
▁बगैँचा
▁राख्नुहोस्
…
▁यसपाली
▁मेला
▁कोकाकोला
▁यु
▁सोच
ट्वान्टी–२०
ᤤ
▁नबुझे
▁उन
▁नगर्ने
▁19
▁नसा
▁क्लास
▁विसंगति
▁युग
▁प्रतिरोध
पुष्प
め
跤
捐
4%AF%E0%A4%A4
राख्नुभएको
亲
▁मिलाउनु
ꚁ
4%BE%E0%A4%9C
नेल

▁टरे
▁सर्त
▁अधिकारीका
▁गल्ली
▁युनि
▁उठे
▁भनिन्थ्यो
▁हाम्रा
语
▁बेल्डाँडी
▁केपी
▁सर्ने
▁डिप्रेसन
ष्ट्र
▁माहा
ឡ
▁लागिएको
▁स्तूप
▁'विप्लव'
मानौं
▁पर्छन्
土
▁आचार्य
▁इन्स्योरेन्स
▁ga
▁लाग्नुपर्छ
▁भइनसके
ेटिभ
ृहत्तर
里
मसिनो
4%AB%E0%A5%8D
▁एकै
▁महासागर
▁करोडौँ
▁नो
▁कोठे
हप्रवक्ता
鹰
▁भन
krishna
▁दार्शनिक
▁क्रिस्टिन
||
▁गणतन्त्र
05/
▁थिएनन्
छोरी
▁एड्स
替
係
▁हटाउनु
▁नागरिकको
▁बाह्य
▁टोप
▁प्लेअर
▁'देश
✖
भारतबीच
▁नभएर
خ
▁देखे
सोलिडारिटी
̡
ाउँछिन्
▁सिमसार
राइजिङ
बैदेशिक
दशकदेखि
▁प्रशिक्षणमा
रमजान
how
▁अवश्य
▁पुरा
▁लख
▁मतलब
▁देवान
घट्ट
YA
सम्बन्धी
ݔ
▁मज्जा
▁पुग्दैन
pen
▁तालिका
▁माछापुछ्रे
म्याच
▁पब्लिकेसन्स
▁टोलीले
▁मास
सरी
▁लागेर
▁कुराले
रोड
ी'
कै
▁विगत
रिज
पोष्ट
▁पालनपोषण
講
▁सकेन
▁प्रतिघण्टा
▁अमिताभ
▁शौच
▁भिक्टोरिया
ज्वाइँ
ng
▁अंशबन्डा
▁हिँडेका
红
棱
hat
रुस्लान
▁अमृत
Δ
▁असफलता
▁खेलिसके
▁रुद्राक्ष
।
▁तास
भिन्न
▁हिसाव
▁फ्ल्याट
▁ब्रा
▁डिएसपी
▁05:4
▁बोलाइए
देख
▁बोझ
U
ठो
ท
款
▁प्रतिकृया
▁महशु
▁बढाउनु
▁मर्ने
˛
▁खुल्यो
▁सर्भिस
▁हरिया
🚁
▁गर्नैपर्ने
पाखा
狀
ever
%E0%A4%9B%E0%A
▁सभासद
印
绅
चा
▁पौन
▁विरल
말
▁जयप्रकाश
▁अनुवाद
आ–आफ्नो
闹
साथै
▁कारागार
मनपर्ने
▁अलोकप्रिय
0%A4%B7%E0%A5%8D
▁सकिँदैन
▁लेखक
▁कोष
▁अर्को
▁कं
▁हान्ने
鸭
वितरण
▁बुझिए
कार्यवाहक
lan
▁धार
त्रुटिपूर्ण
निडर
▁व्यावसायिक
觀
▁'विकास
९८४
▁हाड
▁भिम
▁भाँच
▁आँगन
▁हप्तामा
▁असन्तुलन
▁ओगटे
▁सीआईबी
garera
5%A4+%E0%A4%
▁रंगकर्मी
▁गराइरहेका
൓
狂
4%B2%E0%A4%BE
स्थापन
5%87%E0%A4%B0+%E
ן
अविकसित

▁छापिएको
▁नोक्सान
ક
▁यूवा
▁छौ
橘
▁दैनिक
ŷ
काे
▁सुन्ने
▁देश–विदेश
तह
裔
변
▁तेहरान
▁हेरेर
▁श्रेष्ठलाई
ेँ।
▁निरिक्षक
िएको
▁सीमाक्षेत्र
▁भव्यता
▁आफ्नै
▁घाँटी
5%81%E0%A4%9F
▁सिकार
▁कोरे
वत
▁बाढीपीडित
▁उन्मूलन
▁लेभल
久
▁मुहार
▁कोरिया
▁नेपाल–चीन
▁विचित्र
儲
惯
嗤
0%A4%AC%E0%A4%BF
▁खोस्न
▁यू
▁१०१
庁
▁फिल्टर
▁बेचिए
齢
▁ब्याच
▁घरहरु
▁गुप्ता
स्की
▁सिंचाइ
▁हुनेछ।
ɮ
探
戶
ुहुँदो
▁सुक्दै
▁रहनेछ।
काजी
विद्यालय
▁उद्यमी
▁ऐतिहासिक
▁फर्कंदै
▁बहु
▁अहं
▁खस–आर्य
मान्छे
▁भएँ
调
fe
ફ
▁पोसाक
क्रान्तिकारी
उठ्दा
／
एमबीपीएस
▁थाल्यो
▁आसेपासे
▁फिल्ममा
सहितका
▁पढिरहे
ী
ՙ
between
गो
दिएको
▁अल्पकालीन
▁खेलाडीहरु
▁उनि
▁वि.सं.
िरहँदा
▁डाक्टरहरु
澡
ڕ
🐍
▁साम
▁आइसीसी
▁धोका
▁चश्मा
▁पला
▁टर्की
लेख
ोदय
ȳ
▁प्रमाणिकरण
▁लाग्दैन।
igger
▁कार्यालयको
▁सरोकारवाला
त्रा
標
▁जेनेरेटर
▁कन्सल्ट्यान्ट
▁पाटो
▁शिलान्यास
▁धिक्कार
▁अभिमुखीकरण
▁मेटाउन
तिरबाट
▁अभावमा
织
憨
󶺰
▁जस्तो
򊪻
▁अभिमुखिकरण
बुद्ध
न्डल
▁द्वेष
make
រ
▁दिगो
ंका
बेला
▁राजदूतावास
▁शैलुङ
म्याक्स
߼
▁कर्पोरेशन
▁गरायो
▁For
▁गर्छन्,
▁डिभोर्स
9/04/20/15557
भिल
%E0%A4%9C%E0%A
ψ
▁दौरासुरुवाल
▁बन्नु
▁दाल
▁त्यस्तै,
▁गरिरहन
▁गर्नुअघि
γ
▁पढ
्दैन
ネ
ाउँदछ
म्
▁चेतन
汋
乎
▁नियामक
▁छोड्नु
नागरिक
▁माघ
५–०
कोसीटप्पु
▁रुग्ण
▁आँकडा
▁आयोजनामा
짠
▁पण्डित
▁नेपालका
▁सौत
पार्टीगत
वु
▁विपक्षी
▁स्वीकारे
'
▁हुर्काउन
▁प्रतिनिधित्व
वस्तु
▁रही
्मि
▁बेवारिसे
驶
▁राज्यसत्ता
▁मान्छ
▁भाँडो
गभर्नेन्स
ियत
0%A4%B8%E0%A4%B9
▁कुवा
ram
नारायणगढ–मुग्लिन
▁सिस्टम
▁प्रदर्शनीमा
་
记
▁बिर्स
ʳ
▁बच्चाबच्ची
▁झोल
▁मुलुक
۲
रहनुभएका
▁'गाउँ
▁खाइ
99
सक्नेछ।
▁विषाक्त
▁हुँदैछ
▁गिरिराज
Ҩ
तिक
▁बालुवा
ed
▁पैदल
ܴ
僅
▁पत्रकार
▁गौरादह
西
▁खिलराज
▁बढि
्दि
▁'कानुन
Ч
ट्यान्ट
▁पु¥याए
गाड
▁कार्यशैली
▁कपुर
數
▁अवमूल्यन
▁filename="2017/
▁नहोस
▁नहुन
▁भियतनाम
򷪵
▁बाजपेयी
नायिका
▁पारस
▁परोपकारी
▁बित्तिकै
▁रीता
▁उभिएका
▁but
▁छन्
趧
▁जाँच
鮨
▁चोट
▁समिर
▁फाईनल
जानुभएको
sak
▁ताम्सालिङ
▁हाडजोर्नी
हरूले
▁अभिशाप
▁years
鳴
▁परिवार
▁प्रतिबन्ध
कृष्णहरि
निकालेर
▁मुनिका
9.html">
▁छुट्ट
車
▁च
थपिएका
索
▁हुन्थ्यो।
▁व्यर्थ
▁अभिव्यक्त
4%B9%E0%A5%80
िसकेको
▁बेचे
27/
▁उहाले
▁ब्यबहार
▁गुँड
菌
▁त्रिशूली
▁नसकेका
▁चाहिए
▁सम्प्रभुता
▁सजाए
सङ्ग
母
须
कयौं
▁फुपू
▁उभ
▁त्यसमाथि
暫
注
▁सीमामा
▁माइक्रोफाइनान्स
▁बसाइँसराइ
मौसम
ព
▁भए
▁फड्को

▁सिंग
١
▁निरीक्षक
ाउथे
▁दाँत
▁मांसपेशी
िङ
▁बनाइन्
▁धवन
▁महासङ्घ
▁रु.१
窟
▁पद्धति
▁एक्सपर्ट
▁मोटरबाटो
▁वेलायत
▁छैनन्।
▁रौतहट
पालिका
▁चौध
बुबा
ϒ
4%BE%E0%A4%95
भिटी
▁सुरुवात
▁फ्लु
▁कमाण्ड
▁अन्य
–प
▁नायक
नाति
▁थुप
▁पुग्नुपर्ने
concern
भोजराज
▁हो?
माथि
▁रे
अनावश्यक
ाइन
▁भाग्यमानी
0%A4%B7+%E0%A
+%E0%A4%A8
चंखेली
▁शताव्दी
चे
ब्रान्डेड
▁बास्केट
▁नबढ्न
▁नियन्त्रित
▁अन्तरक्रिया
▁सदर
▁अर्ना
िर्त
▁धङधङ
裤
▁संभव
▁ताली
रोस
4%B5%E0%A
▁बनाइनेछ
ܷ
▁झलक
▁भाषा
▁साथमा
▁जाओस्
▁सेट
▁दह
▁जनसहभागिता
bha
▁हिमाली
▁किर्तिपुर
रूपमा
लय
▁मनोबल
जुल्द
▁हत्याकाण्ड
▁बंगाल
ズ
ित
▁कार्यकर्ताहरु
▁कान
नन्।
▁प्रयोगशाला
▁कम्युनिकेशन
▁स्वीट्जरल्याण्ड
▁एड्
▁खस्किए
योजक
▁साँ
ेबल
▁श्रीलंक
ڻ
स्ट्रा
▁सन्तोष
▁चुह
▁सूचीमा
▁एकदम
▁किन्दा
٘
▁पर्नु
high
डा
报
▁अवरुद्ध
▁स्पर्धा
▁हेटौडा
▁सर्वो
攫
▁कुवँर
48
▁समूहमा
▁फेरबदल
र्जित
2019/03/750
क्ता
▁मेट्रिक
▁प्रेमबहादुर
▁कुहिरो
वाली
▁नसकिए
띱
▁अनियन्त्रित
▁नेताहरु
▁लुटिए
 
▁स
▁शुक्लाफाँटा
टोन
qui
▁रानीमहल
▁09:1
▁नियमन
van
頭
प्रशिक्षित
▁सकू
लिन
▁क्रसिङ
िरहन
▁रामनगर
▁उहाँहरु
▁सलोन
坛
▁फोर
ニ
बेलायत
▁टिभि
▁विस्थापित
▁ओहोर
्री
ܢ
ϧ
X
▁मनोमानी
रेन्स
Ȼ
▁समानान्तर
▁पूर्वराष्ट्रपति
Ɣ
pub
▁पाइन्छ।
असई
ყ
▁भोट
पुर्वक
4%89%E0%A4%A8
ж
▁विद्यार्थीलाई
▁रोमान्स
▁अहिलेका
石
झट्ट
▁आपूm
▁गर्नेछ
▁ट्रेकिङ
▁सफारी
Social
▁बालमैत्री
हवा
▁छनौट
▁सक्थ्यो
▁जितेको
拱
프
▁सुजन
▁उहाँहरू
तारानाथ
१.६
▁प्रत्याभूति
▁टिसर्ट
繰
▁नहोला
▁वहाँ
岗
%E0%A4%A3
▁बेहोस
歬
酵
पछाडि
▁तोक्न
▁एमेच्योर
▁कार्वाही
मनोहर
▁पर्दछ।
▁भन्नुपर्दा
वाला
▁अनुबन्ध
+ko+
▁हजारौं
▁डेटिङ
▁बफादार
附
▁बिश्वास
▁पर्स
लाएर
▁सुँगुर
▁दौरा
▁देख्दै
Ī
聪
मेडिकल
ऊर्जा
▁कुरिरहे
5%87+%E0%A4%
ᤋ
aunu
▁एसिड
▁कारोबारी
蒂
며
उक्त
▁कुप्रथा
▁सिंचाई
▁गम्भीरता
व्यापी
दाखिला
ダ
▁घिउ
▁सुरक्षाकर्मीले
導
ユ
▁मातृ
ˉ
󠅌
▁प्राङ्गण
▁भत्ता
έ
▁अग्रता
▁स्नान
क्रो
▁सर्वसुलभ
ꅵ
बुझ्दो
▁lagi
▁सिफारिश
▁खनिए
िदिए
▁४७
积
ꍣ
답
ϛ
▁सीमित
▁एल
▁तुलना
▁थपिए
▁युरोपेली
▁रजिस्टर
▁यिनी
ܾ
▁सहनशीलता
▁देवदह
۟
68/feed
▁सहभागीता
4%B6%E0%A4%BF
▁काममा
4%A7%E0%A5%8D
飯
▁तामाङ्ग
▁गोलाप्रथा
बु
哽
यात
/images/
럼
▁वरपर
सनाखत
cto
▁पद्दति
डेडिकेटेड
▁बोलकबोल
全
बहु
▁सभा
▁जोगबनी
▁मान्नुपर्ने
▁नैतिकता
▁गुलियो
▁लक्की
찬
▁दीपा
▁target="_blank"
▁गिफ्ट
▁मैले
गू
%E0%A4%89+%E0%A
브
雾
्याएको
영
सराइ
▁पर्याय
4%AD%E0%A4%BF
വ
२–२
▁अब्दुल
०६४
ء
「
▁अन्तराष्ट्रिय
▁बाध्यता
甆
▁मनमोहन
0%A4%89%E0%A4%A4
▁संगित
▁घरबारविहीन
▁उपन्यास
instal
▁रोम
yat
khanal
マ
समन्वयात्मक
▁भीएलएन
▁level
昨
▁मोहम्मद
▁खेतबारी
▁चमेलिया
▁यौवन
▁ठाँउ
▁सकरात्मक
▁किस्सा
अभिभावक
us
भेद
স
िश
▁हैन,
छन्।
▁स्टिकर
輻
▁रेखदेख
買
▁सडक,
▁हलेसी
▁मेजर
जोड
΢
नी,
▁छान्ने
▁तरिका
व्यवस्थाअनुसार
▁साहित्यका
暗
र्स
३१
▁'महिला
▁पत्रिका
摊
▁मोटर्स
▁अम्बा
▁बराह
▁नबने
वारेमा
रे,रो,ता,ती,तू,त
चाहीँ
2019/04/23/204
▁प्रवक्ता
13/
पात्र
छिपी
谜
▁एम्
▁आँफै
▁पानीजहाज
▁सहरमा
▁सोमवार
परवाह
▁द
ڊ
ꌍ
▁इन्टरनेसनल
▁राख्न

▁निकाला
▁मनिष
˨
राखेको
▁पोर्ट
▁देखिएन
▁पुलिस
▁मालिका
title>
www.w
▁हेरचाह
▁संर्घष
▁कार्बोहाइड्रेट
ter
वृत्ति
प्रदूषित
भेट्दा
喜
哪
▁बोल्दा
▁हेर्नुपर्छ
pradesh-1/2018/
▁आय
की
ाले
▁एक्स
त्यसवेला
विरोधी
'सुरुमा
ϝ
▁कड
▁लत्ताकपडा
▁दुरा
յ
मिनेटसम्म
▁काजकिरिया
롰
왴
पार्ट
▁हल्का
驚
▁सर्व
▁थोत्र
▁विहार
ữ
📷
▁दिइनेछ
▁पदार्थ
¬
▁सबै
त्तर
Ａ
ज्ज
▁पाकिस्तानी
͊
▁राज्य
®
▁रामायण
िंदा
111.html"
▁अर्डर
▁भवानी
4%82%E0%A4%97
宋
li
▁गर्नुपर्नेछ
▁व्यवस्थापन,
▁पिडित
▁परिवेश
पारस्परिक
▁दिपावली
ާ
जनमानसमा
ानन्द
▁सङ्ग्रह
▁गरिराखे
▁पाउँथे
孝
पत्त
중
▁त्रिपाल
▁झुपडी
मानव
р
▁लामो
▁शरीरमा
▁महर्जन
▁उपसमिति
▁जानी
–२५
साप
ary
पन
▁दौडिए
▁पाइला
▁पुनरावलोकन
▁पेप्सीकोला
▁भरिएको
ports
▁लेखा
▁समुद्री
▁गुरू
　
▁विद्यार्थीका
篇
接
▁प्रशासनिक
▁सक्दछ
▁पृथ्वी
▁ईसा
▁of
▁ताकेता
۪
▁व्यक्तिले
▁भइन्
뎾
▁अर्थात्
▁निर्माणाधीन
आफ्नो
वीच
▁नरोकिए
▁पूर्वमाओवादी
▁९०
▁सशक्तिकरण
▁ब्ल्याक
फ्रि
उपशंका
▁अन्याय
▁नारायणगोपाल
▁प्रत्यारोपण
मुल्य
#comment-779
基
▁बिचौलिया
▁सिकाई
▁फर्के
▁नरेश
▁दाबेदार
के
▁टुंग
स्पाइनल
▁घले
ˊ
▁व्यवस्थापनका
▁सदुपयोग
▁नपाउनु
▁अप्
▁शतक
ाैं
ेरी
गंगा
▁एमालेले
भाइ
जवरजस्ती
▁जलाधार
मन्त्रालय
▁अष्ट्रेलिया
▁परिपाटी
ɘ
▁स्वयंसेवक
ิ
▁साथी
न्यायाधीश
▁श्रीमद्
TI
▁हुँदैन,

მ
▁आइसल्यान्ड
私
▁दिइ
्र
▁वरियता
content/-2
→
청
▁भुट
▁विच
街
黎
support
▁बिदेशी
कुण्ड
▁आहारा
▁bhag
▁प्रधानमन्त्रि
▁प्रयत्न
▁गो
▁निर्मूल
%E0%A4%9C
▁खाका
4%BE%E0%A4%B8
▁बृहत्
▁मिस्त्री
▁मूल्यमा
c
lay
▁ध्वजा
▁लोकगीत
▁मुस्लिम
标
ﾀ
दिनुहुन
▁चेकजाँच
▁लाज
৬
▁अस
171
▁भन्दिन
%E0%A4%88+%E0%A
ˤ
85/feed
▁अंगभंग
▁पठाइदिन
▁देखाउँछ
हरुको
親
▁to
▁मात्रा
▁भि
▁साइन
ಣ
सेक्सुअल
▁जन्मनु
覦
▁अनुशासन
럽
▁ढोरपाटन
▁घमण्ड
इस
८२
悩
्यायो
विनियोजित
▁मातृभाषा
ਗ
ݪ
▁post
▁सर्किट
斑
▁कसूर
▁टोलीका
▁बनेर
▁आइन्स्टाइन
लगायतले
बाह
▁बासस्थान
▁छायाङ्कन
▁रोगव्याध
😤
्दथे
萨
घरमै
ाइन्छ
वैज्ञानिकहरुले
▁प्रविधिमा
4%96%E0%A4%BE
▁सल्लाहकार
▁माओबादी
▁सम्म
▁नसक्नु
दूत
pa
्टा
▁(माओवादी)
▁राहुल
▁लागेका
▁मुक्तक
▁जमात
मेक
अँग्रेजी
▁पुजा
▁टा
▁सम्वत
но
▁प्रसुति
▁बेला
▁केन्द्राध्यक्ष
सातवटा
▁05:5
▁पस
2018/02/662
▁सराहन
▁देउडा
constitution
▁जङ्गबहादुर
▁कथाकार
्यो
≧
गर्ने
‚
▁जितमा
▁काठ
हाल
थोर
ｫ
٢
4%B0%E0%A5%81%E
潹
▁ओत
静
▁माई
▁स्पष्ट
形
峻
वाङ
▁सक्दिन
▁बिन्दुमा
इतर
寄
िनसक्नु
२०
▁बिग्रियो
ोस्कोपी
/2017/09/62
💀
▁मिक्लाजुङ
॥
▁चेलीबेटी
ӧ
▁हस्पिटल
▁सिकारी
▁तोरी
▁उपरीक्षक
▁नपुगेका
हिटी
▁वरुण
ু
▁हाम्रो
▁शाश्वत
१९७४
छोरा
▁भर्‍याङ
4%BF%E0%A4%B7
4%B0%2C+%E0%A
▁धब्बा
▁बल
▁जमुना
▁आयुष
▁श्रमशक्ति
0%A4%B8%E0%A4%BE
그
▁भीमदत्तनगर
▁जीवनयापन
मुताबिक
▁अन्तरवार्ता
▁बहुसंख्यक
ब्रो
विश्वास
(नेप्से)
शनिबार
▁कन्सर्ट
▁पन्छाउन
▁फर्काइ
4%BF%E0%A4%B8
覮
消
ŭ
▁सामुदायिक
्ज
निर्देश
सुपुर्दगी
̗
khabar.com/?p=74
▁बाघ
▁साक्षात्कार
面
▁मञ्च
0%A4%A6%E0%A4%BF
वाड
2019/02/744
内
🇪
▁इन्फेक्सन
▁गोलकर्ता
▁जाँदैछ
▁हडताल
▁८०
었
▁अावश्यक
ꡝ
八
▁बढुवा
China
4%BE+%E0%A4%
▁७.
▁बिष्णु
▁गिटी
▁बसेर
गाउँगाउँमा
▁रकमान्तर
▁अफ्रिका
▁ट्रा
सडक
▁बराबरी
दु
▁२०६५
▁|
▁अनिल
▁पुटिन
▁सां
▁फर्निचर
▁अमित
靴
▁फिल्मी
拍
►
▁एजुकेशन
्दो
˝
残
50
्यौ
्था
4%B2%E0%A5%87+%E
वाखोला
सागर
93/feed
▁नबस्ने
आरआर
Į
▁'नो
▁क्रियाशिल
▁भित्ता
▁अंगाल

्मेन्ट
ायाँ)
റ
綠
▁केबलकार
▁चिनारी
▁स्कटल्यान्ड
▁क्रेडिट
▁इन्टरटेन्मेन्ट
▁डर्टमन्ड
▁फिल
▁सोचेको
www.facebook.com
源
▁छिद्र
▁कुक
▁वाशिङटन
ҋ
5%8B%E0%A4%A7
▁दिपायल
▁दुख्ने,
रहदा
बीचमै
▁टिकाउन
ܒ
तिब्बत
came
▁वार्ता
सुट
र्वमान्य
▁किम्वदन्ती
ja
પ
▁पार्टीहरू
▁छर्लङ्ग
▁मिर्गाैला
चढाइ
̲
&apos;
▁लोभ्याउँ
▁मनोकामना
▁अनुसन्धान
▁प्रशस्त
0%A4%A4%E0%A4%BE
▁कम्प्लेक्स
▁पोलिटब्यूरो
▁कथन
ͺ
▁सम्मान
भेटेपछि
椅
▁मर्चेन्ट
ौधौ
▁सुनेर
–लेनिनवाद
㍕
Bahadur
▁अभागी
han
▁सेती
▁सम्भ
▁जनावर
िन्द्र
म्म
▁देखाउँद
%E0%A4%A4+%E
इमान्दारीपूर्वक
छौँ,'
▁व्यवसायीहरु
ݰ
▁मौरी
▁यादव
▁रमाउँदै
▁नवीकरण
▁कटवाल
▁धम्की
▁पाइपलाइन
े–फोक्सुण्डो
▁नेत्र
58
प्ट
★
०७४/०७५
▁जगन्नाथ
संहिता)
Х
▁भाइरस
ೊ
▁कामना
▁केही
▁गुहार
िपालु
khabar.com/?p=71
बेल
▁रुपाकोट
lekh
波
置
छाड
に
ɧ
▁दस्तावेज
粉
▁गु्रप
▁माग्दा
4%BE%E0%A4%AC
▁काँध
विहीवार
▁पुनर्स्थापना
कफ्र्यु
फाँट
▁युट्युब
Փ
िया
▁आफुहरु
▁भेटिन्छ
▁पठन–पाठन
▁रत्ननगर
▁दलले
▁भन्नुपर्छ
ेट
यल
TV
▁आवश्यक्ता
▁दीपशिखा
ʨ
तेर
रासस
社
▁हुाद
؅
▁नक्कली
▁उम्किन
ौल
河
▁राम्रै
▁झैँ
ari
▁स्विडेन
्नुभएको
▁पिडा
ik
१५
▁कन्ट्री
तत्पश्चात
▁मौसमविद्
▁दाउ
टिप्पणी
ML
う
函
कर्पोरेट
経
ჯ
溯
▁पाईन्छ
▁अंकित
册
从
धारण
गरेको
निर्
▁भाष्य
▁नपुगेको
/?p=750
▁संशोधन
▁चार्टर्ड
▁वाजपेयी
胞
Ǉ
Ҙ
▁तीन
瘝
▁एकदिवसीय
▁झेल
њ
▁छात्रावास
▁आउछ
収
▁हास्यव्यंग्य
ुस
ς
ेन्ट
🏿
▁प्रोफेसर
🏾
▁व्या
▁ठाँट
連
▁बिगारे
न्द
▁जान्छौं
用
ɰ
▁बंगबन्धु
▁थन्किए
▁देखियो।

favor
┍
45/feed
▁other
ُ
▁उपभोक्ता
29
▁भएकै
ĸ
▁परासी
▁हुन्छ,
संरचना
세
▁आउनुभयो
▁पारिएको
▁तर्फबाट
I
▁तिज
▁घरको
▁लब
现
विस्तारित
.org/
▁प्रवेशाज्ञा
▁संझौता
국
(४)
जाग्रत
쌶
▁अस्
奖
▁संघीय
▁फछ्र्यौट
हरुका
▁बडा
सुब्बा
0%A4%AF%E0%A5%80
मोद
涨
▁महिलालाई
▁प्रस्तावित
IT
ᄶ
闻
予
▁भत्किएका
째
राशिद
▁धौलागिरि
▁Chair
▁भोटे
ुभएन
▁character
▁मजदूर
▁गाईवस्तु
▁बुढो
▁ढुंगा
▁इपीएल
किनेका
▁जान्छ
▁पुनर्निर्माण
ţ
देऊ
▁व्यवसायीको
लिब
✨
▁पिकअप
▁भट्टराईले
▁सन्तुलित
▁विवेकशील
場
ٶ
আ
▁लिखु
▁बसन्त
ुल
▁निकाल्छ
斯
७५३
▁ब्राम्हण
😃
ᤖ
ͳ
lawn-tennis/
▁कलाकृति
revolution
🆚
▁रोज्ने
▁plan
۠
ۖ
▁गर्नुभयो
▁सूचना
याउने
脚
▁उतार्ने
▁चुम
टन
▁किसिमको
ӯ
卉
▁उदेक
▁पेल्न
▁अफर
튶
▁स्पष्टीकरण
▁गार्डेन
ぼ
+%E0%A4%AB%E0%A
▁मनोविज्ञान
▁अनुसार
डेल
▁सम्झन्छु
♫
461
氏
▁नरे
▁विश्
(प्रजातान्त्रिक)
+%E0%A4%B0+%E0%A
▁उजाड
▁सुगठन
जम्म
4%B0%E0%A5%80
ס
▁साम्प्रदायिक
▁07
▁खाडाचक्र
▁खासै
▁चाहे
18
▁कपाल
▁हिँड्ने
▁कृत्रिम
सरा
▁दुर्व्यसन
ǵ
▁सुमन
54/feed
▁रूपैयाँ
▁'कांग्रेस
<
▁एलर्जी
▁लिखत
जनकपुर
▁निषेध
▁गाउँपालिका–४
▁<span
िया,
좋
▁आयोगको
▁समाधि
▁स्टिल
▁अर्थमन्त्रालय
▁नशा
▁गोत्र
▁उतारचढाव
▁एजुकेसन
ܜ
▁आल
keep
▁सकारात्मक
▁डकुमेन्ट
▁डीपीएल
5%8D%E0%A4%A7
▁सङ्कलन
▁एक्सटेन्सन
ोत्तर
▁सफ्टवेयर
ामा
▁पादुकोण
▁पछि
नीय
ᤅ
▁हुनु
▁बेसक्याम्प
▁कलकत्ता
▁शिक्षामा
▁मोटोपन
工
א
▁खोजे
।रासस
画
▁थियाे
▁अम्बानी
याक
5%8B%E0%A4%9A
वार्ड
▁उनको
ी,
▁गर्दैन
터
▁दिनेछ
Û
▁बाउ
▁उद्योगधन्दा
▁रविन
▁भने,'
▁अग्रवाल
▁थापाको
▁चुनौति
▁मान्म
ྟ
▁शय्या
▁जसो
▁नराख्ने
▁निष्कासन
विलम्ब
▁उपासना
थियौं।
5%8D%E0%A4%9B+%E
Ɇ
----------------
4%9C%E0%A
+sa
नजिक
nor
▁शिशिर
▁वेब
'त्यसपछि
ϳ
यो।
前
▁मध्यस्थकर्ता
3</span>
횂
▁जन्मिएका
▁तस्वीर
ӈ
鿎
▁फाइन
मन्त्र
▁मातृत्व
▁लुट
▁लचक
हाराहारीमा
亚
▁प्रतिष्ठा
▁पलाए
▁मानिएको
्वी
Information
छ ।
▁वैचारिक
Ő
权
▁दायाँबायाँ
▁शुरुवात
큰
▁कीर्तिपुर
▁टेकु
▁सडकखण्ड
메
▁एल्
tapai
हल्का
Ѐ
िए
▁माउ
̱
प्प
▁नबोल
亮
號
功
4%A7%E0%A4%A8%E
▁फैल
▁अधिनायकवादी
५५
▁ठोक
कस्तो
▁दयाहाङ
も
लिए।
😎
ύ

▁बनाएका
▁शिक्षिका
▁मच
▁किमाथांका
▁मार्केट
Ơ
जन
☆
▁जोसुकै
▁पिकनिक
͍
▁स्तरमा
▁टिक्न
0%A4%B9%E0%A5%88
नरेश
▁परिसूचक
कुचो
▁हान्न
citizens
▁प्लेन
▁पञ्चेश्वर
राष्ट्रपति
▁लाञ्छना
लम्बन
▁पाइएको
▁बस्दा
▁ज्यु
▁रेष्टुरेण्ट
Ć
▁पाउनेछ
▁दिनुपर्ने
ъ
▁नर्भिक
जिओ
▁रबर
▁प्रचलन
ޮ
ǌ
▁आदर
स्टिक
▁रिचर्ड
▁च्याम्पियन्स
▁बाख्र
▁बाँकि
▁ट्याङकर
जहाँसम्म
▁पी
▁भैसकेका
▁पंच
 
▁उक्ल
▁एघार
▁धनधान्य
▁तिहाइ
▁'स्व
▁भक्ति
▁सदस्यहरू
4%B8%E0%A4%82%E
अघि
25
▁धुने
▁पाठ
७.८
पती
▁भूमिगत
▁निवास
▁टन
ോ
▁हँस
Р
▁क्षयीकरण
▁सकेका
आजभोली
▁भद्रपुर
炉
▁उच्च
▁मनीषा
▁अल्पसंख्यक
▁जनप्रतिनिधिको
賀
▁परिपक्व
▁नुह
२०७५/०७६
空
桃
▁हिम
▁महाशिवरात्रि
▁वस्तु
ग्राम
▁शुद्धीकरण
677
▁माथी
▁जुर्मुरा
सुन्निने
▁दही
मृत्यु
▁!'
4%BE%E0%A4%82
▁सिआइबी
सभा
▁सार्वभौमसत्ता
▁लायक
shi
▁जनाएका
▁घ
靺
रीमा
▁'सरकारी
য
▁परीक्षण
👇
ant
▁मनास्लु
ङ्गा
▁चिच्या
▁href="http
▁डेरा
िदियो
▁दीर्घकाल
▁सहजकर्ता
種
▁अष्ट
▁वासिङ्टन
▁त्रिपिटक
ठाँटी
र्ति
Ԓ
कार्मारोङ
▁थकाइ
लामो
करीब
▁धारण
१०
+par
24/feed
த
बर्दिया
事
▁परेका
न
सम्मका
कोट
▁यस्
▁झिल
▁गिलास
2018/08/697
▁चिता
▁अनुप्रयोग
ヴ
▁टर्मिनल
▁चुक्ता
विना
▁पुर्याए
लाल
▁चान
▁नक्कल
िकता
▁यूके
▁ब्लु
▁एलपी
▁हिनामिना
Ų
ֹ
्वा
▁इञ्चार्ज
▁थला
▁सधैँ
▁शिक्षकहरू
wa
सदस्य
football/7
..
2018/09/709
▁शासनकाल
द्वार
शुक्रबारदेखि
▁होड
연
盵
▁भाइटीका
ݴ
▁बङ्गाल
▁रश्मी
▁भ्याइ
▁हिलारी
▁प्रभाव
▁बक्सअफिस
▁विद्युत
秲
威
▁मनमा
什
IN
▁पुस्तौं
▁'इन्
▁नाघिसक्
s..
강
नियम
▁रञ्जना
▁समाजशास्त्र
▁पत्यार
ʅ
4%AF%E0%A4%BE
▁डिजाइन
▁केश
▁६.
#comment-819
▁स्टालिन
natural
2724
▁मौका
˒
▁घरेलु
विस
▁सान्त्वना
........
▁साँस्कृतिक
▁स्ट्राइकर
ɍ
▁घुमिरहे
▁जैविक
लोचन
▁पात्र
▁केलाए
🙈
▁परमादेश
ಡ
ҫ
뇄
गञ्ज
स्मृति
▁के–क
▁'ए'
▁होमवर्क
▁ओर्ल
लागी
्बु
▁O
▁बेरोजगार
0%A4%A7%E0%A4%A8
▁सेनानी
▁आविष्कार
̭
午
▁नभै
▁उत्पीडन
▁विशुद्ध
▁<s
ike
▁चुरे
्र्य
ϥ
ല
Ԑ
▁सूत्र
▁छात्रछात्रा
161
chha.
▁तारिख
▁टाई
誰
▁स्मारक
▁त
▁तोकिएको
मुनी
▁प¥यो
_technology/1
ੰ
▁मानिस
▁चाहन्छ
▁गुप्तचर
株
赁
▁विर
▁होस्,
▁झिकाउन
▁नलाग्न
0%A4%B2%E0%A4%97
प्रा
छ,'
쿼
वोध
▁काबुल
歷
탄
▁लाइनमा
ʈ
कर्ण
▁क्वीन्स
▁भ
▁व्यङ्ग्य
▁टुंग्याउन
▁डो
▁दिइएका
प्रत्यारोप
▁साहित्यमा
▁स्वच्छ
深
▁इन्
￥
▁भिन्द
पख
▁दुख्ने
▁भद्र
▁चरेस
▁सुटकेस
करिव
चेत
▁गरिसकेको
▁स्नेह
ब्रि
खेलकुद
ʕ
stha
യ
▁रिपोर्टिङ
՛
▁यमराज
▁दुर्गम
▁निर्यात
▁सनसनी
풼
🌹
▁बुझ्नुपर्ने
▁युरिया
▁१९८९
▁बाधक
虎
▁बडाहाकिम
चैन
▁क्रमशः
▁अनु
लिस्ट
रिटायर्ड
抑
+pani+
ោ
▁मंगल
▁दुब्ल
▁आदित्य
Ä
▁बेरुजु
गेज
हुँदै
▁किराना
▁चलाए
▁दाहाल,
▁कुमार
▁पेयपदार्थ
ˡ
ऊ
▁गर्दछौँ
4%AB%E0%A4%BF
▁गुन्डा
पोलिटिकल
▁नापजाँच
टेस
5%88%E0%A4%B8
▁तल्ला
侯
▁नल
4%A4%E0%A5%8D
발
▁संसदीय
▁१.
▁निश्चय
स्याङ
रोग
▁ज्ञानको
तालिका
खर्च
ძ
पालक
आम
उहाँ
द्धि
▁फिक्स
ñ
किनेर
▁पाठ्यपुस्तक
▁सञ्चित
▁भगत
▁नसुहाउ
ांग
▁प्रमुख
▁चौका
2.html">
▁डिप्लोमा
▁आश्रय
▁द्विविधा
▁५.
▁गुणस्तरहीन
/2018/03/66
▁छल्न
▁अभियोजन
志
▁दुई/तीन
۩
▁गर्नुपर्छ,
▁दाहालले
▁बुझे
ीकृत
▁पीडितहरू
۾
▁बिउ
명
Ҋ
्थे
▁लिम्बुवान
▁एसियन
ास्त
▁बिताउने
▁कि.मि.
▁पीडक
▁रामहरि
關
历
बीर
ness
▁१३२
▁गरिनुपर्छ
यौं
٭
चन्द्र
आगामी
佐
ко
岩
wan
▁शक्तिशाली
p
▁कमाई
▁पोखरा
▁खटिने
▁न्यायपरिषद
▁फसाए
–२०
電
▁पर्
▁भाग
बारी
盆
▁गाए
▁नक्साल
#comment-667
瞱
▁प्रचण्ड
भएको
บ
▁एटीएम
▁महोत्सब
▁गुट
▁नवराज
▁अनि
▁सभापति
▁व्यहोरा
છ
▁संक्रान्ति
्थ्यो
▁इमिग्रेसन
▁स्वयम्
ko
ھ
▁यही
ﴽ
▁गर्दैनन्
क्रमण
ݽ
भास्कुलर
री
▁नर्
5%87%E0%A4%B8
▁फेसबुक
▁विनिमय
▁चन्द्रागिरी
▁पिच
▁२.
म्यान्चेस्टर
▁दुखाई
▁30
ӻ
झल्को
डेर
▁कर्तब्य
ݍ
4%86%E0%A4%AB
료
▁दीपेन्द्र
厥
鉛
टा
पर्
▁अाज
▁हातेमालो
2019/05/762
公
▁जीप
Ŀ
李
ध्य
▁भित्रिएको
▁महाप्रबन्धक
▁चार्टर
͋
ਫ
఼
▁खुट्टा
football/13
<pad>
▁क्षमा
▁लेकसाइड
鹿
बिस्तार
▁केहि
विचलित
▁नागढुंगा
▁कास्कीको
Ȭ
्ली
▁खडक
▁राई,
ाज
▁डेन्टल
▁चाकडी
▁अनुगमन
न्ते
हावी
▁'क'
▁नरदेवी
▁खिचातानी
【
🇷
▁अक्षुण
▁शिवकुमार
▁सकि
हाल्छ
देखिनै
▁बिस्तारै
ԉ
▁इष्टमित्र
उरा
▁हन्ट
▁खण्डमा
द्रा
▁भन्ने
बीआई
▁"नेपाल
▁ग¥यौ
▁धापासी
▁धर्म,
▁तथा
̤
▁बैशाख
▁एम्बाप्पे
बमोजिम
▁एभरेस्ट
Ｐ
▁बिशेष
▁नभन्नु
ͧ
▁शै
▁अाफ्न
गाउँमै
अन्धाधुन्ध
▁अवहेलना
▁केहीबेर
▁हेर्‍य
ز
▁जालझेल
▁रुकुम
▁महिनौं
霼
2#comment-
悟
क्र
▁मस्र्याङ्दी
▁खरेल
त्रि
आदरणीय
ੋ
▁बेफाइदा
▁जनसम्पर्क
▁गै
Φ
सहमति
▁छौं।'
▁अस्ट्रिया
▁सामाजिक,
▁बार
▁सज्जन
शिला
elect
▁झोलुङ्गे
▁बितरण
로
鞋
▁देशभक्त
▁you
▁शर
ोटे
額
羽
ियल
䪩
▁अख्तर
▁आयोजनाको
'कसैले
5%83%E0%A
घण्टा
▁कात्र्तिक
▁निवेदक
news/tourism
गार्हस्थ
򴶨
初
사
▁डकर्मी
დ
▁आन्दोलनको
▁परिस्थितिमा
▁सकिँदै
▁राष्ट्रहरू
▁बनाइए
▁हुनाले
▁मुम्बइ
▁गम्भीर
भयाे
΂
ज्योति
▁ज्याला
围
रह्यो
▁हिंसा,
闲
嫲
▁इब्राहिमोभिच
▁बैरागी
▁फोर्ब्स
▁जीवाणु
खोई
.पा.
▁गरेमा
ü
&#124;
胡
▁मुसीकोट
39
सरकार
▁येशू
bar
า
encod
▁बाँसुरी
❶
拘
 को 
▁दर्ता

▁गौ
ज'
१३
▁लण्डन
▁पृष्ठ
▁पँुजी
▁वेबसाइट
गोविन्द
▁पम्प
पार्क
▁छोए
▁श्रद्धाञ्जली
Г
▁डेलिभरी
▁डबल
▁माओवादीले
ッ
٪
败
▁२०७०
▁प्रतिसत
article
▁बाच्न
▁धानबाली
▁साइक्लिङ
▁अकर्मण्यता
▁सक्ने
俊
▁पर्दैन।
▁धावनमार्ग
▁अन्योल
谓
5%81%E0%A4%B0
फुल
ent
▁हैसियतमा
इला
▁भुल
▁06
淽
▁दर्शाउन
ﳃ
Ƿ
▁चट्याङ
▁मानिए
राजनीतिक
英
▁प्रतिष्ठान
प्रे
ລ
▁con
▁पलेँटी
▁सुरक्षाका
नेपालभरि
▁अगरबत्त
▁छाड्छ
▁हारे
4%95%E0%A5%8D%E
▁नफ
▁छ,"
राइट
...बाँकी
▁पूर्वउपकुलपति
▁पचाए
आइतबारदेखि
周
հ
듆
莞
▁जि
▁कामपा
▁छाडेका
ल्न
▁भनौ
▁सपथ
▁सोसल
▁साइनो
▁शुरु
▁ज्यान
▁मिलेन
▁टेम्पो
▁सञ्चालित
県
bas
▁मेरुदण्ड
▁इन्ज
▁राठौर
Ө
▁अनुहार
▁reading
on
▁देखिन्न
▁तालतलैया
िनुपर्ने
▁ज्ञापन
48/feed
विदेश
▁विमानस्थलबाट
▁निकै
▁मनसुन
▁आकाशे
﻿
ு
▁हिरासत
53
▁सुदृढीकरण
▁भट्टराई,
्टि
चम्किलो
▁मल्टी
रुचाउँदैनन्
▁पाहुना
▁हिसाब
प्रत्यक्ष
form
梤
託
सिसि
壊
▁सत्यता
लिम्पियाधुरा
मझुवा
▁बुर्जुवा
Ƈ
▁महावाणिज्यदूत
▁विज्ञप्ती
▁दुबै
महाराजाधिराज
▁आठ
▁सकिरहे
▁मन्त्रिपरिषद्
मे
▁दिग्गज
ỳ
▁मताधिकार
▁यत्तिकै
▁नेपालीहरू
▁समर्थक
ड्राइभ
▁नजा
धी
Ƭ
तृ
▁भावुक
▁झल्काउने
▁डाइरेक्टर
▁चिकित्सकहरू
▁निकासा
▁असा
▁सोलु
▁भटमास
▁ह्याण्ड
▁उपचार
村
▁गाडीमा
▁नर्वे
▁उत्तेज
▁कमर्सियल
वज्र
▁आफैलाई
30
▁रोहित
स्थल
▁दिएको
▁२०७२
▁ह्रास
瑞
▁दिनभर
▁निर्देशित
▁चिउरी
▁सल्लाघारी
▁विक
4%98%E0%A4%BF
隣
िमा
ahile
ᤡ
▁खुवाउने
놆
दिप
码
▁विश्वका
men
▁उद्दार
▁५२
▁महिन्द्रा
▁बित्त
▁केमिकल
ढे
▁तस्कर
▁माझी
▁आत्तिए
元
सिस
4%BE%E0%A4%88
▁डेंगु
▁फिचर
▁तर्क
▁धुन्चे
ณ
0%A4%B0%E0%A5%8D
▁उर्दी
कर्णाली
0"
▁इन्गेजमेन्ट
라
Ħ
灵
▁पर
▁बढा
्वो
%E0%A4%95+%E0%A
▁तारिफ
▁समानीकरण
涂
▁नाङ्ग
स्फुर्त
▁प्रमूख
रेज
ड्ड
ޤ
ईकन
귀
▁बिर्सेर
football/8
संघर्ष
▁दफा
▁आकलन
.com
चित्र
▁उपसमूह
▁लाहुरे
▁त्रिपुरासुन्दरी
▁दिनसम्म
िन्थे
▁अभिलेख
बाहक
▁श्रेष्ठ
▁थाल्यो।
▁कैद
▁२२
▁केरा
<p>&#8220;
▁बोक्ने
भूकम्पपछि
▁बाहिरिए
0%A4%93%E0%A
▁गभर्नर
उद्योग
š
ᤰ
किरा
▁शिवालय
厚
▁थुन
▁कपिल
◄
▁विधि
ꑿ
▁डन्डी
▁धरावासी
▁नवमी
珂
%E0%A5%81%E0%A4%
▁प्रतिस्पर्धामा
स्टोन
▁सिएनएन
▁मित्रहरू
仙
घाटमा
▁ट्याग
▁गर्भनर
own

height:
▁नकआउट
།
▁अभिवादन
▁खेप
▁प्रामाणिक
–४
▁थिएँ
पत
मोर
feature
▁इञ्जिन
▁सौदाबाजी
驩
դ
ŏ
2008
▁सुन्धारा
▁प्रा.
ѐ
पीसी
ք
▁कन्चनपुर
उप
द
were
▁पुगिन्
्छौँ
▁लेखिएको
▁मुद्दती
तनावग्रस्त
▁रहेर
टक
拾
▁वर्णन
▁मोड
バ
▁झापड
▁रेलमार्ग
फर्केर
菲
▁लालपुर्जा
👍
व्यय
ON
ர
Ԩ
▁खेलाडीले
12/
▁बुन्ने
0%A4%AD%E0%A4%AF
塾
▁त्यसरी
▁लिइन्
력
▁सरुभक्त
Congress
▁आआफ्न
▁हरियाली
▁मृत्युदण्ड
▁समात
▁टू
▁चढ
▁खुसी
▁गोर्खाली
िरहनु
▁मन्तब्य
HI
▁अण्डा
▁लैजा
셍
सायनिक
▁समयपछि
▁ल्याउँदा
▁धाँधली
▁प्रद्युम्न
견
▁हवाई
▁कुपोष
月
▁विवेक
हल
कराल
役
गिता
nda
Ԥ
entertainment
ϐ
▁छली
ju
ह्य
▁त्यस
▁जर्नल
ߚ
▁सरदार
▁२
क्षक
▁ढल्क
պ
फोक्सुन्डो
▁गाभ
▁मेची–महाकाली
▁सोभियत
▁प्रणय
म
▁लेखे
ज्ञान
▁४१
▁क्यान
▁सुन्दा
▁अपराधमा
肝
▁प्रसिद्ध
艺
▁स्याटेलाइट
▁सक्नु
▁भत्काए
리
▁ब्याख्या
▁सकाए
͚
٣
▁कार्बन
姆
चाहेर
õ
䖥
डब्ल्यु
गर्नाले
▁रियाल
कसैसँग
▁सुकाए
4%95%E0%A5%8B
異
鳥
ロ
▁'त्यही
پ
׀
म्यान
▁विस्फोटक
एक्काइसौं
▁दम्पत्ति
▁दिग्भ्रम
▁हामीलाई
ែ
烌
▁बेंसीसहर
ڞ
撑
▁गोल्छा
▁मार्दै
ߓ
▁नेपालीलाई
▁सुनाउँछन्
▁लथालि
铃
231
2019/01/736
धा
▁मरिच
:३०
Ѧ
▁कामकाज
▁सध
▁ओगट्ने
▁बूढा
▁सेन्टिमिटर
▁बलात्कारी
沬
▁सुनकोशी
▁विश्वयुद्ध
▁स्पेनिस
▁खोज्नु
चौकी
/e
≢
सामु
भ्य
▁'आफू
▁उद्धेश्य
▁गाजा
▁स्टेफन
臣
▁सोध्न
▁दह्रो
सम्पादक
▁दिदी–बहिनी
▁रहेको
▁कुम्ल
극
▁ट्रायल
4%BF%E0%A4%A4+%E
▁अपरान्ह
▁सिटी
▁कार्यपालिका
भाई
▁बच्ने
▁छाप्रो
▁आइन्
▁सहन
+%E0%A4%A8%E0%A
▁निम्नानुसा
र्गिक
▁आइन्सटाइन
+%E0%A4%89%E0%A
▁नपठाए
▁टेक्नोलोजी
▁डायल
领
लाइ
▁गणेशमान
▁वैकल्पिक
国
/2018/02/65
▁व्याख्या
递
+%E0%A4%A5%E0%A
▁म्याराथुन
䳧
▁र्‍याली
▁अस्पतालको
खुसी
▁खर्च
mandu
▁मिठो
▁हार्ने
्स्
रहन्छन्
▁कि.मी.
競
▁ओशो
丽
▁संकलक
▁मध्ये
▁होमिए
गेन
溅
ŝ
साथ
▁त्योभन्दा
▁बढाइ
▁टिप्पर
4%97%E0%A
ाइदिने
'कतिपय
进
▁दिन
been
▁उपसभामुख
न्र्दभ
▁चलचित्र
▁बुझाइसके
▁भन्छन्,
▁भाइबर
▁अन्त्य
many
पीएम
▁ह्यान्ड
▁गिद्ध
晦
庖
场
&quot;
▁सक्न
24
2019/05/25/15587
▁भुमिका
4%A8%E0%A5%81
समा
्याएर
▁कार्यकारी
▁लडाकु
▁प्रा.लि.
▁कालु
ז
▁प्रतिप्रश्न
ÿ
एनएसजेएफ
▁बिज
ȋ
▁तीनकुने
छोप
▁टिपे
▁सुबेदी
ನ
禁
हतार
▁चमत्कार
▁dec
▁तुल्याउने
▁असुली
▁आदेश
▁'राष्ट्रिय
पोस्ट
िङ्ग
गैर
▁पाउने
▁यद्यपि
▁समर्पित
▁सम्पति
▁सफा
建
▁किताव
लिया
▁चिल

▁खतरनाक
हुमूल्य
䍻
▁टुँडिखेल
舒
▁ज्यादती
र्
അ
▁खोलामा
▁निस्कने
▁पहिले
AS
अशुभ
।तस्बिर
ҡ
▁प्राय:
▁राजनिती
साइकल
▁आफंै
▁इन्सुरेन्स
संसद
im
▁अनुज
अपेक्षाअनुसार
▁तिक्तता
धारी
ய
‡
▁नाइ
干
▁सहयोगमा
Mr.
▁श्राद्ध
퓄
乐
ڄ
▁चाही
ਡ
22/
▁जनसांख्यिक
▁कारखाना
▁अस्त्र
▁रावल
▁11:4
▁जनसंख्या
▁सावित
▁इटली
▁बाहेक
|
▁महानगरपालिकाका
रोक
💕
▁एक–अर्का
Ƞ
▁निर्भरता
709
▁गल्कोट
भेन
▁टाढा
सक्नुपर्ने
▁फँ
▁बालवालिका
प्रमुख
दै
￼
▁डिल
▁अन्र्तराष्ट्रिय
💋
缓
媒
▁कोईराला
स
ढु
▁चाहेनन्
▁मार्गदर्शक
▁पदाधिकारी
▁परिकार
ł
▁गरिबी
जारोपण
▁नेम्बाङ
₋
▁शिल
▁नपाएको
▁मिर्गौला
▁आक्रोशित
▁प्रश्नहरु
玄
😓
]]></
ch
▁हिंसाका
auna
▁मनपर्छ

▁पसल
▁दिनुभयो।
▁नभेट
▁क्लिंकर
י
▁पुनर्
þ
▁मोनोरेल
Ŋ
▁काठमाडौं,
साता
桨
ヒ
▁सर्वहारा
4%A8%E0%A5%87%E
ट्रयाक
▁ढाकिए
▁डिआईजी
ڙ
▁बर्ड

▁देखिन्छ।
▁अवा
▁खड्का
ानदार
做
▁रह्यो
नगरपालिका–९
▁आक्रमण
▁नराम्रा
▁हुनेगर्छ
रिक
हरुसँग
ट्टी
▁फोरजी
▁स्पिनर
ؓ
ਖ
ӿ
who
▁बोट
▁डिसी
▁धारामा
गाँउ
▁नमाने
▁कारोबारमा
Please
▁छोइ
▁अनेरास्ववियु
▁आत्तिन
ियस
▁(क
▁पढाए
जसरी
销
ience
▁पारेर
▁सेसन
▁अन्धाधुन्
5%8D%E0%A4%B7
▁लव
▁समयसीमा
▁भ्वाइस
▁फाट
ب
▁मोर्चा
▁रोइरहे
絞
계
हिसावले
▁रोजीरोटी
▁युवक
▁सर्वोच्च
▁विमोचन
▁असक्षम
2019/05/22/213
疑
҄
▁ढुङ्गाना
▁छौं,
▁all
▁गुजरात
७
▁विमलेन्द्र
~
संवैधानिक
▁भाव
▁नखेल्ने
▁पठाउँछ
▁बस्याल
comment-id="66
▁प्रतिरक्षा
▁संचालक
▁परिषद्
▁भुइँचालो
▁आधार
▁निकुन्ज
क्ला
▁द्रुतमार्ग
▁हास्यास्पद
▁कच्चापदार्थ
5%8D%E0%A4%A1
▁५३
ig
せ
▁बाहिरिएको
0%A4%8F%E0%A4%95
部
H
ﭨ
▁कार्यकर्ताको
至
ͬ
रिया
▁(क्रान्तिकारी)
्लाङ
▁गूगल
▁पाखा
▁वयस्क
▁अर्थतन्त्रको
म्ह
߿
▁२०३०
▁तन्क
▁बामदेव
प्रश्वास
䓭
▁सहकारी
▁साइबर
▁भक्कान
्दैनन्
ुप¥यो
▁एकल
▁संस्कृतिविद्
▁दबाउन
ල
▁बनिन्
▁छुटाए
ҩ
▁आधिकारिक
▁'आ
दय
致
▁मिलाउँदै
▁ढाल
▁नबन
直
辠
▁घन्क
मोड
▁महत्वपूर्ण
小
՝
܆
▁हजुर
▁जोखिम
▁हजार
%E0%A4%B5
▁ढोल
ȫ
▁दुई–तीन
府
▁व्याजदर
▁नामसारी
मन्त्री
Ѕ
▁डुबाए
▁अतिथि
▁गाँउ
स्कर
侃
開
Ҽ
▁घोषणापत्र
密
▁सत्र
▁बच
s/1
▁सुनिल
ब्या
▁अछुत
▁पागल
Ӛ
pachhi
▁टीका
▁13
▁गयो
▁स्पोर्टस्
▁सर्कुलर
सर्व
▁ऋचा
पर्‍यो।
▁पुण्य
▁रुचाउ
▁प्रमोसन
գ
▁झ्
▁जोगिन
▁गर्दैछ।
▁प्रणव
0%A4%AA%E0%A5%8D
▁छन्,'
某
jal
▁अक
▁हेरेका
Ԕ
▁सन्तति
लियोनल
▁हुनै
▁दोहोर्‍याउन
▁प्रलोभन
▁भैंसेपाटी
▁ईष्र्या
्यवस्थापिका–संसद
温
ਸ
▁पट
买
▁ब्याण्ड
崎
▁जनार्दन
▁छानबीन
▁हुन्थे
拠
▁वुमन
▁सिंगल्स
▁हरफ
%E0%A5%88+
▁सुनीता
▁जुटेका
▁शब्दकोश
देसी
व्यवस्था
▁बहुविवाह
▁सजग
席
▁गर्छन
ङ
▁दिने,
񩈔
º
▁विल्सन
授
尋
ू
▁डाक्टर
▁ब्रो
▁सचिन
▁गरेँ
▁बाहिरका
▁काठमाडाँै
▁पोखरेल,
▁2015
+%E0%A4%B9%E0%A
▁हप्ता
१९९४
▁एफ.एम
▁अपरेट
▁निवृत्तिभरण
▁उछाल
▁चुचुरो
▁मुस्ताङ
ょ
▁चिनियाँ
▁श्रीमान
▁बुझ
槐
रोप
ायो,
ढल्केवर
▁सुचना
̖
▁ब्युटी
te
AI
ɤ
▁सङ्ख्या
उनले
▁ज्याक
▁सङ्गठ
ṃ
▁सरोज
▁सैनिक
4%B0%E0%A4%BE
▁बर्बर
चिह्न
▁घृणा
यु
綾
्सन
▁रजिष्ट्रेसन
🇬
▁द्रव्य
５
▁द्वारिका
▁स्ट्या
▁तेस्रोलिंगी
invest
▁ओझेल
▁मनाउँदै
▁वस्तुगत
▁मानिन्छ।
▁सुगौली
▁बैकुण्ठ
▁चिट्ठा
状
▁ब्यापार
ം

ݬ
雖
▁ऐश्वर्य
▁आरक्ष
६६
▁नै
▁से
▁तमलोपा
▁शिवरात्रि
▁असल
▁ढोग
▁पोथी
बाध्यकारी
▁चरणमा
▁१
灑
वातावरणीय
▁मिसाए
▁आरोग्य
▁ति
▁अमर
▁छोरीलाई
वास्तविक
中
▁अत्तरिया
▁श्रवण
अहोरात्र
▁प्रथामिकता
उपर
ỏ
▁रजिष्टार
▁फेरिए
▁डढेलो
営
▁थोपरे
泰
मोह
ंँ
▁अमेरिका,
पुँजी
们
▁भारतले
▁धर्म
▁टण्डन
蛋
▁रहँदा
▁सही
˼
▁बृद्धि
▁गुवाहाटी
▁'कर्मचारी
▁स्वतन्त्रता
▁फुर्
▁महासंघ
७.६
▁५८
▁नभएसम्म
Thank
क्य
▁ब्रोड
+%E0%A4%9A%E0%A
▁यसो
▁नलेख
ase
▁गरेपछि
▁ठड
मोबाइल
▁एभिन्यु
љ
등
▁योजनाको
यसप्रकार
2019/01/733
▁जुटाउन
▁इन्ट्र
4%9C%E0%A4%BE%E
😦
ベ
▁रामदेव
उहाँसँग
▁अध्यादेश
िँदो
▁Sak
▁कम्पनी
▁कमिला
▁छुट्याउने
▁रोटी
ֽ
ݩ
뒽
▁प्रविधिमन्त्री
प्रसारित
कार्यान्वयन
▁नक्सांकन
▁दुर्गन्ध
▁अम्बेडकर

िस्तान
▁६२
▁समेटे
儿
मंगलबारदेखि
मू
एसईई
▁हस्तकला
ль
▁जहदा
▁मृत्युदर
▁आश
▁पञ्चेबाजा
type="
▁फाँट
▁भीडभाड
▁नसुन्ने
▁खेलाए
▁गिरी
am
▁अर्कोतिर
इ
▁अनसन
बर्ग
0%A4%82%E0%A4%97
▁जुन
▁हितमा
▁भित्र्याइ
動
͖
▁पोखरेलले
▁हुँदाहुँदै
▁भागिदार
▁आजका
▁न्यायपरिषद्
▁निकाल्ने
वर्षअगाडि
ेनी
१२
ारवहन
▁प्रि
▁पुगिन्छ
▁प्रचारप्रसार
▁मङ्गलबार
じ
▁लडेका
हु
ही
▁संसदमा
%E2%80%
酢
▁पक्कै
▁बाला
▁शशि
▁चाहन्छौं
िनेछ।
/2017/04/57
▁ta
5%8D%E0%A4%B0%E
▁गुठियार
劑
钨
ुपर्नेछ।
▁मोहन
▁हिल्सा
नेसनल
५२
गोपाल
वान्
+%E0%A4%85
सिजी
▁सोचमा
▁जम
▁नुहाउँद
堹
रातिदेखि
▁मुद्दामा
link
Ԁ
▁ललितपुर
मुकुन्द
兰
▁शतप्रतिशत
▁फ्रिज
񘦈
ept
▁उद्योगपति
▁पिउँद
संवेग
▁क्षेत्रिय
▁साहसिक
4%BF%E0%A4%9C
4%A8%E0%A5%87
▁एन्जेल
गर्भ
▁होमियोप्याथिक
▁'कम
▁सघाए
यसबीचमा
훑
▁प्यानल
▁हाइड्रोपावर
▁बो
▁पञ्जीकरण
ѵ
सिं
विश्वकै
▁हल्लाउँद
ɑ
▁पाश्र्व
▁देख्नुभए
सिलो
▁उपप्राध्यापक
▁जिम्मेवारी
ँड
▁अंकुश
▁गीति
重
޽
▁एन्जिला
▁हरिवंश
पूजा
▁बिदेश
▁देउसीभैलो
▁सेवाको
▁पाउँ
ban
章
舌
football/40
😀
ۜ
▁तय
▁रोनाल्डो
▁भएन।
–१४
5%8D%E0%A4%AB
▁केसी,
राष्ट्रिय
न्यायाधीवक्ता
면
▁आमालाई
▁रहिरह
उम्मेदवार
ވ
▁(एस
▁भईरहेको
Ү
▁लमही
辨
news/education/
सेन्सेटिभ
▁अरु
▁बचाऊ
कैयौं
▁लेख्नुहोस
▁चामे
▁जबर्जस्त
▁उपनिर्देशक
▁जनआस्था
▁सतर्क
▁पड्क
騒
▁गरिमा
so
स्
▁यसअघि
▁अद्यावधिक
▁देशभक्ति
Ј
ल'
▁गर्मी
0%A4%A6%E0%A5%81
+%E0%A4%98%E0%A
▁युथ
▁इन
▁तोड्दै
ݖ
दलीय
行
驭
ې
ȏ
▁लोक
छ्याप्ती
▁लैजानुपर्ने
滅
▁एथलेटिक्स
▁हातखुट्टा
हट
▁हुवावे
ामनारायण
प्रथा
▁भण्डारी,
क्षतिग्रस्त
लाख
▁मे
हृय
▁बढैयाताल
▁अहंकार
पहिरो
▁छर्लंग
肯
▁२०१८
▁ल्याएको
र्‍यौं
▁डेमोक्रयाट
💓
▁जीवजन्तु
▁सौजन्य
▁फाइनान्स
ѻ
र्च
शु
▁स्ट्राइक
▁चल्थ्यो
rtial-arts/judo/
Tag
資
▁पुर्‍याए
▁कलाकारहरु
▁हंगामा
▁क्षेत्र
आयुर्वेदिक
शाला
बध
▁इन्ज्युर
▁तैनाथ
नजर
ऋणात्मक
保
▁टुङ्गिए
▁मिनेटमा
▁मेलम्ची
▁पाइन्न
▁रिपब्लिकन
▁टेबल
▁उम्मेद
वाइ
▁विज्ञान
▁विषयगत
▁गर्नुहोस्।
Ȇ
런
ৰ
▁सम्माननीय
▁बाजा
#comment-837
把
▁कुस
▁आगमन
▁व्ययभार
▁लड्दै
0%A4%9A%E0%A4%B2
spect
▁टीम
▁सार्थकता
नबोली
▁कुराकानी
▁नरह
न्द्र
▁नासा
▁कार्यभार
▁स्प्रे
区
4%A7%E0%A4%BF
޵
बराबर
ђ
▁डीपीआर
▁(एजेन्सी)
यूनाइटेड
स्तरको
▁सिमाना
#comment-827
▁सांसद
क्सा
वृद्धि
▁२०६९
▁नियोजन
▁थाल्नु
苍
▁भैलो
सांसारिक
▁चाँ
▁संघका
▁मातापिता
▁डेनिस
▁सेतु
90
▁लज्ज
婷
▁चलाइए
▁ढिस्को
▁यसैगरी
▁सन्ध्या
▁२०५७
▁कीर्तिमान
bir
▁उपस्थित
η
▁छात्रा
पर्छ
सानातिना
▁गरिन्छ।
▁खरिद–बिक्री
¹
拉
▁गोलभेडा
▁हतास
टुलु
्छन्।
This
挝
▁लर्ड
▁सक्दैनन्
ҹ
४
▁जीवनी
4%BE%E0%A4%9F+%E
祈
लगानीमैत्री
tch
▁मिलिमिटर
함
प्रतिस्पर्धात्मक
▁नारायणी
▁गरिहाल्न
▁बिहान
▁सिर
र्भ
▁भेषवाकर
▁इंग
बारे
▁सर्वोत्कृष्ट
▁उपलब्ध
▁मष्तिष्क
content/-1
▁अर्थमा
▁स्वीकृत
Ԭ
╟
我
▁प्रसाद
▁लेनिन
妊
पिए
▁जोशी
▁जन्ममिति
▁चर्चा–परिचर्चा
¥या
▁खुलाउने
▁दैनिकी
▁href="
▁जिताए
▁पूर्वमन्त्री
▁पुष्टि
तसो
4%B8%E0%A5%8B
३.६
▁परनिर्भरता
प्रजातन्त्र
▁बताइन
news/economy/
▁कप्तानी
▁चर्क
▁गर्थ्यो
▁अन्तमा
▁मूर्ति
▁चिज
071
▁बिग्रे
char
▁पढेर
ɴ
▁पनी

▁मुटुरोग
▁कार्यकुशलता
▁बेस
▁विनम्र
4%BE%E0%A4%B0
राख
▁दोधारा
▁देखी
▁महत्व
▁दाह्री
▁जिल्लाभर
▁मिलेको
▁नगरिए
▁अतिरञ्ज
▁गि
▁झन्झट
▁कर्मचारीलाई
यत
屋
の
▁आजकल
覉
▁पर्यवेक्षण
▁पुगेपछि
Ɗ
坡
▁डोर्‍याए
चौरमा
▁दिन्छ
▁पुनर्गठन
९

▁गोरु
▁छाप्न
▁अशान्ति
ш
द्धय
ԑ
▁सरसफाइ
उन्
ग्री
▁चाहँदैनन्
नपुग्दा
▁बिलियन
▁६८
評
▁जीव
求
▁दिनुपर्छ
▁'स्थानीय
▁घाउ
जनघनत्व
▁लुइटेल
▁सुस्ता
▁परीक्षामा
▁उठाय
地
▁महाअभियान
晴
सुनेपछि
▁पाठ्य–पुस्तक
▁हुँदैछन्
ə
ធ
सन्तोषजनक
▁सवल
▁आवरण
뵪
सुकै
▁स्मारिका
^
▁सुख
▁चरम
झिनो
*
▁आयोगमा
▁पाइयो
▁गाँजा
▁स्टाटस
·
▁आँखाले
▁हावा
▁जबरजस्ती
हिद
ेटर
cide
昭
▁होस्
▁हुनैपर्छ
स्थित
िला
▁लुकाए
▁मिनी
समाजवादउन्मुख
▁पुर्‍याएको
】
▁रामारोशन
▁केवल
۵
▁कनेक्सन
▁नलागे
▁रुढीवाद
्छे
▁बाहिरियो
▁नारी
▁अस्वस्थ
▁ईन्जिनियर
▁प्रसन्न
युग
▁आइपुगे
4
▁खुराक
▁इँटाभट्टा
▁प्रारम्भिक
▁दैलो
▁विक्रेता
भोग
▁कोही
▁सम्पदा
4%BE%E0%A4%AA
▁राष्ट्रपति
बिन्दू
▁पदाधिकारीहरू
▁जातीय
ह
▁बनाउनु
खोज्नुपर्ने
अझै
▁सञ्चारमाध्यम
ालय
▁फलो
粟
Ӌ
सामाजिक–आर्थिक
協
कार्य
▁सेक्स
गोल
▁समुदायमा
▁न्याय
▁राजनेता
ख
▁चलखेल
▁खलबल
▁बेहोर्नुपर्ने
✋
ച
▁अकाल
▁भाडामा
2018/08/699
▁कृषिमा
▁सान
▁मूल
▁विकासमा
680
▁हास्यव्यङ्ग्य
▁नगरको
40.html"
सदाबहार
बिघ्न
▁स्वीस
▁बैठक
▁उत्प्रेरणा
▁बुझ्दै
▁'बाहुबली
port
ા
▁लेखनाथ
▁पार्दै
▁भ्याक्सिन
營
▁ई-
８
▁चढाए
sad
੍
▁जरो
▁कन्सट्रक्सन
रहित
▁केबुलकार
फेस
▁जाँचपास
▁ट्वीट
▁कमाउने
कडा
̄
悔
0%A4%AD%E0%A4%A8
▁सचिवालय
▁निको
▁सफलता
ܝ
▁जंगबहादुर
▁पञ्जा
▁स्वाइन
▁सिवाकोटी
माया
▁वित्त
ट्रि
Ѭ
▁व्यत्ति
▁टुंगिए
िरहन्छन्
▁शब्द
▁२०७६
4%AA%E0%A4%B0
७०
&#x200d;
उँदा
गोपालप्रसाद
ԣ
–३
▁स्थानीयले
▁तिर्नुपर्ने
न्टा
राम्रोसँग
न्यायाधिवक्ता
Khabar
▁गुम्द
▁सेजुवाल
▁देहावसान
発
友
陰
▁दिन्छु
瞪
have
याली
▁तामाकोसी
हिमाल
ෘ
▁३२
ে
톬
▁अंग्रेजीमा
▁माग
लगानी
▁प्रमाणीकरण
८९
ߑ
▁लेख
▁जोड्दा
欣
▁कबुल
▁मुग्लिन
▁बिर्तामोड
.४
▁मानिन्थ्यो
▁'उहाँ
▁ट्राभल्स
टआउट
▁प्रम
▁संग्लन
破
ै्र
▁दर्जन
थियाे।
्सी
▁अशिक्षा
वेस
▁परिवर्तित
▁अल्झिए
अनुसारको
▁मतदानस्थल
ቢ
net
खत
वर्षभरि
▁शिवजी
ask
ൊ
▁हराएको
▁हैरान
news/lifestyle/
पुत्र
ջ
▁गुलाफ
▁जनजीवन
▁इतिहासमा
▁हा
ʣ
खा
▁लोकतन्त्रमा
▁गण्डक
܇
▁(ग
▁गर्ल
▁मादी
adan
▁बैतडी
ަ
▁एमालेको
aye
Ĵ
भन
221
赖
▁छोड्न
प्रभाव
ø
▁महाराजगञ्ज
▁बढाएको
▁युवाहरु
▁छाना
▁गन्तब्य
ホ
▁आजभोलि
▁उम्मेदवार
%E0%A4%8F
▁असमानता
ன
▁मान्दै
近
褍
▁कबड्डी
sure
▁छुवाछुत
ह्वात्तै
▁अन्तर्गत
▁छिर
प्रतिवेदनअनुसार
▁अट्न
▁'नि
▁कार्यलाई
्ना
▁भएर
ア
⇄
▁तलाउ
▁ल्याब
देखी
अपराजित
▁विपत्ति
Municipality
▁कन्सल्टेन्सी
▁शीर्षक
▁यन्त्र
ा
▁नपर्ने
्थ्यो।
뚻
ȥ
स्टोर
ム
永
シ
▁आस
▁यसपटक
▁गराइन्छ
▁मक्
▁बिगबिगी
▁शंकर
▁उछिने
ş
려
图
▁हुनपुग्छ
▁गडबड
▁अभिभावकहरू
जहाज
▁काष्ठमण्डप
2019
▁नाश
▁दमक
विकेश
अविश्वसनीय
▁मान्छन्
789
▁अब
▁परिर्वतन
▁बुट
▁पश्मिना
4%AE%E0%A5%8D
दोस्रो
▁आजदेखि
▁शीत
▁निम्ता
电
▁विमानमा
▁कभर्डहल
▁मेट्न
 
띵
추
ाङ्क
▁हवाईजहाज
किन
÷
▁आयोजनाका
▁पृथ्वीनारायण
&#8230;&#8230;
फोहरमैला
लक्ष्मी
▁वारियर्स
बार
दान
▁सोलुखुम्बु
▁गरिरहेको
▁पत्थर
जार
箬
▁इन्डिया
▁दिव्य
▁सम्झनामा
铭
欺
▁उरुग्वे
შ
포
▁ढुवानी
झैं
फानो
्चो
>W
0%A4%97%E0%A5%87
▁इब्राहिम
▁bi
▁ड्र
5%87%E0%A4%B0
▁हस्पिटालिटी
▁पिउन
निष्ठ
练
▁नाजिर
▁परवानीपुर
सीमावर्ती
▁जिसस
▁सय
▁४,
ha
▁पठाइएका
▁जिम्बाब्वे
▁मियाँ
28
च्याङ
▁12:00
▁नेप
▁गफ
▁मरेका
▁एमडी
▁सारंगी
कचौरा
▁न्यायाधिश
▁पिल्लर
आमा
阤
▁खेलाडीहरू
🧬
式
▁मध्यम
▁पञ्च
▁घूस
戻
▁सिता
▁सिरोहिया
0%A4%AA%E0%A5%81
▁सहमति
▁अनौठो
▁विनियमावली
▁पिरोल
▁निरीह
्फ
ाइदिए
▁निस्ते
▁९८
▁खुम्च
▁कास्की
▁उल्ल
7</span>
▁आचरण
▁म्युजियम
देउराली
▁युसुफ
▁'मो
試
媛
R
▁आयरल्याण्ड
▁सिक्स
adi
▁देख्दिन
ư
艕
គ
▁व्यवसाय
▁तारिक
▁यम
▁जनस्वास्थ्य
涝
लगायत
Ŭ
▁AD
▁प्रत्यक्षतर्फ
名
सरास
ɣ
▁लिनुपर्ने
▁डेमोक्र्याट
mi
▁गोपाल
趣
▁इन्फोटेक
Ȁ
供
त्यस
▁कर्पोरेसन
▁नीति
चो
▁काठमाडांै
क्री
▁खानेकुरा
▁चरमोत्कर्ष
5%8B%E0%A4%B7
run
準
▁De
▁मनाइँदै
▁खन्याए
▁प्रविधि
गाउँपालिका–२
▁आइपर्ने
▁बुझिसके
हरू
⦮
▁पर्ने
Ԃ
▁अपराधी
▁लगा
▁'जिल्ला
गड
always
▁इपिडिमियोलोज
बाँध
ը
▁विवाद
▁at:
▁हि
▁ससुरा
▁लहर
▁कालीकोट
▁नोकर
िदैन
4%B6%E0%A5%81
▁प्रहरीका
भारतीय
▁रुपयाँ
▁सहजीकरण
्जि
फर्केपछि
▁नेटवर्थ
且
驾
▁"तर
पाइयोस्
身
▁आन्दोलनरत
२/२
ҝ
▁Di
܈
ݑ
▁सरे
▁जान्न
परीक्षण
▁चान्सलर
▁रहला
▁एचके
߂
▁ओहोरदोहोर
▁पूर्वपश्चिम
हुचर्चित
–स
▁लगायो
▁सबैभन्दा
涉
▁बिताउन
्लिन
ߐ
ेला
▁सरसर
▁अजित
▁थिए ।
▁रेड
▁रवीन्द्र
▁फ्री
▁हरिबहादुर
बाहेक
▁जोरपाटी
फ्रेण्ड
▁हुनुपर्छ,
▁लोपोन्मुख
nt
ावली
▁मन
▁इन्ट्री
ांत
▁दल
▁मिलाउने
▁बाँझ
इट
छु
र्‍यो
▁नयाँ
▁बस्छ
▁राख्यो
ź
盖
▁आधारशिला
▁ग्यारेण्टी
12
ci
्यारा
▁कुखुरापालन
▁गुणस्तरीय
▁पन्जा
tar
0%A4%AF%E0%A5%8B
▁किशोरी
▁रारा
▁महत्वाकांक्षा
२.०
ालु
▁देख्छन्
ծ
असामाजिक
▁रेग्मी
▁जेभियर
मुकायम
▁हड्डी
यदी
सक्नु
▁अनुशरण
▁प्रकरणमा
▁पीएसजी
581
▁तारबार
एम्बुस
޻
9/
परिवार
▁लाश
排
०९
ਧ
स्ना
विजित
हिल
डीए
▁जर्नेल
▁आउनुभएको
4%A4%E0%A4%BF
扶
▁सुधार्ने
▁टोपी
उल
▁अस्वभाविक
▁पशुपन्छी
4%B8%E0%A5%8D
▁सङ्घसंस्था
हिँड्छन्
▁अलपत्र
रायो
4%B8%E0%A4%BE
▁कपी
▁प्रतिपक्षी
័
▁मुलुकमा
幡
नवजात
%E0%A5%8B+%E
▁जन्मस्थल
▁क्यार
▁पहलमा
▁बढ्नुपर्छ
▁एकलौटी
▁आँबुखैरेनी
▁बर्ष
▁चरा
▁उज्यालो
खे
िब
▁औँल्याए
▁टेक्निकल
ल्लु
हिर
▁गुरुत्वाकर्षण
▁गराउनु
▁गैसस
唔
▁निर्देश
स्वचालित
▁उसै
▁कांग्रेसको
▁'ख
ee
▁होइन।
▁एकैछिन
▁नियन्त्रक
▁टकराव
▁तिमल्सेना
▁एल्बम
▁'रि
뛥
冶
4%BF%E0%A4%A1
4%B9%E0%A4%B0
43
football/27
सम्झौता
#comment-831
0%A4%96%E0%A4%BF
श्चर्यचकित
▁यातना
▁ओझा
今
२०३६
हुन्थ्यो,'
▁कर्मा
离
मह
ार्हस्थ्य
▁'द
▁खेलकुद)–
▁प्रदर्शनी
˳
▁सायमी
▁सुधारका
मानविय
निशा
▁यता
▁तोक
▁सर्वेक्षण
▁वर्ण
यसक्रममा
Й
▁बोरा
獅
4%B0%E0%A5%82
▁हप्क
स्थानहरुमा
हाल्छन्
营
▁हुनुपर्दछ
▁ख
पूर्वनिर्धारित
ट्राउट
▁रद्द
▁अनेरास्ववियू
▁विपिन
र्जन
દ
4%BF%E0%A4%B2
▁डिजाइनर
▁चिनिने
▁रोजाइ
▁९९
▁उल्लेख
必
▁इस्ट
す
▁आठौं
▁ललित
▁खाल्डा
▁भाट
अधिकारसम्पन्न
▁छिन्नमस्ता
▁स्थिर
ێ
▁सामसङ
▁उपहार
▁सयपत्री
腿
मित
ラ
▁बिडारी
▁सिनामंगल
भेज
㍅
脱
अनुुसार
▁रेमिट्यान्स
园
▁दुर्घट्ना
▁घ्यू
▁घुलमिल
▁पोल्याण्ड
च्च
सुल
▁सम्भाव्यता
▁साइ
भित्तामा
friend
रिएर
ɏ
लिस
奈
Θ
▁चोटपटक
▁थ्रीस्टार
▁बिधेयक
नभ्याई
jati
▁स्क
▁बेरोजगारी
▁क्रोमोजोम
▁एउटा
Å
▁सादा
専
▁सुन्दरीजल
▁संयुक्त
▁पुस्ता
▁माहौल
▁नियाल्न
▁एपिसोड
魂
巨
▁राज्यव्यवस्था
▁चन्द्र
ȇ
▁संसद्
▁गुमाउन
책
▁प्रमाणपत्र
#comment-836
▁गोपनीयता
͗
▁भेन्चर
▁कुटपिट
ߨ
▁कार्यहरू
▁प्रतियोगितामा
▁अनुपस्थित
น
镜
▁शिलालेख
▁जन्मभूमि
▁प्राधिकरण
▁भिड्दै
▁टेरे
हरुमा
니
न्टरनेश्नल
▁पातल
▁बूढीगण्डकी
ाउँदैनन्
▁दुई–चार
▁आव
्यता
4%9C%E0%A5%87
NE
5"
▁फार्म
䉉
लान्
▁अधिकारीको
鲾
सामुदायिक
▁अविभावक
▁अचार
象
▁खेलकुद)
▁टाइप
▁फिल्डिङ
Ǖ
▁सिंहले
ing
▁फाल
0%A4%97%E0%A5%8D
▁ग्रिस
▁सेभ
▁रोमाञ्च
공
审
▁उज्ज्वल
▁उर्लाबारी
▁मोर
अप्राकृतिक
▁सुदुरपश्चिम
▁भएमा
सेप
笛
देउ
सिरियाली
सेन्स
▁ओभरड्राफ्ट
▁भोज
▁ठेला
्यो,
ʵ
▁पर्नेमा
▁सकियो
नन्,
▁खुवाइ
▁परिश्रम
better
▁पृथक
▁जोहो
▁बुबा
琉
▁चौंरी
विन
चित्त
▁नपढ
ृंखल
합
▁विघटन
▁प्रबद्र्धन
Ӯ
▁उठाउन
▁होर्डिङ
ेक्ट
▁पाँचजना
ाञ्जली
デ
%E0%A4%B9%E0%A
▁दूत
चन
▁खेलिरहेका
▁वस्तुस्थिति
▁पृतना
▁उमेदवार
▁pri
▁अग्ला
▁सुल्झाउन
梡
▁अफिसर
▁दाङको
ن
江
प्रि–क्वाटरफाइनल
▁दलित
▁हाइकिङ
▁उदाए
▁कतिपय
See
्सरी
0%A5%A8%E0%A5%A
अत्यन्तै
▁24
▁होईन
搜
▁सुतिरहे
्द
▁वासस्थान
अकल्पनीय
▁बृद्धबृद्धा
सक्यो
▁?
i
황
ת
▁And
▁लाग्नुपर्ने
▁असार
tyo
ुन्जेल
▁लाग
▁हया
सके
▁नभने
各
▁'महा
▁व्यक्तिगत
▁भन्नुहुन्छ,
▁नजिकका
'अहिलेसम्म
書
Ƴ
▁मनमुटाव
▁पक्षका
C
▁सच्याउने
▁मुस
हीँ
▁अधबैंसे
▁आप्रवाह
▁सम्मेलन
▁८३
ོ
수
่
त्यतातिर
修
स्स
चार्ज
▁स्पर्श
▁पोलिसी
ڢ
▁स्टुडियो
▁आइरहेको
रचयिता
▁भित्र्याएको
▁पाइन्थ्यो
▁set
▁मरुभूमि
▁सहकार्य
▁प्रिन्ट
▁परेर
▁तिनीहरू

▁पालो
👉
▁झाँकी
▁पुरातत्त्व
वरिपरि
▁सीटीईभीटी
अन्तरजातीय
▁मुम्बई
नेप्लिज
भिडियो
▁ख्याती
awa
▁सकेको
and
▁जिल्लामा
▁परियोजनामा
दिक्षा
▁भेडेटार
个
֍
a
▁मार्गनिर्देश
▁फाटे
गेल
较
▁कमजोर
्वल
िइ
▁गर्नुभयो।
▁सामग्रीहरू
▁सम्झाए
잠
▁जीविकोपार्जन
फाइ
▁शिख
桑
▁एपीएफ
▁लाभान्वित
▁चलाइरहे
थकित
▁भावना
惠
▁सर्वसम्मति
▁भन्नुभयो।
▁पाउँछन्
진
हुने
मीठो
回
▁कश्मीर
投
मौद्रिक
sector
▁प्रदर्शनमा
▁२०६१
捞
▁उदघाटन
ϔ
▁यमपञ्चक
▁गुमाए
▁प्याट्रियट्स
सकेर
▁भागमा
artha
ာ
▁वनक्षेत्र
ө
▁हौसला
▁नोकरी
▁अनुमान
▁भाले
刷
擔
Cricket
▁लोडसेडिङ
ायक
तŒव
शान्ति
▁बिल
Ô
▁नरबहादुर
▁दिवाकर
वाह
▁महाधिबेशन
▁समस्याहरू
▁इतिहासकार
son
ĺ
述
▁डल्फिन
▁लडाई
▁खोल्दा
▁धाए
थली
▁भोग्न
▁पूर्वराजा
材
週
▁योजनाका
健
▁मिल्ने
練
▁कलश
›
▁ल्याउनु
▁काउन्सिल
दिएँ।
4%B0%E0%A4%BF
72/feed
वंश
▁टाइफाइड
▁सञ्जय
िरहने
०६
▁युधिष्ठिर
▁उत्पादनमूलक
？
▁मतदान
औद्योगिक
▁टेक्नोलोजि
▁ठोक्कि
ǘ
प्रसाद
▁लसुन
▁अध्यक्ष
▁महानिर्देशक
▁प्रतिदिन
▁राजधानीमा
el
▁बुझिन्छ
▁लिए
#comment-832
ʭ
並
丰
ц
्याई
5%87%E0%A4%9B
▁विचार
वाहक
७६
▁भनिदिन
▁रिर्पोट
▁संस्करण
▁विधेयक,
▁ठान्छन्
शस्त्र
▁हेरे
जीत
▁क्षयरोग
▁रेटिङ
▁अर्गानिक
हृदय
▁देउ
'हामीले
▁जनसेवा
▁टाँसे
▁छैन,
▁बनेका
बडिगाड
▁तमु
▁निःशुल्क
▁चन्द्रबहादुर
get
न्डा
▁अवतार
▁नछाड्ने
नुसार
▁नर्स
▁आउन
▁अभिन्न
सँग
771
̃
▁स्वरुप
▁मतगणना
4%A1%E0%A4%BE
कालिन
▁बेवास्ता
▁महाभियोग
▁लगत
ை
▁निध
Ґ
▁strong
re
▁कमी
▁चीनमा
▁भुइँ
▁साढे
メ
環
▁तारकेश्वर
▁मनमन
▁गिरावट
्काए
▁देखिएका
ձ
▁घु
▁भन्ठान
▁गर्‍यो
移
҂
ウ
football/48
▁भूकम्प
Com
▁बेनी–जोमसोम
▁हल्लाखल्ला
▁दृढ
बाड
▁कर्नाटक
後
▁खुबी
▁बेहोरे
▁आईसीपी
▁आकार
▁ha
▁उपमहानिर्देशक
▁सिँचाई
▁मिलेर
भीर
डोल
्पा
🇴
⧟
▁२०५६
विवादित
ū
मगर
ृजनशील
▁हिंडे
͕
歳
▁असीम
गठबन्धन
▁कतारमा
diaspora
▁जिउँदै
▁author
▁बजेसम्म
▁साम्राज्ञी
▁प्रोजेक्ट
▁दिलाए
ल्ट
▁यस्तै
▁सीध
泌
▁खोजि
व्या
̓
ज्या
आइतबार
▁सह–सचिव
▁१८
▁मङ्सिर
▁न्यूरो
मानार्थ
पत्यारिलो
▁नखोल
処
▁अपनाए
▁मकाउ
कन्या
▁अलिकति

ഒ
▁बैंग्लोर
▁पुनर्मिलन
football/35
▁गरौं
▁ध्येय
▁खेलेको
डिसन
7
▁प्राध्यापक
▁हिँड्न
▁सुत्केरी
▁प्रतिष्पर्धी
▁स्थापित
▁बराहक्षेत्र
▁आवतजावत
▁समन्वय
▁चाँदनी
4%A3%E0%A
▁बाँसबारी
剧
▁सो
▁छाती
検
बालेर
▁हुण्डी
▁ट्रान्जिट
▁त्यागे
▁भण्डारण
▁गल्र्स
▁टेनिस
▁अंकगणित
क़
ؙ
が
4%9B+%E0%A5%A4
▁स्मृति
▁बारम्बार
▁हिँड
%E0%A5%80
५१
证
🚩
▁खड्गी
▁पछ्याउने
天
पालि
猜
▁विकटता
▁चलचित्रकर्मी
▁इकोनोमी
发
ताले
否
ियो।
▁व्यक्तित्व
▁परोपकार
वद
▁स्तुति
返
म्पा
▁पोखराको
कुलप्रसाद
划
Ȋ
प्स
导
▁हजुरआमा
▁भेइकल
▁आयात
▁बैजनाथ
▁चौकीदार
भार
▁बेनी
उत्सब
@
▁अतिवादी
▁स्वाभाविक
▁संघिय
%E0%A4%97
▁कित्ताकाट
▁चराचुरुङ्गी
Ǚ
▁हेटौँडा
▁लगाइदिने
ुरु
▁पूर्वसचिव
▁ख्व
ҥ
▁Ap
▁अप्ठ्यारो
▁यौन
▁निवासमा
▁रिजाल
▁संरक्षण
▁उद्योगहरू
▁लोप्चन
▁क्षत
ܫ
▁पैठारी
▁भित्रिएका
▁उपचारका
▁मुखिया
▁no
▁दक्षिणी
▁स्व
ݘ
▁सिर्जनात्मक
▁१०
▁भन्छन्
▁मिनि
17/feed
▁कुना
韩
▁परीक्षा
क्रिए
頓
▁म्याक
▁केके
कन्डिसन
▁06:5
▁नपुग
▁प्रश्नपत्र
▁थियौं
▁गरिसक्नुपर्ने
▁खप
▁कता
▁सभाहल
▁रेफर
曜
諸
▁गैर
▁परी
%E0%A4%AC%E0%A
सी
असंलग्न
▁बोलीचाली
▁ब्रह्मा
पाट
रा'
▁इन्स्ट
▁सुक
2%80%8B
खानी
पूर्ण
▁अमृता
▁फागु
ेना
▁गरिन
▁आतंकवाद
Perma
▁फेरी
▁"यस
▁स्क्रीन
ोडक्स
办
စ
▁बेड
ਿ
भूवन
▁सेकुवा
左
▁समाह
▁लिंक
▁मतपत्र
८८
▁दाजुभाइ
֜
Ʈ
%E0%A4%9A%E0%A
▁'बे
ગ
economy
▁सवस्टेशन
▁सटही
भत्ता
馆
सारेर
▁थप्न


▁सल
▁प्रचन्ड
▁निकेतन
于
▁छैन'
Ø
▁आग्रह
▁"अहिले
來
▁मलेखु
सगै
33
宫
▁hou
▁संविधानमा
▁बन्ला
▁शहरीकरण
प्रवासमा
▁रोमा
▁उपकरणहरू
ヶ
▁सेन्ट्रल
▁आवश्यकता
▁स्वामित्व
▁समस्याको
▁मुना
▁भनी
af
▁राख्थे
गाउँपालिका–३
▁एनओसी
▁कस
ाईरहेका
▁कानुनमन्त्री
▁उहाँ
▁त्यो
҇
▁साँवा
▁जनताहरु
▁खुद्रा
कर्मी
▁Au
football/46
▁लाखसम्म
▁after
these
▁प्रिय
सगरमाथा
संचालित
▁पथप्रदर्शक
▁अस्पतालका
जग्गा
▁भक्तपुर
▁क्लव
▁२०४०
▁पेट्रोल
▁स्थापना
▁मुख्यमन्त्री
उन्जेल
फोन
▁इमरजेन्सी
सिट
▁कन्डम
▁सुमो
▁भबिष्य
讲
▁उत्रन
絶
향
▁श्रेष्ठ,
▁उन्नत
▁०६८
🇯
▁बर्सेनि
्यौं
▁जेल
▁व्यापक
▁इमर्ज
򃃺
ised
▁स्वयम
▁प्रदर्श
िको
5%81%E0%A4%9D
भएन ।
豐
▁राजीनामा
🙏
뭅
究
स्टे
▁स्वर्णिम
ޏ
▁हाे
स्त्र
▁नेवार
▁गुन्डागर्दी
09
मधेसकेन्द्रित
▁अधिवेसन
诉
.१
艳
▁झम्ट
▁mail
▁हेर्छु
०४६
-wrap">
▁श्र
▁साइप्रस
▁पकड
▁अमलेखगन्ज
▁१८०
澥
▁जिरी
%E0%A4%B0+%E
▁प्रयोगकर्ता
▁छरछिमेक
▁७००
▁अमला
▁विद्यापीठ
▁यान्त्रीकरण
Ɋ
眕
▁bhaye
贫
▁छुट्टै
▁खुट्टामा
▁धागो
▁जवाफ
▁सायद
▁कस्मेटिक
0%A4%85%E0%A4%
▁शुभेच्छुक
套
▁अङ्क
▁संचालन
▁ला
▁जयशंकर
򶑃
ुपर्ला
⁄
a+
φ
नोल्ड
(आइओसी)
▁अतुल
४०
▁एटलेटिको
͏
双
प्रताप
ष्ण
醒
▁तीर्थस्थल
▁लेख्छन्
臓
▁झलनाथ
▁तटबन्ध
▁नारायणगढ
▁नमिले
失
▁पुरे
ċ
▁सोनल
▁विक्षिप्त
▁has

▁नीर
挪
▁कटिबद्ध
▁सुनामी
▁अर्कोतर्फ
▁मिलेमतो
0%A5%A9%E0%A5%A6
दे
▁तहस
▁बालबालिकाहरू
▁gare
覧
▁चिस्यान
▁धुप
▁रेस
薄
'सरकारले
▁कार्यत्रम
駐
▁वफादार
▁बाँधिए
ˎ
战
܅
▁आत्मनिर्भर
▁बोका

ष
एन
▁अन्ध
▁नबिर्स
▁ऐरी
▁एस्काभेटर
–मैलुङ–स्याफ्रु
梯
▁कुलुङ
▁उनीहरूलाई
ल्ली
झा
▁माओवाद
#
▁हुँदै
▁त्यस्तो
▁जेठी
▁मसाज
▁रिक्सा
Ɔ
顔
생
▁सालतिर
▁रुप
▁अवकाश
▁माफी
▁नगरपालिकाको
▁चोरी
▁वीरगञ्ज
▁संयन्त्र
रहनुभएको
▁चुहिए
२०२१
▁प्रतिकुल
▁जुक्ति
६१
▁इतिहास
▁थुलुङ
▁दुष्परिणाम
소
̎
▁प्रतिष्ठानका
▁बलराम
▁उत्सर्जन
भाग्यशाली
0%A4%B2%E0%A5%8B
anguage
▁आइलाग्
▁सञ्चारमन्त्री
ู
활
ൂ
/others/
▁भर्न
▁पुरुषहरू
निहारिका
औँ
Ш
▁बढाउने
ܐ
▁बुझ्ने
चोकमा
▁स्रेस्ता
▁जनसङ्ख्या
ҟ
ठाउँ
उत्प्रेरित
▁अनुसन्धानकर्ता
▁छोड
▁खुल्न
▁ब्याक
प्रश्न
▁नम्बरमा
ӏ
▁नग्न
▁मिहेनत
▁पुरोहित
▁भेटवार्ता
所
ǔ
▁ओली
幽
अदालत
5%
21/
▁स्कट
▁सहुलियत
▁जनगणना
1</span>
राङ
▁'अन्य
伯
▁लोभ्याउन
One
ش
▁स्टल
नोभ
닦
▁ल्याई
▁विद्यावारिधि
姉

0%A4%97%E0%A4%B0
ა
▁कार्यालयमा
▁आइस
▁गरिरह
▁उपत्यका
▁घोच
▁कूल
▁चापागाउँ
▁अनुभव
▁महिलाहरु
्वर
▁गिरी,
▁हेल्थ
भोट
ゃ
▁खानेपानी,
▁लाग्नेछ
पर्यन्त
▁कोरियाली
ƌ
▁ज्योतिष
▁मन्तव्य
▁(एक
2018/09/20/15374
▁आकृति
▁रङ्गशाला
▁एकता
宁
▁ऊ
पथ
▁अबस्थामा
▁पौरख
๊
Ȍ
Ƅ
ȣ
0%A4%AF%E0%A4%95
030
▁सेलाए
▁मन्त्रीहरु
▁दिनहुँ
ok
▁असामान्य
▁उनिहरु
▁रहदै
भन्दै
291
▁चाहान्छ
▁बुझ्छन्
▁गोष्ठि
ۙ
▁विचारधारा
▁राज
ॉ
एम
▁पारेको
्कै
ѧ
▁खर्चिलो
▁पार्टनर
▁पढाउन
▁बेच्ने
ब्रह्म
又
क्व
▁यात्रु
▁ओरालो
卓
람
▁लालमोहर
▁पारिएका
सामयिक
▁तत्कालै
ab
植
आफ्नै
▁हटिया
रत्न
▁भेटेका
▁चामुण्डा
▁टाटा
▁गराउदै
▁संग
.वि.
泸
लिइरहेको
▁मलाई
▁विवाहित
pe
ゆ
लोकमानसिंह
▁गतिविधिमा
ổ
🇧
कहाँ
▁गीत–संगीत
▁हिसिला
▁पन्छ
淀
▁समान
५४
▁बदनाम
▁व्यापारी
डिए
▁कस्तुरी
一
▁दीपिका
▁बृ
▁पखाल
▁लिएको
▁फि
ti
मूलक
▁अवस्थालाई
▁निर्दिष्ट
턂
▁कामदारहरू
▁मैना
丸
0%A4%AA%E0%A4%A6
Ֆ
▁दुइ
ताका
▁रण
▁रुचाइए
瓦
ܲ
▁निसान
130
▁लिच्छविकाल
▁समृद्
▁व्यावसाय
▁paisa
׷
▁५०
▁कार्तिक
क्त
्लि
▁छौँ,
सिँह
▁जकड
▁टीभी
football/9
ә
▁लडाकू
रेडपान्डा
Ù
ञ्जु
ȅ
▁शान्ति,
किलो
▁भाग्य
▁चै
ियोस्
▁याक्थुङ
▁जाँदा
▁बित्छ
▁इभान
▁आयु
▁नगरसभा
2016/11/50
▁बढाउन
्नि
▁प्रोडक्शन
ѥ
%E0%A4%A1+%E0%A
▁डोनाल्ड
▁फिफा
▁'वि
ऴ
▁रुद्र
वर्ष
▁हुनुभएका
▁विद्यार्थीहरू
🌷
ǽ
▁चेम्जोङ
▁पाउन्ड
▁शिक्षामन्त्री
▁चार
Ű
▁नातागोता
▁तुलनात्मक
▁हाइट
स्ति
▁गणित
आर
យ
▁छँदै
づ
🙉
4%A6%E0%A5%8D
▁वैदेशिक
▁प्रिपेड
数
▁९
क्रान्त
▁स्थायित्व
बाराही

4%A8+%E0%A
▁dekh
▁छट्पट
▁सत्तरी
▁विभिन्न
▁अवशेष
▁दुवैजना
ँध
▁चण्डि
▁घडी
0%A4%AE%E0%A5%81
▁ग्रीष्म
2019/04/755
+ra+
▁जनअधिकार
走
▁महिलाहरुले
ྱ
▁आधारित
▁झण्झट
ྒ
▁नट
ग्राफ
▁छोडिए
▁स्ट्यान्डर्ड
꨾
री,
स्वास्थ्यमन्त्री
̝
Continue
▁पुन:संरचना
▁राज्यलक्ष्मी
▁पाण्डे,
▁ताम्रपत्र
्यु
टि
रुपमै
▁मुश्किल
▁एनआरटी
▁हाँसि

86.html">
沃
▁-
▁सुप
▁कुम
▁बनाइ
र्ल
▁तालाबन्दी
५००
▁विकास–निर्माण
ط
▁ठिमी
▁भीमफेदी
न्यायिक
▁विद्यालयलाई
'मेरा
▁आतंक
#comment-3
टारी
5%80+%E0%A
▁पपुवा
voi
▁पालिका
▁जमानी
▁विश्वकर्मा
▁४
▁शिष्य
▁परियोजनाहरू
З
DA
Ե
उदै
作
层
▁अति
▁जिरा
策
ؘ
▁म्याङलुङ
▁सानो
उने
▁एमालेका
误
▁रिलायन्स
▁दुख्छ
拼
▁अनावश्यक
उनी
इन्जिनियर
ntertainment/201

kar
▁दिनपछि
▁ब्यापक
▁पोशाक
K
▁झूट
▁गाडे
▁कुखुरा
▁आरोपित
粕
Ӿ
▁निकाल्यो
▁टुक्र
ुहुन्न
लोजिस्ट
▁नचिने
न्ना
▁शेष
ണ
咬
▁प्रतियोगी
▁लट
प्ला
▁चित्रकला
▁वास्तविक
ঃ
▁झन्झन
▁महेन्द्र
▁मस्तिष्क
रु
▁पुरातात्विक
▁मुहम्मद
सिक
▁भ्रातृ
▁जहाज
▁भोला
पेन
▁गोइत
▁थलिए
丈
▁रंगशाला
뒣
▁गर्भ
ٖ
▁कम्प्यूटर
▁गन्धर्व
%E
ञ्चोक
▁पार्छ
▁सम्हाल्दै

ű
▁हमला
4%95%E0%A4%BE
der
▁परेन

निर्णयअनुसार
▁अल्कोहल
▁अभियन्ता
सामग्री
िन
▁व्याडमिन्टन
▁फोहोरमैला
5%81%E0%A
▁ऋणी
▁भोग्नु
▁समिति,
▁बर्दिबास
▁निर्माणको
▁चलाउन
जत्तिकै
?'
▁काभ्रेपलान्चोक
▁पत्रकारिता
▁राखिने
▁इञ्जिनियर
▁अायाेज
레
▁लिपि
▁src="https://
0%A5%8D%E0%A4%87
▁Rom
奶
सीमाभित्र
▁प्रकाशक
▁कल्याण
▁बरियता
साथीहरुसँग
▁आयोजन
▁फूटबल
▁पैरवी
▁नागरिकता
Ǟ
▁पारे
▁पुत्र
▁तीब्र
▁घरै
▁सुल्झ
▁रोहिंग्या
✊
▁?'
▁ऐन,
be
आराधना
☀
▁डोम
▁संस्थाले
▁मौन
表
cquet/badminton/
छु।'
워
▁सिक्लेस
.
▁दुखेसो
▁Do
▁अनुरोध
▁भन्छु
▁ड्राइभिङ
ۯ
▁सञ्चारकर्मीसँग
उद
▁संगठनहरु
गति
▁तिमिल्सिना
4%81%E0%A4%97
▁नकार्न
सूर्यप्रसाद
ハ
ׇ
▁प्लेटफर्म
▁तात्पर्य
散
▁जनताका
廳
news/201
</s
F
▁उहाँले
▁हिँडिरहे
▁मञ्चन
१-०
झिसमिसे
▁परिवारलाई
▁कार्यालयले
▁बहाना
绘
तारो
▁सुख्खा
▁सक्दिनँ
▁घुमे
▁अपनाउने
غ
▁राजेन्द्र
▁मेट्रो
靓
▁मतियार
॓
ڎ
%0D%0A
▁संस्थाहरु
▁गर्थे
穿
e
▁सिर्सिया
▁आत्मसम्मान
ੈ
▁मोक्ष
▁08:3
▁bu
▁ऐर
防
體
д
▁http://www.
▁बट
▁श्यामसुन्दर
▁स्वस्तिमा
▁अयोध
▁लान
▁त्यसैमा
▁ट्रष्ट
▁इन्द्र
▁बाहिरिएका
javascript
▁कंसाकार
҃
▁सिक्वेल
▁यहीँ
▁जायज
▁सिड्नी
▁फ
▁अनुभूत
हरितालिका
▁डुब
5
▁ह्दय
満
कर्षण
▁कांग्रेस,
▁बहुराष्ट्रिय
▁सिराहा
킹
न्टे
ٙ
एमसी
▁मर्छ
▁संवैधानिक
▁ननिस्क
▁चरण
जनता
▁चालिए
▁वजे
▁योजनाअनुसार
▁पुर्व
▁हेरिन
▁जन्डिस
尴
▁भर्से
▁निर्धारित
सम्मान
艤
▁दियो।
▁पोल्ने
此
▁यसमा
खडानन्द
▁बन्दीपुर
ɚ
टिभ
▁पत्याउन
10/15
▁प्रल्हाद
▁भइरह
▁दोस
▁सेवाप्रदायक
▁योगेन्द्र
▁सक्तैन
▁बिचल्ली
ज्ञा–प्रतिष्ठान
भाब
्छु
▁सक्नुपर्ने
▁महत्वाकांक्षी
▁सह–
▁देख
खर्क
▁६५
▁ब्यस्त
∇
▁बढ्यो
▁मुक्ति
▁ललितकला
▁उडाउने
▁कार्यालयका
55/feed
再
▁बर्
▁कंगना
▁मुनि
न्डु
त्रसित
▁प्रदुषण
शाखा
pradesh-5/2018/
▁उप–महानगरपालिका
▁ब्लड
▁चाल्ने
बेदन
๛
▁नबन्द
Ĥ
랍
▁यदु
माधम
राख्ने
▁हुनसक्ने
缈
▁विन्दु
▁परिप्रेक्ष्यमा
陆
Ç
▁यौनिक
जो
▁अशक्त
▁हुनेछन्
▁गइरहेका
▁नगरेको
绸
💖
4%BE%E0%A5%87
▁घन
▁औँ
▁लालायित
▁फर्किएका
फेसबुक
ࡡ
▁पढे
▁अंश
आफूसँग
▁निकायमा
▁राजपा
▁तिल
ż
es
▁आइरन
▁कुरुवा
38
▁f
▁सिकाए
▁थर्क
5%8D%E0%A4%A8
▁ताते
٥
ڥ
▁लाभकर
%E0%A4%BE+%E0%A
र्लोस
▁घुमाउन
संपर्क
忧
▁च्याम्बर
허
%E0%A5%82
ाइसकेका
▁सिम
ver
%E0%A5%A8
पाइन्छ ।
▁निर्देशनमा
▁आप्रवासी
झ
िसकेका
▁रासायनिक
▁एमएडब्ल
▁ब्यहोर
▁लगाउँछ
नगरपालिका
सिड
▁म्यादी
次
▁स्वैरकल्पना
चोर
▁थुप्रिए
▁शुभ
▁एडम
लिजमा
पुनर्विचार
▁जोड्न
😂
एचडी
職
▁ओ
▁१२५
沢
717
Ｍ
▁बिच्छेद
▁साम्यवाद
陘
▁system
▁पाउनु
ệ
▁"त्यस
阿
▁बसी
खेलेर
कार्यक्रम
򤨪
▁मुछिए
쐎
िनेछ
ँगा
▁आयुष्मान
▁खै
▁खेल्न
批
▁सुनाइन्
▁थाले
ाइरहेको
े 
निज
हजुर
जतिसुकै
ро
कन्भिन्स
▁फुच्चे
धु
ڐ
̰
丁
▁प्रहरीको
▁जेठ
▁राउटर
▁कसम
간
▁लागु
▁भन्नुभएको
थिए
彰
▁श्रोता
मागेर
員
▁बंगलादेश
▁गणतान्त्रिक
▁सामान्यतया
▁सरोकारवालाहरु
▁ग्यालरी
̪
टिक
ԩ
▁सञ्चालक
▁४६
博
産
▁दंगाल
͇
▁आइतबार
0%A4%87+%E0%A4%
́
▁गुड्न
▁फरार
▁रोग
▁नलग
▁निदान
racquet/
▁ल्होछार
▁तेज
जनाइएको
▁खोटाङ
त्यस्तै
/2017/06/60
▁बदल्ने
▁तनाव
▁मास्के
▁तवर
▁वायु
झि
▁विदा
▁पराए
▁बिग्र
▁इमानदारी
始
▁उक्लिए
▁कार्यकर्ताहरू
="
ुहुन्छ
ḿ
比
朵
▁बक्सिङ
史
2019/04/759
▁परदेश
▁ल्याइसके
496
▁अरेबिया
▁फस
▁भगवती
▁ढाके
गन्हाउने
▁सञ्चार
▁तुषार
̉
२५
ζ
▁लोकमान
ेरे
바
▁नुहाए
HA
तौल
प्रधानन्यायाधीश
पर्छ ।
▁चित्र
मु
▁इन्जिनियरिङ
▁आतङ्क
׵
▁डाउनलोड
उद्योगी–व्यवसायी
ावती
녀
▁उत्तरपूर्व
▁मार्सल
चरित्र
ғ
져
च्चा
▁"यो
辥
96
锈
﹯
绝
遭
▁२०७४
पर्छ,'
स्कुले
▁घम्साघम्सी
▁do
▁पाईए
▁कोहली
▁पशुचौपाया
▁सञ्चालकहरू
▁सदभावना
▁सिमी
▁पिलर
▁साग
▁द्वापर
▁सक्रियता
▁उपमेयर
▁नाघिसके
▁जनालाई
ln
ណ
ม
ㄚ
▁उनीसँग
▁सुरुआत
▁14:14:
网
्‍न
▁भेषभुषा
▁बराबरको
▁सहमतिमा
कविशिरोमणि
्थें
⁠
पुर्व
▁मेडिसिटी
載
▁पार्ने
▁पोख
DE
▁कालान्तर
▁सामन्तवाद
虽
▁वर्षायाम
कुहिने
嫎
▁भईसके
had
▁भन्नुहुन्थ्यो
▁फिँज
ओली
ुद
▁मेरी
सम्झौताअनुसार
▁प्यान
▁इलेक्ट्रोनिक्स
▁गहिर
服
连
▁बताइ
▁creat
޶
乔
⭕
帽
dherai
▁साताभित्र
▁तपाईंलाई
त्यो
�...
▁संशय
訊
▁हदम्याद
▁धनि
परिस्कृत
▁आत्मसात
0%A4%AE%E0%A5%80
▁सजावट
▁अपिल
▁तुरुन्तै
/2019/02/739
ờ
▁हेटौंडा
▁सुन्तला
रेको
術
▁लाख
र्ती
▁प्रतिष्ठानमा
▁लिदै
▁बिर्सिए
変
▁ग्रामिण
▁कसैले
▁दाई
▁यात्रा
促
➡

句
▁आकांक्षी
0%A4%B6%E0%A5%8D
▁दाँज
ڵ
햵
▁चप्पल
▁तस्तै
मूल्यांकन
▁मोहित
4%AA%E0%A
▁हेनरी
▁महरा
▁कि,
▁अध्यक्षतामा
▁it
0%A4%97%E0%A5%80
▁घट्छ
উ
ाधार
ग्ला
▁बाणिज्य
▁कार्यन्वयन
ܪ
▁Republ
▁http://www.b
▁resi
▁पातारासी
获
▁भाडादर
▁सिनियर
▁खतिवडा
देशभित्रै
▁आईपीओ
▁हवल्दार
िहिवार
▁किम
▁आशयपत्र
ᚔ
2019/02/743
ji
▁कष्ट
शिप
▁लाग्न
▁उठाई
▁प्रतिबद्धता
▁बानी
▁इन्दिरा
▁भत्काउन
▁वागमती
हुनेछ ।
4%B7%E0%A4%BF
▁हुनथाले
▁'लभ
0%A4%B9%E0%A4%B0
नु
▁प्रतिवेदन
▁दर्जनौ
珠
則
朴
+in+
फत
▁बनोस्
▁गुजरा
कसलाई
▁नियम
배
ਣ
▁बाग
▁पदस्थापन
िरह्यो
▁बनाउँ
▁अहिलेसम्म
▁देवानी
▁दानव
▁नगदेबाली
▁हार्ट
▁परिचित
Build
ेसी
िका
▁सोचे
र्के
भागवत
दारी
तीन
तर्फका
▁सुकुम्वासी
▁अनभिज्ञ
▁प्रधानमन्त्रीका
#comment-802
▁राशी
않
▁अड्डा
हिरासतमा
▁गर्दथ्यो
▁म्यानपावर
इन्टरकन्टिनेन्टल
▁प्रेमकथा
疾
▁सकिएको
आफ्नी
भीमदत्तनगरपालिका
▁हात
▁प्रोफाइल
庭
伙
▁उत्कृष्ठ
▁निजि
▁बिर्सन
€
ؿ
▁त्यसबेला
▁कोमल
▁गिट्टी
पूर्ति
易
▁घुर्
परिमार्जित
▁धर्मनिरपेक्ष
▁यश
▁विसर्जन
▁नेहरू
▁परम्परा
▁सौरभ
▁स्विजरल्यान्ड
▁रामोस
tor
कात्तिक
飽
दी
▁तारेख
▁रणनीति
▁कवाडी
▁लगि
▁टड
▁सक्नुपर्छ
फर्किंदा
AE%E0%A4%BE%E0%A
Þ
▁त्यतिखेर
काली
▁शर्मा
▁प्रोटिन
▁मिड
▁अड्चन
डिपेन्डेन्ट
▁नहुँदै
▁वकिल
bad
松
😄
news/banking/
▁चाहन्छन्
址
▁म्युनिख
708
▁विष
▁घन्टौ
ﾎ
टिस
攻
▁बेजोस
ट्टा
旭
▁काठमाण्डौ
▁फ्रेम
▁सेवाग्राही
▁एकातिर
तेसै
▁जानकारी
▁दिवंगत
▁'जि
▁आदत
▁टुक्रा
▁मुुलुक
▁नेपाल'
Ȗ
㖒
▁दशकअघि
711
▁एडभेन्चर
▁गितार
▁काङ्ग्रेस
▁रोजगारी
4%AB%E0%A5%81
▁'विगत
▁तपाई
▁सिन्हा
2018/12/726
koseli/2018/
ʌ
▁वाध्य
▁गरिवी
0%A4%A6%E0%A4%BE
▁क्याथोलिक
▁गरेबापत
▁व्यबस्था
▁श्रोत
महिने
⮅
▁राख्दा
긂
७५०
▁देखिन्छ,
▁सती
▁रोपनी
नारी
▁फहर
▁फ्रन्ट
▁अमेरिकन
▁बित
▁विपद्
▁कर्जा
▁आइमाई
▁On
पाथ
▁दुईजना
境
過
ka
4%A6%E0%A5%87
्ने
▁अलमल
प्रचण्ड
▁जिविकोपार्जन
或
न्
▁साधु
कार्यस्थलमा
दिनभरी
▁26
▁बसिरहन
▁आउँथ्यो
श्वर
▁दर्शकदीर्घा
妈
▁परिणाम
▁नर्सिङ
▁लिनु
▁पुस्ताका
▁स्नायु
▁तह
0%A4%B5%E0%A5%80
▁मिलापत्र
洹
▁बसाइ
5%8B%E0%A
ँद
▁फुर्तिल
आफूमाथि
टेन्सन
न्जो
야
▁होला,
▁वाराणसी
񤔇
ĩ
▁एक–एक
▁अर्चना
▁गजेन्द्र
ईआईए
ौ
▁खेद
▁नसकिरहे
प्रतीक्षित
▁कारावास
▁टुर्नामेन्ट
▁निरन्तरता
4%BF+%E
▁पल्ट
▁बेहोर्न
4%A8%E0%A5%88+%E
▁आलिया
г
▁डेभिड
▁सिंहदरवार
▁नदोहोर
प्रायोजित
▁मस्को
▁ब्यारेक
▁खास
ტ
▁चेम्बर
्नी
▁हेपाटाइटिस
feeling
蚊
सरिक
Sat
असोज
▁आँधी
˖
▁अचेल
▁क्लिन
Æ
ԯ
ð
▁राजनीतिक
▁हम्मे
▁मंगोल
▁मिचे
▁मालसामान
Է
▁धान
▁बताइएको
▁सुटिङ
˹
▁महिलामा
🎤
/2017/10/63
▁कमजोरी
hare?text=
▁प्रतिलिपि
िग
र्दै
▁खुड्किलो
▁अधिकारको
ܔ
गर
चुनावअघि
▁घेरा
▁प्राज्ञ
▁खराबी
▁स्वच्छता
▁निन्द
▁प्लेयर
सुरक्षा
▁खोजीमा
▁ऐन–कानुन
content
▁जबरा
▁नचाह
械
▁हिचकिच
▁निक्षेप
अहिले
論
▁सदस्यमा
स्थापित
̞
51
サ
▁मधेसमा
मण्ड
▁प्रत्यासी
खाएपछि
नजानेर
5%88+%E0%A4%
▁कला,
–०
विम्स्टेक
ד
Є
▁सुते
▁मोटरसाइकल
▁क्यारेक्टर
立
▁हालसम्म
▁वाङ
जुन
▁वीरगंज
chu
▁एट्लेटिको
▁२०५२
साधारणतया
▁आइएनजिओ
English
5%8D%E0%A4%B0+%E
▁८९
▁आ.ब.
ोली
備
港
गोविन्दराज
▁दर्शन
▁एनएमबी
4%9F%E0%A4%95
news/idea
▁क्यासिनो
▁सीडीएस
▁चर्चा
持
▁रहिरहे
अन्यथा
▁नरो
ᝢ
锦
0%A4%A8%E0%A5%87
▁सक्छु
▁महिमा
▁नोट
▁सन्
्याङ
▁हिलाम्
貨
▁भविष्यमा
NA
紡
q
▁तहका
㍺
▁गाबिस
▁सिद्धबाबा
▁मुल
▁मानिन्छन्
脑
सुवा
▁टिप्पणी
RM
0%A4%AE%E0%A4%BE
बहुक्षेत्रीय
▁होडबाजी
div
▁प्रस्तुत
▁पाएका
▁आइटी
▁निर्लज्ज
▁उच्चपदस्थ
▁मजबु
▁समथर
▁पदावधि
सतही
販
さ
▁अर्की
▁राइफल
创
继
▁मद
▁देखें
ायो।
अवधि
払
▁वंशज
▁प्रान्तीय
▁थिएटर
▁पाइनँ
ाउनुपर्छ
▁there
β
▁तेह्र
▁रहोस्
▁दिनुपर्छ।
¿
때
ढि
▁नविकरण
▁च्याउ
▁स्वीट
▁अतिवाद
以
▁बैद्य
▁गालीगलौज
tal
▁ब्यावसाय
▁पुर्पक्ष
▁संचारमाध्यम
२०४४
▁नबनाउन
▁लड
▁बहुदलीय
▁तामा
▁जमरा
भेर
울
착
ुपर्छ
▁जीसी
२२
▁कन्जुस्याइ
▁मर्
朋
珫
▁संसदको
ᤥ
▁सेल्फी
▁&lsquo;
▁बबई
सक्यो।
▁सीताराम
▁अर्थतन्त्र
ॠ
▁जनप्रतिनिधिहरू
#comment-817
जति
▁प्रतिपदा
▁शाक्य
▁कुराहरू
▁सरोकार
▁असहमति
(झापा)
瞬
▁कहाँ
܌
竳
▁मधु
▁प्रदेशको

ष्ट
▁खर
脉
९६
ओस
節
▁शुभारम्भ
▁बिरुवा
в
罠
Ѣ
▁उम्
氣
▁अविवाहित
▁सकिएला
▁बलात्कृत
नेचुरल
▁बच्न
▁चक्कर
▁बहुमत
▁अर्ध
ुपर
음
▁एमाले
▁स्वस्थ
▁प्रेस्क्रिप्सन
▁सके
▁च्यात
two
▁बिभाजन
▁भूउपग्रह
▁गरिरहनु
RA
सिङ
陶
▁चिठ्ठा
▁झुकाव
▁दावी
पार
▁रोयल
▁St
47/feed
▁धान्न
▁कोलेस्टेरोल
▁पुस्तकालय
▁चालचलन
छिन्।
썮
ट्रो
▁रोबिन
▁अस्पताल
▁सन्दर्भ
▁सेल
▁घोत्लि
▁धुलो
▁पहाड
▁मर्जर
▁माध्याम
&#8230;.
ित्तै
▁लाख,
चर्
▁'हाम्रा
▁आधारमा
वाञ्छित
0%A4%A8+%E0%A4%
烧
弛
ો
▁कृपा
문
एसिया
नियमअनुसार
सेर
▁अन्त
▁ह्याट्रिक
ː
▁गुणात्मक
▁भनिन
栃
▁पाउनुभए
▁14:38:
▁गायत्री
2018/12/729
▁जुटिरहे
恥
▁पूर्वएमाले
▁garda
▁समायोजन
▁अखण्डता
▁मगाए
ओस्
▁अञ्जली
▁अर्थ
▁ओज
Ռ
पालैपालो
▁डिजे
2019/01/738
蘭
▁नखाए
䫿
▁डेबिट
पद्धति
▁होइनन्
▁गैरआवासीय
▁छोराछोरीलाई
▁बालुवाटारमा
▁चैनपुर
다
तालाई
√
<cls>
▁माइक्रो
臭
796
䶾
▁प्रजिअ
▁घना
▁आयस्रोत
▁क्रिस्चियन
मोन
▁सन्दर्भमा
▁नेइमार
ã
▁गुन्जन
ি
सिकलसेल
▁ढोका
▁आखिर
ut
▁पर्यवेक्षक
▁फौजदारी
न्ति
ৃ
▁विद्यालयले
▁प्लस
म्बो
▁मिडफिल्ड
ר
बित्दै
241
▁थिइ
缘
▁एमबीबीएस
▁रूपान्तरण
बोट
▁युरोपियन
֬

۷
▁पशुपंक्षी
쮧
▁पेट
▁आइडिया
▁सिसडोल
▁मनोरञ्जन
▁देखेपछि
दार
▁बर्षको
्थर
अध्यक्ष
Ҷ
ठूला
ͫ
्यै
▁सार्बजनिक
踩
ूट
▁जंगलमा
ヾ
▁हुँदैन।
20
फि
जोर
▁लिफ्ट
६/७
▁डिम्याट
%E0%A4%B0
ंगा
ाका
▁तस्विर
▁एरिया
▁जिसी
▁गाउँपालिका–५
▁छु
3
▁मोडल
▁राज्यका
ज्यू
▁जनयुद्ध
▁वर्गका
महागढीमाई
▁ढ
संगीत
▁अनेसास
▁यिनै
वर्षेनी
▁आफैं
▁सञ्जाल
भवन
Ú
▁अभियुक्त
▁प्रतिबन्धित
▁राखिए
▁स्टील
ľ
वृत्त
▁राडीपाखी
संस्था
▁कृतज्ञता
▁तँ
▁No
िरहेको
▁अजेन्डा
हाडै
播
'यस्तो
स्योरेन्स
▁असन्तुष्ट
football/5
ट्री
▁विकाश
आरसी
▁पोइन्ट
देशभरी
–५
▁चाँहि
▁समितिका
▁कसरी
▁परिदृश्य
▁सुध्र
▁आलु
▁उचाइ
▁सञ्चयकोष
👤
परन्तु
▁पंखा
▁जिनपिङ
 
▁रसायन
▁निद
%E0%A4%A8+%E0%A
▁शुक्रवार
▁माग्न
▁अस्थिरता
▁फ्युचर
▁पराजित
▁वाइड
▁भीम
▁सुन्नु
』
▁धुमधाम
▁निगरानी
▁शिवम्
हरी
▁मिसाइल
ҁ
▁नगरे
▁नदिने
▁दिल्लीमा
▁सभ्य
▁समन्वयमा
व्यापार
▁रोकिन
▁खेमा
▁उब्जिए
▁डाइ
▁प्रकाशमान
▁ग्लुकोज
í
া
▁मन्त्रीपरिषद
▁घेरे
▁१०००
▁कारक
▁खानतलासी
▁चलिरहेको
▁जगाउन
▁बोध
▁१९६०
ܦ
ߤ
ाभिन्
▁कार्यहरु
ीआरआई)
▁दोहो¥याए
▁रतन
߻
虑
▁निकाल्द
▁बहुमुख
嫓
밥
▁विकास
▁आवासीय
▁दरबारमार्ग
遇
र्ड
▁बारी
▁छिन
▁बन्ने
▁मम्मी
#comment-828
ुहोस
▁हचुवा
▁बुबाआमा
▁दुलही
▁कनेक्टिभिटी
्चा
害
L
▁सुनुवाई

▁'ल
प्रचार
▁कम्प
庉
혰
Ⱦ
ݯ
▁बङ्गलादेश
हिया
▁एप
▁लम्बाई
way
▁लाग्ने
ŉ
▁छोट
▁पास
बीचको
▁क्यालेण्डर
4%AE%E0%A4%A8
ે
▁२४
▁लाइट
▁जरुरी
▁स्तरोन्नति
%3F+
Ҹ
▁नहर
▁खरिद
▁द्धन्द्ध
̩
▁।"
▁ट्यालेन्ट
नाटक
▁चुरो
澳
岛
▁पूजा
▁सरकारका
ൃ
sy
िसकिएको
▁दोर्दी
▁पहिरन
+%E0%A4%AA%E0%A
▁पारेका
ाडी
नसकेर
梨
▁बेचैन
काउन्टर
▁होटल
▁अनुराधा
ら
▁मोहमद
▁दियो
क्रिस्टियानो
anel
▁इलेक्ट्र
마
▁नगरी
▁गराइदिए
▁अरविन्द
柱
एघारौं
▁कार्यालयहरू
ड्डी
▁भित्री
▁ब्यबस्था
▁हुन्छ?
살
▁माग्ने
हडताल
football/15
▁चुनावी
Ƽ
▁पर्दछ
्र्स
猪
៌
mal
्
▁अफ
ोपेर
▁रबिन्द्र
▁बहुआयामिक
▁उज्वल
▁सवारीसाधन
▁मेडल
मिठो
पुर्ण
▁मुग
ұ
AT
▁बिछ्याइ
▁सभ्यता
▁खेम
कोसेढुंगा
▁विशेषत
Ҳ
、
▁भ्रष्टाचारी
ٲ
᝚
दियो
(भिडियोसहित)
▁इफेक्ट
▁रुट
▁गर्नुहुँदैन
▁गरियो
▁सम्भवत
भ्याली
选
्तो
▁मन्थली
▁रोप
▁सिनेमा
▁झ
दिने
मि
▁सरकारी
▁जुनियर
अक्साइड
▁गल्ती
葉
▁वर्गीय
▁ज्वरो
▁अधिकारकर्मी
स्वरूप
/४
▁कम्बल
▁ठिक
▁तस्बिर

▁झिकाए
▁विद्यालयका
08/
0</span>
▁रिसर्च
▁ल्याइ
▁कोरियामा
▁कन्सल्ट
▁थिइन
▁संवद्र्धन
夺
▁हडप
▁लाग्दैन
▁काठमाण्डू
▁गन्ध
▁मध्यपश्चिम
▁मेसिनरी
▁हाउभाउ
▁त्यसकारण
查
▁नियाले
݃
साधारण
thanks
▁ट्रफी
▁ओड
▁अख्तियार
▁आले
्याट
▁राखिन
0%A4%98%E0%A4%B0
▁खल्ल
▁भुकम्प
穷
雪
̸
▁खोलानाला
▁प्रोफेसनल
▁राती
▁लागी
▁गर्नसके
▁बायर्न
§
▁झड्का
▁बैंकको
▁छ)
▁पठाएको
Ϸ
हेतु
▁अदालतमा
▁चर्चित
टिन
複
▁गहना
▁रुपा
▁जित्नु
▁खाडल
ड्र
▁मुख्यसचिव
gan
सर्वा
लेखेर
ߠ
જ
▁इन्च
{
▁एनसेल
▁समाज
four
▁बोलचाल
旅
▁भत्काइ
▁संसार
14
▁बगाउन
▁ल्याएर
▁खजुरा
芽
ट्र्याक
ेड
र्इ
▁नखाने
兔
▁पुस
०१
骏
स्कार
▁डुंगा
▁आँशु
0%A5%8D%E0%A4%9F
病
׬
बिहान
▁अर्याल,
24/
帰
बकैया
विक्रम
सम्वन्धी
▁सकेनन्।
▁उद्गम
/2017/12/64
पर्यटन
蔵
Fri
▁सुन्दरी
▁डेमो
▁डाँडामा
दायी
राप्रपा
宙
▁पक्षमा
▁कोठामा
पत्तो
Ȳ
▁भे
▁भर्सन
.......
▁रहनेछन्
per
▁अवयव
▁सुनाउनुभयो
▁बुँदे
▁अल्जेरिया
▁विद्यार्थीहरु
0%A4%81+%E0%A4%
▁संलग्न
▁लिड
जित
किरण
गायिका
ᤩ
from
🐏
समयमा
▁चल्नेछ
▁केरला
▁रियल
▁निष्
▁Co
▁ट्याक्टर
▁राजनीतीकरण
ӫ
▁खर्ब
▁एसियाली
▁लम्बाइ
लगतै
ž
ۘ
▁कान्छी
▁सार्थक
नर्मल
4%A8%E0%A
▁प्रत्याशी
▁सिलिण्डर
▁मस्जिद
▁सेवा,
▁वालवालिका
尤
▁ननाघ
छेउमै
▁हिडे
://www.online
▁छैन
Ք
▁घरमा
ä
If
ܿ
衡
க
憑
▁राजस्व
▁नेतृत्वले
▁बिष्फोट
到
á
გ
ण्
▁सकिसके
80
陷
秘
▁मर्न

धुर्मुस
टेल
▁औषध
▁मामला
कुञ्ज
▁गर्दै
▁देखाउँछन्
▁पिटर
▁द्वन्द्वपीडित
杠
▁खान्छन्
▁क्षत्री
̊
飾
निर्वाचन
▁चढेको
▁क्रिस
欥
▁५४
很
▁बेचबिखन
▁द्वन्द्व
मत्कारिक
▁कर्मचारीहरु
ेष्ट
▁ओसारपसार
▁भूमिका
रियल
▁आए
4%B8+%E0%A4%
4%8F%E0%A4%A8
▁आएनन्
Ρ
混
慮
सुविधासम्पन्न
ƣ
▁बाधा
▁सशक्तीकरण
▁पुर्याइ
%3A
京
▁आप्रवासन
▁भेटिएका
▁गोबर
ाल
बीचमा
▁निसाना
ậ
▁उखान
▁प्याब्सन
4%B9%E0%A5%8B%E
▁पुजारी
4%8F%E0%A4%B0
▁गर्भवती
▁पौडेलले
▁दोहोरिने
▁राष्ट्रकवि
▁ढुङ्गा
बक्स
▁आइसिसी
▁सेज
ʲ
ڤ
४–२
▁मिलाएको
▁हिड्न
2017/11/642
नगरपालिका–११
▁प्रहसन
▁C
त्सना
ă
▁सन्तुलन
▁तौरतरिका
▁विकृत
दोष
斜
▁दास
▁आवद्ध
4%B0%E0%A4%B9
机
▁तुल्सीपुर
▁भड्क
▁बर्न
0%A4%86%E0%A4%AB
▁फेसबुकमा
हानी
▁२०१०
नबुझी
▁बुध
▁वर्षमुनिका
▁खिच्न
▁सहज
▁मुसलमान
ᖳ
▁जितेन्द्र
du
▁टस
▁रुम
हरे
ݒ
▁बज्यो
sha
▁बुझेको
▁मानविकी
尔
▁सुक्ष्म
▁मारिएका
립
▁उड
▁उपलब्धी
▁अवधारण
▁विराटनगरमा
्ठ
▁अल्पसङ्ख्यक
\
込
▁जर्सी
ẽ
▁16:3
▁पुग्थ्यो
ជ
ụ
जडित
▁दोहा
▁मूलधार
डिग
▁सम्पादक
还
▁'ज
▁बन्नुभए
IS
l.org
बृद
▁आङ
▁कन्स्ट्रक्सन
सिधै
▁बिरालो
लियन
्जर
▁शैक्षिक
▁पेरिस
tion
đ
檭
▁बैसाख
towards
▁हेयर
गाडी
▁प्रत्य
माधवप्रसाद
म्स
▁अष्टमी
▁घट्ने
▁आवातजावत
▁मानसिक
ਹ
ँ,
▁नाउँ
▁सकियोस्
▁सवारी
▁तीव्रता
2017
ി
▁अपूर
壶
लगभग
▁नन्द
֡
▁एकिकृत
▁किलोग्राम
anskrit
▁गर्दैछन्
par
▁just
▁सिप्रदी
xa
▁फुपु
ๆ
▁पु¥याउ
०,०००
081
▁रजिस्ट्रार
▁चालीस
लथालिङ्ग
▁समुदायले
ះ
▁आदि
ुत्पादक
▁विविध
ञ
찾
▁तर,
岸
▁खरिदबिक्री
शम्शेर
及
▁झल्कन
▁अञ्जन
▁सरकारबाट
▁सुबिधा
▁खोली
वृक्ष
/2017/08/61
स् त
▁व्यहोरे
̑
basi
▁विश्लेषण
▁पर्दछन्
+%E0%A4%A4
ӹ
ռ
भैरव
疗
▁जिम
▁पुरुषको
साउनदेखि
%E0%A5%87%E0%A
15/
Γ
▁हुदा
▁बागबजार
▁राखेका
狗
ार्थी
▁सेवानिवृत्त
▁प्रतिबिम्ब
▁प्रभाब
의
▁सर्प
🚫
▁फिनल्यान्ड
▁अभिषेक
▁भ्रष्ट्राचार
▁वृष
३६
▁चेक
▁बाख्रा
▁रेस्क्यु
▁हुल
▁टी
腳
献
▁भोजन
타
गरीएको
▁नेदरल्यान्ड्स
4%A8%E0%A5%8D%E
▁कन्फ
▁लहलह
▁वर्षका
▁पर्दै
ο
ợ
魚
ƍ
㝔
ीक
8/03/05/20180305
▁गोलभेँडा
▁सिध्याए
ф
▁११०
्दोरहेछ
ङग
▁छलफलमा
/2018/
खेती
▁S
▁सम्हाले
▁इमिरेट्स
▁14:13:
necessary
▁भयो,'
擅
▁पर्यावरण
▁ग्रामीण
र्म
ल्पसा
▁झमेला
–साना
▁हतोत्साह
%E0%A4%B8+%E0%A
बौद्ध
▁फिल्ड
▁ओर्लिए
▁शारदा
▁दीप
▁बिषय
▁श्रीमति
ഹ
▁आलेख
判
स्ता
▁सच्याउन
83/feed
मेर
⁦
▁देखिँदै
▁नुहाउने
▁मागे
▁चिनिया
85
▁घरहरू
▁कुल्च
▁लक
सिम
साउँद
comment-id="
▁मनोवृत्ति
Ԉ
▁सिद्धिचरण
▁बिष्ट
大
▁अमेरिकाको
▁रामकृष्ण
दिन्छन्।
ų
望
▁...
▁हुनुपर्‍यो
▁एसएसबी
▁फर्निसिङ
▁पहँुच
राखेपछि
▁देखापर्छ
.५
気
▁बन्यो
▁तमसुक
▁मध्यपुरथिमि
स्वर्गीय
▁वैज्ञानिक
铁
ѩ
▁दुखाइ
राज
hang
▁सल्लाह
▁चाहियो
शेष
m
॒
छि
▁संखुवासभा
ेन्स
▁गरिसक्ने
▁क्लब
▁उठाउँछ
▁धर्मेन्द्र
▁'जब
▁दुरूपयोग
▁पुम्से
ਮ
▁सोधपुछ
मोटी
鏹
拿
▁तिर्न
▁पासाङ
▁Dec
В
▁शिक्षादीक्षा
ﶲ
विजय
▁अन्डर
▁नुन
庄
▁कार्यपत्र
नारायणप्रसाद
凡
▁कोलकाता
▁द्रुत
/१०
▁रङ
▁महेन्द्रनगर
▁टायल
.एस.
▁एक
▁बन्दैछ
▁चन्दननाथ
ऽ
▁मेवा
▁भनसुन
▁read
war
▁एरिक
ाधिक
い
▁कान्तिपुर
܃
▁क्ल
▁७९
▁पहिलेको
▁सातदोबाटो
भएछ।
common
escription>
▁बिरामीहरू
ƾ
▁जिम्मा
▁जलमार्ग
▁अनुत्तीर्ण
▁निरपेक्षता
▁टिन
▁'रा
पावर
ट्राफिक
नाम
▁हालिमुहाल
😝
駙
▁व्यायाम
▁नाइन
竹
0%A4%95%E0%A5%81
▁सिंगल
नेट
▁कोशेढु
▁त्यहि
वेद
िन्छन्
▁बताउन
०७
▁यहा
नोज
▁लाहोर
▁अनुभूति
▁विश्वविद्यालयमा
▁प्लान
選
▁अप्ठ्यारा
▁अप्रत्याशित
वरमा
砂
▁घर्ती
▁प्रा.डा.
െ
नीरज
#comment-824
▁महन्थ
ुभकामना
▁kam
▁टमाटर
▁फुले
▁जुस
्युट
🇵
णीय
प्रतिकात्मक
kai
▁त्यतिबेल
छिन
hour
४४
+ma+
▁विरोधाभास
▁अकबर
▁मध्यपहाडी
विघ्न
8.html">
▁उत्पादक
▁ये
▁लगेको
▁भन्नुभयो–
▁सार्वभौम
▁सवा
▁फर्किसके
एबम
ݣ
▁व्यहोर्ने
▁चलाएको
▁महाकाली
▁सोनम
dev
▁सहरी
+%E0%A4%AE
ǋ
बेल्ट
सुदन
▁पञ्जाब
▁ढिल
▁गुलाम
▁औंल्याए
▁गर्दिन
▁दिदै
▁बताएको
▁सिउर
▁राजविराज
Ÿ
मिक
液
성
▁सम्ममा
▁डोर
▁प्रोमो
▁स्रोतसाधन
▁दैवी
टल
▁एसोसिएसन
▁ट्याटु
▁सल्लेरी
▁एग्रिकल्चर
▁झिके
▁बनिसक्
항
जिब
5%87%E0%A4%A4
र्मी
▁अधिक
▁कर्फ्यु
▁नमुना
▁हुलाक
681
▁आर्य
ऄ
재
▁ग्राम
贬
▁हराउद
▁झै
▁गतेदेखि
▁परिसंघ
▁बिचार
▁व्यापारीहरु
▁किनभने
▁आ.व.
issue
⟲
引
बालिका
▁भेटेर
2019/03/753
5%8D%E0%A4%B2
▁बेल
दिदी
詐
▁किनारा
▁सौराहा
▁दिर्घ
▁शताब्दि
VER
▁नरैनापुर
台
̵
強
▁समावेशिता
Π
▁कञ्जुस्या
▁वजार
▁पाला
▁इमानदारिता
⁩
▁झु
▁बोक्न
ेहात
......
▁आइसक्रिम
▁चेन्नाई
▁अडियो
▁मेट
▁बिजय
१६
झनै
▁प्रबन्धक
▁दिल्ली
▁२०५९
requ
ेसा
▁दण्डहीनता
科
▁असमान
▁राक्षस
▁धनकुटा
▁लिइसकेका
▁समुदायको
▁केन्या
▁गाउं
▁माझ
曲
▁कृषिजन्य
▁सिके
▁जालो
खु
▁टेस्ट
労
▁झाडापखाला
वल
▁दूर
ccess
समिति
▁फुकाउन
▁गराउँदा
▁व्यवहारमा
सत्ता
▁रहेछ,
▁उ
▁रुची
▁बिस्कुट
वान
रंगी
베
握
▁डिल्ली
▁गर्नुपर्नेमा
▁कटुवाल
2019/05/27/15589
▁घनश्याम
▁भेटिन
हारा
१९९१
▁लहान
ං
▁नपत्याए
杨
▁बास्तोला
▁भाडा
2018/12/728
घात
▁कैलाश
▁'सो
▁नोभेम्बर
ٰ
▁सहभागिता
▁करुणा
▁सम्यक
file
किनकि
▁सांसदहरू
▁कायस्थ
▁लखन
▁क्युबा
▁जागीर
▁मन्त्रीपरिषद्
Ź
ag
moji/11/72x72/1f
早
▁विभाजन
▁गैँडा
▁अाए
0%A4%B8%E0%A4%B0
▁संगठित
▁सत
▁नाचगान
😳
▁कल
▁कानूनी
▁ध्यान
(सार्क)
▁You
▁बाबियाचौर
"></i>
est
३०
😢
▁प्रणालीमा
▁डाँडा
😯
corrupt
▁थानकोट
lag
चाइ
▁युट्युबमा
ʫ
▁सुनाए
細
▁२००६
माउन्ट
▁मन्त्रालय
▁चापागाईं
▁जाग
۔
martial-arts/
▁हुन
▁कफी
▁कचनकवल
▁राइ
िनो
🐒
▁रिसेप्सन
미
▁बाख्रापालन
▁वर्चस्व
▁पारिस्थितिक
▁घुँडा
▁अधुर
ह्वील
बाचन
सर्त
▁१०८
रहृयो
▁सरावगी
Post
弁
ṇ
▁बिरामीहरु
▁अपनाउँद
▁वैशाख
▁निर्विरोध
▁खेलाडि
▁सेना
▁आयातकर्ता
▁सामसुङ
▁ग्रान्ड
▁सेन
▁संचालनमा
▁लेबर
ﾌ
▁ग¥यो
▁चढे
▁ठूल
▁भाउजु
▁शैलेश
ڟ
▁कम्पाउन्ड
▁जहा
पर्यायवाची
▁आत्मा
▁sam
▁अपनाइ
▁एकताको
🏏
▁समीक्षा
37
2019/01/09/15470
▁विषयमा
▁मोडलिङ
▁लडाईं
▁जगत
▁एन्ड्र
प्रतिनिधि
▁फिक्कल
शिश
▁सोंच
ाएको
橋
▁खिच्ने
0%A4%A3%E0%A4%AF
舉
4"
▁बिनियोजन
逾
▁अल्लो
▁कम्पनीहरू
▁रंगेली
%E0%A4%81%E0%A
▁खातुन
सुङ
अन
▁अवस्थी
पत्ति
▁घर्तीमगर
Ö
첫
ौटे
▁डिजेल
Ս
continue
डिपार्टमेन्टल
▁बचाए
▁सिलगढी
债
▁ब्यालेन्स
▁म्याक्रो
療
ܨ
독
▁उमावि
ोरा
रहेकै
▁दुल्लु
▁हस
4%B2%E0%A5%8B
▁भिडन्त
लोक
▁हुर्क
▁हालेका
▁अस्पष्टता
▁वेवास्ता
d
▁होलसेल
▁लक्ष
राजमार्गअन्तर्गत
प्रगतिशिल
万
हाल्ने
即
▁निकायका
▁युटयुब
थेरापी
▁कम्पनि
▁नाच
▁बैङ्किङ
▁शालीन
कचहरी
▁जति
▁खेल्नेछ
then
▁धर्मावलम्बी
मित्र
情
छेउमा
ʊ
縮
▁गदै
विगतदेखि
▁भोगिरहेका
डेड
निर्बाचित
कला
football/38
🐽
वा
९०
▁इम्
▁प्रकृया
▁ढि
▁मुर्ति
शि
▁सदस्यहरु
▁झैं
▁लगाई
伸
艗
साब
&#8211;
▁प्रतिबद्ध
▁माथेमा
▁समालोचक
▁डेब्यु
唷
間
▁कस्
▁रुपैडिहा
▁पति
▁अंक
▁गर्
▁७१
द्धारा
हन
sc
▁पर्खन
▁तपाँई
ӛ
释
▁म्या
ससुरा
4%A8%E0%A5%87+%E
당
▁चन्द्रनिगाहपुर
..the
मिस्टर
㽳
▁बगान
फोब्र्स
/2018/10/71
4%BF%E0%A4%A7
ृ
▁छैन,'
३९
िजम
▁अंगुर
ंश
▁'अहिले
पि
0%A4%9B%E0%A5%81
잘
▁चौमासिक
▁वसन्तपुर
▁सिडिओ
抵
▁कोटा
▁शिक्षित
▁बात
केन्दि्रत
▁इस्लामाबाद
▁सानी
मृत्युवरण
चौर
▁प्रथा
▁पाँचौँ
▁पौड
▁मर्का
ు
김
्नु
▁गुगल
▁उप्क
▁साइकल
▁पू
2018/04/671
达
頼
쭜
Ά
단
▁स्तम्भ
▁घच्घच
热
▁यस्तो
▁मोडालिटी
▁स्कर्ट
महत्वकांक्षी
▁mil
▁चौबिस
▁लेप्चा
ानुभूति
▁वैठक
▁फकाउन
▁कैदी
▁लखनउ
▁छेउ
56
构
%E0%A4%B2
▁खोजी
ߺ
▁अनुसूची
ब्युट
币
4%BE%E0%A4%89%E
▁अन्जान
b
▁निज
▁ज्वल
पांग्रे
▁वर्ल्डकप
▁मलखाद
▁गोन्जाल
跳
▁चिसापानी
▁ऐ
सफल
▁ब्याट
ᤁ
▁जन्मकैद
▁ऋषि
▁अवज्ञा
हेल
▁आमजनता
▁यहाँसम्म
汉
▁प्रयोगकर्ताहरू
ुष्ट
讯
▁हौसिए
घरभित्रै
▁एभर्टन
▁गणपति
TE
쇁
▁हाइब्रिड
ner
▁ई–
▁गरुन्
䁛
news/politics
▁प्रवृति
取
▁दु्रत
२०७४/०७५
▁प्रतियोगीता
खुशी
%E0%A4%AB%E0%A
▁पुष्पकमल
▁हास्य
▁माल
बिहानैदेखि
रमेशकुमार
4%BE%E0%A4%AB
▁दृष्य
▁भयानक
▁नातिनातिना
प्रशोधित
▁जनजीविका
५९
ു
▁घट्नु
नगरपालिका–७
▁ए
▁अड्किए
线
▁बियर
0%A4%A5%E0%A4%BF
ồ
โ
▁कर्मचारी
▁असत्य
ᵤ
▁पात्रहरु
▁व्याक्ति
install
▁किपर
祝
▁हौँ
駅
▁छुट
5%8D%E0%A4%97
ʎ
▁कल्याणकारी
銀
Ĝ
▁कम्पाउण्ड
▁Twitter
▁भर
▁मानिँदैन
▁स्नातक
ति
/r
▁मान्छेले
▁मृतक
▁फिलिप
处
▁आन्द्योलन
▁प्रसंसा
储
4%A6%E0%A4%AE
▁दोहोर्‍याइ
▁आसन
▁भित्र
▁बहाव
पिच्छे
▁खाल्
▁बनाइराख्न
બ
▁दिएन
▁टन्
▁डकुमेन्ट्री
‛
▁बहुदल
▁शुद्धता
▁पहुँच
ǣ
ï
ݐ
̧
▁नांग
▁खन्न
▁अजयमेरु
लिम
aile
▁टल्क
▁मार्ट
▁राखिएको
▁पदक
बेलैमा
▁बेइमान
▁पार्नुभयो
▁सुनसरी
▁मलामी
版
▁तुल
▁तितो
शी
▁वज्राचार्य
▁तदर्थ
वर्त
▁संख्या
▁सीसीटीभी
▁ह्वाइट
though
霸
आलोचनात्मक
नाफामूलक
绣
갥
▁गुमाउँद
ेस्ट
९७
▁आजको
非
ाउने
收
▁कमलादी
ला,
–८
▁मिल्न
▁भब्य
▁नगरपालिकाले
वद्ध
▁अनुपस्थिति
▁ओपन
▁उत्पादन
ϖ
TO
मय
▁बाँके
▁पुराण
▁पालुङटार
端
▁टापु
▁सम्पुर्ण
▁असफल
照
संग्रह
ऎ
▁पाइदैन
▁सम्बन्धित
▁त्यत्ति
▁दशैँ
▁दुरुपयोग
▁सङ्कल्प
▁चण्डी
▁मौ
टनाशक
▁सकिन्छ,
त्र
▁प्रोत्साहन
▁सरसामान
▁अधिकारी,
闚
▁'सरकार
▁17
▁पानी
凄
सम्बन्धित
▁निकाली
००
ɡ

▁फाइल
▁भन्नेमा
▁अभियानमा
한
▁अत
▁भन्सार
▁नेतृत्वमा
晋
अन्दाज
▁अनुकूल
▁सफ्ट
Ì
▁हुन्न
Դ
0%A4%89%E0%A4%AA
▁तार
𽩒
ल्याण्ड
+k
▁स्वीटजरल्याण्ड
Ҏ
▁इमोजी
▁रोड्रिग
▁धमला
▁मतपरिणाम
▁रुचाउँछन्
ʏ
▁हुलाकी
▁खडका
׆
▁राणाकाल
सेल
▁विद्रोह
▁टुङ्ग्याउन
बुँदे
▁च्यानल
お
▁कक्ष
▁भौचर
둇
▁विरोधमा
▁बार्गेनिङ
ाङ्ग
อ
을
刚
▁भौग
▁गैरकानुनी
▁gareko
निष्ट
▁भिडभाड
▁लगाइरहे
ਛ
made
▁लगाएका
82/feed
▁विकल्प
▁औँला
▁नेमार
▁मंगलसेन
प्रहरी
▁दक्ष
▁क्यामेरा
बिल
▁थालिन्
▁चेप
pur
▁रक्तनली
鲜
▁अपरिचित
▁'काठमाडौं
कारिता
▁वार्ताका
▁पाउ
▁साइत
5%80%E0%A
ҭ
▁सूचकांक
▁अफगानिस्तान
▁जात्रा
▁मिसिल
▁संकुच
ҵ
▁मन्त्रालयसँग
ty
▁'बजेट
▁तपाईंहरू
困
▁नेतृत्व
▁एएफपी
▁क्रिस्टल
▁भएन
▁च्याट
▁भौतिक
▁अप्रत्यक्ष
▁अध्यक्षद्वय
▁कूटनीतिक
ɭ
▁ज्ञान,
▁नबोक
▁फराकिल
0%A4%95%E0%A4%B2
चुली
जनजागृति
▁हालत
मुष्ट
Next
ल्ले
▁filename="201
िस्ट
ुपर्यो
'त्यतिबेला
▁जनप्रतिनिधि
🤔
▁गएपछि
🙂
%E0%A4%A3+%E
ules
▁उल्लङ्घन
तोष
▁सदस्यीय
ण्य
▁क्षेत्राधिकार
▁too
▁कालमा
▁रित्तो
खन्दा
4%A7%E0%A5%88
🎉
▁जानु
好
▁बहराइन
▁संवाद
▁लिइने
芸
सक्यौं
╘
.नं.
轻
▁तनहुँ
एलइडी
रहन्थ्यो
ǖ
▁नम्बर
▁अर्
सार्वजनिक
▁more
–रारा
▁अस्पष्ट
▁भारत,
▁र
्कु
gla
उटिन्हो
समाज
▁कागजात
-२०
ङ्गो
▁घुमफिर
▁बताउनु
▁बिधि
▁कामहरु
▁अरिंगाल
嘴
迫
᢬
▁लिलामी
Dur
▁संसद्मा
ger
▁निस्किँद
स्वी
▁पावर
▁दिलाउने
▁तटस्थ
▁महाप्रवन्धक
▁दुर्गाबहादुर
वर्षौंदेखि
▁मूल्याङ्कन
निम्ति
▁हेप
▁—
▁हुुन
▁च्यातिए
▁तिर्खा
▁गौशाला
▁धेरैजसो
▁आउने
▁किटान
very
ড
▁उम्मेदवारी
्याइँ
▁सुन्दै
▁च्यारिटी
▁हौं
पर्‍यो
▁मार्क्स
टेड
ས
勒
▁परिस्थिती
▁गडबडी
▁लगाउनुभए
▁नाली
▁उपादेयता
▁मन्त्रालयले
ct
▁लिटर
▁ब्ल
▁भूतपूर्व
▁राखेर
जनप्रतिनिधिविहीन
ǯ
▁सिँचाइ
▁पेय
0%A4%A4%E0%A5%81
▁विद्यालयको
▁थालेँ
▁फायर
जिल्ला
ʺ
巌
▁दशमल
▁फूलमाला
诣
的
▁विज्ञहरु
▁सांसद्
▁जय
▁ईश्वर
ߌ
▁तलबभत्ता
▁व्यावसायी
गिनिज
जस्ती
▁आइटम
▁मस्क
▁बास्तब
宪
ⶬ
É
ed,
̔
▁महेश्वर
▁प्रहरी,
Ā
▁'राष्ट्र
尭
▁उमेद्वार
ेको
▁निम्न
▁प्रेरणा
4%AA%E0%A4%A8
▁शैया
एसआई
▁दोहर
▁लैजाने
्यो।
▁घरबास
▁दुःखी
▁सनातन
Ǐ
Ǆ
▁राख्छन्
▁प्रहरीमा
▁थिइन्।
㗣
प्रतिशतभन्दा
2019/05/766
箋
88/feed
쏿
▁स्थगन
ाइ
▁ट्रेन
▁पिज्जा
▁किन्न
ay
▁ड
इण्ड
Ң
▁सहजता
▁सुहाउ
ȟ
▁1
पोखरी
瑰
अल्पविकसित
疫
乗
▁बजारको
▁गर्दिनँ
▁पकाए
▁सम्वृद्धि
▁दार्चुला
▁व्यबसाय
΍
nstall
▁अज
4%BE%E0%A4%A6
够
▁विश्वभर
▁रोकिने
▁मनन
▁मनपरी
▁पेस्तोल
▁हाइकु
किला
▁खेप्नुपरे
▁नाघे
▁मेरै
डाइ
▁सांग्रिला

▁सुन्दर
▁चालू
टोल
ुँ
เ
▁समेट्ने
▁विज्ञता
▁मिथ
󥡑
▁दाबी
׽
ͭ
दुर्घटना
ुइँ
शनिबारदेखि
载
CD
▁सम्झन्छन्
▁चक्रव्यूह
▁गर्नसक्ने
▁गोठाला
5%88%E0%A
सकेकी
▁बेस्ट
▁घेदुङ
▁चुलिए
Ș
＆
牆
▁जोड्ने
▁तब
appear
▁अहम्
戦
▁गाउँपालिकाको
▁चलनचल्त
खाना
▁असम्भव
▁तान्ने
ů
도
您
动
▁बेहाल
running
▁बचाउ
tick
इरहन
▁de
dhan
▁थाप्ने
football/44
ԙ
▁आदान
▁हाँसो
na+
%E0%A4%A1%E0%A
▁बिस्तार
▁पुष्पा
▁दोहोरिन
सारै
खोज
▁हैरानी
▁त्यहीं
▁ज्याद
千
▁दोहोरो
▁महानवमी
▁सोम
िएर
▁बनाउँछ
▁'स्मार्ट
▁टेवा
▁'जनता
िसक्यो
▁बढ्ने
▁पोखिए
反
擇
▁खनिज
ss+
▁प्रबर्द्धन
.सी.
राब
▁बस्छन्
ց
访
诊
▁उदास
▁मनसाय
▁वेल
ǎ
▁भागबण्डा
खेमराज
▁विनोद
ก
▁धर्मालम्बी
साइन
▁गथ्र्यौ
▁ढिलाइ
न्यू
▁देशहरु
▁छ ।
▁फल्ने
伐
अटोमेटिक
▁गुणस्तर
▁संस्थापन
▁अर्पण
▁१३
रियन
न्स
액
남
स्प
▁ग्रिजम्यान
▁व्यापारमा
न्डर
▁भँगेरा
▁समलिंगी
▁भरमा
▁कालेबुङ
▁वा
एकपल्ट
▁हप्त
ेन्द्र
▁आलोक
▁परिवारजन
राई
▁बनाउने,
▁स्वत
000
pan
०७१/०७२
ー
▁मार्सी
जस्तोसुकै
ेष
▁हुर्काए
▁खुल्दै
opyright

Ǎ
▁वर्ष
ाइएका
▁नरहे
बिहीन
विश्व
▁घोषणा
▁नपुगे
징
▁संवेदनशील
▁खेप्नु
▁गराउने
▁कार्यदल
▁पर्दा
बन्ध
ro
▁छायाँ
▁लिई
मिर
६५
▁उपरिक्षक
इरा
▁सेड
संशोधन
▁आफैँ
▁रंगमञ्च
▁दिईए
▁आयो।

▁02:0
▁चाउमिन
ჹ
▁प्रिक्वाटरफाइनल
सहकुलपति
▁विभाजित
where
▁व्रत
▁माइती
▁काज
HAR
▁अन्तत्र्रिmया
ﾪ
post
७३
▁सेलेब्रिटी
▁परि
▁तानाशाह
प्रतिको
▁रोजगार
㽾
id
▁छौं
▁दिल
▁अफिस
▁बदलिँद
icrosoft
Ԅ
▁सहादत
भैm
▁समाते
▁कार्यमा
▁सुन्दरता
ӷ
▁अल्प
▁विद्यावारिधी
▁जागिर
▁षड्यन्त्र
4%95%E0%A5%8B+%E
▁बुझ्नु
▁छिन्।
▁जोर
स्तरिय
5%81%E0%A4%A6
▁धुम्रपान
▁पकेट
審
जन्म
▁साँफेबगर
11
▁प्राचीन
盒
▁रोकिए
坂
सकिएकाले
नशिलता
▁गोलकिपर
▁मेह
▁महानिरीक्षक
▁खाँ
▁प्रचण्डले
🌴
페
▁जसका
२०७३/०७४
▁गा
▁पारिन्
▁राजिनामा
न्त
0%A4%BF%E0%A4%AF
ाड्दा
▁झण्डै
सांसद
निषेधित
▁चन्दा
▁सान्दर्भिक
▁मिथुन
▁श्रृंखला
▁मिन
्ने,
्दा
玫
यूक्त
लेक्ट्रोमेकानिकल
निलकण्ठ
Ǭ
4%AE%E0%A4%A4
▁अक्सन
ुसुक्क
▁१०:
▁झार्न
▁जानकी
पहिलेदेखि
इज
▁pa
प्राथमिक
▁म्याच
▁महिनासम्म
स्य
▁सडकको
▁उपसभापति
▁थिचिए

▁सुकै
▁महेश
▁अनुहारमा
▁झोला
▁८.
ྩ
默
両
▁उत्तरार्ध
ब्स
▁वालिङ
タ
荐
▁बाब
▁पाइन्छ
娘
▁देखाई
▁इजिप्ट
▁भाउजू
쓋
▁(ब
▁बाँदर
▁छायाँकन
▁रेस्टुराँ
प्रविधियुक्त
passion
▁छिर्न
▁कलाकारहरू
भुमी
▁मतदाता
/2017/07/61
+%E0%A4%B0+%E
厂
險
표
▁जोडिन्छ
固
ٷ
▁जुत्ताचप्पल
ाइँ
▁बगाउँद
▁बानेश्वर
▁सर्कल
弱
ꩵ
▁उत्रे
역
नोस
▁पारा
▁उनले
22
▁पर्वतारोही
+are+
▁खन्ने
▁दिइन्
▁ब्याट्री
▁बिन

ۄ
▁नं.
▁सेनापति
4%B8%E0%A4%BE%E
▁एनआरएन
▁पाँचौ
बाङ
▁अपाङ्गता
Thai
悉
▁तल्लो
▁मन्दी
▁नाइट्रोजन
▁ताइपेई
दाता
शोभन
荎
」
井
▁शीघ्र
ख्
▁भीभीआईपी
मन
▁ब्रेन
▁गृहमन्त्री
▁लाग्दै
ानुकूल
0%A5%8D%E0%A4%AF
▁संबिधान
▁पोजेटिभ
‌
-४
▁दर्द
▁औरही
2019/01/732
▁सचेतना
▁बधशाला
법
▁जनकपुर
Ƃ
▁चल्ने
▁यथार्थ
▁अत्याधुनिक
▁आफूहरु
携
▁२०२२
▁'ती
띠
▁झुण्ड
ताछुल्ल
n't
壮
▁हिम्मत
▁ब्रिटिश
एसइई
▁खुलेका
क्या
ोस्
पत्रिका
擴
▁मण्डल
▁घरका
ֱ
▁धम्क
▁बर्स
Ǒ
nd
आवश्यकताअनुसार
▁समुह
story
▁एशियाली
▁बन्द
▁गणेश
नेछ।
▁अनुदान
▁प्रतीक्षा
▁आजाद
▁क्रिश्चियन
▁जे–ज
▁जनमत
%E0%A4%8F%E0%A
▁gu
्दछ
▁जोडी
possible
▁घटक
▁वृक्षरोपण
▁ब्युरो

ƶ
▁फर्सी
हरुलाइ
▁केन्द्रबिन्दु
खान
▁मङ्गल
▁सुनौलो
 ।'
̜
▁भान्छा
▁Minister
▁सकेनन्
▁छक्कापञ्जा
▁मोह
▁सोल
▁सिगात्से
▁'ठेकेदार
▁क्लाइम्बिङ
톤

अनुसार
▁निर्देशनालय
समितिमार्फत
अन्जना
聖
６
▁फाइट
▁थालेका
tab
▁जम्मा
▁शशांक
▁कट्टा
▁अटाए
0%A4%B8%E0%A4%BF
▁घुम
▁पूर्वतयारी
ढा
फर
▁01:4
LE
मग्न
अाइतबार
▁चढ्ने
о
▁बिग्रिए
▁उद्योगमा
▁तथ्याङक
बहुजातीय
एकसाथ
👎
२०७५
ຯ
·
▁विद्यालयमा
▁मझ
49
▁ट्याङ्कर
▁झोक
辖
▁सकार
▁टनेल
▁बदाम
ٝ
▁उनलाई
▁एथ्लेटिक्स
▁नबोल्ने
▁जाउलाखेल
▁भागे
▁कलकारखाना
▁पारित
/05/15
सन्त
▁चीनका
▁इयर
ki
▁त्रिपाठी
0%A4%B0%E0%A5%80
▁एयरबस
改
▁गु
+%E0%A4%A0%E0%A
▁सम्झँदै
▁कथ
▁जर्मनी
धनाढय
न्ट
सिर्जित
सम्मेलन
%E0%A5%8D+%E0%A
▁लभस्टोरी
剩
▁निर्णायक
為
-
▁भैरव
▁लेख्नु
០
▁इमान्दार
拶
▁जाँगर
ग्लाइडिङ
Ƀ
▁२,
哈
▁अपचलन
जसो
बास
▁सुपरभाइजर
▁इन्स्टिच्यूट
▁पाँचौं
सिन
ंच
▁निभ
basketball/
▁छोड्ने
▁लै
▁भन्दा
ex
▁तोड्ने
▁वकालत
▁बालकुमारी
▁किसुनजी
▁परामर्श
▁ख्याति
indi
▁बोकेको
व्य
3.html">
▁बोर्डिङ
▁एक्स्पो
शोधनान्तर
▁ट्रम्प
▁दिदा
▁उद्घाटन
Ҍ
▁२६,
▁कुरा
▁लेस्टर
▁प्रायः
▁पर्खाल
▁छन्,
ाउंदै
因
हरूसँग
ƺ
▁रजिस्ट्रेसन
▁आर्ट
जिल्लाहरुमा
कोठाभित्र
5</span>
▁ढुकुटी
▁पुरूष
▁लम्की
▁बौद्ध
▁इन्टरनेट
%E0%A4%A4+%E0%A
▁राख
唯
उनीहरूबीच
▁छाया
भएसँगै
मनमोहक
▁वताउन
0%A4%B0%E0%A5%8B
▁हाइवे
난
▁सांकेतिक
▁अली
संगै
▁कतार
▁मञ्चमा
ũ
料
▁su
▁लाग्यो
▁सिफ्ट
ato
ͷ
ڗ
वत्
▁रेलिगेसन
▁गर्जेज
▁भत्काइए
(डीपीएल)
♡
▁डोजर
▁मधेशमा
▁होस्टल
▁प्रदायक
▁रिजर्भ
▁अवस्थिति
केन्द्र
▁हरिहर
▁वृद्धाश्रम
उपक्षेत्रीय
▁हूल
▁त्य
उपबिजेता
Ｒ
▁मृत्यु
भेट
‸
–१५
▁लेखन
▁कबोल
्पो
▁टैटू
▁पाटा
फर्म
तया
▁दादागिरी
4%B8%E0%A4%BF
Ȟ
▁बिजेता
ő
ͦ
▁सिन्डिकेट
▁कार्यालयहरु
s://www.
貸
▁सम्झने
▁माता
▁प्रार्थना
ạ
दुर
▁सुटआउट
▁बढाई
߷
織
▁सेक्युरिटी
▁मान्दिन
क्षेत्रमा
0%A4%A6%E0%A5%8B
▁प्रख्यात
▁बोगटी
▁हेर्दाहेर्दै
▁कमलपोखरी
正
तत्कालिन
世
जस्तो
▁सुर्खेत
ब्ला
؄
▁छात्र
▁बनाइदियो
▁सत्याल
▁अग्ल
ო
▁गथ्र्यो
▁बूढाबूढी
▁महँगि
▁सुनसान
	
onlinekhabar.com
ޫ
🤗
ट्टफुट्ट
▁पंक्तिकार
▁आधुनिक
▁तोक्ने
▁understand
▁शव
बिन्दु
.+
▁बोधगया
՜
िज
▁बिबरण
▁संसाधन
▁परिरहेको
▁उनी
▁लगाइ
育
▁मात्रै
Ғ
▁श्रीमती
▁वेष्ट
▁भइरहन्छ
̒
▁काँ
न्थ्यो
ाउँछन्
町
▁श्रीराम
▁रहेछ।
▁केटी
Ʀ
▁तथ्य
▁साताअघि
क्रिय
▁दिलीप
एक्कासी
▁दर्ज
▁कार्यकाल
ܑ
▁कार्टेलिङ
堀
ज्
匙
▁यथावत
▁पूजापाठ
प्राधिकरण
አ
▁पृथ्वीराजमार्ग
ावर
▁मानेनन्
▁हेलचेक्
▁हाँस
जोमसोम
它
▁अधिकांश
4%AC%E0%A5%81
▁मोती
हाल्नुपर्ने
▁सचिव
ڴ
浙
खाएँ
产
▁राति
▁नच
िलिचोङ
銭
▁पाएँ
▁विशेषाधिकार
홈
ङ्ख
▁बौ
▁पैदलयात्री
▁पब्लिक
؞
▁अर्थविद्
रहनेछन्।
▁संकाय
▁पीडितहरु
▁इस्तानबुल
public
▁'समृद्ध
पीएल)
सम्मानजनक
㣁
悚
▁उकालो
▁La
▁धराप
▁पन्ध्र
्टु
▁कमिटि
▁व्यवहार
▁मोरङ
▁अमिलो
अन्र्तगत
जाने
▁मेकअप
▁कंचनपुर
教
नन्द
▁खुल
▁सार्वजानिक
׫
피
▁नगरकोटी
▁सामर्थ्य
▁लाइक
ީ
ථ
जतिबेला
▁अत्यधिक
習
▁जनमुखी
▁कुनै
्याउनु
▁जुकरबर्ग
優
▁विषय
्र्र
भूकम्प
वन्यजन्तु
（
▁शे
▁सुत्न
ֶ
留
ԋ
4%BE+%E0%A4%A8
▁सक्छन्।
▁मोरक्को
ʉ
✔
▁जरिवाना
44
माझ
▁गर्नुको
▁स्त्री
ासाथ
ारि
उँदै
+dekh
樟
▁भैसकेको
拔
ोड्नुपर्ने
ހ
▁पश्चाताप
▁घटनामा
▁प्रजापति
िदै
पिआर
bsolutely
5%8D%E0%A4%A8+%E
縔
ޑ
महाकुम्भ
."
▁भुटानी
▁मनहरी
凹
▁अट्याक
ജ
न्च
▁फुटवल
▁लिएका
मण्डल
▁पर्याप्त
ꣳ
">
▁are
ाधीन
%E0%A4%AE+%E0%A
+%E0%A4%9B%E0%A
ᶣ
▁बिहानै
्वे
▁'प्रदेश
▁घुसपैठ
‣
▁'बादल'
▁तिलगंगा
१–०
▁21
▁मान्यजन
4%95%E0%A5%87
▁इक्विटी
Ǘ
▁आन्दोलनका
▁कुश्मा
▁अल्टिच्युड
▁बाबुराम
▁पुरानो
▁चालक
85.html">
▁कौतुहल
♠
ुक्क
门
▁लागुऔषध
─
HO
ґ
▁कटाए
टे«
▁बीआरआई
प्राय:
▁नपरोस्
▁क्याप्सुल
▁चौरसिया
▁रोकाया
▁ताराखोला
▁नून
ਥ
过
缩
▁पार्टीका
蔡
▁दुख
ؾ
भूत
▁मुद्रण
official
▁बनाउँछौं
Я
▁साना
▁ड्रिंक
幹
87/feed
▁राष्ट्रसंघ
Č
去
΃
▁मध्यपुर
▁check
継
्नुहोस्
▁चक्र
▁निराजन
+ani+
▁प्रालि
▁शेयरधनी
न्द्रा
ฉ
▁आधारभूत
सामुदायीक
飞
Ƣ
▁खुब
竿
▁जिउन
ाउँछन्।
轩
▁लिनुपर्छ
燕
航
▁आवास
▁जनाको
▁सिद्ध
4%BE+%E0%A4%B0
▁व्यक्ति
▁कटे
०२
▁धूलो
▁कट्रिना
▁खुद
▁उद्यान
▁स्मिथ
자
▁यसै
ϭ
ߋ
लाग्दा
▁ठुलो
%E0%A4%BF%E0%A4%
▁खप्तड
%E0%A4%BE%2C+
▁पालना
पोर्ट
बर्षिय
▁शृंखला
▁तजबिज
▁'मुलुक
▁तराइ
詳
थोक
▁परिप्रेक्ष
▁पुच्छर
▁कार्कीले
involved
▁जाउँ
▁जरीवाना
▁धनराश
话
▁लालपूर्जा
▁बिजयी
▁बदनियत
▁निधार
▁इञ्जिनियरिङ
æ
▁गल्ति
პ
▁असुरक्षित
换
▁पर्यो
▁भारतका
▁दुर्
▁विलय
Չ
▁'नेपाल
ங
金
▁अस्थायी
उल्लेखनीय
▁सेकेन्ड
tt
▁पुँजीवादी
ʴ
권
▁आन्दोलित
ies
▁सुकुम्बासी
▁गरिन्।
ाधी
ुरो
▁'समय
पर्यटक
Ԫ
द्रायणी
Ư
글
0%A4%A1%E0%A4%B0
☻
▁राल्फा
▁लुइस
ϗ
▁आषाढ
+%E0%A4%AE%E0%A
߇
▁ब्रह्माण्ड
▁मकवानपुर
▁वनमा
पेड
▁रघुगंगा
▁pu
▁साथीहरु
सुहाउँदो
बाँकी
वैशाख
▁प्रतिफल
▁अध्ययन
▁मानिरहे
▁हुन्छ
▁महानगरपालिकाले
▁लिक
▁मिच
▁सम्प्रेषण
▁बुढेसकाल
લ
▁'बा
▁पुर्याएको
▁टाउन
धान
▁संहिता
▁थोपरि
▁आइपुग्छन्
ִ
▁सक्छौँ
5%87%E0%A4%B5
/२०
▁जुनसुकै
▁पाउँदैन
ۦ
▁सेन्ट
▁अन्तर
▁नबुझ्ने
닝
▁बुझाइ
45
▁क्षतिपूर्ति
▁गतेसम्म
▁लड्ने
运
ˏ
▁रजत
▁सञ्चयकर्ता
वती
de
▁year
܍
▁ठुला
說
复
मूर्ति
▁मंगोलिया
▁चलाउ
▁बिन्दु
▁राजनीतिकर्मी
अभि
▁लेखकहरू
ैधानिक
स्थायी
▁लञ्च
݆
ंग
³
▁तातो
▁मित्र
गिरी
▁लागि
▁केवलकार
▁घट्ना
告
▁बम
Development
▁देउवा
▁एल्वम
▁विप्लव
▁'नेपाली
विद्युत
􀇓
▁नेवारी
▁सालमा
▁आइडल
75.html">
▁संग्रह
w
▁ग्यारेज
upload
लिएँ
抛
▁प्रतिकिलो
लाप
᡻
▁मनोदशा
78
Ǩ
▁लाग्छन्
▁नदिए
▁बलात्कार
बताउनुभएको
▁अतिशयोक्ति
▁देखाउ
▁अखण्ड
▁बने।
▁बिशाल
있
pradesh-5/201
觉
แ
▁आपत्ति
▁कथामा
%E0%A4%B2+%E0%A
▁कार्ड
far
▁'राजनीतिक
4%A0%E0%A
+%E0%A4%9C%E0%A
▁फेल
▁भित्रिए
▁ठूलो
▁हाँडीगाउँ
▁हौ
आरटी
▁न्यूजिल्याण्ड
ವ
▁गरिसकिए
क्रममा
/2018/07/69
▁केन्द्रविन्दु
▁भइहाले
验
▁डाँफे
पेसी
▁देउराली
▁प्रविधिमैत्री
▁रत्नजित
▁महाशक्ति
笑
▁धरोहर
ܟ
डि
▁साबुन
विवेक
4%9F+%E0%A4%
खोक्रो
कंन
▁स्वास्थ्यकर्मी
ाइरहने
तिर
▁निरङ्कुश
▁दोहोर
្
ỷ
▁आतिथ्य
▁चालिसे
▁सकिन्छ
घि
▁यात्री
स्थ
थुम
content:encoded>
▁धौलागिरी
op
▁कहाली
▁पोते
▁नअपना
चौदण्डीगढी
▁लागूऔषध
▁मान
तिम्रै
0%A4%9C%E0%A4%BE
▁सुनवल
समेत
▁पोल्यान्ड
▁इच्छाशक्ति
▁गेजुवा
▁14:31:
▁मनि
她
407
▁बुवा
201
▁अनुच्छेद
▁रेगुल
बहाल
▁हटाए
▁गर्ने
▁शक्तिका
▁कमान्ड
▁विष्णु
4%B8%E0%A5%88
08
कुनामा
▁नेसनल
जिउँदो
विद्

▁सिञ्च
▁तिला
▁फिक्सिङ
euta
▁छविलाल
😑
99/feed
4%BE%E0%A4%A7
▁शान्ति
▁तीनवटा
प्ले
▁एटिएम
▁उड्ने
賃
▁रहन्छन्
त्री
▁अढाइ
खेडा
▁संजाल
▁शुरुआत
गुण
怕
寅
23
सम्मको
%E0%A4%BF%E0%A
▁सै
▁रणवीर
▁म्याराथन
培
ɕ
▁garna
4%9A%E0%A4%BF
ڱ
▁टुर
अव
▁मोटरसाईकल
thulo
备
▁माइ
ӗ
▁घटना
गढी
ुपर्थ्यो
▁साधना
▁क्षितिज
Ƌ
兵
▁रुपैया
▁हुन्छ।
▁युक्रेन
▁'क्या
溼
ताल
▁आत्मरक्षा
▁नदीमा
▁नवलपुर
程
ї
▁एण्ड
+ma
▁उपभोग
आज
अड्काउ
▁गरिव
林
▁स्विकार्न
पा
▁लस्कर
टाभट
(चू,चे,चो,ला,लि
皇

介
▁मं
續
मिति
▁कंग्रेस
▁घरबाट
आउनुस्
▁बुन्न
▁संवत्
4%A8%E0%A4%BF
फ्रेन्ड
▁कटाउन
▁अर्थोपेडिक
▁सकिए
एशियन
्याक
▁चुरा
▁ड्रग्स
⓵
嫌
민
▁नगर्दा
⤡
▁मु
▁नेपालगन्ज
▁नभन
con
座
݂
may
▁चक्रपथ
ګ

・
▁मच्छ
▁लिमिटेड
▁पुँजी
sh
▁कुनाकाप्चा
▁महाभूकम्प
शतवार्षिकी
壁
寧
▁मानिसहरु
▁काभ्रे
▁बचाउन
▁सुई
्यू
靼
捷
▁राखिन्छ
5%87%E0%A4%A1
ुपूर्व
▁आउँदा
▁मनाउन
र्ज
▁मुखर्जी
▁गोरखापत्र
▁Be
ڀ
▁बेलिब्रिज
▁सभासद्
▁रक्षक
▁फुटे
»
▁राखि
▁मिश्र
▁निधि
योजन
बिर
्छन्
ai+
नगरपालिका–१०
ݲ
रोबर
考
▁गुह्येश्वरी
▁२१,
▁त्रिपुरा
हावादारी
▁गरेको
▁मौलिकता
ff
🏼
▁खुल्ने
Ō
▁वर्षपछि
▁एसयूभी
एमओयू
oman
▁कुँद
ूक
适
nagar
▁आगन्तुक
governance
▁दौरा–सुरुवाल
▁नियमावली
▁मोति
पद
▁इन्कार
п
rights
▁साम्यवादी
▁शहर
▁तराई–मधेस
कताको
जंग
止
▁राजनीतिशास्त्र
错
Ҵ
▁आर्किटेक्ट
ច
▁सुके
救
磁
Ѩ
▁पग्ल
▁bhanda
⇐
▁खाद्यवस्तु
ើ
koseli
é
पत्र
olita
4%96%E0%A4%BF
▁भूमिसुधार
▁टे«ड
▁निसीखोला
▁कारवाही
▁खोप
▁बोली
प्रयोगविहीन
▁भुक्तानी
विस्वास
चुअल
▁रेकर्ड
▁धुल
▁६३
२७
么
Ѷ
최
▁१२
雅
霤
हत
▁समावेश
▁स्थानीयवासी
▁भाषामा
डिया
र्मा
▁त्यतै
梁
4%B5+%E0%A4%
2.1
पेक्ष
ټ
%F0%9F%
▁ओटा
▁रुवान्डा
▁चलचित्रमा
▁प्राबिधिक
▁भर्ती
▁भाँडभैलो
क्चर
एआर
▁घटे
हार
▁पाना
इक
राव
▁माननीय
▁च्याम्पि
▁यादब
्ड
▁जनताको
ܮ
敦
▁समीर
▁सिमेन्ट
▁बिक्रीवितरण
ԟ
▁एस
▁कँ
▁लेखेका
▁दिइएको
▁संस्थाको
▁लेखमा
▁पहरेदार
▁लेन
▁छुट्टाछुट्टै
▁स्टाइल
ple
裕
Ӎ
▁असर
▁एम
費
宰
▁ट्विट
ϫ
वारपार
▁समष्टि
________________
+%26amp%3B+
±
०५
लामा
▁बबरमहल
▁वायर्न
᪰
▁नीलो
SE
ʧ
特
▁फाइनलमा
▁सिकाउँछ
▁दिनमा
▁हुन्,
▁दाता
需
▁खाँदबारी
▁देखाइने
▁मनाउने
▁चञ्चल
▁व्यापारीहरू
信
भाकल
फान
〝
▁कुटुम्ब
▁खुलेको
▁रोगी
ायौं
▁म्याग्नेसियम
4%BE%E0%A4%AE+%E
▁पहिलोपटक
▁कोर्ष
ブ
ȹ
▁स्थान
ट्ट
▁देह
耼
▁४.
▁बिट
▁कलेजहरू
▁करदाता
▁ठाने
秤
缥
획
▁हामि
रुपेश
▁कंकाल
▁खु
‪
▁फेशन
ٌ
▁उद्देश्यले
써
गाउ
▁निकिता
▁भन्थे
▁आयो
▁ब्यक्ति
नारायण
▁बबिता
▁मौरीपालन
▁जोग
▁दोभान
▁छाडे
མ
ना
67
▁हिमालय
सेरेना
ṵ
▁हुँदा
▁भक्तजन
ខ
▁gh
ity
▁बथनाहा
▁मीना
सम्पत्ति
▁उता
▁लेखी
4%B7%E0%A5%8D
ातदिन
▁साहित्यको
▁सम्मेलनमा
▁मिसिए
▁चारजना
उदा
▁जितिसके
戒
▁कहिलेकाहीँ
प्य
र्फ
▁सेभिल्ला
ઇ
policy
▁कार्यक्रमहरु
▁डिपो
#comment-771
聞
यान
हुदै
群
國
▁नगरपालिका–४
ޱ
腺
#comment-842
सुचक
▁डिलर
▁भान्सा
▁मङ्गलवार
▁बस्न्यात
灯
हाम
Ϧ
▁वाइफाइ
▁छैनौं
वन
▁ध्यानाकर्षण
▁सिक्ने
ot
newsofnepal.com/
सरि
▁महोत्सव
▁बनायो
▁प्रदर्शन
/2019/03/751
ऐ
▁Ko
▁मनाइन्छ
▁अर्गनाइजेसन
▁आतङ्ककारी
ाट
▁स्किम
▁सम्हाल्न
▁सकिन
comment-id="83
▁फरवार्ड
▁पुगेका

▁कर्मचारीको
सम्बन्धि
▁प्रस्तुती
–कुन
▁बेलबारी
仿
▁लघु
बढ
▁त्यसबाट
▁खातिर
▁क्वार्टरफाइनल
▁सजिलै
ۢ
▁पक
▁ज्योति
▁काश्मिर
▁उस्
%E0%A4%A3%E0%A
▁जोगाए
रेट
▁गोर्
▁ज्वेलर्स
▁धु्रव
२०३७
थोत्रा
礎
龍
ⲣ
▁सोचाइ
▁खेल्छ
▁तिर्थ
韓
ran
▁इजलास
▁प्राङ्गारिक
योग्य
▁उग्र
▁बसोवास
▁पुनर्संरचना
▁डोल्मा
hamrokhelkud.com
물
▁कठ
▁भगाउन
4%AD%E0%A5%8D
굝
खड्गबहादुर
▁अभीष्ट
▁बताई
▁क्लिनिक
ख्त
▁आउजा
은
89/feed
▁श्रद्धालु
▁बनाइदिए
▁अवस्थामा
साल्भाडोर
▁खेत
圄
▁गृहसचिव
▁घुस
▁महालेखापरीक्षक
᭴
▁गर्नेछ।
▁विस्तृत
设
▁चाहन्छु
2019/03/749

पू
अल्जाइमर
柹
▁पोर्न
4%B0%E0%A4%AC
युनिट
▁भरपर्द
कुलबहादुर
wi
▁जागरुक
▁सामन्त
आत्मनिर्णय
▁बाजागाजा
▁नौलो
▁चिट्ठी
▁ग्रुप
होइन
/एक
▁कामकारवाही
+%E0%A4%89
▁पाँच
▁देहरादुन
ڬ
▁Go
▁डेभलपर
Ģ
गाई
▁अञ्चल
दल
आउट
▁१०५
▁पर्खिरहे
좒
▁धमिलो
भण्डार
▁बेहोर्ने
▁चिनिन्छन्
▁successful
-एक
▁वर्षअघि
▁सुखी
▁एकोहोरो
football/26
ی
▁सोल्टी
ར
▁जनरल
Ĕ
▁ख्याल
▁'भ
▁भवन
▁स्तरका
गर्दा
ឆ
•
ᤠ
▁पुगेर
▁जब
▁(ई
news/society/1
津
▁bha
८७
▁काठमाडाै
▁सीके
護
9:40
▁नास्तिक
߯
▁अन्तरिक्ष
▁महारानी
खला
▁टेबलटेनिस
코
ޓ
▁uni
彻
▁'च
र्ष
नपाएर
▁बढिरहे
्थेँ
▁पहेँलो
गाउँघरमा
▁नस
▁अफिम
児
▁अतिथी
व्र
▁हुनुको
पिट
∕
▁जिकिर
▁भन्नेबारे
केट
▁आजीव
▁अलग
▁नहुदा
२०७५/७६
4%95%E0%A4%BF
▁आरम्भ
▁पर्यटकीय
⋅
मुस्कुराउँदै
0%A4%AF%E0%A4%B9
ج
겹
▁आइपुग्ने
सको
혐
▁खुवाउँद
▁३८
चु
सिर
िता
स्लाम
▁गरौँ
妨
%E0%A5%A4+%E
Á
▁पठाउने
▁हाइ
צ
▁स्वच्छन्द
▁एसोसियसन
छन्,
▁गतिमा
▁सहभागि
▁काँग्रेसले
▁चिन्ने
अमुक
ʥ
▁सक्नुहुन्छ
▁पा
▁गोकर्णेश्वर
▁राणाशासन
ल्मो
셔
ޢ
镍
▁प्रकास
康
▁गरियो।
▁सन्चालन
▁पांच
▁अहमद
്
加
评
▁हरिकृष्ण
▁टुरिजम
▁उक्लिन
더
▁घर्षण
ബ
▁धर्मपत्नी
䗚
र्‌यो
Ǿ
▁लगाउन
▁भातृ
▁बस्नेत,
▁मेचीनगर
掏
▁फलेवास
▁श्राप
җ
▁जल
▁निर्माता
प्राप्त
▁बसाल्न
/bi
▁चुस्त

...	
ER
▁व्यभिचार
遺
OR
5%8D%E0%A4%9B
▁पाउँछु
▁हक
▁जीडीपी
▁२०४९
य़
▁चिट
Ǥ
tor>
▁मणि
▁गाईजात्रा
(
५७
▁सञ्जालमा
▁महर्जन,
▁आमाबुबा
▁त्यत्तिकै
▁पश्चिममा
▁लुकाउन
ผ
▁छटपटी
पल्ट
▁भीष्म
!!!
▁see
☑
▁उपशाखा
बिनै
两
😉
श्रम
▁'तपाईं
ޅ
Џ
◀
▁भए/नभए
▁प्रिन्सिपल
렶
▁थातथलो
न्डी
݊
Today
▁ग्रा
▁हिड
▁va
▁मोउरिन्हो
▁सिसा
egistration
▁मेगाहर्ज
▁बार्सिलोना
गईरहे
▁'बी'
▁धनु
泪
▁ग्लोबल
▁रोयल्स
▁चर्को
%E0%A5%80+%E
पनि
ꦖ
酸
▁गर्दथे

'कुनै
▁उद
子
▁ट्रि
▁यतै
▁लुकाउने
football/39
仕
पहिला
▁लुक्ला
28/feed
-wrap
▁'ट्र
▁मजबुत
▁आतुर
▁मिसन
ਅ
▁ठान्न
▁हिरण्य
▁दिनु
ڹ
ŗ
勾
▁नेविसङ्घ
▁इलाम
▁'मे
▁'गो
പ
煌
▁गाउन
filename="2017/1
出
कुर
▁जलाए
▁आरोही
▁नपाएका
अहिलेसम्मकै
▁जिवन
▁श्वास
▁गरेनन्
▁नराख्न
맺
▁निजी
纠
▁रिचार्ड
裹
▁हुनुपर्छ
▁उत्तरदायी
▁एक्सचेन्ज
res
man
ੌ
▁खाना
ार्इ
गार्हो
ۋ
긝
¤
इस्लामिक
▁अविरल
▁आइरहेका
▁Ja
布
4%B8%E0%A4%95
पटक
▁नसक्दा
ݫ
▁भ्युटावर
ॢ
▁बर्खास्त
▁गान्धी
▁सीप
⎼
▁नदी
▁रेक्टर
०७४÷७५
▁निकालेको
▁श्याम
sion
ҙ
▁नपुग्दै
कर्जा
<![CDATA[K
❹
▁प्रौढ
▁पितृसत्तात्मक
मोज
ៅ
▁कटौती
▁इटहरी
㰶
▁बस्न
पाणि
▁खुलिसके
इम्बोस्ड
▁प्रवेश
94
啊
􍖒
ɶ
▁थिए
▁गुन्द्रुक
▁विष्फोट
▁जमाए
▁प्राइभेट
餅
▁हरेक
70/feed
▁भक्तबहादुर
䧂
4%B6%E0%A5%80
ᇡ
油
▁कुल
▁युजर
▁अध्ययनरत
▁टोके
▁any
▁मित्रहरु
different
▁बाँध
ाउँन
▁दोगडाकेदार
ա
扰
▁उत्पन्न
▁हिरो
र्भिक
▁औ
▁पुनरावेदन
▁जबाफ
▁कौ
बिन
归
सुग्घर
▁सौ
▁उठ्यो
क्वाटरफाइनलमा
यात्रा
沖
▁भूमे
82
्के
टर्न
▁दरखास्त
▁समावेशीकरण
▁रिप्
▁कति
▁(क्याप
पर्दथ्यो
▁बादल
▁क्लार्क
ε
て
▼
रितेश
सय
तवरले
▁फकाए
▁रणनीतिक
▁प्रदेशमा
वर्क
▁[
दक्षिण
तालिमप्राप्त
ꋩ
▁कागजपत्र
▁प्रशारण
▁नजान
▁आईपुग्
▁चामल
िदिएको
टी–२०
4%A8+%E0%A4%B8%E
栓
स्तो
👱
蚁
棚
ऌ
▁अनुपात
▁सुदर्शन
ה
्याउन
▁चोर
▁ma
रेन्ज
▁चल्न
▁11:1
‒
均
amp;amp;amp;amp;
▁सञ्चालनमा
७४
धाम
football/14
जीवी
गोला
Ձ
▁हिंड
▁रोजगारदाता
토
▁सेञ्चुरी
💯
▁प्रकाण्ड
ट्
उनकै
▁नचल
ι
▁खुले
▁संकटकाल
迷
▁पृष्ठभूमि
ΰ
茨
▁अनुभब
▁'हिरो
▁अपहरण
▁टुप्पो
▁सिग्देल
▁भ्रमण
2019/04/756
▁रह
▁(डीपीआर)
▁काल
▁लिइ
+++
▁कन्
▁साधन
▁संरक्षणमा
▁संचय
▁खोज्छन्
बेठीक
▁रि
वरण
▁ठेक्का
▁मूल्यांकन
९४
隔
▁प्युठान
त्या
▁रेडियो
▁Na
▁२०७३/७४
▁ट्र
times
▁निमोनिया
+the+
ꍽ
▁कठिन
▁गरिरहेका
▁सजिए
लायक
▁इन्भेस्टमेन्ट
▁कालोपत्र
▁कम्
ض
▁'उनीहरू
▁।'
噼
ᤐ
होस
▁पाउनेछन्।
▁गर्दछ।
▁धोनी
▁बच्च
सह्य
▁अवसान
▁जिल्लावासी
▁विमानस्थल
▁फलाम
लोककल्याणकारी
▁सबैजना
▁काप
▁पीपीएल
▁हिसाबकिताब
♪
長
▁मानिने
ारा
—
▁राज्यकोष
▁कन्जरभेटिभ
居
😋
एसएस
डिज
लचिलो
월
मुरारी
讗
▁गाउँघर
傲
▁पैसा
▁हाउ
智
▁विचारमा
▁पच
dhi
▁एजेण्डा
▁हब
यीमध्ये
सिप
▁Nepal
▁हाम
客
Ѹ
▁मुन्टो
▁परियार
</p>
▁गर्नुपर्छ
▁सकिनेछ
चार्य
ान्तर
▁सच्याए
ꁰ
候
半
▁गोपी
सेक
成
Ť
👏
ुवा
▁रोकिएको
▁&
▁सेलरोटी
▁फे
▁(सि
share-
३३
▁कार्यशाला
▁प्रतियोगिताको
दुईटा
▁नब
▁झि
▁चिह्न
▁पुर्खा
▷
▁भोजपुरी
▁तरङ्ग
▁भित्र्याउन
к
▁जातजाति
#comment-840
▁पिएसजी
0%A4%AA%E0%A4%A4
▁अरुण
플
▁किन्ने
प्रकाश
▁her
▁भविश्य
▁नेपालीभाषी
▁गुनासो
Ĭ
诺
技
▁नसकिएको
▁अध्यागमन
▁स्थिति
삼
▲
▁माली
▁भरिए
▁काठमाडौं-
▁राख्दै
यतिवेला
न्जा
▁ट्रान्सफर
▁क्याम्ब्रिज
▁रमाउने
https://
▁सम्पन्न
ѱ
▁जस्तै
▁ट्रेलर
▁देखावटी
▁आयोजक
साइ
▁देखा
▁सोहि
▁माफ
प्रयाप्त
哺
▁कला
۰
줏
▁दस
▁निम्त्याउने
▁भैंसी
बुल
扣
▁गणतन्त्रको
▁नरोक
ढिक्का
▁पु¥याउने
▁सिक्वेन्स
▁उत्तरी
football/10
▁महल
▁फाईदा
▁ल्होसार
समेटेर
बीसी
ň
▁तामाङले
▁शेरचन
धर
▁पदयात्रा
▁व्यक्तिहरु
▁असमर्थ
%E0%A4%9F+%E
विश्वासिलो
अनुमानित
▁सोच्न
5%8D%E0%A4%AF%E
▁जीवनरक्षा
▁सक्थे
र्ग
🌎
▁नगर्नु
▁अकु
▁बालक
2017/09/
▁बाल
▁प्रसुती
88.html">
▁आयोजित
ʦ
ong
▁भन्दै
▁ओहदा
▁तार्किक
▁रहस्यमय
▁प्रतिहेक्टर
ݺ
恐
▁राखेप
2018/01/65
जस्तै
▁लुइँटेल
ཏ
阐
结
▁उत्पादनमा
▁थोक
▁आरोपी
▁मध्यस्थता
▁सेगमेन्ट
वाशिंगटन
▁'सुन
अवैधानिक
▁गर्दछन्
िनुपर्छ
▁सक्नुभएन
भद्र
▁सबैतिर
▁रूस
स्वा
▁दिन्छन्
0%A4%9C%E0%A4%A8
ל
gra
हरण
▁च्यासल
▁महानुभाव
▁दिसा
▁बाँचे
▁समयअघि
▁२०५०
lick
▁गौरीशंकर
▁हुँदोरहेछ
आपतकालीन
▁समयदेखि
▁पुरातन

▁थुने
▁मुर्
▁धर्मनिरपेक्षता
▁रूख
▁क्यानभास
प्रदाय
▁सोसिडाड
҉
退
▁बच्चालाई
सँंग
▁शाह,
▁हिँड्नुपर्ने
ᡱ
वस्था
▁कर्म
ुभयो।
十
没
▁छन्त्याल
▁निर्देशक
गराएर
▁तान्न
▁मिलाइदिन
▁धन्यवाद
▁साई
▁अध्यापन
▁पदाधिकारीहरु
▁महत्त्वाकांक्षी
▁देखाइ
▁हुम्ला
▁लोहनी
▁स्कुटर
▁माने
▁ज्येष्ठ
▁All
box
भाग्य
ך
წ
▁उमेरमा
ഏ
▁अदालतले
बिज्ञप्ती
चोक
▁बहिर
▁मनकामना
ϻ
ि्र
渥
▁कृयाकलाप
▁उखुबारी
▁साँगाचोकगढी
2019/05/21/15584
▁गुरुङले
▁एम्बुलेन्स
ज्वाइन्ट
▁हाडनाता
।'
ँदो
▁उपलव्ध
▁अपरिहार्य
▁राउटे
बाजा
▁खबर
थिर
▁मझौला
▁मू
▁चप
▁शपथग्रहण
football/42
पना
4%A6%E0%A
넉
▁तिरे
▁प्रत्याभूत
晚
▁नझ
▁अर्थतन्त्रमा
▁फाउण्डेसन
▁खाली
▁दुस्साहस
2018/08/701
▁ग्याप
▁परिषद
涌
▁इन्डो
▁ढले
▁अपरेसन
▁नागरिकलाई
▁खत्याड
र्पण
▁he
डाडा
従
▁संगीता
▁व्यग्र
▁पराकाष्ठा
મ
genera
景
▁निकायले
्ग
▁तहको
▁ढंगले
▁बालबच्चा
▁इकाइ
▁सामानहरु
International
▁शिक्षक
▁गाउँपालिकाका
▁समूदाय
Ϛ
见
▁पोखरामा
▁पिसाब
▁सिकाउन
माध्यामिक
लिएकी
▁राम
5%8C%E0%A4%82
ķ
▁२५
柯
–९
...'
͌
▁बर्थ
ौँ,
भइसकेपछि
▁वताए
▁वर्ग
देश
▁चक्काजाम
ध्व
फिरफिरे
：
͛
▁नेपालसँग
ឈ
繡
坚
▁झल्को
िम
Э
ػ
▁ढाँचा
▁पेट्रोलियम
विस्तार
म्बु
▁संघीयता
गरी
▁जनाले
▁दिनअघि
▁इन्फ
縄
केजीमुनि
क्रेट
▁थाक
▁डिस्पोज
त्रे
待
▁साहस
帮
झेर
▁भनेका
▁fa
▁लय
लग
▁न्यायाधीश
▁चितुवा
ٺ
▁एकजना
˽
गल
▁तीस

▁नुवाकोट
%E0%A4%AF
▁क्यु
able
▁पुरानै
ɺ
▁उम्मेदवारहरु
フ
Ř
▁नम्बरको
▁बिगो
▁निदाउन
#comment-843
▁उहिले
▁and
踘
▁धकेलिए
ۊ
ֲ
▁निरास
▁त्यसतर्फ
#comment-838
二
▁राखिन्
भाग
▁सलाद
▁हेर्दा
؎
▁दया
▁माउन्टेन
4%AF%E0%A5%8C
प्रशासन
44/feed
121
`
쥻
▁आदान–प्रदान
▁उथलपुथल
▁हरिभक्त
▁अत्य
▁तरुण
हर
▁कार्यकारिणी
命
▁सुनुवार
▁जगदिश
युक्त
▁उपाय
▁कपास
▁उदासीन
😮
▁सिकेको
▁जमाउन
▁सी
धाप
ललितपुर
घाट
शेर
▁खुलासा
▁कीर्तिमानी
▁उठाइरहे
फोलिय
पुर
▁केटो
円
▁सर्भे
ᤀ
गण
गरि
▁वुझ
▁घलेगाउँ
▁नोकरशाही
▁डक्टर
राग
续
9C%E0%A4%A8%E0%A
▁पूर्
4%B0+%E0%A4%
ᄋ
▁(क्यान)
▁थकाली
मनोरञ्जनात्मक
▁विश्वविद्यालयका
▁राजमार्गमा
ष्ठ
▁समुन्द्र
▁'हो
▁चौँरी
▁जमिन
ˇ
▁नपत्याउ
▁जीवन्त
▁सिकायो
▁भार
जना
रह्यौं
सित्तैमा
सच्याउनुपर्ने
鴈
ゼ
▁अजेय
▁इजरायल
▁झिल्
▁उनीहरू
जनताप्रति
▁केन्द्रको
वहार
ɲ

԰
▁उपनिर्वाचन
▁हुदैन
पंक्ति
▁मार्न
▁भेटिन्छन्
ber
焦
▁चाहिँ
▁थारु
▁डिफेन्ड
छैनन् ।
मन्त्रीस्तरीय
▁ब्राउन
▁बुझाउन
･
▁hunu
▁सम्झौता
साँच्ची
▁बिक्रि
label
▁सुझ
详
▁साइन्स
▁पनौती
ુ
▁जाँड
떨
紀
劝
65
▁च्यापिए
䢕
▁use
हस्तलिखित
▁थिच
%E0%A4%96+%E0%A
लाइट
धार
▁ऐन
▁साझेदार
▁हिड्ने
0%A4%A5%E0%A4%BE
▁सुन्निए
▁सक्नुहुनेछ
▁मध्यभाग
▁टोलटोल
▁चौडाइ
😊
▁बानियाँ
▁रेष्टुरेन्ट
▁बाटोबाट
㗦
0/
▁'जुन
tara
ো
▁शेखर
▁दिइरहे
▁दिइन
ीकार
श्रोत
▁बाँच्ने
लि
▁बसोबास
▁हङकङ
呢
▁लाग्यो,
▁उदारीकरण
▁सोसाईटी
▁चौथो
▁फस्न
▁आशङ्का
▁उनीहरूको
▁ठाडो
गी
▁भत्किए
▁म्यानचेस्टर
▁आभार
▁हानिए
▁संगीत
▁पूर्वराजदूत
▁ब्युँझ
▁साइज
˄
▁काठमाडाैं
koseli/201
प्रदत्त
▁लामिछाने
▁प्रधानन्यायधीश
▁एसएमएस
▁अर्जुन
▁विश्लेषकहरू
骗
▁दशै
▁सक्नेछ
र्खर
😟
▁पाख्रिन
▁बनाई
▁राष्ट्रियसभा
▁युएन
復
ɦ
ֿ
आएको
▁उदाहरणीय
▁आयरल्यान्ड
Ｂ
▁बढोत्तरी
ाइदिन्छ
▁युगोस्लाभिया
4%89%E0%A4%9F
▁पारिजात
▁संक्रमणकाल
▁कथाहरू
▁सक्छन्
▁अग्रज
▁रहेन
▁प्रतिस्थापन
▁गड
▁process
▁पाउँदा
▁जलेश्वर
रूपमै
+you+
ओपिडी
सेना
प्रांगारिक
%E0%A4%85%E0%A
5.
▁महिनादेखि
▁अमेजन
ेनि
आधुनिक
▁सदस्यता
▁अप्टिकल
添
▁नख्खु
˗
▁लड्न
▁स्ट्र
ेन्सी
ार्
ैपिच्छे
5%A7%E0%A5%A6
विधान
ా
▁ठोक्किए
▁दन्त
▁भित्रै
▁प्रतिशतसम्म
▁घटनाहरु
▁अपनाउन
▁जासुस
▁कारोवार
▁चुनाव
▁जित्न
▁हुनुभएको
परिणामस्वरूप
र्चा
fi
▁मुल्य
sign
comment-id="74
▁उन्मुलन
x
篷
▁अवधारणा
▁पार्दा
▁बिगत
▁शिवराज
▁फाराम
ڡ
▁प्रसंशा
▁प्रतिज्ञा
▁प्राचार्य
▁टाँस्न
▁काफ्ले
▁निकायहरू
57
▁पटक
Share
▁हाँस्दै
नरसिंह
▁चिहान
▁पर्दैन,
▁आदिवासी
ट्रेजरी
▁'नयाँ
▁ब्युँत
▁ओइर
▁पन्छिन
▁बिद्रोह
▁भइसक्ने
–नेपाल
旺
۶
हुन
ेक्स
stak
ۃ
▁'हाम्रो
/2016/05/43
▁मट्टीतेल
▁कार्यान्वयन
er
▁some
कुरी
वाजी
▁गयौ
▁एजेण्ट
▁दौडधुप
92/feed
▁फाइनल
बिहीबारदेखि
▁कूटनीति
▁मनोनित
▁शहरी
▁जनमुक्ति
▁होलान्
थप
▁अन्जु
丹
▁राधा
▁खोइ
▁बिते
▁रमेश
▁सर्जरी
पाटन
▁सञ्जीव
Q
B9%E0%A5%81%E0%A
kan
▁सुपरमार्केट
❸
▁सक्षम
▁तिमी
२०२८
▁छुवाछूत
▁शिल्ड
जब
▁बढेको
▁पानीमा
参
तँलाई
▁बाजुरा
नियमविपरीत
▁कमिटी
[...]
