##ष
##िपरि
माल्दिभ
镍
आवश्य
अध्ययनमा
हुनुले
##निज
##भरको
##8
चाम
चलखेल
##セ
पेन
शरी
##प्टे
##ing
##त्य
净
मध्य
क्य
ت
तरलता
पाला
स्वभाविक
⟲
##ک
##बन्ध
राज्य
पूजाआजा
##कृष्ण
निमन्त्रण
सेव
भागब
##िएन
बेलाबखत
ソ
##धारी
विशुद्ध
विवादित
आएका
##र्था
उपे
##मानको
समेतको
ய
﹯
戶
म्यूजिक
員
ओसार
राम्
骏
लगानी
छेउछ
पृथ्वीमा
##҇
भण्डार
पेन्सन
##ۧ
だ
板
84
##ᠽ
कुनैपनि
स्प्र
खिच्ने
सङ्क
एकजनाको
रामजी
विष्फोट
उत्त
जरुर
##विजे
##ָ
ѱ
उद्योगमा
ठूलै
feed
##😲
सङ्घीयता
लोक
##यल
साझेदारी
आधुनिकीकरण
कित्
ǘ
##ta
गरेकोले
सुर्ती
स्वयंसेवक
कवितामा
̖
व्यव
##जिन
##र्न
##पादन
##बाले
प्रोटोक
पर्खाल
ठूल्ठूला
विधेयकलाई
उभिएको
पूर्णरुपमा
बजेतिर
बर्खास्त
बिहानैदेखि
##फि
ǩ
यादवलाई
दसैं
सकिँदैन
उच्चतम
##जात्रा
逆
ݨ
执
四
जर्मनीको
ज्ञ
ब
##हेलना
##ث
एम
किनकि
कृ
इन्टरनेटमा
जोग
##ोत्
01
##ब्
गीतहरू
नामले
##위
after
ᝢ
##पाठ
##ݧ
##संग्र
##स्तै
उपसभापति
##ेद
जान्थे
हटाइएको
जडान
ӛ
##화
뚢
निलम्बन
ब्याक्ट
##ܖ
##ib
##ईन
##धिक
अप्ठ्यारो
चिर
##्यापन
##माको
तीब्र
##पान्तरण
तोक्न
孕
##क्षेत्र
बाँडफाँट
៥
##शमा
can
ɘ
मधेशको
लक्षित
डो
삼
अदुवा
आयोजनालाई
घृणा
पेट्रो
एव
خ
聚
आर्म
फू
कर्मचारीहरुले
##π
##ुरोग
ư
ޤ
नागरिकको
析
##िँदै
##ư
पिल
रिफ्रेश
fac
##ߎ
ٙ
राजनीतिबाट
😇
><
कलि
##٠
खोइ
सशक्तीकरण
van
सहमतिमा
##ܐ
परिवार
अवकाश
निश्चित
##܆
##स्तरको
别
कराते
वास्ता
छिन्
बेथिति
गाएको
उता
床
मिति
चिन्
बिछ
威
दिएपछि
ƅ
##पीओ
##र्फत्
##्नै
##؞
पद्धतिको
संसारभर
सदस्यहरुले
##घण्
भाइ
लगातार
##सम्मका
ҋ
गर्छन
##ामगर
树
##दायित्व
मेलम्
त्यसरी
दरि
नदीजन्य
शुभारम्भ
仁
##ज्ञानिक
नबुझ
##्ट
##ङ्ग्य
दुबई
##र्दी
सदनमा
निरीक्षक
छातीमा
प्रणालीको
बसाइँ
##स्या
##ȷ
ǖ
स्कुलमा
निभ
र
技
##66
सकु
नेपालबाट
रोमान्टिक
##エ
ja
मौलिकता
एकाधिकार
गरिरह
कुमा
##ए
जोङ
##■
##काे
develop
##ެ
दिइ
##फको
##मबहादुर
अपार्टमेन्ट
민
繁
विघ
कुमार
मन
su
##긝
प्रसन्न
जागिरे
ट्वान्टी
शीर्षकमा
ơ
राजकुमार
विप
विद्यालयको
हारा
स्पोर्टस्
टुङ्गो
पुर्याएका
##त्ति
吃
शासनको
ठूला
##޲
चुम्ब
बहुराष्ट्रिय
##तो
ब्या
विजु
ܜ
शिक्षामन्त्री
融
ං
񪺟
बुढाले
##_file
मञ्चमा
检
##ƹ
##यण
गोठमा
स्ने
सुनसरीको
袖
सहित
충
##स्त्र
##कर्मीलाई
तनावमा
मानिने
##श्
निर्बा
तथ्यांकमा
republic
웩
##ीति
बैङ्
贫
##नाथ
##हाली
##च्या
##ก
enc
ி
माद
##धिका
विधि
ज्ञवालीले
नक्स
पोस्टर
न्यायो
援
##त्रिम
ޞ
##ka
सोसाइ
##ネ
जिल्लामै
शुक्रवार
见
싸
समस्याको
कच्चा
##मद
ず
##⫴
##ङ्गे
हड्
गतिविधि
चितुवा
虽
लिपि
परियारले
आए
##˚
##ه
बुझाइ
नर्व
पुगेकी
۷
ब्राह्
आग्रहमा
complete
##जको
##ाए
आँशु
दम
मधेसको
「
बलात्कार
मिल्
域
आतुर
युगा
कञ्चन
##ai
##ҍ
आदिमा
गरेन
艾
भूगर्भ
尊
संहिता
##अधिका
##ंै
हिमा
२०३०
८१
हकमा
##ͼ
उत्पन्न
ぴ
निकायले
जेम्स
～
रहेर
##पुल
##लामिक
परमेश्व
आक्रमणकारी
ऴ
चोर
अनुभवले
गैँ
कहिलेका
##क्षिक
काफी
निमा
सिकाउने
##💌
पछु
बेहो
भूकम्पपछिको
विद
##रो
ま
अनौपचारिक
कलकार
अढाई
भन्यो
काठमाडौँ
बढाइनेछ
मल्ट
##č
##वात
एक्
विम्ब
性
अहम
दिदी
२९
##कको
बिचौलिया
अनुपम
崽
##राखेका
सुरक्षाकर्मीको
##😊
नदीको
जिन्दगी
##ʳ
浙
आत्मा
हङक
उसैले
डलर
प्रभु
##ɚ
##ुरेन्ट
##티
##तिनो
बन्दा
##म
##हत
लागि
संवाददाता
पाइला
##🐽
सुनचाँ
##शले
ᱱ
散
##ਆ
तपाईलाई
विजे
պ
भे
घिसिङ
##ݲ
नगरे
++%
##गुन
दिलाए
विमानस्थलमा
ּ
अल्
##थलो
inv
एल
राजनीतिमा
सुनाइन्
##आत
##रलाई
ठिक
खन
##ियन
गिरिजा
त्यसभन्दा
प्रमुखमा
महादेव
खाएपछि
बनाइरहेको
२०१
͒
मोर
##ả
क्र
दुःखी
धनुषाको
माह
ན
栽
造
मोटरसाइ
विश्लेषक
ᤧ
स्थाय
口
소
pat
##माण
##पावर
त्यसलगत्तै
तान्ने
##ोसिए
थाल्छ
##ট
मानिसहरु
तिमीलाई
दुव्र्यवहार
##≈
मस्तिष्क
दृष्टान्त
##वस्थित
अध्यक्षसमेत
ʞ
डडेल्धुरा
डिट
पुर्य
पातलो
##ާ
##िने
त्यतिकै
##पामा
ả
👁
²
##은
ᤁ
初
बित्तिकै
##빙
ᤱ
हुदैन
举
##टनगर
बिरामीले
钟
डिपि
##ರ
महानगरमा
ỡ
##차
##գ
##ℑ
यात्रुलाई
हत्या
बाँदर
निकालेका
ग्रसित
呆
ર
##ee
##ल्दै
कार्यालयबाट
गर्लान्
निर्देशन
शुक्र
##ং
गोस
रथ
अध्ययन
##दूर
♔
थि
✖
##समध्ये
##घाटमा
अना
ˍ
मसा
पुर्व
ር
##खी
बिज
मेगावाटको
ल्हा
लेभल
##दर्शन
也
संरचनागत
ब्रत
बाह्र
चलचित्रमा
दमन
##되
सङ्गीत
ट्रम्पको
̪
क्रान्तिको
थपिएको
冤
रिल
##िनल
गण्ड
##ाँडा
मेरै
कलेजमा
परिषद्का
201802
कार्यदलले
गहुँ
बासिन्दा
##दूत
##മ
एउटा
##ʨ
क्रिकेट
ਸ
लव
विक्रेता
➧
युद्ध
##29
गाथा
##सायी
名
बेलु
##खु
啪
पदम
##उत्तर
##공
पत्रकारिताको
〜
गर्दैछौं
गोलभे
##😄
❤
展
従
ऑ
इमान्दार
##सम्पन्न
氓
आधिकारिक
दुःखद
##ियौं
संघीयतामा
##बासीले
֗
कारोबारमा
समस्याहरु
܃
ह्यारी
लगाइदिने
##न्स
online
##し
रिलिज
##od
≢
q
अपा
पेनाल्टी
ܿ
हाजिर
##ӟ
##टिङ
身
अभावमा
हाम्रोमा
रोल्पा
ǐ
##क्यौता
अस्थिर
थप्
सुगम
अवस्थाका
सेवास
syndication
##ท
お
##ⲣ
##itor
##काउने
##पीले
##ित्
##eri
खुवाउन
##बीएस
विनय
च्याम्पियन
वर्षबाट
##नुपर्यो
विमति
絞
播
##ล
揎
पहिलेदेखि
晦
रुपैयाँसम्म
अख्तियार
涢
##륲
कर्मचारीले
ɬ
钮
##ừ
っ
##समिति
##पूर
स्पोर्टस
अभियुक्त
उत्पीड
सीप
馬
##र्मी
पाउँ
##इन
##मानन्द
##लगायतको
अक्
केहीबेर
बीस
संविधानमा
बैंकलाई
ي
भुक्तान
あ
advertisement
डाक्टरले
堪
ށ
脚
सर्वेक्षणमा
रोक
市
##ヶ
ڈ
सम्बन्धमा
प्रश्नको
##ܱ
भित्रै
बुझे
##गडा
##🔥
तिर्ने
##नाका
लेखनमा
गावि
रो
个
񄂇
सोना
रुकुमको
##ling
灰
際
बस्त
देउर
facebook
##र्माले
޴
ಗ
सिर्जित
##ङ्कर
##वालले
जघन्य
##֜
दिल
ჰ
सभालाई
以
अर्ब
泡
राजनितिक
लगेको
बुझिएको
रान
ᄋ
than
प्रो
सेवाबाट
देहा
逾
##ů
किराँत
मध
आएमा
महाराजगञ्ज
लामिछानेको
उठा
##बाइ
विधेयक
साधनलाई
हिसाबमा
##साब
接
गरेर
孊
##he
सचेत
उनकै
निर्मलाको
इँ
नउठ
摔
半
ज्य
बीचमा
समाचारले
✔
हुनेछ
内
##ｏ
振
त्यहीं
भित्रिने
मिलाउने
शुरुवात
##थें
व्यवसायीहरुले
उत्ख
##हाको
परम्पर
킹
第
谁
जातका
##कर्मीको
##ヾ
गराउनुपर्ने
疲
पम्
¿
,”
बन्धक
कोषबाट
लिंदै
釚
ഇ
प्रिन्स
भनिएको
रेश
चेतना
／
##्याम
##र्घा
氣
थिएँ
##16
##ำ
##दीले
श्रीमान
हराउन
ट्रम्पले
束
कव
मंगोल
##किँदा
इरान
परेर
##योगी
##्यू
तलव
गृहमन्त्रालय
संगठ
ீ
##ô
英
५६
##शांक
विगतका
प्या
बागमती
##록
##यरको
जनतामा
ێ
##ィ
ẩ
अक्सि
real
एकेडेम
夜
捏
होस्
开
##ݡ
nepali
पोज
रेष्टुरेन्ट
सुनुवार
##तान्त्रिक
आफैमा
थाल्यो
असमानता
##ă
अप्रिल
बैंकका
##ץ
लामालाई
yest
परिक्षा
कानुनमा
बेंसीसहर
ispermalink
चौलागाई
समितिको
㧌
हेट
##ߙ
##डाम
कु
##una
曾
जाजरको
##ͳ
拶
शो
##जा
퓄
ϛ
##पट्टि
ﻺ
२००
हाफको
उचित
उनै
करोडको
癌
##ru
##चाहिं
पुरी
गराउ
मन्त्रिपरिषद
##ੰ
बिहीबारको
लिंग
##ﲥ
धेरैजसो
युट्युबमा
##ंगिक
लेख्नुहोस
८३
अगष्ट
बदली
ậ
😮
👻
कल्याण
ᤋ
##उरो
֜
साँखु
स्थानीयस्तरमा
सरोकारवा
박
राय
संस्थालाई
夠
##ޓ
बढाई
剰
मान्नु
its
ク
पक्का
लगाउँछन्
##बन्द
खोलिएको
हुनसक्छ
라
ފ
##क्सले
प्रतिकार
सांगीतिक
ً
询
##݁
पुरुषोत्तम
रुकुम
जनशक्तिको
when
नेटवर्क
छोडेका
संरचनाअनुसार
ӯ
पाठ
शक्ति
究
##सको
掌
उद्घाटन
ማ
खिच
##डो
ọ
尽
आठौँ
आफैँले
गरेकाे
窝
##्युँ
खाल्डा
##वर्क
कोरियोग्राफी
##काजी
पाहुना
आइपुगेको
कमाइ
तिवारी
܅
तयार
बार्सिलोना
साक्षर
倉
##ऍ
स्वार्थ
ĝ
诉
##गाह
मिठा
rights
हस्तकला
भागको
##थि
युरोपका
##कालिन
ܱ
एकअर्कालाई
##शाला
खुलाउन
ृ
##यामिक
टेक्
मासुको
##भक्त
##कर्षमा
##न्दार
तानसेन
मोटरबाटो
सामेल
歇
實
鹹
场
उहाँहरुको
##क्रा
भइरहँदा
प्रविधिमा
मिल्नेछ
डिफेन्डर
##˨
सत्र
भेर
##52
नवराज
##स्की
अद्या
आयोजनाको
।”
सुरुवा
##ᤓ
सुपर
आचार्यले
जडीब
दलहरुलाई
व्यंग्य
अर्थतन्त्रको
##चोटि
चम
##ษ
##ᤷ
अर्गानिक
क्वा
संघमा
##कस
गिरावट
꧜
例
გ
चाहेको
怕
जितेन्द्र
नाफामा
सञ्
सकि
चुनि
##—
आवागमन
गुट
आकाश
भएका
नाटकमा
ल्याइ
ҟ
निगम
줍
काँ
##ལ
听
포
उठाइ
터
मुस्कान
##!!
अधिनायक
बुबाले
राणाले
प्रतिनि
透
##प्ल
##र्जामा
युवाले
सुझाए
अबका
खबरदारी
##ﾀ
comments
冕
##्याङ
##हमा
शरीरको
फिल्मी
##वासीको
लोकतन्त्र
ਉ
##नेस्को
##ϝ
अधिवक्ता
ᤏ
मनपर्ने
लागु
श्रम
लोकसभा
##주
छात्र
शैली
ヨ
滋
फैसलामा
್
据
आजभोलि
सहकारीको
उन
गोज
बुढाथोक
रक्षामन्त्री
##국
माध्यमले
##ुमा
जग
납
चुनौति
शपथ
पार्टीमा
खेलाडीले
प्रचलित
थालिसकेको
नलि
संविधानलाई
पार्टनर
सक्
##ीण
##त्तिकै
आलोचक
##र्पोर
जोमसोम
कायम
ۣ
कोड
सञ्चालन
##ʸ
ᤔ
बग्ने
भनिन्
लगाउनुपर्छ
ង
लेखे
##🚩
राहु
##ठमा
##िमिटर
उत्तरदायित्व
दुनियाँ
बारीमा
निर्माणका
सल्ला
##वार्ड
绵
##पले
ऍ
񈌟
अनि
प्रतिश
सोहि
鞨
उनको
최
##ਖ
हेर्नुपर्छ
##߇
क्यानडा
पुरात
कदा
##ઝ
निर्मा
##र्प
भइसक्दा
सेन्टर
तिनीहरूको
संसदले
२०१३
##ृंखला
##ारिक
अपरान्ह
रच
महँगो
आजका
हैसियतमा
क्याप्चामा
##लोन
ब्याजदर
सोध्ने
बजारलाई
निर्देशनालय
बताउनुभयो
†
ք
राजमार्गअन्तर्गत
common
संखुवा
첫
##ː
उठ्न
##ვ
##ǌ
पार्टीबाट
लिएका
शेरधन
棉
मिलाएर
##ત
रू
##फ्लु
छोपेर
स्थानको
निर्वाचनमा
›
पौष्टिक
सधैं
अपिल
##स्रा
日
भारी
मासिक
हिजोआज
कार्यद
##नुपर्थ्यो
##81
ۄ
पाउनेछन्
02
##्रोल
##ेर
वर्षहरूमा
सलमान
ⴚ
腺
कबड्डी
खाएको
युन
जून
##म्पो
चिप्ल
दृष्टा
##फिया
覚
##ेसनले
##िनुपर्ने
वता
##र्श
##ܧ
##ड़
##ឈ
##전
##लीका
पुलको
महिलाहरुको
स्रोतमा
मिलान
##ו
🎊
よ
ԋ
टेलिकम
क्षमता
गरिएन
##र्वेद
सर्वसुलभ
दिनभित्रै
मनको
##श्र
खिच्न
किरात
सरकार
बोले
##धीन
##±
善
जटिल
हड
##िज्
महान
ٽ
गुप्ता
मस्यौ
भ्रष्टाचारमा
თ
जितेको
सरोज
##ʢ
##·
हास्य
##प्पल
पर्यटकहरू
वसन्त
##ọ
協
͎
凹
गाउँपालिका
पाटन
形
ठ्या
हेर्नुहोस्
미
ﯗ
##itu
##रा
आतिथ
प्रायोजक
बोकेको
मुलुकबाट
शिक्षाले
儲
##➥
##̌
अष्ट्र
अनुया
डायमन्ड
मुड
と
भिज
ừ
##छा
गृ
सकिनेछ
प्रतिकिलो
##ɨ
प्रयोगकर्तालाई
54
चन्द्रागिरि
##ाइन
क्यामरा
โ
महेन्द्र
सक्छु
ͬ
विमल
맞
भएकामा
भोलिका
पहिला
वार्ड
यथाशीघ्र
修
खेले
##कामना
कोच
सहसचिव
##र्क
##غ
##जस्तै
उद्योगधन्दा
तलामा
धुर्मु
##じ
##ੂ
सां
कन्स्ट्र
ც
ͨ
उमा
एकातिर
सुत्न
ݩ
प्रतिनिधिसभाको
सस्तोमा
##ন
भिक्ष
甍
ठकुरी
आमजन
निर्यातमा
##ȿ
सत्ताधारी
##ेला
थाइल्यान्ड
##ệ
वर्षअघिसम्म
ɱ
पुनर्उत्पादन
细
तहको
प्रमाणपत्र
पूर्वीय
##दाय
खप्त
销
सकिन
##डेन्ट
बलिङ
जितेकी
यात्रुको
गएको
गरेकामा
##½
गिरि
खुलेआम
गल
प्रतिद्वन्द्वी
氏
##तिहा
##िङले
संसद्मा
##ǰ
ძ
®
सरह
आइतबारदेखि
정
##िज
जारी
युवाको
雾
ܓ
ज्ञापन
निकायलाई
##ĉ
वन्यजन्तु
कालीगण्डकी
धरौटी
ｅ
युवकको
आरक्षण
खैर
ׅ
परीक्षणमा
##ip
ڂ
साप्ताहिक
स्टेडियममा
##जार
者
需
##lin
पोख्र
यिनै
##कारिता
हल्का
車
##ानमा
田
शमशेर
##्लो
##ᡬ
##यर
伴
गर्दैन
छैठ
ची
##लमा
##डेरी
۴
त्यहाँको
प्रशान्त
भनाइ
वाई
सहरको
デ
जगाउने
आयआ
स्वीकृति
旺
##✓
gov
##खुट्टा
प्रदर्शनको
##ू
मारेर
##rish
##ुले
##यज्ञ
##त्री
सफाइ
सहकारीले
निम्ता
49
निरि
##ष्ट्र
##는
36
##ഫ
सापटी
जाँच
लाभान्वित
##ϙ
##ർ
बाँडेर
医
۠
रुस
थपे
आफ्
##रूप
एकआपसमा
वेश
परिषदले
सिंचाई
सिण्डिकेट
##ement
##세
इमिर
##メ
ܫ
ऊर्जा
∏
##습
집
##यन्त्र
###
##प्दै
##ｅ
##नाई
##वापत
नन्द
हस्त
##ामुनि
निवारण
ប
捂
स्थानीय
इन्स्टाग्राम
핕
##पालन
आदर
ɛ
कार्तिक
रातारा
##ules
##ݖ
contact
रोशन
अधिकारीले
ट्यु
ǳ
##ˋ
民
अनुशासन
##३
गाउँमा
嗤
आत्मीय
野
8217
##तन
मेलम्ची
उद्यम
राखिएका
लागिसकेको
मार्फत्
नलेख
min
त्यसक्रममा
##जंग
भगवती
##टे
##ۦ
丽
मृत्युदण्ड
##योजक
लघुवित्त
सुरा
फाग
मौखिक
##ɀ
ɐ
##￣
कविता
उमेरको
धेरै
##xa
##ally
नुह
न्यायाधीशको
सश
९१
सवारीको
廳
把
##ेकमा
सिद्धान्त
裂
##हल्ला
##शास्त्री
निरी
समस्याका
दवाव
बुढा
##😅
बस्थ
गर्दछौं
प्रकरणमा
परीक्षा
##सभामुख
छोराछोरीको
हेर्
##ालो
식
##भूषण
उम्मेदवारको
कविताको
मौका
健
自
छाडेर
३
##ग्य
एकल
尤
हरिप्रसाद
चिना
֣
ղ
पराजुलीको
ਰ
##ous
恋
##डेर
谜
आप्रवास
पहाडी
दृष्य
सफा
पाउनुपर्ने
नेयमार
मसँग
མ
##변
##ｵ
निर्विरोध
##ハ
आत्मसा
क्ल
##ჹ
गोलले
##65
स्मार्टफोनमा
刂
नरो
कम्पनीहरू
##ुग
##ȇ
##ˀ
##ानीले
एकदिवसीय
नोटिस
बताउँछन्
सावित
縔
##लमाथि
मकालु
架
जाउ
별
पठनपाठन
सामाजिक
##सके
दौर
मन्दिरको
鉓
पत्रको
शान
ঘ
उनीहरूकै
福
sim
ު
##घण्टा
##แ
cl
बताउदै
岁
संगीतमा
प्रधानमन्त्रीलाई
नर्भिक
##੍
##दीको
##ेकी
##च्छा
##itter
हड्डी
भइसकेपछि
गाभ
##ྒ
हितका
ȧ
जिक
संख्यामा
ᠽ
चाप
फिच
समानान्तर
अस्पताललाई
सहकार्यमा
सङ्घर्ष
अभावको
##व
##म्बी
एका
अल्प
積
##चनले
挝
##ｋ
देउवाले
̔
क्लबमा
चिनिने
敌
##संयोजक
केसीका
##पुर्ण
塔
ಕ
दिलाउन
वित्तिय
##ਘ
बिति
शुरुमा
##ंसक
##टक
逼
शम्भ
मानक
综
खुर्स
साथीहरू
##വ
guid
ट्रकमा
खेलकू
##ˠ
##ोन
des
प्रयोगकर्ताहरूका
##ɣ
सरकारद्वारा
##तान्त
0d
b5
퇻
चाहन्छ
एएफपी
सुदृ
ब्राजिल
पिर
##ژ
इंग्ल्याण्ड
डडेल
लाभको
##र्र
##՜
##यान
बराबरका
मालपोत
🚩
हात्तीको
ó
संशोधन
腰
use
ग्याँस
##ंदैन
p
守
पर्यटकले
##धनको
साथीहरुले
count
ʸ
जनप्रतिनि
##jal
मुल
ऐनले
अन्सारी
छाड
त्यसैले
लुक
अङ्क
बुझाउनुपर्ने
##ỗ
##पिङ
۩
वितरणको
##😘
##밥
प्रतियोगिता
मुख्यतः
व्यक्तिहरूले
पूजाको
##दिप
धौ
##डीका
##ǭ
垲
अस्पतालका
चे
मलेस
で
##क्षिप्त
##ियरको
ജ
##वादका
द्वार
##राष्ट्रिय
नवलपरासीको
सत्तापक्ष
अमात्य
जमघट
##न्युज
##납
##²
उपप्रधान
पिसाब
यार्चा
উ
બ
परमा
外
प्रशिक्षणमा
##ς
詐
🐏
आक्रोश
怎
##जारी
एजेन्सी
बिन्दु
ध
प्रत्यु
प्रवृत्तिले
राजपाका
͓
एकता
सक्यो
銢
锅
##ची
bu
##ाउको
ٴ
클
##ww
音
रत्न
काली
ヘ
अभ्यास
##ेज
सता
宰
पाण्डेले
गाउपालिका
面
##τ
ٛ
邮
सके
##इसकेको
##ाउदै
##ਟ
feelings
चलाउ
पासाङ
शब्दको
घरज
０
ǫ
प्रयोगका
कार्यकर्ता
वेब
लिइरहेको
##र्जा
विश्वविद्यालयको
archive_file
नबो
##ũ
राजपा
भोगेका
बालकलाई
आन्त
ེ
##ंगा
पुग्दै
ज्ञवाली
जलविद्युत
傲
२०४७
##िख
.+
छिटो
授
शुक्ला
##ุ
ग्रिन
ৰ
कोलकाता
##ᤁ
傜
८२
ब्यू
贬
##मिति
บ
##}
##मोहन
##भूत
गठबन्धनले
तीनवटा
चुनावको
设
तिमिल्सिनाले
##ԥ
##जाले
२०१९
##ालिका
進
करिअर
đ
अनुभूत
चलाउँछन्
टोलीसँग
मुसलमान
ꅕ
कार्यक्रमका
##प्रण
##चौ
साउनदेखि
##मीको
,’
लोपोन्मुख
##꨾
##ঠ
मज्
विचलित
जगदी
औद्योग
प्रतिद्व
富
एफएम
ब्रेक्
संकटमा
##ؖ
क्षेत्रबाट
ˁ
彼
भत्किएको
뒭
##ेन्टी
samachar
##ȥ
साकार
잠
ﾎ
लक्ष्मीको
पुर्ण
साथीलाई
काँग्रेसको
##न्जेल
प्रोटिन
१९९७
##खो
भएकै
##֍
չ
आद
निकटतम
रणनीति
सान्त्व
త
छेउमा
आकांक्षी
बस्न
मानिसहरू
भोल
册
##महामन्त्री
##श्रो
हातहतियार
仰
##गु
##ờ
圆
छुट्टी
##साता
##똖
निरीह
मैत्रीपूर्ण
मस्त
एकदिन
गाउँपालिकामा
फाइनलमा
गठबन्धनलाई
बिरुवा
׀
サ
##रिस
##જ
о
विज्ञप्
##स्दै
拝
ͭ
उहाँका
प्रगतिशील
##kud
##्याउ
०००
##िक
靼
##ध्य
##वीच
ỉ
##ว
草
##९
बेसी
있
विद्यालय
अर्घाखाँची
पुस्तक
पुनरावलोकन
कनेक्टिभि
पाल
बरा
निर्माणमा
适
##थिका
अगाड
राजपत्रमा
##िदिने
ȗ
हुनसक्ने
##्याक
रहेकी
າ
काउन्ट
֕
ut
थापाको
कानुनले
निर्वाचनले
बोलाउने
स्ट्राइ
##पा
दुव
पदाधिकारीको
ʋ
##दान
हेरेर
development
##क्या
و
ं
उस
##ٞ
बिस्कुट
कोह
居
冬
##औं
कक्ष
ޘ
增
妄
राख्नुपर्ने
पुज
सान्त्वना
快
दुवैलाई
खुल्ने
研
##줏
०७१
खेल्
##हामा
ŗ
मगर
##त्रमा
##ata
##ᤖ
##गं
क्याच
##भिजन
गन्ध
까
切
down
플
डुबेको
軽
government
दुई
घटनालाई
will
ണ
你
रोकेर
अन्र्त
कोइरालाले
माले
साने
聞
##민
9f
लाभ
सेकेन्डमा
हिनामिना
##қ
द्वारा
療
##ږ
##र्नी
须
ताइ
पार्छ
##37
##ɇ
ѭ
ڞ
एकलौटी
प्रवेश
##जिर
ݍ
खर्ब
नेताहरूलाई
बाघको
ʔ
诣
람
##ism
बझा
मनाङले
ൾ
ｗ
##ڳ
नदेखिएको
##साट
धमा
欣
兔
后
कूटनीति
मन्तब्य
खेलमै
फर्केको
टाइप
शेरबहादुर
##ोत्सव
획
प्रतिदिन
##ᇡ
##ԗ
लाय
►
##デ
विधान
हाजि
##रत्न
##무
हजारले
बचाउने
操
##ाइयो
दिर्घ
##ƍ
ʰ
एको
जन्माउन
##निकरण
##सत
निस
गरिसक्
ˬ
飽
ctrl
करारमा
0000
क्षत्री
ڨ
वरि
ਛ
##ूला
तराईको
सिंगो
नक्क
मिल्दैन
ᤵ
कोल्
रुपैं
缚
तन
㢘
室
पिठो
निम
pubdate
其
मेडिकल
पराज
आइपुगे
आश्वस्त
##ानिक
पद
स्प
२००३
अमूल्य
जोस
अवस्थ
मनिष
जर्मन
फस
महिलाको
सृजना
辠
##←
माउ
अधिनायकवाद
प्रान्त
##ुनी
कोषाध्यक्षमा
सबैतिर
बढाउँछ
भवानी
镀
ȷ
##art
बेचबिखन
गरी
उषा
पैसाको
५४
बिस्फोट
खुर्सानी
井
खेलेका
उपत्यका
##チ
柹
समित
पाइरहेका
नमूना
ł
扱
मुलुकका
त्यसअघि
मार्न
##ल्का
##̓
उचा
锈
##र्भिक
उन्मुख
흜
ₒ
उद्योगी
##্
स्टल
##प्न
भट्टको
साहले
७३
बेलामा
अर्यालले
游
##ാ
तुलसीपुर
ቧ
##म्या
परिवारको
मनोन
इन्स्यो
##ङ्दी
##फे
क्याम
##̶
बेलाको
व्यक्तिहरु
배
ɗ
##्रल
रातिको
ओनसरी
कोलक
ढोका
प्लेयर
यथार्थलाई
फाइबर
##ܙ
##जानिक
##ेलु
मोरङका
भ्र
क्रमिक
नराम्रो
पौरा
##सिना
भीर
पालुङ
変
##दायिक
चन्द्रागि
तामाकोशी
यती
सुवर्ण
炉
स्त
भन्छन
रम्
पीडित
सेता
प्रत्यक्ष
##भने
覆
##422
आदिवासी
पारेपछि
भाँडो
बिजनेस
চ
आफ्नै
खेलिरहेको
##्वाइन्ट
कुद
क्यू
इको
##߫
मौरी
リ
पशुपति
##ून
सिमित
सन्दिप
웠
##मी
आशावादी
∛
अर्कालाई
थियौं
cont
पढ्न
##३०
ۯ
काशी
त्यसबेला
##َ
##격
यीमध्ये
sar
जितमा
चाहना
हामी
किताब
कोइरा
सुन्नि
허
◎
##յ
पुरातत्त्व
मेड
靓
लगाइयो
##िस्ट
दम्भ
##प्रताप
##र्सा
इजराय
युवतीको
挪
ۛ
##पात
泯
नारायणी
लागे
अस्पष्ट
सहयोगका
ஸ
ठेगान
भिडन्त
##ԁ
पदबाट
##으
रावलले
##ਪ
〝
记
पूर्वाधारको
यिनीहरू
मानौं
२०७२
घातक
मल्टि
तेश
चोक
विषयका
गढ
##रिक्षक
सेक्स
समर्पण
क्रम
添
एक्स्पो
bat
基
##॒
लगाउँदै
##स्तानको
माओवादीका
##मन्दिर
##र्दा
बट
सोलार
मान्यता
##ab
कामलाई
##eriod
ढ
स्थानबाट
背
नागरिकमा
पैदा
収
##ाध्यक्ष
टया
निर्धारण
##पुर्जा
बाई
देखेको
वर्षमा
##׃
ֵ
उठाउने
##लाय
##ហ
गएर
ھ
海
भरिपूर्ण
秒
नराख्ने
encoding
##׬
##देशिक
述
卵
डिजाइ
朝
##🤩
##🧬
पुडासै
विकासले
옰
支
प्रेरित
ro
暂
बिराटनगर
बुद्धिमा
ٶ
##ఓ
राग
शारदा
शहरी
##¡
##80
##यनको
तापनि
नप
देख्दा
敲
ն
嘞
हेर्नुहोस
##ä
बनिन्
डायमण्ड
##हार्य
आज्ञा
विशाल
टुँडिखेलमा
लगाइने
##ाल्ने
साइपाल
स्वरुप
##char
बालबच्चा
##चल
पुगी
सरोकारवालाको
ब्यापारी
समिर
##साको
##कुने
खोलाले
बजेर
##किता
चरम
##ारण
͏
आकस्
बेख
##वाट
펒
मूल्य
##ց
##ूर्त
##ݷ
ळ
खोजिएको
पहिलेको
मुख
##성
४३
who
##दिएपछि
संशोधनमा
नारायणकाजी
हाम
भूकम्प
प्रसंगमा
⧟
##तीय
हैसियत
赁
##‚
एप्लिक
दिनेछ
##जनी
ӌ
वित्तीय
锰
हुनेछन्
गरु
रकमबाट
##कुरा
؛
नर्सिङ
अत्तरिया
쉬
##र्याउने
किसिमका
निमित्त
लगायतको
##53
ൊ
##संगको
##ზ
बाजु
कार्यहरू
֑
##p
छल
पुलिसले
р
चढ्ने
मानिसका
角
"?><
##पिट
पत्रमा
मर्
मिन
सिनेमा
##28
##ŀ
संस्थानले
सिंगापुर
##ल्न
छलफल
ｰ
柯
##ith
##दरले
##네
##ഐ
अभियन्ता
##मानमा
ी
##त
譏
मान्नुपर्छ
##रह
गरिमा
पाल्पाको
संग्रह
बेरोजगारी
अध्यादेश
##ङ्क
ब्रिटिश
२०४८
優
नवन
साइड
आयर
महासंघको
डिस्ट
आउँछ
चित्
##के
क्रेडिट
देखेर
जगदीश
त्यत्रो
负
##माल
मिठो
某
बधाई
cricket
रुम
##ǚ
काउ
##रात्र
अन्तरक्रिया
धर्मका
अन्यत्र
समूहको
विद्यावारि
फोक्सो
प्राधिकरणमा
राजसंस्था
##ط
भेनेजुए
लुटपाट
##è
केजी
लोकतन्त्रको
烠
##ꑝ
##पटक
天
सिमाना
सहकारीमा
##۠
##ंसा
हरायो
ე
왔
##पछिको
這
खेलको
##स्कृत
शक्तिशाली
##शीला
banking
##ೊ
लेखेका
ٝ
उपहार
ͪ
नियुक्ति
नाच्न
阜
##कास
गैं
मानवता
ᇡ
##िङ
मोडमा
थ्र
##नुका
##बाह
##र्खेत
अधिकांशले
आएँ
माग
ϳ
##तीमा
##नेश्वर
राधेश्याम
प्रोत्
ʺ
शून्य
लाठी
सहुल
##ƿ
५८
衡
अदृश्य
जयन
##ल्ने
##tions
##ेवार
ウ
भद्रगोल
액
प्रदेशको
स्तरोन्न
बच्चाको
जनसङ्ख्या
##미
तृतीय
भेट्ने
लड
쪇
शिख
##स्थिति
प्रमाणीकरण
আ
ԣ
道
##मुनि
अध्ययनरत
##टेड
सेल्
अन्तत
दिइरहेको
##च्छ
ഹ
किशोरीलाई
।
चट
##ित्र
अभिनेता
##ताले
΢
ﴽ
लालीगु
##ǝ
ù
सोचको
##थियो
##പ
गभ
स्कोर
२०००
淽
##फ़
pathak
천
उत्साही
निर
##ま
स्वीकृत
बिस
विकल्प
##नुभो
बर्दियाको
ߣ
电
ē
दूर
߹
उरु
त्यसपछिको
詩
सर्वोच्चले
म्यासेज
ど
策
बनाए
दृष्टिविहीन
##भिन्न
##ύ
##z
##फु
file
भूमिगत
साय
भन्ने
hola
##ų
निकास
ტ
팬
扒
購
##ា
चिनिन्छ
सन्तु
सर्भिस
नागरिकले
##bu
खपत
mar
ĭ
देब्रे
निकाल्
अब्दुल
वस्तुमा
श्व
##թ
##sto
समुह
व्रत
स्थायित्व
##नु
बैङ्कको
लक्ष्मीप्रसाद
##म्बु
ᵤ
##टले
##✌
木
पेट
ޢ
रिपोर्टर्स
澳
张
##कर्ताको
##अन्त
प्रदर्शनमा
अन्त
भोजपुर
🤔
##ܰ
ݡ
घुस
法
पूर्वका
##ंगलो
۱
चकलेट
धुवा
歴
##ף
विश्वविद्यालय
अरि
घरबाट
बाला
##वद्ध
##पल्ट
व्यक्तिको
धामीले
उपज
##ŵ
पर्वत
##atra
##सेक
राज
बान
लगे
##avas
ँ
महासङ्घ
मागेको
झोलु
一
खेलाडीका
鲁
ܺ
ԗ
ů
##तामा
प्रशासन
राइ
सर्वा
en
湛
पल्ट
##्द
केटी
त
##साङ
##लाएर
跤
##ք
雖
##पित
सिटमा
रानीपोखरी
も
##̺
धमिलो
ួ
##ोप
अभियोग
उमेदवार
##िड
कार्यसमिति
##ɳ
##तियार
##ye
ऐन
दयनीय
पुग्दा
शहिद
खाता
दूत
श्रो
भेटिएका
##रुवा
बाटो
खाँ
华
ढिलासुस्ती
῟
प्रतिनिधिको
कार्यक्रमले
मनाउँदै
दिए
करोडमा
##ency
पुर्जा
##99
बिरुद्ध
趧
##ۙ
विक्रि
सम्मानमा
##ȗ
प्रमो
खालका
##݆
थियौँ
शक्तिका
खसी
सुस्
छैनन
पारेको
##؎
##아
खोजी
##ޭ
ɂ
##म्पा
##हवा
कारोबार
),
हामीसँग
समयमै
प्राइ
##चार्य
##यखभच
महानगरपालिकाले
##ध्यम
भट्टले
हेटौंडामा
##ʉ
मैनालीले
##शि
##द्य
सत्त
ϟ
हल्ल
ᵻ
इन्भेस्ट
(
भ्रमणमा
किर्ते
네
कसको
कोशी
ರ
么
圈
तस्
should
गुजारा
अर्याल
विगतको
८५
ỹ
##ܺ
ਣ
ब्
##67
暧
##겹
##ञ्ज्याङ
ب
䙥
椅
छैट
स्वास्थ
ग्री
wrap
अप्ठ
विधिबाट
ึ
रुद्रा
सिर्
एकिकृत
ތ
चिनो
दुष्
͹
गार्ड
요
ᤛ
军
out
प्रतिबद्धता
##िरहेकै
एसियाले
##💃
##होर
tour
닝
##မ
football
बहुमत
विधामा
聊
‒
बनाउन
##्याण्ड
8
सार्वभौमिक
##हाँ
फ्रान्सको
##ޥ
अडान
퍦
प्रदर्श
प्रक्षेपण
कथन
घोड
तिहाइको
आकार
##बाबु
##्रास
कुराको
保
भन्दै
मौलाएको
祠
##दश
टोलीलाई
डाँडामा
तीज
榺
녀
##छाड
४००
##डब्लु
व्यहो
२६
##ぬ
ང
养
एचआईभी
महाभारत
頼
##कल्याण
भ्यालेन्ट
җ
उन्मुक्ति
##`
##ӑ
बर्षा
겠
कलाकारिता
ट्वीटर
##दरको
अगावै
䠭
ằ
务
##ذ
वेबसाइटमा
मर्मतका
संकलन
केसीलाई
पर
##फुल
मोडेल
##क़
बुढाथोकीले
猪
परिणाम
बलिउडका
चलाएर
었
खाडल
२०
##त्त्विक
ताकेता
##भर्ट
chairp
प्र
जनताका
उद्योगका
एक्कासि
##om
##ा
ŷ
##드
भित्तामा
प्रज्ञा
भुव
##레
बटु
आश्रममा
##sh
पुनर्वास
खतिवडा
लाखमा
हाउ
पोषण
प्राधिकरणका
रण
阿
लेखाजोखा
##देन
तामाङलाई
पुर्याएको
कमिटी
रिक्सा
##모
##विकोपा
##रोस्
आगलाग
सनातन
निर्णायक
पुलिस
─
निशा
##विपरी
##ਧ
प्रावधान
##युग
##ित्त
尿
करी
##गेज
46
मैदान
ҡ
ꩵ
##ڿ
ҵ
##ian
##फार
##्थ्यो
ʁ
झोला
##र्छन्
##ple
घटाउन
खेतीपाती
बताइ
ज्व
समानु
##क्कर
रौन
##ڍ
नियत
##लोक
जाल
हो
吉
##ुट्टा
सुरक्षाका
ह्विल
गरेको
पिछ
सपना
टाइ
荣
तृत
एमबीबीएस
कम्मर
भन्द
८०
나
ल्याउ
ल्याउनुपर्ने
##ລ
कहिलेकाहीं
##सुदेव
परियोजनाको
繰
ർ
सोको
बढिरहेको
##पूजा
暖
शतक
堻
साँझ
मल्लले
##प्रथा
צ
걸
##뎒
##िकामा
उत्तरदायी
सांसदलाई
ŭ
कार्या
##ङ्ग्र
टाइम
युक्त
सुविधाको
莉
##िनो
##ik
डाटा
讦
बाथ
गच्छदारले
art
ni
##जेर
##कार्ता
##ावती
मोहम्मद
दिनभरि
推
देखिएकाले
नेताहरूको
##निर्देश
बढ्
भनिए
̞
जोडिएका
अधिवेशनको
##ػ
##िरहनु
##्यो
कतारको
दिन्छौं
💌
##'
सुग
प्रशासनमा
##स्रो
##बन
क्षेत्रमा
धूलो
कालोस
जगतमा
ब्यांक
##ोद
आलोचनात्मक
छुट्टै
सभाग
欢
##हीं
##ाउनुपर्छ
नेवारी
##bl
37
गुप्तचर
अन्स
इन्टरनेट
✓
स्थलमा
सल
##ペ
आधुनिक
फर
नेपालीका
##न्दा
##😐
##ứ
##そ
##थ्र्य
स्व
अधिकारीलाई
茶
使
##š
आनाकानी
खर्चको
पर्व
##uk
##्रै
农
##पै
##nder
निवासमा
मिडिया
सम्झ
खन्न
##ക
जताततै
हिँड्दा
भेटिने
दिन्छन्
२०१०
मर्का
चाँहि
उपदेश
लागेकाले
##벃
##단
##ड्स
##श्याम
प्रण
सहिष्णु
प्रलोभन
नाकामा
ŋ
मनन
##हुँदैन
नाराबाजी
##ुञ्ज
हरु
डा
##बजारमा
करोड
खाँच
"?
##ञ्जु
तारे
जीविकोपार्जन
व्यवस्थापक
निर्वाचनका
मिटर
뵢
अलिअलि
गा
फु
유
जिकिर
बंगलादेश
सचिवालयको
##सेवी
अध्यक्षले
यसपालि
##erved
शंक
गर्नै
離
सिकाउन
##भर्स
खतरनाक
साइन्स
븳
##हिद
አ
##て
उ
##छौ
샵
„
##ण्टर
अविश्वासको
कार्गो
击
尖
दोषीलाई
आएन
##ᑀ
ढाकछोप
रुपैँया
तह
govern
बासिन्दालाई
均
पुरुषमा
दललाई
गाइ
##ԣ
शल्य
撑
बोहो
उपसमितिले
हुनसक्
ri
蚊
or
युवायुवती
书
mail
बलात्
##सामा
उहाँहरू
भोग्नुपरेको
पर्यावरण
##श्रम
लुकाउन
उनीहरू
महिना
##ɽ
दायाँ
哩
विस्थापित
##ताव
##쉠
##ન
अर्कोतिर
कस्तो
दह
प्रव
प्लान्ट
योजनाका
सम्बन्धित
##・
b0
##41
##छे
##ʽ
##ˏ
境
ɔ
觕
##ैमा
२०१४
ta
डडेल्
सोनाम
##सम
धनगढीमा
धरौटीमा
##ϫ
ܩ
इभेन्ट
नेत्र
नियति
##यन
##्रय
थलो
भर्ने
बिदेस
##ग्
##̬
##ό
विरुद्धको
विस्
मारिए
बस्नुपर्ने
##वादीको
गर्छौं
पठाई
򜮖
红
##ݥ
अर्बको
##क्षित
示
##ͺ
दिएर
झापा
रामशरण
梤
##रीक
माओवादी
पैठारी
हातमा
ᤰ
##ild
राजनीतिले
mon
गर्नेछन्
튶
##धारित
##롰
遇
܈
न्यायिक
फर्क
##रेखा
यमन
є
##∙
##एफए
॓
##ेटको
नसकेकाले
पहिलोपोस्ट
भारततर्फ
##पानीको
खाल्डाखु
थरु
परम्परा
परिप्रे
हजारमा
पृथ्वीको
घटनाबारे
january
参
贸
##ണ
##뚻
केर
##िनमा
dece
उपप्रमुख
मतदातालाई
दृष्टिले
अनलाइन
देखेपछि
भुइँमा
##щ
##84
｜
始
ਮ
물
सभापतिले
##ेह
##भेरी
कुराहरू
प्रयोगकर्ताको
##എ
स्तरको
आकाशमा
워
सबैले
ヤ
डिन
टेकबहादुर
निर्यात
निम्न
48
##क्री
हुँ
कप्त
डाइर
बुक
lif
कालोबजारी
ੀ
厘
भाले
तरुण
交
##मार्ट
मौलिक
##·
##ф
बाहिरिने
बोल्न
उठ्यो
इञ्जिनियर
मायाको
स्थापना
##त्कार
##क्समा
##ाग्लाइ
##ỳ
##ाग
वालिङ
नियन्त्रक
ჯ
पश्चात
gen
पश्चिमको
ट्राफिक
뒲
##विराज
䯻
ح
№
नीतिलाई
##यता
मौसम
झुन्ड
任
##न्छ
##्याट
##्टै
रेड
गाउँको
/?
comment
遥
प्रकाशक
वचन
कृषिको
सुल्
ललितपुरको
नाट्य
ललित
છ
कार्यसम्पादन
दूरगामी
एम्बुले
##िएकै
कृत्रिम
##ha
निजी
यी
ȑ
अर
सार्वभौमसत्ता
##हाल
##फ्तार
क्षेत्रीले
छुट्याउन
▀
खड्काको
उत्तम
परम्प
##ற
##बस्ती
चालक
तपाइ
बुझाउन
सकिएको
ʑ
सम्बन्धी
兩
##개
यसबीचमा
ŧ
##す
##जना
##🇻
कारोवार
पूरै
सम्भावनालाई
##age
सहरका
##ո
##नुको
सोच्ने
##जिल
##ड्के
ף
बयान
是
##िकको
चढ्न
महिमा
चेम्बर
##गणना
ट्वि
##जन्य
##ेखोला
##्नुपर्छ
悚
गम
चेपा
迷
##शाली
##सी
पारिजात
仓
समारोह
टोटेन
पार्ट
째
##জ
रेट
मानन्ध
䈻
問
司
="
मू
覮
हिमाल
भत्काउने
##ծ
कार्यले
चौत
दुरु
##gle
योजनाकार
सम्मेलन
##फाइन
लोहनी
दुबईमा
खानेकु
जनै
सुपरस्टार
सक्तैन
सन्ज
शेखर
जाँ
ڀ
##ʷ
उपलब्ध
छैन
##सक्दा
राधिका
खारेजी
##φ
अर्जेन्टि
पाठ्य
रेग्मीले
आर्यन
߿
##पर्क
##˛
गरिदैन
संकलित
महाअ
तर्फबाट
रन
##フ
निमो
=
##ढुंगा
जनाएको
##वाहक
रेणु
सच्याउन
बजारका
तपार्इ
宇
##🎤
ƈ
甆
##राँस
बाँझो
विशेष
=%
##हरुले
टोपी
बहुआ
बाह्य
गोलरहित
प्यु
悩
राहत
सम्हा
##मुनिका
##शय
बाजा
घरदैलो
चलन
चिने
89
थालनी
शुक्लाफाँ
भूम
निर्वाचन
होइन
जितपछि
वर्षभन्दा
पू
डिप्र
सुजाता
thumbs
कोश
किरिया
##ent
##ั
##탁
कदम
##ब्य
महिनापछि
मास्क
सम्झौताका
आदी
कारबाही
वासिन्दा
आदान
सचेतक
सेतो
声
econom
पारी
सिर्जनशील
创
骟
멋
##भिक
वाचा
डुबेर
˵
यात्राका
##ﳃ
##ø
##कदा
##जनाको
ɽ
…
मधेशी
##eperiod
चर्चाको
##किशोर
ed
हर्न
बेड
गिरीले
भनेकी
बाढी
पुँजीगत
कर्मचारीहरुलाई
दया
##साले
##ाराम
##ोला
肟
##ली
क्षेत्रको
रोजगारमा
è
नु
専
थिय
भएपछि
in
ƾ
##ल्दा
कैदी
प्रेर
ۏ
活
こ
यतिबेला
ट्रेडिङ
##ۊ
सिमानामा
संयोजन
पल्सर
##ानि
抱
懸
क्लब
विकराल
庆
इजलास
म्
##ԟ
गुम
衆
##ന
बोसो
संघर्षमा
没
##क्टरको
पर्याप्त
रुपन्देहीको
저
तालिमको
पर्न
sy
क्वि
गर्नको
नचाहि
理
बले
##]>
सीटी
గ
서
##तक
च्याम्पियन्स
चुपचाप
汇
##ԯ
気
##रोगी
卡
##निधि
मोदी
##え
गिरोह
बाँच्न
जयन्ती
विश्वकपको
पाउ
पहलमा
##राग
रोबोट
for
हुनेमा
##론
२००४
##नि
规
͠
सामूहिक
उमेरमा
आउजाउ
##ܢ
कम्पनीले
प्लेअफ
ന
##इस
वार्ता
सम्पाद
##हरण
##뒲
원
पछ्याउँदै
##िश
कार्यालय
सावि
०६
हप्ताको
प्राण
វ
खलंगा
駄
खड्ग
##ँगा
##조
##ᄋ
ܛ
ѣ
##《
ਦ
उत्तरी
प्रणालीबाट
अरूलाई
ষ
देख्
सयौँ
फेरि
ᤍ
##ជ
छाड्
墓
युनाइटेडले
गरौँ
景
बढाउनुपर्ने
चाहियो
निर्णयबाट
##ञ्चन
##जुद
ɡ
##पुरबाट
नराखी
जनजाति
बढ्नुपर्छ
फर्केपछि
विस
छु
सिन्धुपाल्चोकको
##द्योग
://
टिक्न
म्यु
सानी
深
💋
सक्ला
제
गौरी
२०१६
季
गर्भव
पुनस्
औलो
څ
डरलाग्दो
þ
ﷺ
ɸ
आयोजनाले
पदक
##िन्थ्यो
पोल्
फुर्सद
सुनेपछि
་
##ױ
सिपाही
मलेसियामा
७९
е
इजिप्ट
##ƚ
##भराउ
चहल
ቢ
忙
決
ȫ
पशुप
##सुन्दर
>
बुद्धको
गाँउ
सुकुम्बा
ॊ
डडेल्धु
पेय
##िरहेकी
हरिक
##ंक
##फिल्
काठमाडौंस्थित
थोरै
नेपालकै
भट्टराईलाई
ʳ
##िकित्
##त्म
##टेन
ณ
ऋणपत्र
अवा
श्लो
फर्किन
##राउन
##ाँच
देउसी
ल्याएका
अनी
बैंक
##गेट
कमेन्ट
ᖳ
गरिएकाले
##pa
##हिम
भत्किएका
महालक्ष्मी
政
肌
##amro
##एर
##ꁝ
महिने
##नलाई
##ӌ
59
पाएकोमा
घडी
##र्थ
जिल्लाहरुमा
攝
##પ
妊
अर्बभन्दा
##ट्ठा
दूतावासमा
##तीका
##ce
सुस्त
##र्मिला
निर्णयहरु
२०२२
동
+
##न्यायाधीश
गुफा
पहा
♥
추
उडा
एकसय
##ܻ
rel
ர
##զ
##ゴ
निद्रा
ռ
##ङ्ग्रे
##सुरक्षा
बच्न
##럽
##ह
##w
मत
施
##दिँदा
बसा
##कपा
तपा
तस्करीमा
रुसले
泉
धा
दिलाएका
##भे
គ
ꋗ
वार्तामा
समयको
माछापुच्छ्रे
बल
निरुत्साहित
लेख्दै
हमला
ક
आइतबार
̘
चैतमा
वरीय
पूर्वराजा
塞
##शिला
उभ
जसलाई
➥
बदलिएको
##ا
##ܝ
낣
׭
##リ
शव
##घात
सिद्धान्तको
७१
प्रसूति
##び
弾
वाङ
##ഴ
##ϥ
सजग
गठबन्धनमा
愛
##ݢ
जान्छन्
लक्की
邸
जलविद्युत्
आउँथे
१६
##भिट्टा
खुलेपछि
सुझाब
जसो
नीति
प्रक्रिय
肾
पोखे
##नजिक
तिहारमा
भक्तपुर
समुन्द्र
##👉
直
प्रयोजन
函
कार्यकालमा
##٢
##യ
ส
क्षतिको
न्यायका
देखेका
परिण
अधिकारीहरुले
अभियानमा
घुम्ती
독
ݱ
য়
कथा
एनसेल
अर्थात्
मार्चमा
😡
उपप्र
乳
附
परो
साई
ब्याजदरमा
प्ले
सोझै
##ӵ
अविश्वास
प्रशि
मेलब
उड्ने
रेलमार्गको
संवत्
शिर्ष
ছ
㗦
तेज
विद्यार्थी
पछिल्ला
##रन
गोप
शिशुको
०५
भक्तपुरका
वामपन्थी
खिल
सफलता
उखान
अधि
यातना
आआफ्नो
विनियोजन
ִ
चाहन्छौं
漢
量
आगलागीबाट
तपाईंले
दरबन्द
कम्पनीहरूको
ठेकेदारको
बहुपक्षीय
##तः
कमला
##ய
जापानको
|
ज्ञानको
बाहिरिएको
##क्रिट
फिर
यूरोप
राजनी
सिफारिस
गर्दागर्दै
##डले
敵
##भाडा
##संर
उपर
पेज
नार
विश्वको
नजिक
鏹
junu
##सीन
नहुनु
प्रविधिको
##सियम
構
##पढ
л
भिडियो
go
wo
##तिले
महेश
##जो
गल्छी
समस्याहरू
बंगलादेशी
pe
तय
वर्षकी
##दायी
團
##ഗ
just
৬
ٿ
स्वास्थ्य
##date
##ence
पकड
रेज
राजाको
संविधानका
##ӡ
绩
##हाल्यो
##त्रा
अवधिका
45
##्ले
##नास
麗
विश
##किन
४७
उत्प्रेरित
##प्ति
खोज्यो
अपराधीलाई
##उँछिन्
कन्ट्र
खेल्न
ल्याइएको
ɲ
如
##जनक
پ
कनेक्ट
सोधपुछ
एकाउ
गराउनुपर्छ
देव
गोलरक्षक
पारेर
काल्
☺
##र्पm
휴
耳
उद्योगबाट
##ঁ
##सरह
ka
आएनन्
ᡬ
नाकाबाट
शिक्षिका
day
चर्चित
नवलपरासी
गुर
सौर
ィ
आविष्कार
windows
##er
साम्रा
##नेपाल
##☆
प्रतिक्षा
हुनासाथ
☎
##ӧ
疫
ꑿ
##১
##̛
🐾
उठेर
甚
悷
अफिस
̱
वर्त
ҹ
वैठक
##®
भनेकै
लगाउँदा
ⲕ
राष्ट
元
手
##यनमा
##딩
탑
ओझेलमा
ब्य
##गण
迎
एनसेलले
कार्यकक्ष
ꋩ
कोण
विभेदको
##बर्ट
नपाएर
##एकाले
बेलायतले
##दाताले
title
##अघिका
##बासीको
͈
हिमालको
ឬ
ふ
सौगात
कहीं
भान्
निकालेको
योभन्दा
स्टेजमा
ind
सेती
ꚁ
##धै
ब्रिटिस
広
##ლ
सम्म
牙
अवस्थित
एसिया
बनाउनु
राजश्व
##η
सुविधासम्पन्न
##ߛ
##िल्लो
भेडा
ซ
दाबेदार
हुन्थे
##टीका
讨
##प्राय
##अर
{
आस
राखेको
##वासीले
ā
व्यवस्थामा
ச
नाटक
अन्धविश्वास
चलाएको
ο
सिता
स्वच्छता
肃
##कालीन
##ā
##िफ
##ਤ
१५
ｓ
तार
##원
##ማ
टाई
विशेषगरी
ƽ
भैलो
##मको
́
##पाली
अन
सम्भवत
##स्वी
##ﾪ
दय
लेखापाल
😟
##ӳ
राष्ट्रसंघीय
जर्मनीमा
फर्काउन
ब्ल
शतप्रतिशत
छाता
रोनाल्डो
बढाएको
##भरी
##ag
निर्देश
##ɶ
##ϊ
##म्व
##लम
̬
पर्छ
आरक्ष
##ियम
##ैया
विम
la
लाग्ला
लाली
०७४
हुँदैनन्
स्मिथ
भदौ
도
नतिर
##ʪ
खटाइएको
ị
बताएको
##पुर
1
खुसीको
์
of
यहाँसम्म
##ण्डको
烧
ầ
##स्त
랜
##ंदै
ぼ
अख्तिय
㰝
##घरमा
##２
गुरु
दिगो
खेलाडीहरुलाई
सालको
जनता
बदनाम
##चिङ
वार्षिक
##76
##नाल्ड
##ठ्ठी
चुहा
อ
##ނ
##͑
विदेशीको
नारी
प्रतिशतमा
बृह
बुझ्ने
बताईएको
怖
रक्तचाप
༻
अर्धशतक
गुन
थाहा
##ाउँछ
##नोस्
समाधान
अन्तर्
जितसँगै
##साध
सेनालाई
port
ר
भत्काएर
कसैलाई
एक्सरे
##보
劑
गर्नेलाई
पदाधिकारी
##ƙ
##बारेमा
प्रवद्र्ध
疑
select
अर्कातिर
यसले
संघ
चलेको
🌺
摇
##तया
2005
##ल्प
माग्ने
हिजो
सावधानी
राजीव
कार्यवाहक
##लाही
स्थानीयवासीले
अपनाउनु
पुनर्विचार
गण
सकिए
ボ
##चालन
प्रणालीमा
##टिक
##ारोपण
फर्कने
सालिक
몸
##ike
जिल्लामा
दुध
नगरकोट
तत्कालीन
सूत्र
驭
¨
फेसबुक
##म्स्टेक
##kar
गरिनुपर्छ
##ित्दै
꺂
##ैं
##ਮ
टेक्नोलोजी
ग़
##...
खस्दा
सौभाग्य
華
पर्नेछ
वेप
##बोट
टाँ
तस्क
शर्मालाई
##ʟ
##ј
##׮
दलहरूको
१२५
बेच्ने
लाभांश
奇
टीकापुर
##आई
रियल
भरिभराउ
होली
खेतीको
राख्यो
आयात
अपार
बाहिरि
लाग्
हिँ
५३
##मगर
涌
ก
##रे
अडि
पुर्पक्षका
डाक्टरको
नागरिकलाई
##ِ
ﾟ
ठेकेदारलाई
विकेटको
आक्रमणमा
ԫ
हलुका
pr
泥
##ागमन
ߘ
प्रदेशसभामा
😞
हुनुहुन्थ्यो
घट्ने
स्मार
ѡ
char
##째
कर्मचारीका
山
धन्यबाद
पूर्वाग्रह
˯
एकीकरण
नो
ڐ
इलामको
व्यवसायमा
駙
झैँ
##तथ्य
##हलमा
쭜
##ुन
विषयक
गुमाउने
롰
पुराता
पेशामा
बैशाख
मेसेज
गर्ल
ओलीको
bh
सेमिन
जर्सी
नदिई
##🌺
अलम
##의
!’
गदै
м
प्रतियोगिताका
ह्रास
चल्दैन
स्वास्थ्यका
##ेक
आएकी
सोभ
같
##ઇ
चुक
律
चित्रकला
##៍
ｂ
नछ
मार्क्स
罠
चलचित्र
नेतृ
߀
कैलालीमा
भीड
##ंख्य
सिन्ह
लोकान्तर
##पडी
खोज
फ्रान्सले
मृतकका
㍅
जलवा
ң
梨
आश्च
उज
डेरा
扰
अधिकांश
##कट
##ल्कुल
सङ्घका
䍻
##खेर
##याम
굝
आकर्षणको
जुम्लाको
बिन्दुले
##गुट
##ȧ
##ѕ
##द्व
देशहरुमा
。
स्टेसन
作
##र्पित
जाम
जोसुकै
ली
##왴
वैद्य
視
鬡
हर
##प्रति
मनी
鴱
हलि
सिकाइ
##परेको
युरो
̇
桨
##ir
##परी
##ियाबाट
á
creator
睄
अग्रगामी
늘
चा
पौडेलका
स्थगन
पिस
##ো
परियोजनाका
इन्भेष्ट
漫
गाईको
뺋
##स्किल
##पाई
निकालिएको
महशुस
जमात
मानसिकता
सघ
दरबारमा
您
納
3f
志
求
मसिनो
##बढ
备
џ
पढेको
रूस
冷
पारवहन
नरहरि
##लिप
##con
##ore
ܝ
##ܩ
ब्राण्ड
स्वाग
कार्यक्रमहरु
घर्तीले
丟
石
को
##🎇
रोकथा
##ल्ल
##सक्छ
अन्तक्र्र
##विद्
रनर
कम्
##ताबाट
अमेरिकन
बैठकका
##ारका
##🔱
आवासीय
ट्रष्ट
कपाल
रूपले
सम्हाले
ट
सगरमाथा
सातौँ
गित
##क्रममा
##ঙ
गुगल
पा
मानिसलाई
लालपुर्जा
लिइ
अनुसन्धानको
踩
होल्ड
november
बनाइनेछ
##ƶ
접
स्कट
##야
चाउचाउ
उक्त
आन्दोलनरत
器
कालमा
जन्मा
ហ
准
मानिसको
##ँदे
अनुचित
अरेब
##विको
ɇ
ѓ
##ग्राफर
आन्द्र
##टिको
पारिएको
प्रवद्र्धन
##ߥ
☻
↑
सक्रियतामा
洞
कम्पनीहरूले
##❤
सहकार्य
綠
३९
कुलपति
##ݵ
⋳
##04
पारेका
##ञ्जन
##̓
##›
##sta
med
ä
ӡ
अग्र
शोमा
释
##ऊँ
边
पुरै
##͵
भोग
##͡
पहुँचमा
बैठकको
休
वरपर
उहाँलाई
काठमाडौ
run
राष्ट्रपतिका
दल
सेमिफाइनलमा
कम्ब
##ive
खोजेको
थानको
##हात
सम्पर्क
賢
##हरूमाथि
এ
##ःख
लिम
##ѭ
गर्नुपर्ने
भिक्टोर
हेक्टर
ꦖ
अटेर
रंगशाला
सोम
रोल
！
##re
अडियो
पोखराका
##્
##u
##थिन्
मेडल
kha
पहिलोपटक
##ोने
सुरुआती
ര
चेन्न
礼
##બ
##mi
##काली
诞
##ियो
हाट
##शैली
बिहेको
हुन्छौं
##ҹ
मिच
##ꚹ
##ɂ
जीविकोपा
लगाइएको
##̲
##कु
राप्रपाका
लापर
##लगायतका
जान्छ
刮
शिक्षण
डिस
इश
उपभोग
##ق
पुर्खा
मिड
##ल्पा
प्रदूषित
समयअनुसार
苦
子
❷
##հ
com
##ׁ
web
माथिका
ỷ
क्यान्सर
मर्कामा
##rl
ओलीसँग
दिँदै
##s
##सञ्चार
कालो
भावनाको
院
तोड्ने
缓
##लाग्दा
मस्को
डकु
सस्था
ý
तै
प्याकुर
۔
बच्च
भति
证
2nd
चढ
मन्त्रीले
सिरिज
टेलिफोन
देखिँदैन
गर्नुपरेको
微
轩
##ल्लु
치
प्रमोद
नभएको
共
##44
##ð
##भण्ड
केकी
सञ्चालनमा
अतिरिक्त
वर्षीया
सिके
戸
एसियाको
握
बगा
टिममा
करिअ
दक्षिणमा
विता
顺
鮨
##ѐ
हिन्द
क्षेत्रफलमा
##लिंग
##̉
##चे
:-
##सम्
गाड
संकु
##ਠ
##काउ
##िटि
गजुर
छुवा
##oo
💖
बर्दि
वस
यौनजन्य
##̀
सरि
प्रतिस्पर्धात्मक
##नमार्ग
नागरिकताको
६७
बाँड्न
जातजाति
कद
तुरुन्त
दाउ
##베
##!
铁
夫
##ारा
वार्ताको
٪
अभिय
䖥
महासंघ
अवधारण
छुवाछ
युनियनको
##त्सा
##टु
ओर्ल
##्र्याे
##ら
नमिल्
छौं
तिलक
देशलाई
##¨
दूतावास
असाध्य
띱
##लाई
ऐ
पोखराबाट
महानगरीय
##ेषण
दिमा
भुवन
सेवा
ｏ
अम्
चिसा
##ति
蓝
आरि
पदाधिकारीलाई
पर्
##ޮ
पायक
##erv
वैशाखमा
՞
भूकम्पपीडित
हुन्छ
नीजि
##ाइम
遊
##ꦖ
सीले
ۦ
सक्दिनँ
सुनी
##टीले
असं
बदला
##ֲ
व्यापारीले
तिलो
आवश्यकता
सुरक्षाकर्मी
राष्ट्रमा
##🖕
97
तारेख
##वर्ग
दिई
##ɥ
परिवर्त
##32
余
##८
##ខ
मुक्तिनाथ
##पीएल
##सित
सेन्टरमा
목
बबई
##क्वा
##डार
प्रकारले
काठमाडौंले
फेर्ने
हाउसमा
柱
渉
काका
##ह्
साथीभाइ
##ۼ
विकल्पको
सुगर
##ानाथ
नामबाट
ब्यक्त
दर्जा
##टिलो
लेक
श्रवण
देवता
दिक्त
पत
##उदै
दिमाग
वर्षयता
ƭ
困
आफैंलाई
##पछि
भूमिसुधार
भोली
ӟ
गल्फ
घटाएको
मेसेन्जर
लम्स
सांसद
聘
हिम
##வ
##योजन
͗
दिपक
प्रकाशमान
ঁ
##बाटै
##पसमा
ট
##जस्ता
##ide
ๆ
##दर्शी
革
पाँचथर
सट
युग
##런
ޮ
##ill
綿
##ml
व्यवस्थाका
सुम्प
##ङ्गको
ζ
##ोक
##क्रमित
जनाएका
केन्या
प्राप्तिको
सर्वसाधारणले
򴶨
युभेन्ट
सर्वाेच्च
थ
असिस्ट
##ݓ
हिँड्ने
참
श्वासप्रश्वास
भाइटीका
जनताले
टोखा
वैकल्पिक
दलित
##ヤ
ְ
यस्तो
##ैपर्छ
pass
##लीकरण
हुन्
ꁝ
##ेप
宅
昨
##»
##ेश
##હ
शर्माले
धनबहादुर
##ार
इन्टर
पुर्याउनु
सातवटै
茧
蜂
ֽ
##್
पुस्ता
विश्वस्त
ब्याक
भुमिका
आयक
##िकले
june
सूची
##🇱
क्रिस्ट
लिभरपुलले
न्यान
प्रविधिका
##😂
पूर्ति
महिलाले
औषधि
बेत
मध्यपश्चिम
##ヘ
किसिमले
धरानमा
महिनामा
次
ビ
##ር
##ந
गौतमको
##у
थ्री
पोखरेललाई
फस्ट
##र्चामा
आँकडा
̝
##वामा
चाँदी
##रै
सान
ֶ
##र्गा
##गन
32
##ङ्गले
आफैलाई
##छिन्
٩
थप्ने
पहें
लहर
वीरेन्द्र
सहायक
तम
डीएसपी
##एम
उन्
श्रद्धा
##व्यवस्था
##गान
##लेन्स
इन्च
バ
##ӷ
गैरसरकारी
भलि
项
गरेकै
ܮ
कृष्णबहादुर
##लाग्दो
ắ
##पदार्थ
##विध
भट्टराई
dhar
##۷
##धिकरण
चरित्र
मिथिला
क्रान्तिकारी
विवाद
सकिनँ
हुम्
वर्षाका
कक्षमा
ʖ
##n
अलैं
पेनाल्ट
श्रृंखला
एकदिव
जनचेतना
फाउन्डेसन
विषय
नरम
देशबाट
प्रहर
....
湿
盂
麼
भानु
##द्घ
dc
भावी
होईन
निर्भर
कालान्तरमा
##û
प्रज
रोज
##बीचको
##ेनन्
पलाएको
संघीय
शिक्षकको
गर्नुभएको
##ʀ
##ݱ
दाँत
进
ग्यासको
।"
निश्चय
##म्का
ந
पानीको
दिने
##राउने
मुनि
करार
ޯ
उहाँसँग
##ª
सर्ट
भान्सा
सांसदको
9c
मानिसहरूले
##द्वारा
be
pvt
घाटामा
##पर्य
ř
覦
प्रतिभा
##झैँ
##ीप
यसअघिका
अघिल्ला
टोल
बित
सिनेमाको
सुन
भूकम्पमा
##」
कामको
##्यामा
सानो
교
फैसला
आवाजमा
##जनको
चाहन्छन्
पर्ने
##प्राइज
##𗲜
यकिन
39
ť
आहारा
##हाउ
##ꣳ
@
##चुङ
रमाइलो
##͔
ك
कमसेकम
अर्डर
थाल्नु
हानिकार
##ޕ
##िमि
근
घटनापछि
समाचारपत्र
स्थानीयका
臓
🎁
पुस्ताको
##पक्व
##बिल
##갥
ә
##देउ
पाच
नगर्नु
चितवनको
ठक्करबाट
बिर
लत्ता
प्रांग
##07
##ry
##ियनको
so
##ब्रो
संस्कृतिलाई
ლ
भाग्यमानी
भईरहेको
隔
क्लास
भाँच
##ݰ
मिनि
饙
गरिसकेका
माहोल
सर्भे
##र्ड
कार्टुन
एपीएफ
##ٸ
हावाहु
शर्त
##ц
ताके
भजन
पच
磅
##विन
##्चामा
उकालो
##डोर
##काई
ү
प्रतिनिधिले
उल्लेखित
པ
सु
गुजरा
娜
##४
राष्ट्रलाई
लायन्स
;
थै
##इरहेको
ॐ
लिइने
##्यन्त्र
आन्दोलनको
भब्य
अभियानका
##लाउन
ӻ
बाँके
##सिङ
अग्रवाल
उपसचिव
ۑ
कार्यशाला
टाढा
当
##nth
ۗ
##र्टर
लगेका
ٌ
फर्केर
##ȑ
##̀
निरंक
場
महाशाखा
निस्
ग्रीन
줏
fin
लिग
##नेपछि
सेवनलाई
संविधानसभाले
कुलेखानी
मेची
रायमाझी
極
##탑
कार्यकाल
दाखिला
##न्तरमा
∙
all
कारणले
sam
##필
标
नच
##ࢎ
वनका
प्रक्रियालाई
विद्यार्थीहरुको
मौसममा
नहु
बिहीवार
lai
सरकारमा
डाउन
紡
बार्सिलोनाले
绅
साँच्चै
##राखेको
अर्
धमाधम
कावासो
र्याली
##ग्रेस
##मारी
##सम्ब
wonder
चेत
हट
##भाव
梡
गरिदि
##ើ
##ڽ
भ्रमणले
##रहँदा
घरघर
##मन्त्रीको
चिरञ्जीवी
नियमा
तवरले
बाहुन
瓴
मझु
##सीलाई
हेल्थ
ल्या
विकृति
जस्तापा
##धार
节
ʷ
सामन्ती
कार्ग
##ung
ǀ
##डेन
##ेना
##ޡ
##ậ
नेशनल
गरेअनुसार
सिंचाइ
बग
##लेन्ट
##ɻ
要
##ुलीले
नेप्
##ध्वज
पाठेघरको
護
主
ヶ
नीतिगत
जनप्रति
परिस्थिति
देशको
##ेस
##ਲ
कार्यतालिका
लसुन
挑
##ोजी
नस
सिफारिसमा
केला
少
բ
पार्टीले
愕
##71
काराग
##एँ
##ud
##ざ
楚
##कृष्ट
गर्नु
मोज
残
अशु
जिल्लालाई
̜
मल्ल
פ
चुरे
संस्करणको
##ោ
बिचमा
##ỏ
सिग्देल
##연
नम्बरको
बीबीसी
२०२०
शाखा
बनायो
सग
देउवा
अङ्
प्रश्न
##ਚ
सङ्केत
##हीँ
फन्ड
सबैका
##कृतिक
ћ
आसन्न
हुने
पछाडिको
##˭
##णी
अन्ति
आमाको
गाय
##if
금
चेल्सी
पुछ
港
##पानको
云
माध्यामिक
अघोषित
समातेर
प्राप्ति
श्रमिक
肉
कार्कीलाई
विन
##काउन
扩
##यरिङ
##👨
गुमाउँदै
क्षेत्रफल
durbar
मानिसहरुलाई
तामा
排
2014
ण
खसेको
##ώ
斑
आर्य
विद्यादेवी
##शाही
##ң
ỗ
ठेकेदारले
नाउ
कल्
you
लगानीमैत्री
##च
##۔
##ዛ
##तम
u3hrm
##ब्दी
##िरो
उन्न
चाख
हल्ला
##ۨ
船
कार्यकालको
कथालाई
##जाँच
उठाएको
##हिले
##る
जवाफमा
गरिएपछि
䳧
प्रयोगात्मक
एने
ṅ
의
लिडर
##पाल
##िती
ʜ
ન
वृह
##कारको
##ारु
छैटौँ
##ؠ
恐
वर्गका
##਼
roman
ޑ
##हन
दोस्रोपटक
साउनमा
सुनार
जलेश्वर
मनलाई
时
##ׄ
##ب
ă
家
##ダ
उद्यमशील
गरेरै
हिसावले
##ाममा
तपाई
##हरुको
परिषद्
मूल्यका
迂
汁
एसी
##र्ष
बताउने
##साथ
यहाँबाट
挙
हुनु
據
欥
गुप्ताले
##unu
##्याएका
##चाह
ड्रि
８
##याममा
##धन
##9
##ԛ
##ݨ
ҫ
जीवनस्तर
दर्जनभन्दा
纏
चिता
हत्यारालाई
##÷
发
##ঃ
उत्
बाक्लो
##ॅ
सुन्
##जन्तु
सञ्चाल
##ޏ
कार्यकर्ताले
आन्दोलित
ҷ
स्रोतले
स्टार
र्याल
say
लगिएको
८८
असन्तुष्ट
构
जन्म
##लेख
##ソ
अदालतबाट
##ҩ
नेतालाई
决
छँदैछ
##즈
ジ
बाँडफाँड
उनीहरुका
मंगलबारदेखि
महसुल
##मूल्य
विचाराधीन
##व्
क्
मूलतः
अर्थ
पदा
ᤐ
##आमाले
х
內
##–
ﴼ
बर्
द्वन्द्वपीडित
स्कूल
आसपा
##फिङ
##−
ग्राहक
योजनामा
छाप्ने
सना
july
##ή
कलाकार
झाले
यसमध्ये
##→
##ग्राही
व्यक्तिहरुलाई
हान
ջ
߃
पढ्दै
—
bha
˼
अ
आउँछन्
नगरपालिकाबाट
##6
##मि
##र्ट
##스
##अघि
カ
मेरो
इन्भेस्टमेन्ट
जानकी
雷
रहेपनि
タ
શ
कृप
޻
परि
सिन्धुपाल्चोक
∕
##˕
मलेसियाको
区
贈
##हुने
򊪻
妨
नवीकरण
कन्ट्रोल
हरुको
##सागर
स्कुलले
મ
##へ
##िनुपर्छ
निवासी
खोर
विवादास्पद
तदारुक
नियन्त्रित
रंग
दुईजना
रिस
नहट
ϭ
others
ู
##न्तु
शाहरुख
##सङ्ख्या
दोहो
साताको
卜
बुँदामा
such
स्टेज
lag
स्याङ्जा
अफिसियल
दुर्ग
गाउँपालिकाले
紹
विमानस्थलको
रहेछन्
विस्तारित
गतिलो
घूस
⋅
सल्यान
साटो
नियमावलीको
विनिमय
गौर
दि
देवकोटाको
अबको
弛
##्री
मा
तृ
祉
##बिच
##िएसँगै
##किपर
##ڌ
ननि
एकान्त
ब्यानर
वीरबहादुर
按
५०
ߖ
दसैँ
langu
नाम्
##कने
##►
छैनन्
捊
##क्रोश
ג
구
##ालु
सरेको
सप्तको
学
預
मात्रा
##ठे
##̥
उपलव्ध
##धुरा
##र्जनमा
शीर्ष
सहायताले
邪
##जीवी
悪
किन्न
疗
##साद
जिते
जोर्ड
##लग्न
21
दुर्गन्ध
लगाएका
हालेको
燕
शिश
##দ
अवश्य
##ﴼ
काठमाडौंबाट
##æ
##देव
रचना
मुम्बई
जिल्ला
लाग्दै
駆
अहिले
विवादका
##डिङ
##यात
सम्प्र
सम्मको
स्वतन्त्रता
ु
##ical
##उँछ
ੁ
##टिभ
##यू
##कान्त
ᤗ
मुकुन्द
˃
三
##स्पो
बिगार
प्रतिस्पर्धा
स्वरमा
अराजक
प्रस्तावलाई
纸
##ब
मतगणना
रजिस्ट्र
कठि
##िनेट
##ेसँग
##वरमा
##ीतर्फ
ै
);
लय
##नात्मक
कष्ट
सारिएको
स्तरका
##🇧
޾
उद
士
落
ៃ
थकाली
##िदै
ڡ
मानिसहरुले
मतपेट
##रहन
##ेन्स
क्रिकेटको
##बिन्द
उचाई
डाइरेक्टर
प्रहरी
पर्सा
हुलाक
##ǹ
तटस्थ
п
कार्ययोजना
ड्याम
##ग
रामकुमार
培
個
##व्य
##त्यार
##ोकै
रुपैयाँका
कुल
，
अचेल
जागरण
मधेसवादी
समुहले
घट्ट
फैस
##म्म
•
看
##ǃ
घण्टाको
कागजमा
मसला
फसेका
मोबाइल
🖕
##ग्री
नोक्सानी
उक्ल
##न्दै
##र्सीमा
वाग्लेले
##सक्दो
ˇ
अभिमुखीकरण
##मोड
केन्द्रीत
##देश
बनिसकेका
बजेपछि
##्याएको
फेर्न
組
##खा
घा
चलचित्रको
सञ्जालमा
##ẵ
गराइएको
भयौं
霸
ﾀ
been
प्रोत्सा
޳
##िला
दिला
चलिरहेको
##बु
❺
ڕ
帶
##ˈ
了
##ीको
बायाँ
💘
##र्जनको
पासव
##त्तिको
dh
९०
利
##विक
##लान्
##पी
har
जङ्गल
लगायतमा
पुनःनिर्माण
उपद
मसान्तसम्म
there
देखाएका
रम
स्तरोन्नति
↩
##か
भेग
##स्तरमा
##ᎆ
तरकारीको
दिन्न
ূ
÷
##ङमा
कांग्रेसको
भाषाको
##बलमा
##￥
पूर्वाञ्चल
##ৰ
##our
契
##݅
##ോ
##¯
जिल्लाका
##वती
नभई
बहुमूल्य
ख़
शेर्पाको
रोकि
साँघुरो
##‣
राखेर
मर्मतसम्भ
ｍ
##भित्रको
##प्ने
छलफलका
कम्पनीका
नेस
##♂
右
जीवा
##मानले
ठूली
##जीकरण
##ve
##लभ
पसेको
सप्त
चलनचल्
मेयरमा
बिक्रम
结
维
खोजे
番
##फो
कुहि
चुल्
आफैं
##ݤ
अनशनमा
काउन्सिल
मौज्दा
भाषा
##hi
ɮ
गएपछि
विष्टले
छरिएर
##नाले
जसअनुसार
टक
तालमा
संघको
हा
पाना
प्रहरीले
जसको
नवल
विद्यु
##ारीले
कुण्ड
बास
फित
##쮧
महार
##स्क
징
##j
स्कुले
जेठा
##वृद्धि
ĥ
##gar
##ैर
ږ
गफ
मधेश
##नागर
ũ
encod
##मिल
कालिमा
##ुधार
临
नेतृत्वमा
भुल
purl
अनलाईन
स्वच्छ
🎶
चढाउने
##ेलाई
##श्च
ݽ
अस्ट्रेलिया
दार्श
हेटौँ
घोडा
##ੈ
सहरमा
खानु
##ब्बर
कार्यकारी
##ंकन
फैलिएको
निरुप
gar
##तालाई
##な
##श्य
ṭ
सम्मिलित
및
ߜ
##विचार
７
##नुभएका
##િ
हितमा
##７
##치
हरियो
गुल्
##ݸ
ʲ
##दारी
ช
##ữ
डिल
##निष्ठ
##५
मोड
केरुङ
आवद्ध
##patra
निस्कन्छ
##に
फिलिपि
लेखिएको
स्ट्र
लिक
दिएकी
खेतीयोग्य
भन्नुभएको
अपनाउन
##न्डी
##रह्यो
दलका
##ˇ
##डबडी
##ष्ट
हेटौँडा
蚁
ﾌ
प्लाष्टिक
모
कञ्चनपुरकी
मर्ज
महिलामा
節
##वानको
खटिएका
सवि
##ल्समा
आम्दान
लोग
अविजित
ਵ
##बत्ती
ܾ
पोहोर
##श्री
態
उडानमा
##िव
た
लागेका
देश
##독
त्यसलाई
##झा
ぃ
舞
अर्थतन्त्रका
सुरुङमार्ग
राजतन्त्रको
फौजदारी
##ं
##रीले
गराउनुभयो
यसबीच
विष्णु
रङ्ग
होमप
##ष्टर
यसपटकको
##संस्था
मट्ट
装
ݶ
अंग्रेज
जुद्ध
पाकिस्तानलाई
##영
중
सामन्त
##प्लो
राजधानीको
चौबी
नदिए
##ร
सामग्री
##რ
एकातर्फ
##धाई
वीरगंज
कठिनाई
परिचाल
भैंसी
प्रधानमन्त्रीका
जड
अफगानिस्तानको
##et
चैत
उपयोगिता
##नजिकै
सीमामा
मुद्राको
٫
पवन
ऐक्य
##ļ
गीति
विभा
##ܭ
बाचा
पाल्पा
१९४
निधिले
आभास
जमरा
ԓ
किसिमको
䫿
急
भाषाका
ꅵ
##गायत
पहाडमा
रुचा
##ͭ
兜
##स्स
펣
पालैपालो
##द्वी
अन्तःशुल्क
泌
##シ
देशभरि
##ज़
##🌻
ނ
अलमल
कृषकलाई
पार्दै
##><
अब्बल
##횶
##ボ
अदालत
सयको
##स्नु
ʊ
##वटै
बोस
भूभागमा
सगुन
##सक
नदिएपछि
जोडीलाई
लिएको
牆
शंकास्पद
मनसाय
लगायतका
##ड्रो
##삼
##ूलक
पाउन
एसएल
##te
##कृति
गर्नुपर्दछ
अन्तरगत
थुनामा
बन्दै
प्
पीडितका
नभै
##ेन्ड
राखी
सक्नुहुनेछ
码
##ю
募
##शन
अभियानलाई
घि
##दिम
##छोप
केहि
##पास
अमन
नक्कल
राजपाको
##तारी
̶
##क्
##후
भएँ
२०६
७४
ƨ
पका
㖒
##΢
ܣ
प्रयोगबाट
##）
ǉ
साथबाट
##रीमा
अदृ
काठमाडौं
खेलाडीहरु
অ
##गंज
##ेटो
टुप्
ස
៊
वाग्ले
##cript
सर्च
##नुपर्दैन
बसन्त
खेलकूद
जादु
कमिटीको
青
⫎
बिनोद
पकाउन
##र्ण
विराटनगरमा
बिना
परोप
एमालेले
##क्टरमा
##थ
##ale
ᶣ
##साइ
##이
##शक्ति
एकजना
##ेण्ट
इ
आलोचित
गुण्डा
भेट
算
उड्ड
##26
验
ʵ
सबल
बढाएका
ր
ब्वा
##र्मु
##ानीलकण्ठ
֫
##लिँदै
आयआर्जन
쿼
##मनै
नारा
##ΰ
प्रतिशतका
मिडियाको
##िणी
कृषक
देशका
चाँडै
ｐ
##षण
इनार
20
हिमालय
ƃ
a3
##्वास
眠
米
मधेसका
वर्षे
बिक्र
##सलाई
आम्दानीको
साँचो
誇
##맗
बोल्ने
आश्रित
डिफे
भोकै
ݤ
स्वयंसेव
अध्ययनको
अन्तरिम
कुँवरले
hamrokhel
अन्तर
गर्छौ
题
बानी
२
तीव्रता
सङ्ग
##सम्मान
प्रणालीलाई
##्रि
##្
काभ्रेपलाञ्चोक
##살
दस्तावेज
领
भेटिएको
मकै
##वार्य
खरिदका
दर्जन
समुन्न
げ
समर्थनमा
our
भइरह
परिकार
##ؙ
कर्णले
यादवले
गाविसका
नाम
सर्वोच्चमा
आराधना
सक्रिय
ब्याप
##ぞ
रुचाउने
##दशा
हिल
##देश्यीय
##लियाले
##ुप
तर्जुमा
मान्ने
##िकर
जीवन
##✴
##प
झि
tit
मेस्सी
हुनुमा
##लाम
##कल्पिक
आयोजक
ʠ
귀
कुराहरु
値
छोड
समृद्धि
ܡ
कालोपत्र
खे
08
हेरिएको
कृष
##देख
߽
##ғ
##न्दी
##ú
यूवा
सस्तो
##in
अचार
14
ぜ
किनार
encoded
घेरामा
जसमा
दुखेसो
भएकाे
भियतना
##स्वरूप
杯
##ȭ
##ڤ
दिली
सुरुवातमा
माय
अर्जेन्ट
छठ
विमानमा
午
报
application
##लेका
बन्नु
##तावास
##송
अा
माझ
械
जोडीले
यौनसम्पर्क
##भन्दा
##져
##ジ
भएकाले
रानाभा
👈
स्विकार
😑
कार्यलय
孝
##सु
चीनको
ጛ
संचालक
##पाका
गल्ली
##हित
रेडियो
संयोजक
ੂ
ӷ
डि
##അ
वास्तवमै
亡
साता
दिनसम्म
अप
समाजको
ҕ
चल्ने
वित्ति
##비
अपरि
##ालि
उज्ज्वल
समर्थक
##स्थलमा
셔
भैरहवा
##अघ
##ईले
पाग
वर्षको
k
चौधरीले
शृ
सम्बन्धि
एएफ
सरल
##प्प
this
विवश
##्र्य
निर्या
##चान
संरक्षित
●
मेगा
##ालको
बसे
खेल्नु
स्रोतका
##तीले
कामले
सप्
व्यक्तिले
सक्नुहुन्छ
縄
憨
बीबी
सोध्य
於
हुनैपर्छ
顾
##क्ष्यमा
️
ग्राउन्ड
सम्राट
भिजिट
संसद्
ऐतिहासिक
दिनपछि
खेम
##લ
जोहो
塾
कम्पनी
##상
##सीमा
बंगलादेशका
चाहनुहुन्छ
浮
##एमई
झाडाप
माओबादी
知
मतगण
##र्के
भर्जिन
##डाको
सोमबारको
卫
##ेनले
闹
राजु
उत्थान
कतारमा
लोकमानसिंह
एल्ब
गठबन्ध
खतिव
हच
훑
मानस
am
धना
more
厥
##उँछन्
दुर्घटना
##पुरका
##؟
अमेरिकाबाट
माध
##जिट
##ム
res
##दिन्छन्
##fre
##ऽ
ڶ
黖
बाणिज्य
##कपुर
##्यापी
देशकै
महिलाहरूले
责
ӓ
अपरिहार्य
##योर्क
मोफ
अन्तमा
餅
प्रतिष्
सचिवालयका
##स्कृति
छैनौं
貌
कार्यान्वयनका
##पालीका
धूम
आफूहरू
##पात्र
##ӿ
चढा
हेरेपछि
##ϧ
##็
##स्म
##ຯ
गैरका
बाटोबाट
##इ
रंगको
##भच
कार्यविधिमा
繁
导
सर्वाे
कामकाज
##ڐ
##ᤗ
##ị
##लीले
अर्थमा
तीनवटै
##र्खा
दशकपछि
賃
सिक्क
प्रतिरोधी
गुल्मीको
देखिएका
विधा
脳
敢
™
##र्छ
हानिकारक
ӑ
蛋
##񘦈
##उँदो
गरोस्
कोरि
但
##krishna
ˋ
टिमको
बेक
ब्यक्ति
खेलहरु
##िङमा
##राले
ԭ
एटिएम
चाल्न
समानता
निधि
दीक्षा
पाटी
代
黎
何
मध्यरातमा
##नुपर्दा
##स्का
减
स्वास्थ्यमन्त्री
होल
प्रसङ्ग
हिलो
ठ्याक्कै
ज्ञापनपत्र
भाउ
त्रिपुर
त्रि
संशोधनको
##तिको
पत्रिकाको
सञ्चारमाध्यममा
वक्त
कार्यकर्ताको
पुरुषोत्त
लगाव
##id
##की
उदघाटन
सातै
ক
तुल्याउन
а
ߋ
संरक्षणका
##र्व
##ܨ
कोले
##शी
##튼
छैटौं
चलाउन
धार्मिक
ɦ
धितो
मिल्ने
निध
इजि
समाहित
##ुटी
o
##तर्फका
पे
##हिने
ʴ
गर्दथे
self
४४
खुट
भेलाले
पुष्कर
जनाभन्दा
रसुवागढी
##कीको
अवस्थालाई
भिन्नता
##ೆ
चिन्तित
莞
कारागार
爱
##ɮ
जथाभावी
श्रीलंका
厂
असुरक्षित
लत्ताकपडा
स्विट्जर
储
नबिल
मन्त्रीहरु
कुपोषण
लेखाजो
नातेदार
देखाए
भन्नुहुन्छ
गरेमा
˸
बैक
रोट
नियमनकारी
##ۆ
##स्को
एकद
चपे
##िएस
बार्सिलो
##ढि
वाग्
समवेदना
समस्याले
赛
राष्ट्रपतिको
汉
असुल्ने
號
छेउ
ڮ
##뒭
महि
##ṃ
राक्ष
सुनिएको
惠
##ܒ
ޛ
धिर
गरिने
जेभी
हाराहारी
式
騒
💿
फागुन
किट
營
慧
ặ
##क्रेट
19th
बाघ
अक्ष
##܌
##हरुमध्ये
बुझाउनु
史
##रोह
विमानस्थलबाट
წ
##न्देही
सम
ठग
कार्यान्वय
區
##ld
##अगा
##शासन
##៏
तिम्रो
##्युट
परिश्रम
घेराउ
सिकाएको
##ч
̡
लण्ड
सन्
围
管
쥻
##क्षी
浕
एकैसाथ
##ҿ
जोडे
बजेको
केन्द्रबिन्दु
जनही
सम्पदाको
谷
इलेक्ट
lastbuilddate
गर्ला
मातृका
घिउ
ẵ
##स्कुल
ʅ
गर्नबाट
ណ
##ɪ
##्वा
उपप्रधानमन्त्री
आफन्तको
माउन्टेन
唐
舆
देखि
हाड
難
ঢ
##ललाई
यादव
箋
सामान
हाफमा
क्यापिट
##यात्री
धू
प्रस्तावमा
सुजा
檭
घाइतेको
बुँदे
यतिका
रक्षा
##ӄ
खोल्
오
राह
सिलसि
##पूर्ति
寧
मनले
イ
सप्ता
##र्जित
⨯
扬
##ް
मङ्गल
录
##होस
डाइ
भुइँ
溯
फलदायी
वल्र्ड
##परित
响
֌
कृषकको
41
##िरहन्छ
շ
विषयमा
##तावरण
##किला
बालिकाको
##ڞ
맗
财
राज्यलाई
भएर
چ
एघार
##so
अंकसहित
क
१९८
मनोर
रक्सी
चलायमान
वेपत्ता
हम्मे
##낭
भनेर
##00
##ʂ
##ंख
खेल
ԍ
नेपालीहरुलाई
數
दृष्टिकोणले
विषयले
स्कुटर
गुहार
ƻ
जीवनको
किनेर
हुनेको
पुस्तकाल
##बाहिर
लामाको
धन्य
निर्वाचनको
妻
##हाइ
बि
##ाइने
रूपै
सक्छन्
##या
##ँगै
ห
वृद्धिदर
घट्दो
呵
##राख्ने
देखाई
आधारमा
मिलाइएको
यात्र
मदर
##؊
##ǟ
##कले
गर्दै
##89
सेवाग्राहीले
##न्थी
85
##ݴ
瘠
उहाँहरूले
सर्वसाधारण
पुगे
शारीरिक
बढेको
फेब्रुअरी
माइ
वासुदेव
राखेपछि
पात्र
ợ
##माले
😪
dis
官
economy
ढल
##ժ
गोल्डक
चर्का
सांस्कृतिक
##ग्लै
##न्ता
ग्ला
स्वस्
障
體
##बो
माक्
महत्वपुर्ण
सम्वन्धी
##ञ्
##ญ
उभिन
긝
##q
##ớ
##्ररी
सिमसार
हिमालयन
##ز
खेलका
दुईतिहाइ
नवनिर्वाचित
निश्च
ฟ
奈
लामखुट्ट
इन्स्ट
संसद्बाट
मृग
सुनाएका
स्वदेशमै
पुर्याइ
ӭ
##ese
##रहनु
搜
ς
##ɕ
뵪
ݵ
पुर्याउन
##निर्वाचित
विवादको
ओली
迅
जुध
उनीहरुले
युवाहरुको
खोज्ने
##धारणा
pub
रत्नपार्क
8c
थापाका
佐
写
शाहले
जीप
##আ
𖾄
तपाईंहरू
अनुसन्धानका
अंकमा
ट्विटरमा
बेहु
व्यक्तिसँग
मिने
हराउँदै
नेपालगन्ज
##é
country
खप्तड
छोरी
चुनाव
ҩ
बोल्
##ཾ
##ड्
किसिम
##धिस
##ུ
##ञ्जा
साहु
ǵ
गहिरो
सोचमा
डटकम
शनिबारदेखि
##ध्यात्मक
थपिएका
##ागा
बालबालिकामा
युवाहरुले
कुखुराको
दमकल
##करण
♫
##सरा
🏾
##एक
##ब्युरो
##만
##००
पार्किङ
सक्ने
##ult
प्रयासमा
##ō
曲
इज्जत
##ٳ
##वरले
ᤜ
##दैन
त्रिपुरेश्वर
सौ
##प्ला
भदौमा
अभियोगमा
महासंघले
वकिल
暫
डेम
पत्रकारको
श्रीमत
मुलुकमा
किशोर
अग्ला
昊
नयाँद
हाे
##त्सव
मणि
##सराइ
किल्ला
मनाङको
यसवर्ष
##ラ
गीतहरु
##छुट
##ぃ
##est
स्वास्थ्यचौकी
##ᤧ
##ľ
नेकपाले
##ीत
स्टक
스
सुधारका
व्यवस्था
सक्दिन
रिजर्भ
घरेलु
##턂
उठ्ने
तालको
户
##द्रा
लोका
न्यौ
छल्न
निर्दोष
##रात्मक
दाग
ട
गोला
फाइदाजनक
जम्मा
##녀
##ណ
##등
न्यौपाने
諸
रुपमै
ἀ
व्यापारिक
।...
फर्किएपछि
आइपुग्
जातिय
हरुले
रिज
तौ
उत्कृ
अभिषेक
उतार
बाग
सञ्चारमाध्यम
幽
##ja
घले
थालेका
रेलको
ल्याउँदा
##dg
##ݯ
##ुरे
07
यति
index
懲
ग्रामी
राउ
लिस्ट
沈
##߮
दासले
##ǀ
कलाकारहरु
खाल्डो
##द्र्ध
則
नर
रोक्का
##⚠
##ə
राजदू
निर्णयका
##har
भनेका
##वाड
मस्र्या
##alled
होला
किराना
##ेसनको
阤
ར
पार्नु
##ქ
ؔ
मतल
खुल
महœव
घरलाई
##चाहि
उपलक्ष्यमा
निर्
पुरुषलाई
हँुदै
滞
कोहल
##याधि
द्रुतमार्ग
##ेलको
सम्पदा
##ap
सूर्योदय
राजीनामा
धनाढ
ˡ
ब्रिज
ट्रेन्ड
壊
焦
जेठ
广
विषा
部
खिचेका
पारे
व्यवसाय
साबिक
कोरियाले
宮
चालकको
##⃣
陘
##कीले
रोजगारीमा
辦
##स्यौ
पन्थ
स्का
मेहनत
##ँ
स्याफ्र
ો
सम्झेर
##न्
पुनस्र्था
##ase
##न्द्रुक
बुझ
शिकार
##कर्ताले
उद्घाट
कलंकी
थरी
योङ
भारतबीच
磁
##वाणी
宙
##णात्मक
##क्रिय
ӽ
नेताहरुलाई
町
##निर
凝
##malink
कार्कीले
集
सोभियत
續
बङ्ग
##ख
बुधवार
रा
फोर्स
राउण्ड
नआएको
महिलालाई
##तेदार
##ம
##책
##ीलाई
देखिन
##𯪰
पारित
पवि
贴
庭
##띱
â
बरालले
गएका
रुवा
विज्ञानको
दुग्ध
静
##क्र्या
समि
विदेशीले
в
मूल
गुजार
ம
प्रयोग
##जातीय
案
##회
दीपिका
छे
पर्या
भएकी
कफी
說
कोठे
सञ्जीव
வ
##माथि
चुलिएको
संकल्प
कम्पनीलाई
घटेको
䢕
आफै
##ۭ
刘
श्वेत
सत्रमा
बढेपछि
मामा
सुपारी
##सार
हम
आपू
उर्ला
読
साक्षात्कार
152
गणित
के
on
伯
साध
दिन्थे
प्राथमिकताका
न्यूनीकरण
##ト
##able
जगन्
址
निकायहरू
ͫ
एभर
भैरहेको
##ӯ
सामसु
##मर
गरेकी
##ቢ
##अनुकूल
##^
##बस
घन्टा
युरोपको
वरिय
##रणको
घाई
⤡
ae
बालब
##अन्तर्गतको
रूपैयाँ
उपविजे
뒣
अर्थव्यवस्था
脸
जिता
मागलाई
अनलाइनखबर
ޫ
##め
चन्दले
संघलाई
धर
🇮
अख्
धुर
υ
कामदारले
##ね
lead
भुस
˓
निर्णयअनुसार
.]]></
再
##ٽ
জ
परीक्षक
इजलासले
आमिर
सन्तुष्ट
##ӹ
कन्सर्ट
टोटनह
गतिमा
##05
टाउको
पुनःस्थापना
गर्नेतर्फ
«
महन्थ
स्थानान्तरण
##ɩ
##̊
भद्र
थिइन
बढ्नु
वृ
चुप
☑
लास
##लियो
##प्राप्त
##र्डले
हित
ढुंगानाले
वासि
##v
रहँदैन
惹
܂
दसैंको
##न्य
ۃ
##मत
छुटेका
ு
अख
黨
##ְ
##ियल
सेयरमा
बेस
पूर्वतय
शुक्रबारदेखि
򶑃
##साई
ʤ
औचित
##ुति
ڙ
नानी
##넉
फ्या
शक्तिको
छिट्टै
०१
१९६
壶
देखिदैन
पटकपटक
ª
मना
ਪ
रुसी
सबैको
両
जर्ज
बलात्कारी
##ɑ
निरौला
##ेटमा
##नाक
पूर्णबहादुर
रामेछाप
प्रोत्साहित
नराम्रा
##ី
चिन्ताले
लै
##फाइनल
##्वि
हलिउड
ถ
सहकारीका
##ش
pradesh
डिएसपी
नेताहरुको
पत्रिकाले
रहँदा
φ
##प्रा
इराक
##풼
पटकको
खुलेको
सोध्दा
##्य
⚠
जितेका
##த
ិ
##मुनिको
भिन्न
##מ
##बाहेक
सल्लाहकार
##लम्बन
ϧ
तनाव
मद्दत
##स्कोटाले
चर्क
ٞ
练
##˥
आपूm
##ेजति
##ろ
लक्ष्यसहित
##नुभयो
तिनका
##˧
गर्नुहुन्थ्यो
छेक
आपत्तिजनक
तमाम
अतिथि
१७
खरा
沒
म्यानपावर
विदेशी
##पचारिक
̫
##ợ
##िटेड
##１
खेलेर
̈́
दुखाइ
महिनावारी
##desh
सिजनको
मेलमिला
##ीन
垂
अपरिचित
##ीमा
m
##ٌ
##डाले
[PAD]
##ice
ԡ
पुष्टि
इंग्
##गंगा
अर्घाखाँच
चाल
मांस
रौनियार
सोधेको
हुनबाट
अनेरास्व
समाचार
##δ
खानको
दक्षता
देखिएपछि
统
कार्यसम्
ra
विष्टको
分
##घ
थिए
महेन्द्रबहादुर
सम्पन्न
राखिने
धर्मको
राख
आँकलन
सारा
##เ
निर्णा
क्लियर
मुद्दा
यसको
##ुवाको
贵
テ
##इमा
निम्
ठुला
जोड्दा
विराटनगरका
अस्मिता
##よ
आचार्यको
गएँ
नेट
रद्द
लेखेकी
##्रेस
臨
᮱
dec
अधिकार
ग्राम
मन्त्रिपरि
नमस्कार
जन्मेको
डिस्
संक्रमणकालीन
हिल्
##ͣ
उतारचढाव
घाँस
गर्नेछौं
##こ
चेकजाँच
पढ्नु
प्रोज
वर्गीकरण
सव
साधनमा
##त्ताको
no
नगरपालिकाका
घट्ना
良
कुनै
##न्या
पुर्वाधार
बल्झ
##own
ये
##랩
सेवन
जोख
##ारि
लाह
ざ
too
##ស
##केजी
अग्रणी
򊼱
मन्त्र
महोत्सवको
कोहि
गरें
सेनाको
हटाउन
##न्च
मर्यादा
##0c
सहयोगी
😖
कोमल
##न्ते
प्वाइन्ट
शिक्षक
ؓ
वर्षका
指
कालोसू
४१
##िलो
##र्षिको
जितेर
इजाजत
##ant
##ज्यु
ʎ
灿
##नेस
नेपालसँग
पहिचानको
इन्डोनेसिया
शाक्य
##शान्ति
कोठामा
देउराली
##ӆ
आज
बानेश्वर
गुठ
अस्त्र
कर्माचार्य
##000
निराशा
व्यक्तिगत
##ミ
detail
लो
ม
सडक
##स्कुट
अघिल्लो
##th
##ट्यान्ट
##बिधि
रामा
प्रविधिबाट
碎
##ಗ
अवगत
泰
धेर
उत्तेज
भालु
हर्क
परिवर्तित
निमन्त्र
忌
बिराम
पीडितलाई
उनीहरुलाई
नपाई
युनिभर्सिटी
##रेको
जान्छु
޿
##विरोध
वाट
##ĕ
##बीच
##간
गुलियो
पुल्चोक
अख्तियारको
ω
̅
##51
##ۘ
##याले
व
##ियाले
प्रयोगको
गोर्ख
तपस्या
निजको
##्ध
˦
न्युन
##과
भाई
११
लक्ष्
महानगरको
प्रयास
उदाहरण
गाउँसभा
방
穿
सुरुवाती
##ाउँछु
j
पुस्तामा
कपि
भुप
सघाउ
गुण
......
थपिने
मूर्ख
##पोल
##स्ने
विधेयकको
बताउनुभएको
सुटिङ
गर्नेले
गिर
पोखरामा
##क्षामन्त्री
जफत
##😇
विजय
देशभर
幅
##भाजन
##ユ
勿
##̞
जस्ता
̿
लोभ
०९
विज्ञापन
独
襃
򎐃
रविन्द्र
##हरुलाई
गोल्ड
ぬ
त्यहा
##प्पी
तेक्
उद्धार
##नामै
##ۡ
व्र
ڟ
輡
य
ਝ
दायरा
##मार्ग
लन्च
मतदाता
बोर्डको
सिफार
##⨿
हरित
प्लान
खेद
तैनाथ
डिम
##arma
##_f
पर्दामा
✍
सम्हाल्न
निराशाजनक
##कल्प
ǁ
विही
##장
##ूर्
습
##ari
निर्मलाका
##हिल्यै
齢
ग्लोबल
##लाप
ला
कहि
🚁
##ꋩ
बलात्कृत
मालपो
रेडक्रस
：
चित्रमा
भृकुटीमण्ड
材
भारत
##׀
दीपक
ԕ
कथाको
चिल
निकाल
📷
##िपल
न्यायपालिका
##ɝ
डिज
नी
##ḿ
टिप्पणी
मस्यौदा
बस्तीमा
नगरका
मजबु
ۀ
विश्वविद्यालयले
抗
##हेरी
##प्रश
दीपेन्द्र
सकेमा
܄
##😡
髅
चाँगुनारायण
बन्यो
इतिहासकै
/>
##ტ
वीरेन्द्रनगर
प्रचण्डलाई
कोठाको
शीर्षक
नव
हेर्दै
##ė
##सां
##र्जन
मेडिस
इन्ज
毕
स्ववियु
݊
विस्तृतमा
द्वि
बार्षिक
माइतीघर
##ܥ
यार्सा
चना
##ˍ
##ᤶ
तेक्वा
man
लाङ
फलानो
##ݼ
वितरणमा
ះ
मुकाम
रहनु
##۬
सेवालाई
विश्वकपमा
aa
##ॆ
विध
kath
गुनासा
##दरमा
承
韩
گ
विद्यार्थीहरुलाई
स्थान
ǟ
अलैंची
##al
भय
नाउँ
藏
शुभ
##डीब
तिनले
##्यता
रास
##व्या
सचिवालय
##बिनै
##18
व्यवस्थाको
सर्वसाधारणका
भरोसा
渍
##റ
◊
##धाम
##िसन
##ÿ
उपमहानगरपालिकाले
ग्रन्थ
मण्डलका
पत्रकारले
友
##ۓ
बुझ्दै
kam
मान्छेले
会
庖
##कार्य
##थिल
२०६७
बैठकबाट
ओलम्प
सावित्रा
##तार
डेमो
लामि
##उँथे
जीवित
##मुखी
तेह्रथुम
बेल्
पाखा
आइरहेको
준
२५
##mandu
##य
प्रतिबन्ध
६९
कल्पना
##चित
जन्माएको
गर्मीमा
##त्वको
यत्रो
कामदारका
महिनायता
##लेश्वर
तीर्थ
##्यार
पाउँदा
##ӕ
तरीका
काल्पनिक
प्रकाशन
कब
पुस्तिका
बाबा
सक्दैनन्
##बित्तिकै
出
उडान
<
##दिएर
##नाम
आफ्नी
򃃺
ट्र्या
कामी
बासिन्दाको
##0cpbdg
##ning
छाना
##ٙ
कानुनका
帽
इकोनो
गै
##두
भेरी
苏
रोड
##यत
पेसागत
यतै
विद्वान
若
纯
औद्योगिक
पढे
##सभामा
हराए
आकारमा
ठाउमा
ក
माघे
批
29
कांग्रेसले
हँुदैन
सको
नेतृत्वले
शरीरका
##く
२००६
##घा
##ight
##٦
दोस्रोमा
ή
अड
करको
ताजा
गरि
प्रवर्द्धन
✋
फाँ
##हानामा
ܒ
##ट्ट
ᄶ
単
सार्की
मध्येको
त्यहाँका
म्य
־
##º
फराकिलो
ബ
摩
आशिष
##ami
पहुँ
15
डायम
मिट
82
##ѥ
दलले
कालखण्ड
砂
प्रक्रियामा
斜
##ɉ
पाठे
認
मागमा
洲
##end
तस्करी
##ͯ
अनुगमनमा
##√
चौथो
觀
코
##दिनँ
do
देख्न
चोरी
पक्षबाट
साझ
खल
ठेग
पहिल्या
खुद्रा
##वले
##˷
घडीमा
્
संस्थाका
२०५
अत
कथामा
प्रयोगशाला
हतार
纤
कुँ
##न्तरित
हुसेन
पौड
आइपुग्यो
ﯢ
मरेको
##✊
दार्चु
यात्रु
हाँ
강
##आन
कार्यमा
पश्चिममा
##ę
##सग
##능
box
##il
संस्करणमा
हिर
##ȓ
नेतृत्वको
៉
##रामर्श
ö
धर्मराज
मोफसल
सन्धि
अर्थतन्त्रलाई
सुजन
सेभ
##ჯ
sports
此
##˫
updatefre
तप्
酒
मजदूर
सार्क
ever
why
२०५९
काे
प्रभावकारी
##िकाको
呈
##ऱ
##ぼ
अन्वेषण
कञ्चनपुरको
नसके
पहल
रमा
熱
##$
##दिने
##ोटि
सभागृह
##ھ
तोड्न
लाई
लोकमार्ग
गोदा
इस्
战
गराउने
翼
##थरी
सिसा
##डमा
दोहोरि
绣
鸿
समान
ӥ
##क्षेत्रको
##력
जागिर
波
涂
सेकेण्ड
##षद
##ʏ
यसतर्फ
मानिसमा
यसअघि
श्रद्धाञ्जली
उद्योगहरू
##र्घ
बिदाइ
##भावी
हुनुपर्नेमा
##च्छेद
##स्तो
##mal
##जिक
ღ
अलमलमा
##פ
佀
##΅
e0
प्रोजेक्ट
पन्तले
अहमद
बहालवाला
बोल्नु
담
।</
वीरगन्ज
माओवादीलाई
驩
युवाहरू
ȣ
ഷ
ߵ
रोमाञ्चक
堀
债
##ด
पदाधिकारीले
ݓ
字
चाहिँ
##तित
ब्रह्
बिमा
चलाए
खरानी
सानै
🌹
डोरी
ƶ
बाजे
अवस्थाको
##मिता
޸
अन्तिममा
##ोज
update
##ोका
लाने
लियो
लोडसेडिङ
##ই
ߌ
##अधिकार
नजरमा
ð
ធ
컬
फ्रान्सेली
必
प्राथमिकतामा
पाठकलाई
असहयोग
हजारदेखि
जग्गा
##ܼ
बर्स
samacharpatra
##э
##सम्बन्धी
अनेरा
चौडाइ
व्यवहारिक
जुम्लाका
दिउ
इजलासमा
भुष
उत्प
चारमा
महिनाका
महाराज
श्रीमतीलाई
䒵
訪
एकपल्ट
##ʩ
जलेर
鴚
विशेषता
##ꭹ
आँगनमा
˪
which
अर्थशास्त्र
अकस्
बृ
##।
समारोहमा
各
जीवनभर
##मुक्ति
filename
##्टा
सान्
ex
आवको
㢙
ױ
बेचबि
सिधै
बालकको
##रोज
##어
कदर
जगत्
उद्धृत
##😜
##कामा
मनाइएको
अनियमितता
उडानका
अपलोड
跟
≠
九
गरिनेछ
本
अघि
ठहर
##ालगायत
तपाईँले
पुग्नुपर्ने
सुखी
##थित
सोमपाल
ས
##ईएको
वायु
क्लव
लेनिन
धन्यवाद
52
푫
赢
##ҭ
हुु
३८
់
##हरूका
##नीयता
उखु
सन्तुलित
冠
सानातिना
युवापुस्ताको
##ंके
बंगाल
दायाँबायाँ
##ı
ताना
विस्तारको
फुड
a2
##नेता
अहिलेसम्मकै
कारण
घुइँ
नपर्ने
लण्डन
밥
38
##मिला
##are
##͈
b2
बाँकेका
##एनए
##ठो
setting
अटोमो
熊
काफ्लेले
औषधी
आफ
साहित्यिक
तोक
##ڇ
जीवनमा
कम्युनि
गौरवका
as
कार्यालयलाई
विशेषज्ञ
आँ
養
##forma
मिलन
तिरेर
बाँधेर
पण्डितले
गति
##้
8d
՟
पेनाल
पाहुनालाई
व्यक्तिहरू
सुब
rsquo
पोखर
विरुवा
लामिछा
सतर्कता
kas
अघिको
हाँसो
##रुप
शान्त
##֫
徽
ݮ
##ेष्ठ
यसैले
鿎
倍
आरु
आई
价
##मेटिक
##िदिए
रासायनिक
बिदेशमा
स्रोतको
दिइसकेका
##quency
चिट
उम्मेदवार
##खाने
ढाक
उपचार
पछिल्लोपटक
हाई
##िक्स
really
रहन्छ
चुलो
आति
मान
易
##वाँ
។
5
⚽
##ഭ
नेपालस्थित
##द्र्
अम्बर
रनले
##ϳ
उल्
पहिरन
समाचारमा
शृंखला
##🎊
##हान
खस्
सप्तरीको
ߨ
vay
##거
##माया
चुचुरो
qu
दह्रो
##धना
##ȼ
##ബ
م
效
गभर्नर
##न्न
ग्राहकहरुका
सघन
स्टिकरहरु
##वतीको
##वाई
㡑
घटनामा
ޗ
沙
輩
अधिकृतले
विनाशकारी
दूतावासको
प्रवृत्तिको
帐
घट्दै
##ाउनुपर्ने
श्वास
परिभाषित
भएलगत्तै
फछ
दिइने
##؋
लाग्छ
##सकेका
##ेँ
घाउ
प्राथमिकता
खर्च
बजारी
भीमदत्त
##स्थापित
बोलाएर
𔻹
डब्लु
##न्टर
दबाबमा
##इज
नामाकरण
समयका
वृक्ष
समितिबाट
票
##नी
रायमाझ
गोल
##,
सचेतना
##त्तम
17
नाममा
डोल्पा
पासवर्ड
बजेदेखि
##ⲫ
##ामध्ये
gu
ne
ƣ
##ानीको
##광
अतः
भयो
ॢ
😒
템
靴
験
۳
##देस
ਡ
捧
मण्डलको
दरबारको
धावनमार्ग
शीतल
np
ۊ
छुन
ट्रेक
##द्धार
→
खतरा
नसकेको
##់
काममा
दोहोरो
५५
नम्रता
##߸
##टाई
##십
##आइजी
##हरूले
अंकका
खरीद
any
खुवा
दिनहरुमा
दिनानु
拠
육
चिकित्सक
ϲ
##शास्त्र
सडकमै
इनरुवा
उत्तर
गुलर
बिमान
##46
खाद्य
##hr
पत्या
͔
आगमन
ノ
खेलेको
َ
##वादलाई
ओगट
ម
सजा
संसद्को
मेघा
सञ्चारकर्मी
स्तब्ध
कानुन
असार
##ಣ
मात्रामा
स्क्रिन
वहाँ
गराए
भग्
अछ
खाली
व्यवस्थाले
##चाइ
विज्ञहरूले
चिल्
परमाणु
मिल्यो
सभ्य
केही
यसैको
जङ्ग
विवरणमा
##रहेछ
फलामको
返
गराइन्छ
कमाण्ड
हिंसामा
लगानीमा
િ
񾘤
जम्म
जुल
मेट
行
##तह
पुस्तकालय
बत्ती
##लग
अक्षय
सुदुर
बोरा
रेस्टुराँ
शिवि
##स्थ्य
चट्याङ
पछिको
मतदानको
攻
̾
##ՙ
किनमेल
即
घटेका
##ढे
##ढु
जमिनमा
लामिछानेले
##구
##ԃ
चकित
ޱ
दशकको
##ݎ
##ʾ
##񬊾
ữ
##परे
तत्कालका
##रीको
##ņ
##ँदो
भित्रभित्रै
खाल
रातो
त्रिवेणी
भन्नाले
##नाइज
सिमा
अहिलेसम्मको
लम
होमस्टे
##स्ति
º
गर्नेको
चौतारी
##입
##ƨ
##धिकृत
s
लगानीकर्ताले
बाढीपहिरो
系
टाढाको
गुप्त
सम्झौताको
सान्दर्भिक
䋉
लिन
企
लागेकी
नदिने
आतंककारी
साथी
अग्
पढ्ने
##जत
७५
##ﶂ
##ast
याता
##तेर
座
##̴
隆
एप
##िनियाँ
स्वकीय
妈
##न्त्र
##रीका
फैलाउन
ख्वा
inter
एसई
##……
ϩ
##विकास
म्यानमा
梁
##िल्ला
軌
巴
पृष्ठभूमिमा
छँदा
ப
लिलाम
बेलायतको
陕
भोग्नु
##خ
पक्षलाई
热
##khel
लाखौं
कुसु
पाइन्छ
##जामा
समझदारी
फेरब
घर
##िनी
फैल
ফ
ĸ
कहाँबाट
oli
सुन्दा
##चालक
##ǔ
##ʌ
जित्दै
पाइ
धादिङको
##͖
माथेमा
भन
##लाङ
命
##ेत
पत्रिका
फै
##विधि
मही
##ञ
##न्त
灯
पुष्
##ݒ
嘴
चिन्ति
शू
रोम
होम
th
क्षति
पदपूर्ति
मास्टर
ढलान
दिक्तेल
ܰ
भन्नुपर्छ
au
##वाफ
चारवटा
##फिल
जिन्द
##ェ
प्लस
ʉ
۶
bank
ხ
##पनी
अधिकारीका
अगुवाइमा
सर्प
लिने
安
काव्य
अनुपातमा
篷
勾
भइरहेका
मिनेटमा
synd
ֹ
盏
सीमांकन
##ґ
न्यौपानेको
कुँवर
양
मुलुकले
हेल्
##ਹ
डेनमार्क
फस्
ͳ
तामाङले
आइड
समिट
रसि
बारपा
##ष्मा
कलाकारको
’,
सुनिश्चित
हारेको
##han
आण
##िग
गोरखाको
ɠ
यसो
सञ्च
【
重
注
साटासाट
##शो
##स्पद
बढ्न
निरन्तरता
##साग
चीनसँगको
̛
ट्यांक
बैङ्कले
贤
कलम
##【
भाग्यमा
प्राज्ञ
समक
##띵
मेका
करदाता
प्रि
##🙁
प्याराग्लाइ
pur
बन्दैन
ǜ
नशा
विमला
बोल्ड
##हि
विवाहको
総
##vi
मान्दैन
##ंन
##ग्राम
##ाउनुभएको
सदस्यहरूको
पुनर्निर्माण
लिएपछि
हस्तक्षेप
आफैंमा
बहि
arch
रणनीतिमा
वाक्य
ताप्ले
骷
߫
##घि
कमा
톤
##मानी
निष्क्रिय
宋
##हजार
##सकेकाले
##ӝ
टु
वैशाख
沖
टाउ
ग्यास
肥
रोगी
##ҵ
खल्
##पनिक
##🌍
៨
措
tw
feb
##निकल
जंग
छा
##गाढ
रसिया
ज्या
फर्किएर
राजदुत
न्यू
11
post
बैतडी
##न्त्रित
##֦
यिनका
देउवाको
##۫
##जुमा
##ფ
वन्यजन्तुको
कुरो
##쌶
पुलमा
बर्ख
##डल
लिगको
स्वभाव
ص
樟
δ
ԁ
घरधुरी
##đ
जमीन
तद
आवास
योगेश
們
戻
##ऐ
मागको
阶
##ɔ
ɏ
席
##बास
##रोप
it
}
कस्ट
भविष्यका
球
ࡡ
##ेष
##ꅵ
मन्थ
राज्यकोष
जीर्ण
র
सीआई
देशबीच
ޣ
खाजा
पिँ
##उनुपर्छ
आफ्न
कामदार
हुनका
असफलता
download
回
##td
असमान
南
सटर
##ियाको
##्नुको
थुनि
they
मुलुकी
खानेपानीको
៕
##र्दो
यसलाई
भूगोल
मन्दिरलाई
सहायता
✌
折
नगरपालिकालाई
ベ
🤣
##ाँ
पूर्वसन्ध्यामा
墠
एभरे
नदि
विक
##ेनी
बनाउनुपर्छ
कसुर
76
कृया
##👎
बिदाको
##नीति
आसपासको
ओठ
दशमलब
खनिज
फेरी
䙑
न्यूज
ल
अहिलेसम्म
##्रैमा
जगे
पानीमा
प्राधिकरणको
##ढा
쉞
##ारम्भ
ܟ
स्थिर
डेब्यु
din
बाबुको
88
जोगा
77
जस
##ึ
व्यवसायीहरूले
##ust
तारिखमा
##߉
ӈ
सम्पादकीय
कुर्सीमा
वृद्धिको
썮
चलेका
##हेक
ং
रकमले
魚
जित्यो
नहर
छोरा
बदल्ने
दौ
߯
मार्क
सामना
कुलेख
間
ݞ
hun
##ޜ
पार
顶
##ख्ख
छन्
##नान
##ਦ
澡
##याउने
पोर्न
##ेली
み
##♥
ϫ
नित
भोलिपल्ट
##न्जर
ओग
##옰
खुवाउने
ថ
ɀ
बिहिबार
मेक
##ख्रा
शाखार
##з
##पि
कमाएको
##्याउन
सिक्न
ۭ
##शित
प्रयोगले
विकल्पमा
चौमासिक
पछी
बोट
##ुरु
ǽ
महत्वका
फाइनल
##ɲ
घर्त
भिड
##हे
दावी
रेखा
मध्यमा
赋
सन्तान
講
##១
दशरथ
##ˮ
नाच
वीरगन्जको
सरकारलाई
##ئ
नमा
भाट
मुलुकभर
##ुर्ण
ar
##जाउ
##ａ
सीमावर्ती
हजारको
##य़
प्रग
नोभे
##घट
胶
##٨
ള
वडा
##ave
##ns
कार्यालयका
फिल्मको
⇒
##विज्ञ
तमोर
कमल
햇
##लाएको
##गाँ
आइस
जानेछ
राख्नु
इन्स्योरेन्स
आग
देखाउँदै
शालिक
##ศ
भना
नगरौं
ҏ
##मीले
セ
題
चु
परामर्श
अद
耼
##，
ݚ
आफु
駐
##मित्र
हलो
स्वस्थ
##र्थीको
उपत्यकाका
तिर्नु
##ទ
यसैबीच
蓎
निकाल्ने
情
दमा
##ҷ
राष्ट्रियताको
##お
##िएला
कहानी
##ԝ
भइसक्
स्वास्थ्यकर्मी
राणा
##ȋ
##프
बद
भयावह
偷
जलमार्ग
नग्न
मिल
##थ्यो
खेतमा
׳
##र्तिमानी
मतदान
##क्दै
पहिचानका
मी
##ष्टाचार
##निरपेक्ष
असाधारण
मास
मुसिकोट
रोगको
🎥
##ꑿ
खाल्
##😢
बस्ती
##वीर
ताज
नमिल्ने
मख
##ईओ
लगा
लैज
सामग्र
##मण्डप
लैजा
ȍ
लाभदायक
##참
हितको
試
मुस्ताङ
##्टी
##ァ
ltd
##ថ
##सङ्
तिब्ब
##ँडा
हुनपुग
ധ
औँल्या
##बाट
ア
##अप
##ानन्द
u3
हिम्म
⟳
㩪
##क्दा
भगवान्
島
trigger
##ect
程
ϼ
͘
संग्र
रहोस्
kos
बोक्न
##ओको
देवको
##ण्ड
तथापि
निलो
rev
जाउँ
##ֳ
##ວ
번
##ਂ
##ƭ
##टोल
֒
पुष्पा
बित्
##ब्र
憎
ݝ
चामल
प्रचण्डले
##न्दु
##ồ
##न्धु
##जनले
शिक्षकले
नखाने
##ोरी
រ
##려
श्राद्ध
##ψ
म्यारा
##at
##सिंह
宁
भुक्तानी
ͅ
उदाहरणका
भिड्ने
प्रमुख
वर्ष
साम्य
प्रेसर
जोशीको
बस्दै
넉
सुवास
थाई
कान्ति
##ेरी
##42
ग
प्रथा
##ਜ
प्याकेज
##ж
कर्मचारीहरुको
照
抜
आशीर्वाद
ѧ
रेमिट्या
##ष्म
b6
洋
चेपाङ
माफिया
##नाला
##फर्म
कहाली
##जु
庁
tv
둇
㣙
祈
श्रे
ȼ
##ियन्स
）
शरीर
बालकृष्ण
फ्लु
##विज्ञान
##फले
इन्जिन
प्रचुर
鼠
रक
㥏
२०७५
इन्डोने
श्र
रातारात
सडकलाई
##β
पत्
मुद्रामा
लक्ष्यका
##՘
प्रसाद
岡
विश्वकर्माले
गाउँघरमा
##उँ
￥
僅
अमे
समयपछि
興
##लिटर
हकप्रद
फिल्मका
##ñ
޹
एप्
##गि
हेरेका
पुनको
फरार
##ꭷ
त्यस
ܞ
נ
͜
पर्यटनको
जा
नगरा
सन्देशमा
रियालिटी
त्याग
छान्ने
׸
आइतबारको
युद्धमा
बाहुल्य
י
हिजोका
भनिने
##ි
समेत
##ेक्ट
उत्खन
बेरोज
केपी
##निर्भर
ep
组
गरिरहेकी
संयोग
##एच
##ग्राफी
op
享
甒
जोश
##सहर
ҙ
रुपैयाँभन्दा
हेमन्त
识
औंला
功
ਤ
लागत
##ש
संसार
देखाउ
壁
अवलम्बन
कागज
क्रिश्च
दार्जिलिङ
##e
ͦ
संगै
बुझ्नु
कार्यक्र
उत्स
नेदरल्यान्ड
˙
धार
ससाना
आशंका
黑
##पारि
मेह
##एफ
##ड्रिड
刊
##प्ती
##껴
##इसकेका
猫
##😑
जहाँ
जाना
떹
कौ
रहनुभएको
𯪰
##भल
सङ्गठ
हैसियतले
##ग़
神
壤
कम्पनीहरुले
##ाग्र
##리
##ग्ग
समावेशिता
छौ
एजेण्डा
##ौ
##ګ
पाइने
चिच्या
孙
##߁
##नीकरण
撕
##छु
12
ȥ
##चोटी
ʧ
외
धन्दा
##साइड
ऒ
स्पोर्ट
ᤃ
##वाह
##्यानल
ɤ
राम
##हाल्छ
##ौर
जुर
बुट
##न्ड
कंग्रेस
मनोनयन
प्रतिवाद
ॉ
गरेसँगै
##󠅌
छँदै
ॠ
办
##ͷ
बन्दरगाह
##ڊ
छाडेका
बताउछन्
突
पाउँछन्
鉄
राउतले
܀
politics
सिरियामा
दलहरु
भर्स
तामाको
बढी
प्रवाह
अभिभावक
घोषित
किराती
एकआ
##ङ्
दुव्र्य
बेलायती
स्याङ्
##ছ
सक्न
鞋
चौपाया
गाडी
सूक्ष्म
राजाराम
ֳ
##뒣
｀
ढुकुटी
फाइभ
##¥
थेग
परी
##ៀ
पुननिर्माण
आय
कोरियन
केटाकेट
डाय
##म्वर
भैरव
चौडा
तोकिएका
गाँ
सक्छौ
##ओ
उत्सा
न्याय
##ƾ
कर्मचारीहरूको
नाश
पुनर्निर्माणको
शेयर
锤
अल
ম
त्यसका
समाजशास्त्र
原
विजेता
ठाउँ
##फत
धो
पोइ
शही
राज्यमा
विदेश
संकेत
济
##पोस्ट
भन्छु
##ॴ
प्राधिकरणलाई
🇸
मङ्गलबार
छाड्न
##৭
ശ
⊗
सहप्र
讗
रणवीर
##िन्छ
##दिएको
कल
भोजन
प्याज
##ං
नरहेका
कर्मचारीहरू
น
##׹
पुनःसंरचना
विरामी
##्राम
##स्कार
ย
ć
नीतिका
句
##ɱ
आमा
ट्रेनिङ
状
탁
讲
गुणात्मक
तल्ला
下
पोल
अनसन
संगीतको
इन्दिरा
款
portal
##킹
##बमा
9a
वाग्मती
१२०
टेवा
दाँ
疆
##देखिको
##न्द
व्यायाम
हिना
उपभोक्तालाई
▪
उपयोग
टुँ
##पुरमा
तथ्याङ्क
भेटवार्ता
##گ
ల
दंग
诺
远
##요
तिर्नुपर्ने
##ט
खेलबाट
जगत
आईतबार
##राख
उपमहानगरपालिका
version
केमिक
धनगढ
ڽ
प्यासि
प्रोफेसर
##ն
गान्धी
खोज्न
बार
##ំ
बिदेश
##܎
मस्यौदामा
हेन
ś
##92
㰶
##ल्यान्ड
जोड्दै
पल्प
##भान
कान्छा
##विवाह
ि
##मध्येको
उनीहरूसँग
नृत्य
मोक्तान
##र्
पहिरोका
押
##ॠ
##본
बस्नेतको
##쉬
तापक्रम
कानुनमन्त्री
##х
cd
䶾
ڊ
##१
पुर्न
पुग्नु
राजेश
##नाल्
आरोहण
##पाटन
花
##टाङ
भनिन्छ
शिव
۸
ꆷ
ⲏ
बाबुआमा
गरेका
नह
褍
उत्तेजना
दोहोरी
आराम
उहाँ
ங
राजकीय
ല
##ղ
उपचारका
लगाउने
##किने
##vt
׊
युव
璃
लोकतन्त्रका
वय
##ݾ
सकोस्
##🇦
ō
判
烟
##ौज
बृहत
##फा
ˮ
दृश्य
चौतारा
##राय
隧
जवाफ
प्रतिवद्धता
प्रवद्र्धनमा
ट्वी
नेत्रविक्रम
##सँ
##🇵
＆
विवादमा
ਚ
##बजार
javascript
帕
प्रयासले
##ё
भाद्र
बूढी
पुरातात्विक
पूर्वपश्चिम
##नुभएन
संगत
कमिसन
##័
ڣ
दू
##ề
निश
या
छाप
喜
ލ
##र्षिकोत्सव
成
##किश
##અ
旭
##ly
##स्तिका
लुकेर
लुका
सचिवको
##न्ह
##चर्या
गाउँमै
बेल
tra
ҧ
##ї
जाहेर
प्राप्
उत्पत्ति
ݸ
##ை
एन्ज
💦
##द्वार
##๊
##ڰ
##जाने
खाले
अनुगमन
मार्ग
हरिहर
बनाएर
##वादमा
जीत
पञ्चा
बोलाइ
हनुमानढोका
जहिले
ᤷ
##😞
एयरपोर्ट
चेली
##्वी
सटही
##asi
अनिश्चित
##rip
##मामा
पञ्चायती
रहने
आवतजा
##စ
ͩ
एब
गोष्ठ
ग्र
覧
ړ
किबोर्ड
प्रधानन्यायाधीश
तीतो
पक्षसँग
प्रशंसा
मुस्ता
शीत
##यको
वाद
डुंगा
मत्
ロ
##կ
##करले
復
शुभकामना
हैद
कुराले
शुक्रबारको
##epal
١
पिल्
टार्न
##कां
##गीत
寺
विक्र
얘
तिनलाई
वु
##धिकार
ե
इनि
तोकेर
थे
##युक्त
शाखामा
然
б
नेविसंघ
##֪
महासन्ध
##विधामा
##ma
जोमसो
नामक
बुझा
दैनिक
लिए
शिल्
##र्सी
भल
##निक्स
##@
57
##ङ्ग
करियर
६१
वर
##किङ
प्रान्तको
बाटै
सिस्टम
##िले
ݥ
एमालेसँग
अर्थशास्त्री
भावुक
##लेक
गठनको
भ्रष्ट
७६
##न्टन
काङ्ग्रेस
विल
##ો
̺
बढीले
स्थल
##ङ्का
भइरहेकाले
चाहने
ओझाले
वृद्धि
विवाह
व्याख्या
बदमा
मृतकको
अधिवेशनमा
##۶
समाज
掏
१८
##😙
硬
आफैंले
虚
लिँदा
प्रभा
87
यसपल्ट
अवलोकन
परित्याग
##तहत
असन्तुल
गतेबाट
##ाँट
##역
##सनले
을
##सुलभ
##ँदा
समुद्र
कोइरालालाई
₹
ज्ञान
स्वाभिमान
##ety
भक्ति
##चनमा
##संगत
##स्तरीय
बिद्यार्थी
丈
सिटीको
नेपालमै
##ᡱ
सुन्तली
गिटी
भरेर
蹭
##लै
##साधन
सूचका
_blank
##ぱ
##कलमा
सूच
बय
既
तिमिल्
काठमाडौँः
##दुरी
##मो
##ޅ
डोम
फर्
००
बढ्ने
छो
##राब
उपसभामुख
40
फेल
आदानप्रदान
भेटि
मलाई
舌
##फोनमा
किन्दा
涨
प्रवृत्तिलाई
##कोण
##कासहित
कायस्थ
भइसक
##हिंसा
गरिएकोमा
छापेको
##quo
अभिनयमा
灑
܁
绿
##लोमा
##दह
भयानक
पर्यटकीय
至
ٲ
वास
##ग्न
अपाङ्ग
##लकण्ठ
सुरेन्द्र
##isa
चल्न
छोरीले
editor
##इएको
##ꍽ
खडका
वढ
वरिष्ठ
७०
यस्तोमा
😘
##थली
आउनु
may
बताउ
係
豚
पारस
सोल
质
परिवेश
##दो
अमृत
चला
🙈
##ional
यिनले
निर्वा
🇾
धेरैपटक
复
談
##ियान
अल्पकालीन
##करणका
ύ
##जति
वायुसेवा
पैसाले
<?
नभएपनि
लिभरपुल
भूभाग
##ारू
सदा
मानिस
悉
भन्नुपर्दा
##ग्राफ
呎
आइतवार
काया
मिडफिल्
सिद्धान्तलाई
噼
##िमे
अधिव
संस्थानका
##भंग
##कान
अनेकन
सुदूरपश्चिमका
##विन्दु
##６
किसानलाई
##र्चस्व
##नीले
街
व्यवस्थापनको
ठू
अर्गान
覉
महासेठ
##----------------
##ndu
भेटे
##ڻ
क्षण
##डेट
１
誰
##ߴ
##ѡ
क्षतिपूर्ति
निरज
ゅ
मलेश
पाएको
प्रदर्शनका
減
अदालतमा
##संग्रह
##ब्ल
ษ
द्ध
ट्र्याक
त्
सर्वसम्म
त्रुट
फुप
α
थप
ओखल
परेन
星
##ang
##ʵ
पोखरा
सुनाउँदै
은
साँस्कृतिक
बू
बराब
ྱ
匙
जरूरी
˺
##uda
१०
無
पोशा
##ო
अन्योलमा
३०
दरका
पाख
अधिनायकवादी
वैज्ञानिक
##ञ्जित
जेभ
##न्जा
媛
##ਕ
##पाती
##िर
आफन्त
उपविजेता
##ₒ
झैं
कतिको
रहस्यमय
##ཆ
ь
छायाँ
हालत
십
##۲
बोकेका
सेरो
सामस
##ѯ
ߤ
##ेस्
त्यहि
##न्दे
##नेश्व
##भि
##ोको
१९९
릎
बस्ने
शाल
ྤ
बताइन्छ
##विनायक
निक्
सिने
अङ्ग्र
##मेत
एक्लै
मन्त्रिपरिषदको
विरोधा
##퇻
##٣
समुदायमा
कलेजले
##♪
戯
ї
霍
फाल्
प्रशासकीय
楈
क्षतिमा
##िजम
##लन
तिनी
रिसर्च
##ड्दा
徳
छापिएको
खण्ड
##kh
##b
कार्ड
##शु
गौतम
##सापेक्ष
##ेजस्तै
पेन्टिङ
विधानमा
बाउ
क्षेत्रीय
सुन्तला
##ङ्ग्रा
मुग्
༺
महावाणिज्य
असर
##ath
##नो
आयुर्वेद
ਖ
##ht
ញ
मानसरो
हाफ
इत्यादि
दायरामा
##ے
##क्षण
हुर्का
事
बर
दर्शकलाई
पस्ने
जातजा
बलिदान
रोल्पाको
##निर्वा
ष
स्टु
¼
न्युजिल्यान्ड
##लित
नगरपालिकाको
भीषण
जनाउन
सदरमुकाम
रेग्मीको
##ถ
ӂ
##74
д
टावर
थाल्
रत्ननगर
राधेश
रेख
शब्दा
योग
आदिले
सम्हालेका
절
##धम
##लाम्मे
प्रदर्शन
替
त्रिव
간
##तिहाइ
##लिक
##निया
कर्ण
##तारो
ङ
सम्झना
ւ
जनस
##ѵ
५१
✴
फ्लो
भाग
##हारी
माछापु
##णको
##भिज्ञ
म्याड्रिड
३५
##भु
##บ
अपन
तत्
泵
व्यापार
媲
无
ি
आपूर्ति
##۹
aba
ɢ
पश्चिमाञ्चल
शैले
स्वि
बुहारी
मातृभाषा
प्रियंका
##स्केट
स्थलको
इञ्च
निःशुल्क
बेप
##याँ
##र्गतको
दुरुपयोग
दर्शकको
नायव
सँगै
ʀ
सजिल
घरभित्र
प्रशा
सचिवालयले
सित
##ר
##ρ
##l
संचालनमा
##고
##터
ल्याण्ड
##គ
इन्
##मोचन
सम्भाव्यता
कमि
连
साझेदारीमा
लिला
विप्लव
##ᤪ
प्रदेशका
ಶ
सञ्जालको
ӏ
नामकरण
亚
寝
##फ्
बुद्धले
bec
डेभिड
ീ
##लक्ष्मी
##뿐
अन्डर
वर्षायाममा
पागल
अपराह्न
ؑ
उपभोक्ताले
##څ
निय
उनीहरूका
拟
खान्छन्
राज्यसत्ता
湖
##परको
ठाउ
बल्ल
異
##ोजिम
##म्जो
˰
कार्यरत
सांसदहरुले
विष्णुप्रसाद
피
##ڮ
##िस्तान
ǻ
##लीमा
##चोक
खम्बा
प्रभात
nai
##☎
त्यती
मजबुत
आएसँगै
可
भाषालाई
सेवाग्राही
##जला
##٬
##<
सुनिता
नाजुक
पाइएन
विपरी
##त्ता
浜
विमर्श
##सिल
##चाल
सङ्घको
ݑ
##nd
##दू
##―
##राम
कडाइ
बढा
膺
भ्रष्टाचार
नाय
##र्स
܋
सेमिफाइन
##वधान
##ǥ
##굝
##वाहित
ɵ
##ϩ
ܧ
आठौं
只
ܙ
##..
##ȍ
##｀
महिला
ؿ
अग्रज
निबन्ध
आत्ति
##뎾
खटाएको
अकस्मा
केभी
.)
##चौरमा
##घाटन
हड्ताल
मानिसहरुको
केश
स्टाटस
##ऒ
सम्मान
प्रतीक
बता
रूपान्तरण
ᤡ
嵕
##준
kar
सम्बन्धन
##फाइ
अप्रेसन
##वासीलाई
सन्ध्या
च्याम्पियनसिप
उभिएका
केन्द्रका
ǒ
पाउँछ
##हरूमा
मानिएका
८००
涵
##डेल
अभिभाव
प्रभुत्व
जानेको
वातावरणको
##ेलियाको
ty
पृथ्वीनारायण
##राँ
##दिशा
युरोप
गराउँछ
##मोर्चा
oct
##ţ
बुझाएको
큉
विश्वव्यापी
कमजोर
समाजवादी
ം
आँधी
느
持
अर्की
बिदेशी
कालीमा
##14
ȓ
ʨ
प्रधान
उपभ
勺
हाइ
驾
फ्ला
##ौलमा
藉
विद्यालयका
##み
पोख्रेल
फोटो
##ś
भाषणमा
##मेण्ट
क्लाइ
साहित्यको
स्वयम्भ
दफा
भ्रमणको
संस्थानको
हिन्दी
料
चलाइ
雑
##ool
दुर्घटनामा
̳
##सभ
???
शब्दमा
ែ
तिमीले
पसिना
観
ते
बिक्रि
नियामक
##ষ
टप
नीतिको
##ّ
परिभाष
क्याप
बह
頓
मौसमी
ः
फरा
पुगिसकेका
जीउ
बढेसँगै
अर्थमन्त्रालय
गि
##nn
लोगो
##कुट
##लोड
##ⲓ
##मात्र
संगठनको
किच
ŕ
जालो
bar
##यास
ვ
सप्तरी
##्रमा
सामानमा
沃
##🤚
˅
अस्वी
मूल्यवृद्धि
प्रतिवेदनअनुसार
##ृत्त
नमस्ते
##￼
हाबी
##दे
##ഥ
उस्तै
टाइम्स
##पत्रिका
आफूहरु
महानगरपालिकाका
असम्भव
सज
##प्रतिको
दीर्घ
##럼
൒
चाहा
केन्द्रले
##レ
स्वास्थ्यमा
##त्रि
नबन्दा
##रस
##िन
शहीद
बारेको
बसको
स्वाभाविक
दशमल
ಳ
##र्नुपर्छ
पुरानो
˲
passion
खुल्यो
नेदरल्याण्ड
नक्कली
मामिला
##लास
ab
चासो
अंकको
इन
मुखमा
प्रदेशसभाको
महेश्वर
बेहोरेको
؇
बराबर
##िक्क
##ेशन
चौध
महतोको
##वित
׫
##सिद्ध
अवशेष
पार्ने
सकस
鵍
शासक
##भास
व्यवसायीका
╪
##कारका
त्यसैको
स्कुलका
दुवै
टिका
##x
##,,
圄
कैलाली
आतंकवादी
महाशाखाका
हालको
आदेशमा
५
##्याल
चुस्त
恶
कूटनीतिक
ݾ
बैठक
##ԇ
भृ
कारो
##ro
##ल्ड
उपन्यास
जिज्ञा
गराउनका
कसैले
मनाउन
संगठनले
सोलुखुम्बु
२००२
##ם
क्याल
३४
##þ
传
स्थानीयलाई
शंकर
##ौँ
छलफलमा
भरतपुरमा
एकज
##ұ
т
घटनास्थलमै
तेह्रथु
प्रेरणा
nbsp
伪
般
튼
धरौट
पाल्
१९७
संज
##न्तब्य
宝
सम्भावित
संघर्षको
मनोरम
##प्रमुख
रहेकोले
बाइक
##तिक
तीन
##й
##ব
फाउन्ड
मितव्य
कोटा
ईलाका
已
़
फुट
अधिकारलाई
बरु
ⲓ
आकारको
क्रमश
##̼
चाक
अपराधका
t
##ᤱ
##tp
आत्मसात्
昭
ߞ
##ra
##उँदै
##बरा
नागरिकता
##बोर्ड
काठमाडाैं
स्वर
##֕
बज्र
##पोषण
##ǵ
##जीव
##भरा
लस
स्वत
७२
##ƴ
पुँजी
मिर्ग
रैथाने
भाषामा
##ᄶ
बर्मा
महाधिवेशनको
गणेशमान
屈
弟
##ൽ
खुल्न
##पातिक
##करको
हातेमा
डिसेम्बरमा
ʙ
ईयू
चाँ
月
消
涝
अल्ट
😙
䗚
##ोषण
अनुस
##ས
ผ
मार्ट
प्रकृतिको
बेचेको
##ݶ
नचाह
##ूर्ति
##ٛ
आध्या
坈
䶅
·
प्रावि
धरा
बोर्डले
टुक्र
वेला
运
चन्द्र
##ѣ
##ʚ
議
मेकअप
बैत
तिवारीले
बसेको
एकेडेमी
ԯ
प्रतिस्पर्
##न्को
lsquo
बिजे
##सम्मको
विहि
25th
पुग्न
नभएकाले
唆
क्षमतामा
पुनले
सम्पूर्ण
ள
स्वराज
शान्तिका
फार्म
भट्ट
🌎
कसर
टेन्ट
##कुन
##ജ
संज्ञा
##संस्कृति
##निट
ߊ
लज्जा
मध्यपुर
##तिरको
सम्वन्धित
विष्टलाई
證
सोसल
नेय
##वाटको
##्व
अध
##सय
ら
가
##पनमा
##ៅ
॥
##्चोक
वेल
##eed
ڇ
शशि
##लेज
संजय
ज्वाइँ
महानगरका
निहित
टापु
रोक्नु
津
##ㅎ
किनभने
अगस्ट
मित्रराष्ट्र
खोज्नु
##मनमा
जुन
जेलमा
छुट्याएको
⬇
ト
इन्ड
२००८
肯
आक्रमणबाट
续
##्रान्त
##ấ
##ब्ब
##ण्डमा
वित्त
नोक्स
बुबाको
##बेर
ढिलो
देख्ने
शक्तिलाई
टेलि
心
लिइन्छ
चीनलाई
##प्ता
यसैगरी
राष्ट्रपतिबाट
##13
खर
किनि
##݀
##्यै
ܲ
यसबारेमा
बनाउने
##त्ने
胸
संगठनका
格
राखे
वास्तविक
बन्
प्रतिशतले
मनाउने
##ब्स
एमाओवादी
जिम्म
बीच
##ਡ
ч
##भित्र
संस्थामा
चलि
सक्नेछ
##द्धारा
सेमे
आड
##man
##धनी
पठाउनु
##िन्छु
गन्तव्यको
पिङ
भेनेजु
सयपत्री
##एपछि
फेब्र
दुरीमा
##ँदै
##ff
कसैका
रामप्रसाद
जानी
विपक्षी
👎
##शंकर
तेस्रो
कोषले
ऋणमा
महाशाखाले
苍
##：
ओढ
अपनत्व
खर्चमा
अवतरण
चोट
뭅
थालिसकेका
off
मजदुर
संकलनको
ब्याग
लागिरहेको
衣
兴
##ƃ
##ss
अखिल
͐
҈
##ेलिया
अधिवेशन
भानुभक्त
##हुँदै
रसा
气
कन्ड
राइट
बताई
एकजुट
लुकेको
अलोक
एसएलसी
煌
उपनि
तस्बिर
##ढी
伤
ล
ナ
̷
##दी
पुनर्
##ƒ
कू
घिमिरेको
御
##23
ŏ
शताब्दीको
ر
##સ
占
अर्काको
मस्तिष्कमा
सुरक्षाको
बालुवाटारमा
अर्पण
मैले
मृगौला
尬
##ब्ध
व्यहोरा
##ٟ
##ोग
तहका
साहित्यकार
जीव
##😟
टोट
कृपा
बीचमै
साउथ
ฉ
बेद
भविष्य
##ara
पुनराव
बिश
मागअनुसार
आम
राख्छन्
लिनु
विकले
ΰ
उफ्र
ủ
##न्व
सम्पुर्ण
सहजै
महाधि
##🏦
अधिकारीको
समुदायलाई
##게
##डु
😃
##𽲿
बिश्वास
दशकदेखि
য
सामुहिक
स्टिल
号
रोजगारीको
청
रुपैंया
आफूखुसी
फोर
डरा
##िमण्ड
る
智
सबै
नयाँदिल्ली
##ĩ
##घन
!”
##׿
भिर
##য
##ina
जान्ने
भास
տ
प्रिमियर
ߧ
अस्वस्थ
免
֐
##पूर्वक
विजयकुमार
##ाउँदा
mo
झ्याल
न्यायालय
पुस्ताले
यदी
؟
机
गरीएको
par
赌
बनेपा
तब
सत
##नुहुन्छ
प्रदीप
##ֹ
##पोखरी
##िएकी
सकिएन
सातौं
जोखिम
यदि
विद्या
सुकुम्बासी
ദ
एमालेमा
पकाउने
帮
सौगा
##माथिको
आव्हान
##खास्त
दम्पती
मुलुकको
अफ्रिका
##दछ
प्रजातन्त्र
##िसे
प्रतियोगिताको
छनोटको
##җ
पर्यटकको
मुटु
राप्ती
##إ
##रोधी
निस्किएका
मध्यम
अध्यापन
क्षेप्या
खट
माल्दिभ्
सुनाउँछन्
१०१
मानन्धरले
कम्पनीबाट
적
तिनको
सारेर
दिनुपर्छ
##ڨ
년
पूजाआ
##ʥ
भागेर
##ъ
महामारी
sarkar
प्रलोभनमा
रामेश्वर
राम्रोसँग
##इङ
अनुमति
दरमा
##ीनारायण
प्राचीन
सिम्
नभएसम्म
##ǁ
ი
रजिस्ट
¦
##խ
ڢ
जनप्रतिनिधिको
नियमावलीमा
##˦
ỳ
छाक
एटी
धेरैले
कोल
##वर्षे
बेल्जियम
永
घोषणा
##۪
टुङ्ग
층
महान्यायाधिवक्ता
##ﾟ
सापकोटा
き
सारेको
स्थानमा
दिन्छु
##el
##हरूसँग
लब
ǹ
गजेन्द्र
नेतृत्वका
सीत
धर्ना
╟
च्याम्पियनसि
##त्साहित
托
##गोपाल
अरु
##ृद्धि
ʣ
लिगा
ओल
##ीता
रोक्
कम्युनिष्ट
取
##ե
##́
覇
##ेकाले
जनप्रतिनिधिले
विकेटका
ब्राजिलको
聖
##खोज
##ाधिन
अन्यथा
रामबहादुर
सुरेश
आँट
गौतमले
舒
६
युरोपमा
##डीको
जलाशय
20th
चिन्त
墅
##फिर
##श्रा
चौतर्फी
संक्रान्ति
बबर
पढ्नुहोस्
普
##्वाइस
߈
कास्य
संस्मरण
ഭ
ވ
##nt
बीउ
असन्तु
##कुण्ड
מ
पह
अक्सर
##स्कोटा
नाउँमा
##ङ्गिक
५७
##बेला
मूर्
ે
मानिसले
व्यवस्थाअनुसार
##स्कर
##ಡ
वर्षलाई
ओभ
बताउँदै
गुज्र
नम
##ागत
गराइ
त्रिशू
##बाङ
खराब
अङ्ग्रेजी
ਨ
सोच्नु
8b
रूपमै
भेटी
##डिया
एलि
परिवारले
हनु
##ッ
##इँ
गइसकेको
रिङ
पाट
##ɷ
अखण्ड
撰
##ൂ
बिरामीलाई
कुटनीतिक
##दित
改
ن
इन्धनको
ओटा
नगर्न
भूकम्पका
##ň
##विना
विश्वविद्यालयमा
##ुरा
id
कन्या
瞪
+%
##͐
##ა
कृषिजन्य
किनारामा
बेन
सृष्टि
नपुग्ने
##र्जामन्त्री
##सम्भ
पर्चा
ڰ
产
拍
खिचा
##19
खासमा
जय
पहिल्यै
ׁ
मज्जाले
सचिवले
##्युब
एकतर्फी
पुल्
##तिय
##क्ष्मी
पासमा
अन्धकार
ਈ
br
नमान्ने
##्नो
बदल्न
##ڬ
##ӫ
समाजसेवा
सिम
राम्री
👉
‣
गरिरहेको
##स्कीले
##म्
ट्र
संखुवासभा
सिक्का
लगानीकर्ताको
निकुञ्ज
##टो
बिमस्टेक
द
मैदानमा
##पत्र
सिरहाको
हानि
आयाम
विस्तृत
##낣
रोजेको
link
पुजा
瘯
कन्
##ist
चू
मन्त्रिमण्ड
건
##कांक्षी
##खान
२०५३
##गाउँमा
丸
त्यसले
👏
##रेड
##σ
##िमुख
##भरका
कस्ता
गतिवि
बोतल
मार्स
हाइड्रो
त्यतिखेर
।)
##ृद्ध
मनु
चुक्ता
सर्ने
##뵪
裤
##ल्ली
बस्तु
मूलका
##ेसनका
^
चन्दन
역
˿
संलग्न
उल्लेखनीय
查
वापत
##ਇ
##ღ
##ricket
रिम
मानी
खोटा
गर्दा
##जमा
##г
घण्
औपचारिक
ބ
##47
🌙
31
काजी
महसुस
बौद्ध
##पन्थी
सार्ब
##ुन्जेल
एकमात्र
##ഞ
##ीपको
बलिउडमा
描
##े
लेगमा
˱
##मिक
##ꌍ
एसियन
ね
##r
इच्छुक
प्रतिपक्षको
खेलिरहेका
##մ
ภ
凋
माननीय
भित्र्याएको
धमला
याउन
घुलमिल
चेम्जो
अक्स
बोल्दा
भेद
##चीको
बढ्नुपर्ने
玉
दुखा
##से
परिषदका
बै
볼
##ंशा
##ठामा
芽
वस्तुको
अध्यक्षतामा
प्रालिका
चियाको
##ʎ
बताउँछिन्
त्यसैगरी
भूप
मनमो
§
मिश्र
समस्या
ひ
昼
अडिसन
मजदुरी
गन्तव्य
घरायसी
ब्याट्री
##रेन्स
पाएर
स्टेशन
##िकार
धम्
सिंगल
##बीर
##ङ्गल
##ऊ
जहाजको
燥
डिपो
मनाइने
肝
तान्न
息
कर्णालीको
पानीका
ज्यान
सिंहले
˝
टुंगो
जमा
बेइज
समेट्न
献
समेट
बहुल
ﾞ
जमिन
राहुल
वर्षसम्म
篇
##ेसँगै
ٗ
अर्काे
सच्चा
꣕
गौरा
##पे
##ाउ
##ुलि
शासकीय
विद्रोही
रामे
ꊣ
##ߞ
गरे
″
छाडेपछि
पाएन
߄
गोप्य
बाँच्ने
इन्द्र
##ब्रे
आयोजकले
に
आईपीएल
अश्लील
##पं
혐
痶
भित्ता
घिमिरेले
भी
##ー
धनकु
वैचारिक
䓭
गुरू
尔
擇
##िंगलाई
艗
बगेको
खेर
सुब्बाले
तिव
अर्थमन्त्री
כ
##क्सिको
कोस
##्रे
प्यार
माथ
कंग
ञ
##कर्म
सैनिक
##आफ
##आ
बने
आबद्ध
##ers
##अघिसम्म
へ
##कार्ड
##yo
कमी
##रीलाई
तोड
नाप
अन्तिम
work
उन्मूल
ぞ
कोइला
मोबाई
æ
##f
स्नातक
अमानवीय
##पत्
##ैबाट
124
मनोरञ्जन
विदेशमन्त्री
ட
लगत्तै
आएकोमा
##>
मान्
गीतको
糸
भो
धूवाँ
बेच्न
払
दलितको
廃
上
##साधारण
զ
गौरव
टर्की
श्रेष्ठका
षडयन्त्र
ច
##प्ट
光
उद्धारका
सन
संस्थ
स्मरण
鬆
रोजग
मध्ये
वृद्ध
ga
मार्गमा
आप्
##ɟ
ণ
अध्ययनले
updat
चाहिने
बताएका
##߷
##ڙ
मितिमा
बैंकिङ्ग
वेबसाइट
साथीहरु
##हिता
गर्नुभयो
तीव्र
店
फोट
ԧ
विभागलाई
फाईदा
##दल
##😆
##ភ
##काम
##ً
ဗ
डाक्टर
##🇯
叫
ģ
##ω
पूर्वमा
डाउनलोड
एमा
##rig
ߍ
##िङ्ग
कुरालाई
क्षेत्रलाई
गम्भीर
सांसदहरू
質
सम्हाल
##រ
克
##वालिका
賞
स्वी
##ंसेव
##ite
##सर
दुवैले
स्वीकार
##ुरको
पसलमा
शायद
##चन
श्रीमति
तिनाउ
हुन्न
愿
ض
दिल्लीले
नगरमा
भन्
मन्
नेताले
सुरुङ
##ฟ
２
；
लेख
8212
तस्तै
मेलम्चीको
##൒
उनीसँगै
पुष
महत्व
ই
चम्
टिपर
रिपोर्टमा
हिंसा
भएमा
प्रचलनमा
##all
वेस्ट
मन्तव्य
##्ेर
##뱻
國
##ҟ
छानो
딩
क्याम्प
খ
खानाको
सरकारी
敏
आर्थ
起
घुमेर
झल्
दर्शनको
अहम्
͸
34
##݃
नहुँदै
##िकाले
मार्फत
##हरूको
##जसो
मरु
मोदीलाई
नाच्ने
समग्रमा
मर
अखण्डता
दुइ
नियुक्तिको
ҍ
विकासमा
त्यसमा
लम्
सभापतित्वमा
樓
दाहसंस्कार
भाडा
पुग
थपेको
सोमवार
कल्चर
नष्ट
दलबीच
ज्याकेट
##ా
##ւ
##दत्त
ۨ
##हम
브
##फेरो
ʶ
इँटा
सुति
思
##मणि
मापन
烂
š
込
##😍
डाँडा
##बी
अवधि
ͤ
##ｫ
नगरको
स्रोतबाट
ध्रु
कोरियाका
प्रभावमा
पूर्वसन्ध
क्यामे
😤
छिमेकीको
वार
संभव
दुर
##✉
लोकसेवा
सम्मानजनक
वर्षअघिको
電
हालसाल
pm
幕
फेक
##रहेकी
संरचनालाई
##ory
रोकथाम
देवेन्द्र
दिनदिनै
ऎ
डेभल
पारसले
ईश्वर
ठगी
め
##ક
चर्चा
हेरे
एक्सचे
बासस्थान
刚
##ச
##🤓
गुरुयोजना
６
ń
ɪ
आफैले
घट
ݕ
剩
##युद्ध
杂
##खोकी
##खर
##्रु
खुट्टा
निस्केका
圍
भेट्ट
固
मंग
इर
##o
諷
सिमेन्ट
mahanagar
ើ
左
##डाँ
phot
रेग्
विकेन्द्र
नेतृत्वदायी
प्रस्तु
दाउमा
चालु
##मध्ये
मनाएको
##टेनिस
बोझ
देवकोटा
ध्वस्त
स्पेस
##ङ्गा
##उनुभएको
विश्वभरका
ứ
͖
उन्नत
नवजात
戏
ٜ
हराएका
##ẫ
the
मोडलिङ
##22
呢
##ˎ
𽩒
इत्या
監
सेटिङ
दमक
माघ
##ल्डी
##त्तर
##ɦ
आउछ
##롨
सुरुमै
थाप
सांगठनिक
बिजय
छुट्टाछुट्टै
टोलीले
차
गाउँबाट
धेरैलाई
मौ
स्त्री
ী
ੇ
盒
हाम्रो
ċ
प्रवक्ता
घरहरु
ent
10
ओहोर
##ियाँ
용
🇦
##नेल
##led
काफ्ले
प्रहरीको
खाँद
मागेका
េ
हाम्रै
##आएको
टेस्ट
२०५५
z
२०५८
क्रिस
ꕊ
ग्रहण
thumb
श्रोता
हजुरआमा
शुरु
##사
155
##ạ
##도
᤻
康
नरेन्द्र
दार्जिल
##रिने
##투
积
सुक
演
##ੀ
खु
##तेका
習
स्थापनाको
酵
थापा
−
रवि
##ेटिभ
क्रिया
##ाधीन
गुग
恥
हुनुभयो
छुने
शेर्पाले
婲
छाड्ने
शुक्रबार
लिगमा
दाजुभाई
विकासलाई
रोजगारको
##ԉ
允
उद्घ
भड्
कांग्रेसलाई
ά
##ʆ
진
काँधमा
भएकोले
गरिसकिएको
कार्यक्षेत्र
तहसम्म
बढाएर
##ؤ
कर्त
惑
##ͅ
द्
pre
덌
आया
भनिएका
उति
स्वाद
गाएर
प्रगति
##सा
##मध्य
ȋ
विमानस्थलका
ﻘ
भण्डारण
पक्षमा
##इको
कार्यकर्तालाई
बुझ्न
महिन
रौ
由
जतिबेला
नवीन
ꡝ
कक्षाकोठा
##बगर
런
शर्मा
che
ललितपुरका
##ʿ
##མ
##ʴ
##निकीकरण
##हुन
🇬
##ाएको
##🙏
अध्यक्षका
महिनादेखि
कपमा
युक्र
जिन
##शाख
##ाइएका
तम्घा
मण्डलले
##02
हुदै
हस्पिट
थ्रीस्टार
प्रतिक्रिया
##찬
##́
मेघ
बहुदलीय
अमेरिकाको
अस्
सहकर्मी
ٰ
주
##वान
अरुलाई
तिमी
##ः३०
बिस्तारै
१८०
확
约
腳
##ĭ
閉
ာ
.</
प्रतिस्पर्धाको
देउवालाई
मालिका
चरणका
ժ
##ूट
विरोध
矿
##ॄ
नवलपुर
बित्यो
##ލ
पड्
##agarma
##ट्टा
माछापुच्छ
ѥ
भर्
##रले
孟
##र
##79
बढ्नेछ
ट्रेकिङ
##😁
उल
##रहे
##ɘ
उत्तीर्ण
##ारीमा
खटिने
rss
##हिक
सुवेद
पटक
##부
##욎
बाहिरको
थियाे
݆
चुनौ
訊
😝
ल्याएको
रोजगारीका
ລ
客
चोप
अटो
खेप्
##मु
फर्कन
##किल
##बाहि
क्वालिफा
किलोमिटर
񄔁
##여
मनाइ
दुरुस्त
##--
ạ
आगन्तुक
ճ
पहिरोको
##ր
एथ
##िरु
matra
त्यस्तो
छलफलको
फेरबदल
ワ
##en
##बद्ध
भाँडा
##´
##नुसार
##ቧ
օ
ठोस
संसारकै
##면
समय
हिरोइन
栗
##메
##लगत्तै
ѕ
कमैया
कुकुरलाई
候
菜
##ി
सफ
旅
नम्बरमा
桌
##ks
度
׽
ब्रेक्जिट
##ूरी
ϑ
खेलमैदान
जसले
पाठ्यपुस्तक
##ानले
sat
लन्ड
니
##क्पा
ट्रेलर
##ʔ
मान्दैनन्
##😶
ग्राह
परीक्षणको
##पश्च
had
˹
##रक
अन्न
अर्कै
nepal
लुकाएर
ध्वनि
税
पृ
陥
खाइ
प्रसाई
मदि
परिचय
कामका
դ
दिन्छ
कोरियाली
बिमाको
सेनापति
उनीहरूमा
रुपै
2
रामायण
ğ
##िको
危
##ݪ
वा
##п
सानैदेखि
चन्द
यहाँ
केटा
विश्वविद्यालयका
พ
जनताप्रति
हावी
##lo
हुम्ला
बनि
##न्डै
समा
च्यानल
उप्रेतीले
नत्र
गृह
अति
पन्छ
सदस्यहरू
त्यसैका
प्रधानसेनापति
बढाउन
##ׇ
जंगलको
जनमत
सडकले
सोही
##सितको
##त्रीको
आइडल
ನ
अाज
##आरआई
जथा
विश्वक
告
ढुक्क
ठुलो
सिंग
मन्त्री
經
उप
##यम
स्पि
##サ
लगाएर
०७५
नर्थ
##ല
सिटौलाले
##😔
##😰
सध
级
##वाद
奋
##ӭ
##यौँ
½
##एसपी
गुरुङको
գ
073
🏦
洒
कोर्स
##भरि
##न्टो
ई
##नामा
दुर्घट
ព
˻
सत्
सातादेखि
##)
##ာ
λ
ñ
##해
archive
##소
सहभाग
##पक्षीय
##ៈ
##ڒ
जागरुक
狗
껴
खोज्छन्
राम्रा
खानेपानीका
सञ्चार
dek
गरेकोमा
एसियामा
जनजातिको
चेल्
नाचगान
महायज्ञ
🔥
৩
सवै
a
गोर्खाल
युथ
##ook
##ौली
ェ
उपभोग्य
##त्र
##यले
मुकेश
str
हेलिकोप्टर
県
भन्दैमा
ສ
##°
चाँही
ब्याज
जुस
भित्र्या
स्टिकर
##ल्
बन्ध
२०२१
選
ӵ
रसु
मुस्ताङको
我
सम्पति
अधिकारका
დ
银
re
अनुरुप
##ञ्ज
फि
डकुमेन्ट
◌
रोकेका
惯
शल्यक्रिया
ס
च्याति
##پ
हमालले
##ޑ
ती
channel
राजी
レ
थपिँदै
##मण्डल
निष्
संशोध
##ind
२०७३
и
收
डुडल
##निङ
隢
🌽
##per
बाँसको
प्रकृतिका
᝚
एट
##िताको
प्रजातान्त्रिक
केन्द्रविन्दु
##छिन
बोल
##िसो
##squo
गन
##ञ्चोक
短
तर्फ
##י
##क्ट
क्रेज
न्यायाधि
परिक
##साएर
݌
दास
आदि
बास्कोटाले
लि
##जका
ป
##ڝ
##까
अन्दाजी
ד
##र्द
उत्पादनशील
मोरङको
अलग्गै
नपठ
影
०२
##ac
##केश
विश्वप्रकाश
##ालीमा
दाङमा
महानिर्देशक
अष्ट
advertis
##•
अहिलेकै
टाढ
वैदिक
गुमा
उहाँहरुले
##कुमारी
नवि
बुधबारको
नियोजन
##̃
᢬
锏
पीएस
##뺋
वार्ताका
随
𽲿
线
बलराम
म्यानमार
##ོ
🇹
阅
⓵
अयो
##यात्मक
##m
अवसरको
भेला
जहाज
##थान
२७
देखिए
位
जिव
उपभोक्ता
हावापानी
प्रतियोगिताबाट
΂
पार्क
एड्
##िंदै
##िण
माथिको
आजभन्दा
得
餐
##कालमा
##ष्टा
संघका
ག
66
园
धारणा
##ブ
ढोरपाटन
युनि
गैरआ
ז
जनकपुर
हुनेछैन
स्वरोजगार
युनाइटेड
पं
झोलामा
कार्यन्व
課
नभेट
पुर्
इकाई
फाइ
महाराजगन्ज
锦
##velop
दरले
პ
फेसबुकमा
##ณ
गायक
निस्केको
नभइ
बचाउन
##र्मा
समेटिएका
##않
विश्राम
र्याप
२०६६
यही
95
##34
रुघाखोकी
⇄
屋
पछाडि
आईसीसी
केभ
आन्दोलनलाई
जहाँसम्म
पत्रकारितामा
उपाध्या
चाहि
单
##लाइट
##൓
कोषाध्यक्ष
##ˁ
निकुञ्जमा
##48
मान्छे
##ྷ
पश्च
##संग
拔
जनशक्ति
महोत्तरी
नोक
स्थितिमा
योजनालाई
आहार
ओखलढुंगा
##탂
##न्यास
##ूपमा
some
मोटर
##एकै
##न्डामा
पिउने
##ṅ
संकलनका
ज्वा
კ
舟
뒽
##ell
साइत
##स्कृतिक
練
櫿
降
आजै
पोखरीमा
##चो
साप
##ेसो
सुदर्शन
##िइ
##ظ
##ेजले
5th
दिएको
हिन्दु
幡
노
다
चित
仏
台
अप्रत्या
ध्य
順
茨
##प्रेमी
कारबाहीका
टेलिकमको
खोलेका
तथा
सुनको
##िङको
पर्दा
कान
share
पुगेका
##ủ
पहिर
चिकित्सकको
उसलाई
##षि
जै
##काल
##ฮ
सर्जक
巅
ݒ
##्याली
अवसर
期
##ó
ओसारपसार
प्रचलन
##당
झडपमा
##tion
किने
ꑝ
😀
...
😥
प्रस्तावित
बैठकलाई
ф
針
बुवा
ओगटेको
आले
हिरासतमा
सजिलो
एसईई
ɼ
ले
कृषिका
##я
xmlns
王
सुमार्ग
नेताका
पित
##धि
चल्छ
##ul
ˈ
जग्गाको
मापदण्डअनुसार
निर्वाचनलाई
##िनको
郡
सम्भावना
##ुलु
ڑ
october
ث
months
及
उपनिवेश
महाल
##ক
दलहरुबीच
विश्ले
सार्वजानिक
闚
तपाईँ
ફ
राख्दा
fee
##ম
सेयर
फड्को
प्रालिले
देशमा
महिनाभित्र
मरि
सञ्जालले
##स्तर
रोका
जन्मि
ब्लक
विखण्डन
ខ
ʕ
सफलताको
तिहाई
अनुसू
जलाधार
जिवन
छौँ
##भा
é
ķ
पूर्वा
यतिसम्म
ॴ
अशोक
व्याव
मतदा
उपत्यकाको
ठाउँबाट
🇺
/"
##ݞ
圼
##लिंगी
##ित्व
d
严
बैंकहरूले
ı
##नारायण
कि
फारम
##ெ
##विका
सकेसम्म
착
गरिरहनु
भागबन्डा
##ᤴ
गाउँ
##݄
उदेश्य
बौ
ݔ
सिन्ड
पुराना
सुरक्षित
误
내
##ज्ञ
फाईन
बसेपछि
बारा
##चु
झ्या
false
अन्तरालमा
सामु
##डुल
मिलाउन
has
प्रक्षेप
सरसफाइ
हाललाई
悟
##तय
कसो
##げ
रित्
पितृ
工
递
सिंहदरबारमा
##स्थल
बिषय
##विद्यालय
कथाकार
सामान्यतया
稍
कैलालीका
quot
अमिता
विद्युतीय
堹
ዛ
##नमार्क
कुलो
साँच्चिकै
सकिन्न
嘉
##पदा
बाह्रै
काठमाण्ड
럽
##つ
चिनि
नौ
##ऋ
て
협
鲜
पर्ख
सदस्यहरुमा
##वल
कफ
ग्रान्ड
##즣
बसो
प्राविधिकले
見
cor
पर्यटनमन्त्री
##ration
##र्को
##iew
हरिवंश
ࢎ
竹
and
मन्दिरका
##बिसे
겨
ज
दार्ज
संवेदन
##튜
उत्पादक
आउँदैन
जसरी
थापामगर
दुन
स्वयम्
विज्ञप्तीमा
समक्ष
मुख्यालय
##विधा
##ंग्रेस
##68
導
##खुट्ट
सुत्के
उजु
##ۮ
विवाहित
洹
चिस
बोलपत्र
सीईओ
🏏
गरिन्थ्यो
मासु
click
世
जिरो
चरण
पुरुषको
##सं
##मीका
आधार
ह्याट्रिक
राष्ट्रका
##सनल
##は
##जस्ती
##्यमा
##ॣ
मधु
##त्ती
रास्ट्र
सन्द
स्वास्थ्यलाई
##मेक
अघ
सजायको
निस्कन
इन्धन
केबल
##ोत्त
##83
##ाउँछन्
दरबार
कतैबाट
क्रस
नपुग
पर्दैन
ਧ
ៅ
##ੋ
त्यसबारे
抬
真
उपत्य
कार्यन्वयन
俗
##ǽ
खनालको
##कर्तालाई
舗
##िमै
ɖ
पासपोर्ट
ザ
बच्चालाई
आँखामा
मन्त्रालयबाट
且
잘
हाजिरी
जनायो
ֆ
तिमल्
銭
अतिथी
##ܸ
ठान
गैर
郁
##प्रेस
अलग्ग
##खुवा
प्रलोभ
फूल
##ɒ
भोलिको
ঝ
携
##ेजी
नकारात्मक
##टको
कुरेर
पार्टीको
##た
क्यास
##ब्रा
診
##ज्यू
प्रभावशाली
सिर्जनात्मक
##्र्या
##졌
##ʁ
umesh
अनभिज्ञ
बगर
मेट्रो
സ
##यौं
##िँदैन
ϊ
##ม
one
लेनि
त्यहाँ
न्यानो
##र्जे
पोसा
ᤆ
ू
##🏽
##립
विपरीत
लेख्दा
अपराज
##ꅕ
गीता
##टिन
##केमा
जोड्न
##खेती
बाख्रा
ぁ
दण्ड
राजधानीका
##bar
ठमेल
##™
温
पहि
##टार
उसको
唯
आइपुग्दा
##ں
##ঝ
##ळ
पक्षका
##म्यान
त्यसै
मृत्य
निर्णयमा
क्षेत्रभित्र
ī
##मरी
बिहान
प्रशस्तै
뎒
उहाले
##को
किमा
पराउने
बनाइदिएको
##ɐ
螺
吾
##͂
बहादुर
पार्टी
स्थापित
##޳
बेरु
##र्जिन
##मा
##ैतिक
सत्य
28
जापानका
##ानको
मात्रै
रहेकोछ
奖
##्ल
##̚
##वादी
हट्ने
##̏
##प्रतिशत
ԥ
##ښ
##दय
देशव्यापी
kathmandu
थोक
प्राध्यापक
लेखेको
समयलाई
赶
नारायणप्रसाद
आह
ำ
भाग्य
##브
假
राहदानी
##crip
अन्या
##97
रहँदै
ี
ऐरी
कायमै
अफ्र
않
सुरक्ष
##キ
##सम्यान
रुघा
सन्तुलन
पालो
##һ
रुपैयाँले
सांसदहरु
सूर्यबहादुर
##संख्यक
ো
##स्थितिमा
69
##मित्व
习
ढा
25
आवतजावत
##व्र
आह्वान
獅
较
鳴
##ंड
##रु
निरपेक्ष
विज्ञप्ति
सा
ઝ
समृद्धिका
घटनास्थलमा
罰
##ｓ
##//
##निस
##ोड
सहभागितामा
रिक्त
竞
बन्दोबस्त
核
सत्ता
सुने
##गोलिक
##぀
##सतमा
##णाम
दाजु
wind
😯
रोक्न
請
आचरण
珂
बर्ग
呼
हिड
߉
##ʕ
##ौडा
鵗
कम्पनीमा
国
असफल
उपाध्यायले
##बीको
##༻
ऋणको
जरु
नेपालकी
प्रतिवादी
ચ
मनाइँदैछ
आसपासका
लिम्ब
खान
जेसी
##ेडिङ
##दित्य
˖
बुर्ति
―
गम्भ
ө
##इओ
굼
पठाउन
भनेको
##ियोस्
सद्भाव
तुल्याउने
इस्लामिक
؉
ᤶ
सुनेको
प्रधानमन्त्रीको
युनिभर्स
मौकामा
विधेयकमाथि
कोइ
नजर
पढाई
फ्रे
परिपत्र
宠
##नीय
##શ
##पालक
瞩
रेस
पुनर्निर्माणमा
##ेलियन
बन्दो
बेलायतमा
तौल
निः
ך
輼
बाढीको
व्यवस्थापनका
थालेपछि
जुत्ता
पहारी
अवि
माध्या
##ѧ
आकस्मिक
桑
##ब्याक
गोली
तस्कर
अर्धशत
हिमाली
##जुङ
##सत्ता
इन्डिया
페
घोषणापत्रमा
##협
खोज्दा
भट्टराईको
赞
箬
蓮
##ध
उद्यमशीलता
त्यत्ति
##꯬
##शमशेरले
महिलाका
समुदायले
सुई
कुम्भ
안
शाखाको
प्रोफ
वितरण
पद्धतिमा
बजेट
थिच
##हाल्छन्
पद्मा
jan
ठाकुरले
लागी
ੌ
報
##ݭ
यिनलाई
##64
थाल्ने
बढोत्त
ა
रिसो
sa
छोडि
झर्ने
चिनाउन
पुरुषले
सुकु
wh
##दृष्टि
लगाइन्छ
##हेर
अनशनरत
##դ
ओहोरदोहोर
߸
ু
截
##в
##ѳ
अनाथ
##त्रामा
ܖ
पीर
राजपाले
##रथ
##ড়
##िल्
路
corpor
चाउ
गैरजिम्मेवार
غ
##नमान
डिसे
संसद्ले
##िसक
१००
##राव
咽
##ਰ
विधेयकमा
मार्च
##‛
चप्पल
पचा
##जिल्ला
नगरिएको
##्चा
##४५
##98
एएफसी
प्रतिरक्षा
仍
गाउँले
申
##जनिक
##यो
गोष्ठीमा
नाक
पाउने
भावनालाई
##ҏ
ȁ
##ภ
##ེ
݀
靖
ख्या
妆
ޔ
##लाउने
##स्रोत
##न
संसोधन
सातासम्म
##ेखा
आजकल
я
##ਵ
अंग्रेजी
##ﭨ
प्रष्ट
रुपन्देही
शिविर
डट
क्लबले
¬
發
आफनो
##ੜ
져
掉
उपाध्यक्ष
दुल
ݛ
लल
##ʅ
आइपुग
##प्टरमा
अवमूल्य
##실
एफ
##hak
२०७१
घटाएर
##म्बन्धी
##ण
अन्
आधाभन्दा
छिर्न
जग्गामा
निर्देशनमा
##ᚔ
नगरप्रमुख
दिनभित्र
’
फाल्न
भन्न
विराटनगर
हामीले
बिर्स
सुनसरी
##વ
ढुंगाना
मिल्न
हँ
संगठित
##न्सन
##धिकारी
99
very
ţ
अन्तर्गत
प्रश्नपत्र
मुखबाट
यि
##ѿ
इनर्जी
宏
羊
󥡑
गुणस्तरहीन
🙂
काज
ў
गढी
उर्लाबारी
बताए
‐
週
नेसनल
२०५६
भरो
जोडेको
फूट
यातायात
मिसा
स्विका
[MASK]
##सीसी
##तिहासिक
lang
म्याराथन
सुनारले
फाँट
##िएँ
##वर्ती
शरद
because
##ागो
भ्रष्टा
सम्बद्ध
द्वन्द्वको
២
ज्याला
##िट
##गाउँ
लागिपरेको
麺
߆
रहिआएको
फूलबारी
坪
सामुदायिक
##며
क्षेत्री
##न्त्री
देशै
##सस
东
सिंगापुरमा
तीनजना
恩
बारेमा
सम्माननीय
##वस्तु
##ुत
बाटा
समयसम्म
तिला
쁺
सोमबार
हुनुपर्यो
आरोप
दिँदैन
लाग्नेछ
ब्रा
##बापत
असन्त
खोजेर
केन्द्रलाई
शान्तिपूर्ण
镜
बारे
##׽
##सकेकी
बजा
राखेका
ओइ
हानेको
##र्दिक
##확
[…]
ڔ
तन्त्र
महा
編
##वेग
壮
生
6
ȴ
确
葬
अधिकारकर्मी
गर्छु
थाइ
सखाप
तात्
##दा
श्रृ
##एको
##ानो
##्ने
##हरुबाट
##हाज
##ശ
?"
मम
राजवंश
रात
वृद्धाश्रम
##ad
दाहाललाई
बापत
चौ
७७
##सल
##モ
##िन्छन्
अपेक्षा
😐
विकेटले
दर्
ệ
डल
##जर
吗
एशिया
##र्थी
##र्तिमा
तिहा
প
कुण्ठित
अश्
##बेश
कृपया
±
अवरुद्ध
ठान्छन्
ख्याति
##ན
महत्त्वका
##5
##न्यायाधि
मझौला
बढि
##ഷ
चाहेनन्
महोत्सवमा
सुन्दै
११३
њ
##पंक्ति
भएसँगै
सिस्ने
दिल्ली
महानु
##͍
##ंग्रे
तपाईं
٦
प्रशासनलाई
를
ୋ
##ƈ
अर्थतन्त्र
विपद्
##ेश्वरी
##हरुबीच
##धमा
ו
##गे
बद्
भोज
होटलमा
समानुपातिक
抽
विर
५००
##सेवक
ߦ
맺
##ic
हुनुपर्दछ
wor
֯
##わ
सक्रियता
प्रेमबहादुर
ਅ
सर्ब
ढिलाइ
august
दम्प
रत्
appe
##ल्लाह
अपहरण
पश्चात्
शान्तिको
पुरस्कारको
##っ
तहले
नेता
㽳
कोरिडोर
मुख्यमन्त्रीले
##्यालले
咬
निव
तिब्र
हुन्छन्
अनुभवको
कालोपत्रे
क्वी
झाँकी
##कोटमा
नेकपाको
गतेदेखि
घटनाका
निस्त
##लिम
##⩌
छान्न
ُ
##ानीमा
रुकु
##श्वर
׌
प्रवीण
🤓
바
भनिरहेका
रचनात्मक
दौडमा
हरि
##पश्चात्
缈
巡
शर्मिला
कन्स्ट्रक्सन
पठाएको
इन्टरनेसनल
##लेमा
प्रवचन
सबैलाई
बूढ
ɟ
pani
##वाइ
cld
काँचो
विमान
##स्थलको
पाउँदैन
##द्द
बिस्त
चिकित्
सिमकोट
बजेबाट
पर्वतारो
सहा
शैक्षिक
आयोजनाबाट
१४
यातायातको
##वारण
सरु
बताएपछि
##🤔
##सँगको
ʟ
कसै
पाइन
##׋
ٚ
february
ꍽ
सुब्बा
築
उदासीन
लैजाने
नाली
##कृ
##.
आगलागी
चौकीमा
सक्नेछन्
भाइरस
ⷂ
श्रेष्ठको
##जात
गतिशील
गठन
##हिटी
ě
##d64
कृषि
##통
);"
आन्तरिक
सपनामा
कमाएका
##प्
##y
फिज
संश
ठो
か
लडेका
##ट्टी
ह्वा
मर्मतसम्भार
टिस
##दरबार
##त्
नमू
##ִ
##िकै
.
अग्लो
##खाल
##त्रीले
अभिव्यक्त
आश्चर्य
छिमेक
परामर्शदाता
##वर्ष
##चर्च
򖳗
##ाइँ
गतवर्ष
बर्थ
वर्तमान
##सिन्दा
##गृह
##हरुख
स्टाइल
आउ
##]></
##ँै
प्रतिनिधिसभामा
बनाइएको
सिँचाइ
थालें
##ｇ
##ाध्यापक
##ল
गणेश
##ati
##c
##󠆶
ę
##त्मक
धुन
आलट
देखिन्छन्
频
खरि
丁
##क्ताको
अश
पटक्कै
प्रिमियम
##ाग्
हिड्ने
##셔
गाँउपालिका
तातो
झाँ
प्रतिवि
油
पुस्ताका
һ
परिस्थितिमा
##स्च
彰
《
##वटा
नहोस्
ڦ
एकैपटक
##मिना
पत्रकार
點
##ियार
पूरा
प्रसार
##ङ्गमा
नेपालगञ्ज
स्रो
श्रीलंकामा
एटीएम
##भिल
updateperiod
कोलो
मोटरसाइकलको
शता
क्रान्ति
ʯ
शुल्क
᷺
层
൓
##सला
लेखन
रजि
अतिक्रमण
नपर
##ारे
गराएका
दर्शकले
डिपा
ब्याड
##う
जातिका
##थेरा
ड्य
##िना
##֗
अन्तर्गतका
फोहर
आउनुभएको
नसक
काटिएको
##न्सिल
उपल
䚩
दिनदिन
30
संकट
छन
सार्वभौम
भएअनुसार
争
钨
짠
विरा
रूख
राता
##ൈ
ç
गोरखाका
केस
जबसम्म
year
आइएमई
धु
रञ्जित
साउद
회
ټ
आश्र
बैठकपछि
कानुनअनुसार
जनआन्दोलन
बढाए
पाई
ɰ
##ᤩ
गरिदियो
अर्व
गाँस
##स्तरका
रमाउन
हुन्छन
जनगणना
किटान
आकलन
बमोजिमको
सम्ममा
ṃ
उपाय
ˆ
धर्मा
कुलमान
梯
ऌ
##ǯ
館
उपचारमा
##ेक्टर
##너
उनीहरूलाई
औजार
लिच्छ
वाक
मिसन
ही
राख्दै
吧
बनाउँछ
##्दै
क्या
रोकिएको
龙
ជ
पछिल्लो
आधा
##신
՜
मर्ने
स्क्र
यात
अदालतले
रोकियो
धुमधाम
बागलु
##up
↹
##ख्य
प्रा
֛
गाली
प्रबल
हजार
㝔
##򡔖
वनस्पति
03
斯
沢
ǯ
̭
खुलासा
प्रतियोग
速
भविष्यवाणी
अन्त्य
⎼
प्रतिको
##ear
厚
##गरी
削
सरस
बजेसम्म
बैङ्क
##राको
विवेक
चाहँदैनन्
##મ
बर्षमा
##߲
content
##ן
आम्
##क्षा
##💔
website
٥
ȕ
de
##ङ्की
##पाला
ڻ
##an
लाउ
सुरक्षाकर्मीले
͟
楯
ߔ
विश्वमा
⇨
वर्षभित्र
त्रैमासिक
帰
👍
अनमोल
अवस्थाबाट
तिर
नदिनु
裏
जाइ
##ഹ
ओपनर
न्यायपालिकाको
रानीपोख
विनोद
अनुमोदन
तामाङको
##संघ
लेनदेन
नक
kura
স
दलाल
कन्सल्ट
कन्फ
20180
निर्देशिका
˞
set
##हरी
##बिस
##सारी
##ꇯ
##왔
##ӂ
स्थापनाका
जति
##uter
मनकामना
̵
##하
अभिमुख
आप
भर्या
##षक
##ॡ
सिन्धुली
सोचाइ
驶
##ằ
探
🎉
दाजुभाइ
आलटाल
मिठ
फ्री
ति
a7
नहुँदासम्म
##काले
##ery
랩
##न्सका
बनाउँ
पढाउने
सुदृढीकरण
क्यान्सरको
कोर
कुरु
渊
##ʱ
##ỡ
##͚
अस्थिरता
डढ
खनाल
폿
इसाई
अन्ज
##बस्त
कृष्ण
गजल
असुली
##л
नबित्दै
攫
##홈
͕
दशै
##र्द्धन
उल्लङ्
regional
u3hrm0cpbdg
##्च
general
नजाने
दोहोर्य
गर्नुका
अन्तर्रा
फर्कि
##（
निगर
ל
लेखिएका
सरदर
किशोरीको
क्षेत्राधिकार
ؼ
बिट
配
पाइन्
छैनौँ
उका
मोटरसाइकल
मुखिया
रित्तो
पक्र
ం
##39
जनादेश
पाकिस्तान
##कलन
ट्राभल
ॆ
सञ्चालनका
छोडेर
देवकोटाले
ਬ
##񩈔
शास्त्रीय
シ
夕
##भियोग
##ach
##ធ
पुगिन्छ
अर्ग
चिहान
अपुग
##टी
朕
##्याउँदै
ĩ
बनाउँदा
営
पेशा
##्रता
नागरिक
सुलभ
हत्याको
घाँ
激
듆
##द्ध
पाल्न
हुलाकी
##ๆ
##ப
केन्द्रको
क्रो
##अनुसारको
ठाने
##श्या
##पुरी
यहाँका
##ޒ
謝
孤
a1
##गम
##극
भत्क
시
##ߏ
##तिकै
##सिन
सामाग्री
🤦
##ͩ
説
औषध
हेल्प
##टा
##ӓ
दाख
संलग्नता
促
बाँच
륲
सेक्य
जनआ
व्यापारीलाई
仕
रजिष्ट्र
ľ
लभ
话
趋
通
##ি
様
##ाना
असामा
टिप
मन्त्रालय
グ
धुलिखेल
शिशिर
संस्कृतिको
##ियत
##सम्मै
##टामा
##क्षेप
छानविन
विविधता
##परिषद्
छालामा
भ्रमण
बलमा
सुमित
##ाउँमा
नजिर
♣
怀
##06
##मूल
##괎
##߹
पदार्थमा
दस्तुर
##ट्या
##िंग
प्रस्तुती
द्विपक्षीय
पढ
कोटेश्वर
अझै
भुजेल
##웩
बिग
मग
##글
सांसदहरूले
##더
जिम
##यी
एकताका
आलेख
##बाली
˜
संस्कार
##ितर्फ
ल्याएपछि
喺
##यामा
˾
अन्यौल
लिभर
अधिकारमा
提
򷪵
##मीमा
ͥ
जनसंख्या
कान्छ
विचारधारा
एनजीओ
🎙
रोमाञ्च
परियार
##진
काभ्रे
भरेका
under
रामचन्द्र
##״
ऋयखभच
सूचीमा
कानून
करोडभन्दा
##ws
अख्तियारले
प्रमुखको
锻
ݪ
रोपाइँ
階
兄
तीमध्ये
परेकी
भैँ
拱
कम्बोड
##िसकेपछि
r
पक्की
युवती
स्नान
१०८
रेस्टुरेन्ट
œ
प्रदेश
引
विष्ण
ߺ
##खोलामा
भेटिए
सौराहा
##ી
点
##लामा
सीताराम
##͗
जोको
विप्ल
장
सन्तोष
ޏ
घरपरिवार
##63
महास
हैस
##विद
नभए
बाब
##पश्चात
कलैया
निजामती
खिम
लाखभन्दा
भोगाइ
栃
एक्ल
निवेद
love
तोकिए
៏
media
युनिभर्सिट
##년
拾
गरेकाले
##ाइरहेको
##ct
##ows
##पालिका
गान्ध
क्रियाकलापमा
मुलुककै
ョ
##ُ
tag
##い
##ş
गराइने
川
प्रधानमन्त्र
म्यान
अला
आरोपी
क्रिकेटर
दूरसञ्चार
राष्ट्रवादी
⩌
व्यवहारीक
सम्मेलनले
सुनि
स्टो
ở
निर्धक्क
ज्ञानेन्द्र
रक्सौल
##ध्या
टि
റ
संयो
hel
वीरगन्जमा
芝
拡
##95
##ंगै
##सक्ने
##ت
##ुल
जुट
डेब्यू
सत्यतथ्य
`
सेन्ट
हाले
対
¢
पुगेपछि
स्वार्थमा
खेलाडीको
सर्वसम्मत
##ial
चीनबीच
चुनावमा
ट्रम्प
##ϑ
सोचेर
##्रो
##ﾧ
##झैं
75
ब्राजिलले
##दार
##कुरी
अाफ
नियमाव
अभावका
सर्लाही
हात
##योजना
짗
छोराछोरी
सुन्दरी
world
सम्भवतः
लाइ
रक्स
हासिल
फिल
लडाकू
अज
##न्डर
఼
पास
प्रबद्र्धन
कार्यपत्र
##ؿ
##܋
सातदो
##तिरै
not
ҝ
गर्मी
अभियान
सू
दलहरुले
लीला
열
सपथ
।।
गोपाल
परिसर
##र्तन
##नालाई
##करणमा
ताप्लेजुङ
बिचौ
##वन्ध
राष्ट्रवाद
२२
घटनाहरू
盘
भोगिरहेका
០
भण्ड
बिगत
बार्सिलोनाका
प्रकाश
डर
राज्यबाट
पदमार्ग
玄
##प्रसार
ऽ
जुम्लामा
।]]></
##ममा
狀
सेरोफेरो
मध्या
##्यारी
##˳
नतिजा
मञ्च
अवहेलना
##ऑ
##ë
##ृतमा
특
प्रदेशमा
##ட
अखबार
पाएँ
पुनर
बढाउनुपर्छ
माफ
रहेकोमा
संविधान
तटीय
ޭ
##स्
乎
पार्यो
ៀ
鹿
ֈ
##क्व
##रहन्छ
##सभा
##ｔ
##छेउ
आत्मघाती
ट्याक्सी
हानेर
ル
時
कतिपय
##for
मन्त्रिपरिषद्को
織
बर्बाद
領
े
##औष
मुस्कुरा
後
सम्मेल
प्रतिष्ठान
81
##लुका
##ٖ
ಣ
##ङदी
科
##स्तु
発
鴈
蒂
छुट्टा
मालिक
##ेन्ट
जातीय
##쏿
news
##ich
##ƀ
रङ
जबर
प्रशास
🇻
पुन
बालिका
भएन
##पीको
राख्नुभयो
恒
सुर
हप्
##लम्ब
?
भू
##ःशुल्क
##😝
दाउरा
ƫ
##ი
चिनियाँ
एथले
ठक्कर
समग्र
नपुगेका
भरपर्दो
뎾
##🙌
##78
बढीको
कार्यालयले
पोस्टमा
借
副
##वको
##सबाट
shrestha
भ्वाइस
रूसी
एसएमएस
atom
तत्त्व
←
##lect
बायो
वर्षीय
视
नोक्सान
##लगायत
너
ˤ
गच्छ
एकमु
क्षेत्रसँग
विफल
##मुख
ٺ
कम्युनिकेशन
दिपेश
ध्यान
व्यवस्थापकीय
ƒ
╨
अपराधी
गरिनुपर्ने
##😉
अभ्या
श्रद्ध
ા
✅
##ෘ
हिउँदमा
गौशाला
##सँंग
##स्ले
jul
रिफ्र
##ंसी
आइसकेपछि
बाहेकका
ग्यालेक्सी
##छी
कागजात
साम्राज्य
##근
गरिदिन
∇
##ङ
##ٮ
बालबालिकाले
溅
##द्
##ोमा
##򝠊
तैपनि
白
भूमिहीन
##چ
बाहु
गाह्रो
##बाहक
##착
##ׅ
##ले
##हाय
रोप
##सचिव
##जीओ
##ताप
पत्र
सवालमा
पुगेर
यसबाट
而
##¸
権
##λ
##ẩ
म्यू
राजनीतिको
घनश्याम
शार
05
त्रिशूली
हिँड
马
##फोन
##कानी
##ीले
チ
रिय
##सेव
भारतीय
योगदानको
पहाड
सट्टा
##नाथको
सानिमा
लिंक
瞱
श्रीकृष्ण
नेपालमा
##वट
):
论
ݧ
जिप
ठाडो
读
हिँड्
संस्थापन
段
मार्
एल्बम
झापामा
चन्दा
क्षेत्रमै
दुतावास
नुवा
सेल्फी
ߎ
मंगलबारको
हदै
##ard
गुमाए
गेट
लिमिटेडले
पाँचौं
##들
नवौं
ൈ
##ベ
निम्त्याएको
साथीको
हातले
दुर्लभ
बर्द
##मार
किनेको
जडिबुटी
"><
वर्षेनी
होटेल
##ݜ
पारिएका
स्पष्टीकरण
##**
sang
फाट
##मित
##á
##ण्डकी
विभागबाट
चाहिं
χ
भुसालले
पोखरीको
कार्यक्रमलाई
युट
##रोड
##पश्चिम
तयारीका
स्वामित्वमा
प्रच
क्षमा
आवे
##रुद्ध
##ர
̍
पूजापाठ
##ċ
आगजनी
विद्युत्को
नेपाललाई
##ʝ
否
सिक
55
कञ्चनपुरमा
आकर्षक
तिल
स्वामित्वको
अन्तशुल्क
विवाहमा
गर्नेछु
岳
##श
अन्तर्राष्ट्रिय
निख
समेटिएको
堯
दर्ज
##वेल
##ौना
##रिव
##श्चित
##por
अभिव्यक्ति
##ȟ
##तीकरण
व्यापारको
नेतृत्वलाई
नेपालीलाई
क़
##आएका
आँखाको
many
龍
##ष्ठ
##चनको
ܥ
अनुकुल
~
सार्थकता
भएनन्
हस्ता
पन्तको
हौसला
##श्व
##ट्स
छोराछोरीलाई
देऊ
वर्ग
力
उसकै
"></
लगाउनु
##ɾ
##णि
धारण
##ז
##रका
##दाम
इमानदार
इलाका
с
ི
२००१
नभएर
##देवी
बुटवलमा
##हरुमा
##वहार
चुनौतीपूर्ण
##ᤵ
果
##मल
##ion
##ڈ
अपाङ्गता
सतह
लेख्न
हेरफेर
कुवेत
गर्छ
ੰ
तम्
बाध्य
स्तरो
पछ्याएको
जाति
न्यूनीकरणका
쉠
भिडियोमा
##☺
दरबारमार्ग
किराँ
做
뿐
売
निया
₋
##यमा
載
गहि
##ाएर
क्ला
भइसक्यो
मार्मिक
##ߒ
##ृह
धर्म
##が
बस्य
रोनाल्
ਹ
論
हजारौँ
ब्यान्ड
##मला
march
##निय
##बादी
बारम्बार
##ォ
ត
तुल
प्रधानमन्त्री
##बिन्दु
जापानमा
##ģ
ב
२८
લ
び
##पन
यौनिक
स्थानीयको
##कारी
सिमरा
##आउ
ट्विटर
##लाइनमा
pra
mad
##पोख
गिरफ्तार
छोट
गरिसकेकी
भन्सार
बेवास्ता
रुचाएका
भइरहने
गीतले
हटाउनु
एण्ड
姉
##न्वित
कृषिज
जाग
परियोजनाले
बस्थे
सामथ्र्य
##सम्ममा
है
ж
🙏
२३
तिनै
##क्वि
बृद्ध
अन्ध
義
##ĝ
##ङले
बंगलादेशमा
बेल्ट
रजनी
हिं
流
😛
span
ੱ
चलाएका
रोपा
वर्ल्ड
महिनाअघि
##सास
पर्खाइमा
##â
##जाम
##ेम
मुद्दालाई
परियोजनामा
##कालु
मिचेर
ื
देखाउनु
##ंच
在
##ע
भनेजस्तो
경
留
伝
धारा
अर्थपूर्ण
कुश्मा
छत्र
पैसा
सुह
भूल
कमिटीले
##ȹ
ḍ
पत्रकारलाई
सुनाएको
##स्थ
तामाकोसी
मिथि
##्यौं
려
चयन
यन्त्र
##जोरी
सशस्त्र
۰
भिट
खेल्दा
राज्यको
kn
सम्बन्धको
ۉ
व्यापारीको
##ב
며
##현
शृंख
खड्
शत
差
गरेजस्तो
यद्यपी
限
ー
人
##....
##ٰ
sadhana
##गढ
राजदूत
巌
##वृ
निगमको
당
##मतो
##ish
सकारात्मक
ɞ
निकाल्न
राशी
स्वास्
##्र
֝
उम्मेदवारी
रेन
##स्वास्थ्य
##ेलो
दाई
##विरुद्धको
##🌡
？
じ
भन्नु
҂
जोगिन
पितृसत्ता
##ぜ
හ
धनमा
मञ्जु
##क्न
##वान्
##ߍ
मन्त्रालयले
स्वतन्त्र
##बहादुरले
अभिने
##act
भ
査
पहिरो
क्याम्पसमा
आशामा
##ियोजित
##द्या
उम्मे
नामको
बिस्
निलम्बित
完
तवर
ज्यादै
स्थायी
पौडेलको
प्रवद्र्धनका
##용
晋
##्सले
सन्त
सङ्कलन
ससु
✊
देवानी
अत्त
काउन्सिलको
ठाँउमा
##ाको
毫
##र्सले
स्पेनिस
##̔
##फोड
चत
असामान्य
##डीले
अफगानिस्तानमा
क्याम्पसको
ݜ
दोल
##मलेन्द्र
पूर्वअध्यक्ष
ż
जोडिएर
##मन्त्रीले
तथ्यांकअनुसार
अक्षर
🆚
##ਈ
क्वाल
##शुराम
घुम
혰
लचिलो
दुर्गम
책
आइत
##ेशनमा
०
neta
शिक्षकलाई
सौन्दर्य
##फानो
##हरा
영
߻
बाढीले
##시
होटलको
दशैंमा
गर्नुको
हुनुपरेको
◀
ढंगबाट
गड
अध्यक्षको
युद्धका
लोकल
y
##प्पु
##স
इटहर
嫎
𬧟
##सिया
यौन
로
ʏ
विडम्बना
😋
महाधिवेशनमा
秲
競
जानुपर्ने
##ノ
कुमारी
दर्शना
बलात्कारको
गुमाएर
##ϼ
टाँस
बस्छन्
बुझिन्छ
अद्
问
हिँडेका
टेण्डर
ब्र
सयभन्दा
턂
समाजमा
ッ
##ൻ
ins
##ङग
वयस्क
̒
ꁰ
चौधरीलाई
##वर
##ʑ
हटेको
पु
०७३
跨
बढाइ
##एल
goo
कार्यान्वयनको
##ौड
कूट
केसीको
##शू
जुट्न
धक्का
##ܑ
पठा
फल्ने
सङ्घ
##적
##चाई
कांग्रेसका
हर्
बदलि
थेग्न
̤
मानव
ⱦ
ल्याउन
उपलब्धता
べ
बढ्दो
मोह
འ
觉
खेल्नेछ
ٔ
##©
बैंकिङ
मायाले
##वागढी
##तमा
मर्मत
##sp
समायो
ן
जित्नु
典
産
google
विक्री
광
##वाणिज्य
विशिष्ट
सञ्चारमन्त्री
तसर्थ
톬
वैधानिक
नराम्ररी
##आज
संघीयतालाई
अक
##लगायतमा
फोर्ब्स
绍
##क्रो
generator
खराबी
##ank
दर्शन
मुम्ब
मधेशमा
लगाएको
कार्यशैली
स्टे
师
कां
##बि
उपेक्षा
संरचना
讯
谈
सत्तारुढ
雄
एउ
?</
सन्दर्भमा
आजको
एन्फाले
炼
तस्विर
सद्भावना
ﾉ
फर्किने
गर्दाग
क्याब
牧
मलेसिया
較
ۤ
मन्दिरमा
सक
अच्युत
युनियनका
##काउन्ट
##ɬ
토
टोप
2018
भिजन
बाँचेका
सिङ्गो
घे
कार्यपालिका
कतिले
廉
##लिया
बास्केट
नभ
ٱ
अस्वीकृत
वास्तवमा
σ
पूर्व
लैंगिक
慮
दिलिप
央
रूपा
शहरमा
नहुन
합
त्यसबाट
##of
##डित
##ofnepal
##पीमा
my
खोस
शुभचिन्त
ट्रेड
្
दु
竟
ईन्टर
बाध
##दोहो
कब्ज
ꕄ
बजे
ड्रो
##💐
##ü
नचाहने
प्रेस
㤱
प्रतिनिधिमण्ड
विनि
धनुषा
宵
राख्नुपर्छ
आवरणमा
##ג
बहुम
ő
तीत
पर्दै
039
पूर्वको
##ड्दै
तिव्र
ब्यानरमा
उल्ट
चढेको
##र्चा
≈
##प्रश्वास
##ण्ट
##म्र
##🇴
बुलेट
संवाद
दाय
##¬
खोल्ने
ӫ
शिका
हिसाब
##द्धा
##नुपर्दछ
##रायल
विजया
ઇ
##खार
##्यारा
ব
ق
##“
##कन
देख
पाठ्यक्रम
ﲥ
पुस्त
भूमि
श्रा
खाल्डाखुल्डी
方
##ε
즈
प्रवृत्ति
भंग
कमरेड
##बक्स
खानपान
सहमत
भाष
##्याइएको
##पान
छक्क
걯
राइन
##🇰
गरिदिनु
##डामणि
##દ
अनलाइनमा
दाहालले
##톤
गएराति
बढाइएको
at
पाथी
विहीबार
##ι
ગ
步
सक्नुपर्छ
ਘ
चाहेमा
संगित
हुनेगरी
व्यस्त
##र्पण
株
##ura
सकेनन्
सरोकार
रिमाल
因
कार्यक्रमबाट
來
खरिद
आफूभन्दा
प्रगाढ
करणी
##न्दर्य
जाव
ढुक
छाया
##ress
72
##hrm
याम
गोरख
##tha
##페
हुँदा
चिकित्सकलाई
पाउँदैनन्
महिलाहरू
##펒
उपयोगी
खेती
£
讓
##ामिन
छोडेको
##त्ते
##ost
局
सिर्जना
##ीकरणको
ठूलो
##रको
मता
मेट्रिक
ج
八
आफूहरुको
गर्दे
निर्वाचनपछि
फाइल
सर्क
दर्शक
अग्रता
अम्बिका
लेखक
रहयो
निस्तेज
##ेलमा
हेलिको
⋲
केयर
बुधबारदेखि
जीएस
जयनगर
भवनमा
##ী
इन्चार्ज
एयरलाइन्स
竳
##ैनिक
मध्यस्थ
टाइट
तिर्नुपर्छ
##ਛ
तस्करीको
लोकगीत
꯭
एजेन्डा
쯬
परिभाषा
टोकियो
हिजोको
व्यवसायीको
##टरमा
एकरूपता
नैतिकता
##राजा
डुब
वाटर
डुबानमा
सक्थ्यो
सम्प्रेषण
गरग
संलग्नलाई
पार्कमा
माटोमा
##ನ
जनगण
देखियो
航
सर्वोत्कृष्ट
2016
पिलर
जरुरी
ে
असोजमा
पढौ
ި
उपस्थित
बिता
##겨
स्थलगत
शशांक
डरले
്
ո
जोखिमपूर्ण
झगडा
गतिको
##चलन
ݻ
खर्चेर
ज्वाला
पर्वको
ۥ
܊
ļ
##ߵ
޶
सुनौलो
जोशीलाई
著
अप्
ె
श्रोत
यथावत
待
##सम्बन्ध
आवश्यकताका
बूढा
♦
झलनाथ
गर्नुपर्नेछ
भइसकेको
निम्त्या
खत्री
##ԧ
उजागर
हमाल
朵
辉
ą
पोर्चुगल
##म्स
㍕
##लाल
͌
चलाउँदा
सहकारीलाई
टेर
सबैजसो
杣
कानूनी
辨
邦
परराष्ट्र
样
सागर
##🌷
गुरुङले
सृ
उत्ते
◄
चौं
सांसद्
##रोपण
罩
વ
惚
乾
##ु
व्यवहार
56
क्षमताको
ब्रोकर
परीक्षामा
##ाइमा
चलाउने
##ȱ
वाम
बढीभन्दा
##कारले
6th
##ामक
निरूप
पदार्थको
स्वयम
फर्किएको
ξ
##द्रो
बोला
ꭝ
जोडिन
कलाकारलाई
माल
सोलुखु
😁
अस्व
आनन्द
फाल
भैरह
체
##ष्णु
खाँदा
यात्राको
##्मा
価
##हरुलाइ
जेष्ठ
जंगली
##बेदन
तता
हेलिकप्टरमा
अन्र्तगत
अक्टोबर
च्या
जन्ती
उम्मेद्वार
चिन्ने
रह
ݰ
एसोसिएसन
##वरीमा
koseli
##69
ٵ
भित्
२०१७
सनाखत
गर्नुपर्छ
गोल्
पुग्
भएकोमा
##҄
दायित्व
फाराम
ბ
##써
डिग्री
ल्
ꊳ
लेग
##नुपरेको
नआएपछि
जिताउन
ལ
ठान्ने
सुना
##क्रान्ति
##धुर
##रालाई
कारखाना
रक्तदान
##͌
##र्देश
रबि
##ӗ
##م
䢩
अधिकृतको
廊
##न्दुले
धर्मनिरपेक्ष
玫
##वाज
ڌ
횶
##ș
##ö
हिँड्नु
मुश्
समृद्ध
रोजाइ
##한
##ο
कैला
京
दिनहरूमा
##वरण
##संरचना
थिम
चौका
बेमौ
दब
गुणा
बक्यौता
कपुर
अस्थ
काभ्रेप
##ms
जन्मकै
चापागाई
बसेर
¹
##ѩ
मिसाएर
审
नजा
febr
##सू
टीका
##साम
##ΐ
##ाल्
खुलेर
मड्रिड
चालकलाई
मिहिनेत
##ियमा
हुदाँ
also
済
̲
वितर
ൃ
##ेटिङ
चिन्न
समिति
ಬ
葉
횂
जस्ताको
ﶂ
एकमुष्ट
##ारीको
ա
मनपरी
##तिष्
६३
किसानले
परिचयपत्र
अस्ट्रेलियाको
उमेरले
भग
जौ
क्लबको
कलेजलाई
गिरिराजमणि
ध्यानाकर्षण
́
颈
संवेदनशील
देखिने
दिएन
##ियानो
##स्थित
##ᇟ
_bl
भइन्
लगाएपछि
##तै
##20
किनबेच
नगरेको
##ݍ
ɩ
##ail
लगायो
सर्वेन्द्र
कृषिमा
from
सम्
प्राल
लेखेर
毎
संघीयताको
प्रतिनिधिसभाका
नेताको
##ť
β
##्युत
सरकारकै
供
छर
蜯
##िसी
ल्याउँछ
बिहीबार
देशभित्र
मनाइन्छ
वी
स्याहार
ѷ
संचाल
निर्माणाधीन
खुद
क्यु
##म्बा
˘
##ٔ
is
गौरवको
टी
december
संग्रहालय
खतरामा
समस्त
##ુ
饭
यज्ञ
##खालको
ㄩ
压
ׄ
रमणीय
##재
ԃ
##３
ê
##ߑ
श्रील
स्वार्थका
ຯ
風
##ჭ
बढ
साधारण
एकतामा
सयौं
भ्या
##यर्न
９
##ष्टि
फौ
##क्ला
पारस्प
##बुक
अस्वाभाविक
बन्दैछ
##ो
उडाउने
सुनुवाइ
हल
走
赏
##काएर
##बिरुवा
समस्याबाट
समितिमा
##ज्ज
##वाली
##स्ट्र
कपडा
बन्नुपर्छ
अस्ति
गतिविधिमा
महतले
勉
२०३
##बहि
##लैया
뷶
##फाम
##सकेको
तमा
##नुपर्
सञ्चालित
बहिनी
शरणा
सिको
बढेका
खोला
उपमहान
郎
ϖ
ट्याक्स
...’
विश्वविद्यालयबाट
oth
सीडी
सुबि
##आइ
##वह
सार्न
##۳
警
##ंकी
ǡ
ढुङ्ग
##90
##ीमाथि
पक्राउ
पथ्र्यो
坂
隣
##हल
##हस
त्रा
##͠
##स्व
##າ
जानुपर्छ
पढ्नुहोस
आमाले
अनुदान
盧
निष्ठा
ѩ
सञ्चालकले
त्यसयता
सम्बन्धलाई
संख्या
उजुरी
जवान
链
mod
परम्परागत
##ֈ
##िनेछ
##कर्मीले
chairperson
素
परिर्व
दौड
##वाङ
यहीँ
हर्ष
मल
৭
शिशु
##서
##ᤔ
ॡ
᡻
환
एसएम
प्रशासनले
##dha
ਥ
प्रबन्ध
af
ओझा
टुंग
ქ
चन्द्रमा
काँग
उतारच
हुँदैन
##ც
बिगो
##सक्यो
##ोटी
बिभिन्न
俊
##ेश्व
चाँडो
##राई
टस
अलिक
ब्लु
ताम
ـ
虎
सुविधामा
स्याटेलाइट
##ाइन्छ
वर्षामा
##ğ
##खल
五
👨
к
सुनाउने
##दाता
##ुप्र
##ौलाको
यो
##55
जि
##धीश
आत्मक
संरचनामा
##96
चतु
##ीकै
अबस्थामा
##हना
गतेसम्म
तस्वीर
##˪
बझाङ
नेम्वा
स्नातको
##ï
些
खा
छोप
मिलापत्र
खुशी
बलले
तालिममा
पुरा
##डका
प्यानल
व्यापक
##ला
आँग
ठोक्
पर्वमा
परिमार्जित
##『
##टिप्प
प्रदर्शनकारी
int
##conom
ⳁ
सहमति
##गा
##वार्ता
नअ
झ्
专
##ँदैनन्
डलरमा
tue
ध्याना
##स्ताब
कोषको
सहानु
##म्मे
म्याग्दी
##यात्रा
संघीयता
परे
सेवासु
戦
पुस
सुनु
侃
孞
अभिभावकलाई
##സ
कमाई
गर्नुहुन्छ
##ल्छ
##р
ഥ
स्वरोज
̄
लुम्बिनीमा
ʽ
बुकिङ
रुपन्देहीका
##ͫ
ấ
˷
जैविक
सेन्ट्रल
##हुन्छ
तालीम
एअर
पीडितले
पोख्रेलले
ढ़
ʻ
संकल
##ֆ
class
नामका
##प्रेम
हिसा
##बहादुर
腐
ܭ
##ꍣ
टेलिभिजन
गंगामाया
移
##चर
##av
अड्
ो
##ù
भूकम्पपछि
हेरेको
##स्ता
͙
काँग्रेस
गर्नाले
फिलिपिन्स
ほ
ഒ
लापरबाही
疶
छुवाछूत
##ﾞ
ठोक्क
खुकुलो
वनको
श्रमदान
##त्तो
वाणिज्य
देखाइ
嶽
अन्त्ये
؞
##शेर
दलीय
लैजानु
秤
धुवाँ
竿
अपरा
म्याच
मद
स्पेन
अण्डा
बोर्ड
लाभा
ｫ
काट
担
सम्मिल
भरिएका
विस्तारमा
큮
कोशिस
ྟ
曜
##ɓ
गर्भा
ढकालले
मोबाइ
बाध्यता
##वृद्ध
अन्नपूर्ण
ȹ
लम्बाइ
अधिकतम
डोज
##ۄ
सतहमा
##नेर
##व्यापी
##ंग
##हीको
򤨪
##वार
छुट
ताका
潟
आउट
नाराका
##ۑ
रहन्छन्
##а
巻
वितरणका
जस्तो
񤔇
̋
##दास
काग्रेस
升
न्या
कोहलपुर
नेपालीहरू
विषयहरू
तिरेको
១
डिजाइनमा
##कुद
##ɗ
ba
नारायणहिटी
杉
랍
##स्टा
किलोम
##धी
##ष्
आयोग
घन्ट
##μ
ű
अविरल
बरिष्ठ
सीएम
कीर्तिमान
मुना
##출
थालेकी
करेन्ट
त्रिपुरा
फुटपाथ
##धानमन्त्री
】
##ܦ
##धु
सोसाइटी
##ꊒ
उपक्षेत्रीय
मृत्युको
गुमाएको
##राज्य
प्रतिवेदनको
۾
उनैले
ム
##56
असु
##ौटे
जाडो
势
꯫
与
##ारको
बाजुरा
##ձ
नेपालले
##न्दैन
ct
सातदोबाटो
ݲ
पिता
सेन्टरको
पार्दा
धरापमा
रिफर
वि
सम्झौतापत्रमा
टोक
##き
चौथा
रातभर
##मस
थान
治
##่
व्यापारमा
चारै
렶
शुन्य
पश्चिमा
साइटमा
दमौली
बिर्सन
सचिवमा
##՛
ذ
##ोस
बेवार
बैदेशिक
प्रवर्द्ध
##თ
माविमा
माथि
ѽ
##वसाय
गर्नसक्ने
賀
यसपटक
##ँच
##हित्य
चलिरहेका
जोर
महासंघका
✉
रुसको
स्वीट्जर
विद्युत्
उहाँहरूको
摄
छिट
##तर्फ
##कांक्षा
##लेको
##վ
पूर्वाधार
हस्तान्तरण
hamro
त्यसकै
दस
प्रस्तुति
ज्यो
逐
अधिवेश
पाण्ड
अमृ
पदमा
कित्ताकाट
##ǿ
हुला
##मय
##😎
साउदी
##0cpb
##ine
##덌
##फाइनलमा
समीक्षा
फर्नि
कानुनको
धनु
राजमार्गको
जंगल
सङ्गठन
##ोध
##जले
ल्होसार
अलैँ
##🐒
՝
बनार
मतले
婦
ょ
दुबै
最
रौनक
##ý
##ैको
मेयर
पश्चा
उल्लेख्य
नुवाकोटको
टिकट
शित
##ഘ
߬
भर्न
आम्दानी
∘
जव
##पुछ
拿
ާ
##ारायण
साहित्य
गिद्ध
##49
प्रतिस्थापन
नराख
16
प्रको
सम्प्रदाय
इस्ट
कमाण्डर
٣
भइन
过
तिब्बती
##र्या
उमेरका
कवि
आहा
राष्ट्रियसभा
ट्रान्सफर
##합
सुरुआ
बहुप्र
ｇ
ݹ
##ज्ञा
##मूलक
संस्थागत
##ंगत
भगवान
뚻
ब्यब
ठाकुर
साँ
ड्रेस
बोलाइएको
मंगलबार
ϗ
##टेक
नजिकै
रेमिट
अचम्मको
并
放
##ृंख
祝
約
##र्ख
परिवर्तन
मानवअधिकार
तलब
बहिष्कार
२००५
종
स्तन
काठमाडौँमा
##रात
उनीमाथि
घु
##۾
##बखत
असुल
सहुलियत
नाइट
##ेनि
##त्रै
च्यालेन्ज
शहरको
सहभागीले
π
##ϲ
फायर
##ܳ
ब्युँ
शैलीमा
贊
壇
宫
望
फिल्ड
䡛
##गढी
忧
##ɠ
सिइओ
ồ
҉
बुढाथोकी
पढेर
बडा
❣
जनरल
##िप
जितको
##वली
नट
##χ
##݈
खासै
संस्थाको
##निक
काठमाडौँका
कार्की
ݐ
दीपावली
बजेटले
##सिनाले
ȵ
पालै
विद्यमान
ទ
彻
权
तपाईंको
आमाबाबु
एसपी
चासोको
##ow
##70
岛
##ठनिक
##청
鸭
索
##कारण
मार्गको
निम्त्याउने
##पहिले
💓
इरा
##쏄
नजिकबाट
बल्खु
भारतको
सम्भाव्य
रही
नका
कथाले
जेब्रा
ꭷ
सेलिब्र
आँगन
चामलको
politic
सोचेका
ӝ
ΐ
बोकेर
##ۖ
ढु
रातमा
##ст
कुराकानीमा
##छ
ҳ
बालबालिकालाई
##संँग
अत्याधिक
महेन्द्रनगर
##ication
केरा
विशेषत
醋
ߏ
एप्प
तरिका
बजेटबाट
##्लाद
प्राप्त
疼
错
बाटोमा
##िल
值
जिल्लास्थित
9
##ì
बिम्स्टेक
साँझको
मैथि
सांकेतिक
ट्रया
नया
##ܪ
हेर
##नगर
onlinekhabar
##ँदैन
छोरीको
キ
स्म
劲
॔
##िएकाले
अचम्म
##탄
##डाका
प्राथमिक
公
मोदीले
##ތ
नगरपालिकाले
प्रतिनिधिस
##ყ
हले
靺
जनमानसमा
फसेको
68
##बरको
##वेदनमा
##😹
पोर्चु
प्रजनन
भेलामा
माथी
बग्
ם
트
ғ
लिम्बुवान
ठकु
विपक्षमा
मुछ
##िसम्म
##खुसी
##सीय
बिक
भिक्ट
हजारका
关
ܼ
##दर्श
견
##परिषद
842
निस्किएको
ȃ
⋆
##र्धन
从
##💕
नगर्दा
माटोको
म्यादी
आफैँ
जनवादी
##औषध
रासस
超
ؕ
##चा
दर्श
बाँकेमा
स्थानिय
मनो
##परिवार
कान्तिपुर
##दण्ड
##स्पर्
ग्राभेल
मतभेद
ჩ
膨
##्नासाथ
##खोला
महल
##ोले
##अ
april
##õ
≧
##्यान
##€
##मिथ
ԩ
उहिले
कार्यदिशा
रक्षक
음
पुग्ने
यश
उपल्लो
भूमिकामा
##तु
##ियामा
##ת
७
€
आव
बाधा
कमाएर
बाली
कने
तुलनामा
नवलपरा
बेहोस
\
आउन
♯
这
招
श्रीराम
##त्तै
नजिकैको
##िका
मन्त्रिपरिषद्ले
💀
अपनाएको
╘
焼
꨾
##नुभएको
##न्म
रामपुर
फर्किए
लाजि
底
ƙ
सहजता
##ौला
ओभरमा
इन्ट
समुदायको
模
दाबी
选
##ள
बाँकेको
चित्रण
एस
ƌ
##way
जुटाउन
साम्राज्ञ
##ङ्गो
वडाको
称
फोर्
कम्युनिस्ट
##ე
अनुभव
देखिएन
डोजर
बताउनुहुन्छ
हुनुहुन्न
क्रोएस
अफ
हरू
艕
##सिं
एज
प्रायः
体
新
##डम्बना
अल्झ
नसकिएको
##인
##ेल
ત
##დ
गरिसकेको
सैद्धान्तिक
##स्टिक
संहि
ზ
भव
嫌
४५
河
##햇
गुम्बा
बाराको
##जन
sp
胡
बस
##ured
trig
चित्रकार
##ature
सतर्क
ﴌ
ट्या
盐
##ۉ
मस्
अस्पताल
बुढी
##ुपयोग
⺈
##ियाली
लामिछाने
##자
जिज्ञासा
सुदूरपश्चिम
साहित्यमा
प्राविधिक
कर्जाको
वडामा
cdata
額
##✅
##द्दी
##🎥
ご
##िरहेको
##चीन
##ल्नु
उदय
सिन्ह्वा
www
##ंह
आवधिक
##ियु
仪
ꚹ
##जीमा
your
##ۀ
मिलेर
नदिँदा
पछा
棱
##लाका
##चमा
मधेसमा
ޠ
😂
住
##ator
उदा
चौरमा
एकदम
媒
##मै
गृहकार्य
■
माउन्ट
that
##छि
##इन्
##इएका
अनुमो
ј
##कता
4th
ग्राहकलाई
ṣ
प्रविधिले
मास्ट
応
चितवनका
19
सेक्युर
सयदेखि
##ैँ
希
लाइनको
皱
बुटवल
बिष्णु
##혜
ब्रह्म
हर्षित
गुणस्त
□
##86
!
##किलो
दूध
संबिधान
ộ
ន
ा
变
दामोदर
##टारमा
ަ
सम्भाव
na
न्यौपा
aug
##ज्
̀
एउटी
थोर
बेग्लै
ങ
पाएकी
韓
कठोर
प्रब
隐
उत्पीडन
पौने
प्रअ
誕
##्वाइ
कम्तिमा
##យ
नेतृत्व
सात
##बहु
##बम
सेफ
बखत
त्यसैमा
कारवाहीको
ۖ
स्वर्गीय
क्लि
बिरालो
बर्दिया
䉉
ᇟ
春
पुगेको
पाएका
उत्रिएका
पाल्ने
शौच
產
b7
नियन्त्र
पट
卉
４
वर्
गस्ती
##वेला
##ਭ
##प्रे
जना
सिंहको
##ामै
साधु
ل
क्यानाडा
दिनभर
प्रजातिका
汽
送
हराउने
भाका
११०
एकतालाई
होड
😎
扮
बसोबास
##rap
##ޖ
शाक्यले
आममा
##शल
##्सको
த
ti
##्राचार्य
मन्द
चाहिएको
देवीको
##शको
ׇ
##क्षामा
呀
प्रतिनिधित्व
भएता
बजाएर
##फी
朱
##작
仔
##िमेट
उचाइ
जेठो
पाएपछि
֪
यसका
यसप्रति
सङ्ख्या
किनारा
स्वस्थ्य
渔
##토
##नीको
##वैधानिक
काले
जलविद्यु
भूमिकालाई
##🙈
##ल्टी
##ড
˶
##񾘤
##オ
निम्ति
पोखरेल
达
सुशा
सीता
预
आठ
सहमतिको
粟
अँध्यारो
वर्गीय
##सद
̓
नैतिक
बोग
★
बिहि
पाप
होइनन्
##ɋ
तारिख
९
पत्रपत्रिका
🇵
यसअघिको
##̇
##ܾ
व्यक्ति
肪
病
शत्रु
풼
कोलका
खण्डन
सीसी
##ζ
##ử
填
##तीर्ण
##प्रधान
##्याप
अछाम
उपमहानगरपालिकाका
बेमौसम
रूप
➡
億
＠
डिफेन्स
लत्ताकप
令
ओमान
##जीपी
स्थानहरुमा
गराएको
##ឡ
अस्पतालबाट
##ギ
काष्ठ
पढाउन
बस्नेतले
##ed
सोमबारदेखि
उत्पादनका
साल्ट
##रीक्षक
दैले
महँगी
सुडान
േ
##मन्त्रालय
परनिर्भर
बनिरहेका
मुस्किल
भैं
वज
other
ह्वि
२०७४
欧
गुप्
रोचक
दैवी
सक्षम
է
औ
कनेक्टिभिटी
ग्रेड
好
ཏ
능
##ुण
लन्डन
सेप्टेम्बर
倒
履
एनआरएनए
धन
买
ब्रि
लगभग
हृदय
नआए
赥
कब्जामा
बोक्ने
ឲ
۪
गोठ
26th
##ჰ
ʒ
इन्सट्यान्ट
to
ग्राहकले
कुर्सी
##पहल
कर्मचारीतन्त्र
मन्त्रीको
##ʃ
दूरी
मेगावाट
##ټ
प्रायोजन
##वाला
##ाउँ
किलोमिटरको
पराजुलीले
鶏
##޶
चिकित्सा
पाइँदैन
統
एसोस
##__
आइओ
प्रक्रिया
उहा
搏
हत्यामा
फेर
##गात्मक
##षा
कहिले
रोगले
नपाएका
##디
≤
पहिचान
ǚ
00
##뷶
जिल्लाको
भागी
एकात्मक
##ियर
##सहितका
पुनरा
विवरण
रोगका
सुनिश्चितता
##पीडित
नखुलेको
##œ
ٮ
庉
माता
ٟ
अघिदेखि
सर्वत्र
##बारी
भन्थे
बताइएको
##कलाई
गाउन
जन्माउने
##ន
फाइनान्स
बुझेको
崦
महाधिवेश
सुन्द
币
相
क्विन्टल
##ߘ
विद्यालयले
尭
कलाकारहरुको
धरहरा
बोध
ρ
खानले
##टस
आउँदै
गल्कोट
##월
तहलाई
मौद्रिक
सम्वन्ध
ス
जयन्त
஗
##बिज
##सनी
बगाएको
हलेसी
##ोत्कृष्ट
पाइन्न
खेलमा
इलेक्ट्रो
##एन
##ͻ
बसाइ
##काको
##लर
ke
कार्यका
##ारूढ
##जल
##֖
बुधबार
होमपेजमा
##ंकर
प्रार्थ
ܔ
##पश्चिमाञ्चल
##ɖ
劉
मजा
##र्वा
संविधानसभा
कारबाहीको
चर्चामा
##आफ्नो
तर्फको
؋
आंशिक
न्यु
वस्ती
##क्सको
विचार
과
##यकोष
मर्न
ྴ
##राष्ट्रपति
##ട
҃
पवित्र
ܵ
are
##ѷ
महंगो
किमी
भत्
##दि
एकाउन्ट
##होरो
##लिएको
पर्यटनमा
##र्ल
सकेर
थारु
ൂ
##र्समा
निगमलाई
##ҥ
显
財
बिजुली
निर्णयले
जबरजस्ती
जनविश्वास
④
脂
谓
ܗ
片
##ुट
मान्द
˕
विद्यालयलाई
लेख्ने
##0
आग्रह
業
सुरक्षामा
##워
한
##थिको
貴
न्यायाधीश
श्रीमतीले
︢
😳
कम्पनीसँग
##̸
इन्जिनियर
कट्टर
बर्षीय
♂
玻
न
##ate
भ्रष्टाचारी
विवा
##ɛ
##िमेन्ट
इतिहास
##गाड
आयोगको
स्याङ्जाको
लाग्न
複
रहे
##इट
ᤥ
ट्रेल
##देशीय
##ule
׬
裔
डेटिङ
##अनु
बिहे
म्याक्स
हब
७८
##и
ठेक्का
##ब्लिक
##ँस
周
साब
##व्याप
लिँदै
हुँदै
ȱ
趱
संयुक्त
##दु
##वश्यक
समुचित
छिर्ने
स्टा
हँु
योगदान
欵
पर्यटकका
संविधानसभाबाट
乔
𗲜
##न्डिङ
बसोवास
मर्स्या
दोष
सदैव
फुल
स्क्रि
थापाथली
२०६१
निकालेर
सेके
푋
살
##§
अस्तित्व
♠
网
आएपछि
##ك
ब्यबस्था
##〝
ع
##ڕ
खास
##😓
उद्य
नामिब
बनिसकेको
ﭧ
सभासद
आकर्षण
##तिमात्र
बनाइने
मसान्त
मेरु
##ई
ब्याटिङ
झर
गन्तव्यमा
##ेजस्तो
प्रतिष्ठानमा
啊
##च्च
मर्म
勇
मुक्तक
रेस्ट
👇
अभिव्य
युवाहरु
कला
गथ्र्यो
##기
"
ۓ
जानकारी
नागरिकका
क्वाटर
졌
##सिप
[CLS]
ĕ
डु
गरिरहे
न्युनतम
प्रणाल
सुल्झ
अनगिन्ती
##̈́
कठिन
पाचन
गुगलले
##वादले
##्ला
भत्ता
नक्सा
सेवामा
अह
प्रकट
##डिखेल
##ި
##б
22nd
महिलातर्फ
ۡ
टन
मौज्दात
परिपाटी
##इड
छक्का
##प्तीमा
कार्यहरु
删
जेस
योजनाअनुसार
स्पिनर
⇐
󠆶
🙌
पूर्
##제
१५०
##ឹ
आईओ
आङ
हामीमा
विजयी
繞
कोरियामा
लाग्नुपर्छ
##ɯ
बस्नेतलाई
क्वालि
##इने
बिल
ᤩ
टेबुल
品
सदस्यता
∞
##ٜ
##लिस्ट
##🎹
कोठ
##ȳ
출
͝
##혐
##og
种
##경
तिम
τ
पञ्चायत
चुन
##니
बाह
ź
यहा
सम्झौ
गइन्
माडी
उमेश
##दुर
##चुली
काल
术
नफर्क
९७
##च्ची
आश्रय
比
८६
गर्नुभन्दा
प्रकाशित
सालदेखि
##न्टल
क्षय
##न्द्र
उनि
कमजोरी
ڝ
उत्खनन
दिउँ
समालो
अध्य
टीभी
##ⲏ
कप्तानीमा
good
蘭
豐
##क्कै
एश
खानेकुरा
बहसमा
झापाका
绘
राष्ट्रपति
प्रशारण
##ਾ
##ंग्य
पोख
猜
कात्तिक
##हारिक
8230
崎
खनेर
連
##ated
दाइ
##कुल
बिष्टले
sak
ˠ
सर्वसाधारणको
दुर्घटनाका
हाँस
उनी
##ǜ
##ूद्ध
यात्रुले
##45
बेका
ǎ
ठाउँमा
食
##ger
भागमा
दृष्टिकोण
资
ˉ
΀
निगरानीमा
ߚ
पर्साका
प्रक्रियाका
सर्त
सिलग
पटेल
नं
हराएको
##लमार्ग
राष्ट्रपतिलाई
कुना
चिज
जन्मस्थल
सबस्ट
󠆷
̉
##रि
##ass
स्थ
इप
निकायसँग
ɍ
͊
गाउ
큰
ᚔ
परेकाले
##पहिरो
दस्ताव
आँखाले
सदरमुकाममा
ü
##प्स
pahil
नाता
##𖾄
##लीको
##안
ब्याट
मोदीको
जबर्ज
टहर
चिन्ता
हैदरा
सर्वहारा
̧
ൽ
पोष्ट
态
##तृ
चितवन
प्रदूषण
##ियाे
तेह्र
दरखास्त
铭
फलफूल
##र्रा
##ԩ
ओर
बहसको
##?
##ेलले
貸
गर
पढाइमा
*
काठमाडांै
##वारी
कुशल
प्रदु
संकलनमा
੍
सदस्यहरुको
मिनेट
गाँजा
##तर्फबाट
चिन
瑞
络
##रहेको
##स्तोल
झल्क
परिव
रीति
स्थिति
##खेल
थुप्रै
##निकी
गोर
महाकाली
##रोधा
̯
चलचित्रका
बेच
सहन
लयमा
कार्
भण्डारीले
खरिदमा
टेलिभिजनको
स्वायत्त
ɾ
艤
टिमलाई
बढे
लोप
तालाबन्दी
अँ
तेल
जनालाई
##～
स्वेच्छिक
##ꕊ
아
प्रदेशसभा
##%
दिएकाले
##î
##ैंचा
##ẹ
गीतकार
##चारु
बलात्कारपछि
᫞
؝
चल्ला
नियन्त्रण
पदाधिका
奴
स्ना
करुणा
##ឲ
##핕
봉
बुझाए
परराष्ट्रमन्त्री
##टप
݁
महिनामै
론
##get
खण्डको
ढाँचा
↓
##पनि
प्रश्नमा
脉
निर्णय
जसबाट
##marg
कार्यदल
थुप्र
फेस्ट
भइसके
##किम
विष
##मैत्री
ɷ
बालुवाटार
कोपा
पूर्वप्रधानमन्त्री
▼
च
##or
##ance
##शाह
働
vo
दूतावासका
労
could
भौ
ѝ
झोल
परेपछि
##रीय
🙋
e
##र्ति
इच्छा
फेसबुकले
पेट्रोलियम
##«
सङ्
सला
##शाखा
け
箱
भएकालाई
गाइड
right
त्र
##py
##ल्क
##³
言
युवापुस्ता
क्याप्टेन
商
ۮ
उनका
वर्गको
सै
कार्यालयको
रूपमा
##नका
भारतसँग
शस
##िकन
##र्नु
जेट
खसीबोका
मुद्दाका
##ठा
समस्यामा
टे
क्रिस्टियानो
過
##र्ध
टुंगोमा
##qu
जाहेरी
मस्र्याङ्दी
विकृत
依
##संख्या
ब्यवस्था
गराउनु
列
इण्ड
공
वर्षपछि
सरकारको
##ផ
##कार
##चारिक
हुर्क
რ
##ҙ
伐
दिनेश
निकुञ्जको
खेललाई
प्रतीक्षा
वर्षाले
इंग्ल्यान्ड
##ح
पोशाक
मरेका
凡
गोक
##बेट
##षेक
क्रसर
ओलीले
पंक्ति
माने
परीक्षणका
अभिभावकले
키
##शिल
कम
चिह्न
चो
भिटामिन
##वृत्ति
बजेटका
##ብ
सिन्
##कबाट
हुनाले
०७६
रहित
у
प्रकार
कस
उपकुलपति
एसियाली
टर्म
शर्माको
खानेपानी
नेताहरुले
भोट
प्रतिशतसम्म
०७२
काठमाडौंमा
ᤤ
घरबार
जिति
##ـ
माई
ताकि
ߙ
㛌
gener
पस्क
दाम
मानेनन्
रहेकै
##ङको
##ਢ
베
オ
萝
झलक
##87
##क्सन
उल्लिखित
ʃ
अपराधको
jasto
प्रवाहमा
̑
##हरुका
तल
ᝳ
कानूनको
ब्रो
लाइट
ف
बैंकमा
बोलाउन
अनिवार्य
माओवादीले
᪰
機
尋
कलर
छेड
##नीलाई
##वासी
संयोजकत्वमा
सिजनमा
##ى
##मिर
##গ
महोत्त
##߾
राणाको
陰
##on
पुर
##̯
घाँटीमा
६२
सन्दीपले
नबढ
हालसालै
थिई
छाला
झै
बे
हेमराज
##ay
सदस्यले
मिश्रले
फेस
##ष्टिक
आरम्भ
હ
registration
ढुंगा
दैनिकी
##na
##न्ध्र
उध
💥
विषयको
अत्यावश्यक
##̰
##चक्र
##िकृत
##ៃ
राईलाई
सेल्स
लडेर
गहन
पनि
##पूर्वी
द्वन्द
##🏾
##फोर्ड
非
मण्ड
sh
क्यासिनो
ज्येष्ठ
भग्नावशेष
##्नुभयो
किसान
抑
##िँदा
प्रयत्न
##ど
स्ट्रो
हुनुका
##पूर्व
##휴
##आउट
ब्यस्त
करका
##पुरको
लगायतले
##۰
देशैभर
विज
तोकेको
##হ
अनेकौं
##िभि
##हा
##िसक्
##ुलीको
दण्डहीन
##une
##लक
तानेर
ल्याउनुपर्छ
फैलाउने
शेर्पा
इन्फ
ת
राखेप
लत्या
##पाको
ट्रफी
क्रियाकलाप
投
##ҧ
अरब
कण
ٷ
जंगबहादुर
ताला
तन्ने
##ोष
बढावा
##त्वमा
पेसामा
बिग्रिएको
##്
##∕
##ताब
##ｰ
##२०
㽾
खुट्टामा
##वाले
##उ
bhan
चनाखो
插
##चाँ
##집
years
##छो
##os
गतेको
##्समा
अध्या
##िसकेको
सिरियाली
吹
बिर्तामोड
##﹯
फोरमले
भनि
廣
##्नुपर्ने
##भिङ
蒲
型
##eb
##डे
##कम्प
##も
पप
भवि
बिहानै
##uch
##ល
कमेडी
चुनावपछि
प्रधानमन्त्रीसँग
अस्प
भक्तजन
पस्न
रक्षाका
अमेरिकामा
बेरुजु
ظ
ਜ
व्यब
बन्ने
抵
अरुको
##̋
चैनपुर
##भाग
六
विश्वकप
सुप्र
##पाठी
थालियो
वैवाहिक
स्वयं
##पीएलमा
##म्प
तिथि
現
赖
वाध्य
हिरा
쑔
##भाषामा
##ʭ
##मेश
##급
अपांगता
मेसिन
端
छाती
##ree
劝
##ひ
##प्रेरित
अबेर
राजनीतिलाई
##न्द्रा
अपनाउने
##ort
किस
फोनको
哪
वर्णन
लेखकले
प्रोट
डढेलो
झो
सेवाग्राहीको
प्रवि
空
##ुवा
##बेंसी
##ople
अक्सिजन
rep
आजभ
##ʦ
तहमा
腊
##बै
##अध्यक्ष
item
अस्थायी
醒
름
पुँजीवाद
शङ्का
##ؼ
जु
गतेभित्र
##गड
कटान
चुच
भु
स्वेच्छा
गरेपछि
ढकालको
इतिहासका
गाउँपालिकालाई
断
दिनुपर्ने
橋
##टमा
बन्देज
##😃
##हरूबाट
रहेनछ
磨
पृथ्व
##dat
##ful
##ŋ
##हारा
߁
जीवनया
##์
डोट
देखे
सकेको
आपत्ति
बढीमा
खतर
सुरुवाल
/-
޽
कोसी
तराईमा
चान
लत
書
##ामु
पूर्णिमा
अवार्ड
雪
लिफ्ट
ʼ
थपलियाले
##۞
メ
लख
##ुका
ट्याक्टर
पल्
फाइदा
##ᤅ
दिइएको
##ܔ
ʗ
गरेनन्
##केन्द्रित
##ोग्
ό
##तमार्ग
वजन
##۟
##बजारी
##ꡝ
बिताउने
##नुपर्नेमा
प्रधानले
मामिलामा
မ
✨
अनुसन्धान
प्रविधी
##h
##ߨ
##36
करीब
##ٺ
app
आरोपित
बमोजिम
##देखि
##ভ
काभ्रेको
सदस्यलाई
गुणस्तरीय
आयोजनाका
##iv
##82
寅
ꣳ
सीमान्तकृत
रेडक्र
立
მ
मुन
##हितको
😫
भैरहवामा
लाभकर
खनालले
नलाग्ने
प्रदेशलाई
ൻ
–‘
वामदेव
हिउँ
चरा
बालबालिकाको
の
खालि
बडो
泸
趣
प्रतिस्पर्धामा
##चामा
चरणमा
कुद्
समयअघि
best
मेस्
बंगलादेशले
समानताको
##न्सले
##मुलक
व्यक्तिका
##शालाको
२२०
ഉ
इन्जिनिय
se
眨
##habar
ã
।‘
प्राधिकरणले
##ंगोल
##🎁
कुष्ठ
##अन्तर्गत
कट्ठा
पुर्यायो
##ř
##सिट
आडमा
विषयगत
महतोले
सरकारबाट
बल्
ग्याले
##पीएस
射
##61
や
एयर
गाविसको
संगीतकार
चक्र
姐
惧
##ल्ला
##ē
पाकिस्तानको
गोकुल
परियोजना
अमलेख
a0
अचानक
भि
#
सिरिया
ᤠ
😢
उच्चारण
पला
ज्ञा
दिक्क
##दाको
##त्न
##सेकम
##करणको
सेयरको
गई
##न्दि
##ঘ
说
##थिति
##웠
उरुग्व
जेठी
फरकफरक
मृतक
पुत्र
भित्रका
ӕ
ឡ
अमेरिकालाई
असारमा
##म्ने
जिम्मा
जुलाई
परेका
मेरी
##33
務
उड्डयन
सेनाका
##्दो
खोजत
й
खेल्दै
ڄ
योजनाबद्ध
स्मारक
☀
आफूहरूलाई
have
##हीले
153
ੋ
न्यूनतम
भाजपा
##शिक्षा
)
पिरो
##ितो
遖
नसक्
함
##झदारी
杠
फोक
पौडी
….
##ވ
##べ
२०७
ݷ
गोलको
##धर्म
##バ
쐎
##ĳ
देख्छु
बितरण
##म्बार
उद्घोष
##cess
ɚ
घुम्ने
ી
荐
👤
ミ
ललितपुरमा
सूर्तीजन्य
##푋
महर्जन
पौराणिक
珠
ݢ
##ゅ
पो
एन
सिटी
परमेश्वरको
ｎ
##ko
मुनिका
##ӥ
##ाउनु
भैरहेका
साम
विकासे
च्यान
दूधको
73
क्रा
##्याए
##ׂ
हालतमा
हङकङमा
कर्मचारीलाई
चर्च
ƍ
भूकम्पको
बेइजिङ
मानेको
園
つ
##ti
##ंस
##प्ले
माविका
एमए
प्रतिस्पर्धी
नदिएको
##भोग
##name
व्यङ्ग्य
राजनीति
江
अमेर
काम
कावास
##rd
वल्
΃
सदस्यहरूले
##ब्रेक
22
ब्यान
मन्त्रिपरिषद्
##ऴ
贷
नगरपालिका
सेवक
魔
ॣ
टेलिभिजनमा
मात्र
##us
बलिउड
अनौ
आदित्य
बिरामी
脑
മ
##˓
व्यक्तिहरूको
टेन्डर
फाई
मेन
विष्ट
언
##दछन्
##षे
##38
चरणको
艳
दुख
##हेल
सायदै
पुगिन्
समयमा
ᤣ
虑
भोग्न
ल्याब
घना
ओख
अन्तरवार्ता
वाइ
##लामी
धागो
लोकेन्द्र
##ắ
ố
तालिम
∆
घृ
##߈
幼
弃
चितवनमा
विज्ञहरू
प्रयोगकर्ताले
छन्त्य
मोर्चा
計
दिंदै
सुमधुर
मानेका
मन्त्रीहरू
पसले
##শ
गरिदिएका
##ल्स
##सुकै
##˹
50
आउँ
इन्टरने
कसले
भेटघाटमा
आयातित
रुसमा
##ʜ
ូ
ự
黄
खरेल
sab
टू
प्रेमको
ɑ
##˘
ĳ
ֲ
ऐश्वर्य
ठाउँका
कमिट
बहस
व्यवसायीले
ग्यारेन्टी
नगरेर
##पो
क्याम्पमा
पौडेललाई
राम्ररी
एकदमै
##म्फ
##बराब
फुटब
ƀ
⫴
अवलोक
ݦ
##동
गठबन्धनको
वृत्ति
##ნ
बेलाबेलामा
ە
##շ
हिमपा
०७
##स्टोर
##ꗿ
फाउ
##पादक
भक्तपुरको
राजविराज
सेवाको
乐
##vertis
बेरोजगार
남
񺦨
##͙
मन्दिर
सिन्धुपाल
तपाईंका
टेलिभि
चल
तो
रिपोर्टिङ
हान्ने
खाएर
अप्ट
ኛ
अँध्य
##यकर्ता
##िष्ट
बर्षिय
贡
##ա
उसै
स्थित
▲
빌
तुलसी
ha
##उद्
add
काला
गुला
डोनाल्ड
ब्याडमि
सती
ग्वा
##पर
絶
܇
##72
दिल्
मूल्याङ्कन
भुक्त
बिचार
सहयो
듖
दिनै
够
सक्छौं
ެ
##बू
व्यापारी
बित्दा
##सरको
दूरीमा
उत्प्रेर
0545
उत्तरमा
简
अव्य
कट्ट
##पद
##वटी
चल्दै
नुन
परिमाण
निष्कास
##؛
##वेक्षण
बाँकी
कालखण्डमा
हु
##ƕ
जडीबुटी
मोटरसाइकलमा
ᤀ
माध्यमबाट
४
##मार्टम
खै
उभिएर
##ेव
गणतान्त्रिक
शंका
##ӈ
##कल्या
##ぎ
##न्ने
##सँगै
椎
गाडीलाई
छाडेको
बारी
मनमुटा
प्रक्रियाको
दृ
प्रतिरोध
बसाई
##खिक
दिनअघि
कुन्
शाहीको
##िसँग
##̡
दो
बाबजुद
मानवीय
महानगरपालिकामा
सभ्यता
지
##ہ
##ܷ
पूजा
प्राइभेट
शैलेन्द्र
पोर्चुग
辽
판
हेर्दा
टिपेर
तुरु
昌
निकासी
र्या
वादी
हाल्ने
सुस्ता
݋
聾
अवसरका
लायक
៌
##पुग
##ち
ܶ
##̝
bato
जटिलता
जाली
ૌ
##ព
74
ѵ
गुमाएका
##न्ज
कारोबारको
ӊ
एपिएफ
होट
##सुल
ढिलासु
गी
गरिए
##अल
तिब्बत
बिदामा
##ć
##शील
असहमति
##press
##ջ
खुल्
सभ्यताको
सेमिफाइनल
坚
गाउँदै
鞭
##💀
ܨ
काठ
गर्दछु
##좒
श्रुति
汋
अवध
चिन्तन
गोकर्ण
इम
रहि
浪
##क्सी
##र्कीले
देखिँदै
रुट
##ь
सभामुखले
बस्तीका
पौडेल
##प्रकाश
ƚ
##😀
सोधे
डबल
परिच
##योग
い
सीमा
ᤕ
a8
##ใ
##डाँडा
झिनो
किंग
##पहा
##ž
##ंले
तस
भा
##܂
##mail
##लाखेल
novel
दक्ष
##ゼ
प्रतिष्ठित
满
कुर
आएको
राजालाई
पन
बिहानको
बाँड्ने
नपाउने
योजनाले
शरणार्थी
帝
##छन
ի
##एस
##वास
##तारा
##केला
##निको
खुकुरी
सभापतिको
##र्तमान
जितिन्
ओछ्यान
##डोल
緊
ˊ
सँ
भौतिक
״
总
आजबाट
क्वाटरफाइनलमा
शिक्ष
評
प्रदर्शनी
ۂ
चै
##सुन
##किएको
ò
मार्गचित्र
विषेश
रहन
䊚
袜
जल
शुभचिन्तक
##बाई
पर्वका
##ाल्न
उठाउन
कहिल्यै
समाजसेवी
उखुको
35
व्यक्त
छप
##ె
दिवसमा
̌
अमा
이
##׷
सडकमा
आवश्यकतालाई
अलावा
मिनेटको
ब्याडमिन्टन
ϣ
##िरहने
##ﾎ
टंक
अप्रिय
भाज
परिवर्तनले
认
पार्
पर्ला
ब्यवसाय
सहभागि
शाही
चाइनिज
घाम
घुम्
यसबारे
उत्साह
अयोग्य
रज
राप्रपाले
पात
रवीन्द्र
रुपैया
इन्टरनेटको
समसाम
चिन्ह
भेगमा
खिचेको
##ザ
files
समाजवादको
सिद्धार्थ
हेरचाह
囲
एमबी
धम्की
लडाइँ
##🇾
मिला
रेशम
wed
foot
##ँजी
##ধ
##で
ڳ
खटिएको
付
सरी
н
चुनावका
संक्षिप्त
आ
इमानदारी
小
##ל
˳
耍
३२
##त्या
अट
후
##कल
गणतन्त्र
##ेणी
##ٕ
रोजगारदाताले
##भेटर
अनुहारमा
घुमा
##2
勋
जोगाउन
ഘ
विन्दु
况
साथ
##ment
प्रति
मजदुरको
लचक
सामा
बिक्री
संविधानसभाको
##ञ्छ
गौतमबुद्ध
ӱ
महœवपूर्ण
碳
स्थानीयले
शीर्षकको
सुधार्न
՛
भइहाल्छ
सापको
सेल
भिडियोका
बुद्धिजीवी
चाँद
सम्झौतामा
ƿ
害
##҂
पाठ्यपुस्त
·
आवमा
ക
झुक
準
##गाई
बेलायतका
##…
##वैज्ञानिक
बिस्तृतमा
सम्पर्
गण्डक
##कका
154
परिक्षण
कृत
##ङ्सिर
##दर्ता
##न्टी
उड्न
##🙊
कुकुरले
वन
百
गर्
##ूल
अस्ट्रेलियामा
अहं
केशव
गे
बराल
करा
पिच
##चल्
##ไ
अनुदानमा
##ओस
देखाइएको
विप्रेषण
हुन्छु
ᡱ
沟
##खत
म्याराथ
給
रोकिने
b8
䣷
थाल्छन्
ֿ
停
सुक्खा
क्यालि
##ष्फोट
##៊
चौपा
प्रशासनिक
##जुरी
##निर्माण
##ｌ
अथा
पैदल
बिभाग
अपराधमा
##गीले
등
दोहा
सत्याग्रह
##हरुमाथि
##ारीका
ad
वृद्धवृद्धा
हानी
##֭
मिलाएको
##बिधान
सीधा
किताबमा
पतन
##मैला
दिलीप
좒
कञ्चनपुर
बेलैमा
सुन्त
##त्रो
लमजुङको
प्रसिद्ध
साउन
ɴ
महारा
an
प्राज्ञिक
##함
रोनाल्डोले
##ग्ध
मनमु
सिलवाल
महान्यायाधि
##̣
η
##em
ब्रु
属
मंगलवार
व्यवसायिक
##हर
##|
窟
कैलालीको
उहाँहरु
चाहन्थे
##िमिर
बर्ष
लमजुङ
झड
कुरी
मोर्चाका
सोहीअनुसार
आप्m
नखु
##बाही
दशकमा
सकेका
बालविवाह
酶
उज्यालो
##भाग्य
दिनहुँ
डिएस
##द्रामा
अरुणा
间
##̟
##ڡ
इन्भे
नौलो
किश
##बाहेकका
##बोका
चिम्
रकमको
स्क्वा
യ
##ה
ۈ
आँफ
##ॐ
̏
idea
बिताएका
अपरेसन
##ꍱ
##ா
ߑ
परिषद्को
##[
सिट
ऐनमा
पर्वलाई
##rishna
पर्सामा
वटै
अच
वे
ɻ
सगरमा
यसैमा
不
부
##활
##लिन
सुनील
भण्डारीको
##--------
##ोसिएसन
सकिन्थ्यो
चमत्कार
##िएपछि
भग्नाव
गरिँदैछ
कारोबारी
हि
फ्रान्स
सेन
就
##out
जरिवाना
##ें
³
##̾
##न्हो
##ぐ
##स्टार
टुँडिखेल
सचिवालयमा
##टका
##र्ज
##ani
##त्मिक
##ゆ
##बापतको
शेर
粋
̆
劒
뛥
पर्थ
##ङ्खला
##कर
ƹ
डन
di
खोज्दै
##त्विक
इतिहासले
महाशाखाको
##म्मा
लागू
म्यानेजमेन्ट
##िच
सिद्धा
##ݻ
##ޝ
##डक
ठीक
निको
पश्चिमी
पोर्ट
##ther
##्न
बंग
अर्जेन्टिना
गर्नुपर्यो
जन्मेका
नेताहरूले
समूहलाई
असा
##नै
每
घटनाले
एकसाथ
याद
तिम्
同
##ेड
##ం
##खाँच
मुद्दामा
ݘ
फोटोमा
हटाइ
install
ठाउँठाउँमा
सक्छ
##लेन
निकाय
##̳
सरकारबीच
उद्योगलाई
गार्ह
समन्व
戒
##ٲ
बेचेर
眾
ș
##पत
अन्ततः
इमर
पठाइ
सुदृढ
मातह
प्रतिनिधि
शौ
侵
̊
##िसक्ने
焲
##ेरिया
भेगका
विभागको
##nu
47
अभ्य
एकअर्का
एकताबद्ध
पेश
पाइरहेको
݄
寿
前
सानु
गणतन्त्रको
वार्षिकोत्सव
पुग्नेछ
##चको
##च्छे
केहीले
सूचनाको
ʚ
थापाले
भन्छन्
##κ
दुवैमा
सम्रा
गज
或
her
##पाइ
विषयवस्तु
##स
मुआब्जा
आक्रोशित
करोडौँ
बतायो
˴
बेखबर
##लियाको
सिं
伸
फागुनमा
लागुऔषध
आकाशे
ढोर
ṛ
强
##क्का
荎
मृत्यु
##ầ
##र्सि
न्यौपानेले
फुकुवा
##िएर
साँच्च
दातृ
##ke
##mo
वास्तविकता
全
ग्रस्त
साबित
##ƻ
##ेन्द्र
٧
विकेट
ҥ
हिस्सा
##҆
बदर
एले
रौतहट
हिसाबले
##भर
##θ
राजाले
पछ
book
पेटमा
उठ्छ
सरकारसँग
՚
पालामा
으
##ǧ
डेड
##आम
२०६०
ӧ
ׂ
##्योति
մ
उप्र
गएकी
भुटानी
सम्झन्छन्
त्यसमध्ये
##ᤣ
🇰
##खानामा
दशमलव
रौतह
##त्तामा
स्मृति
##लार्ई
##पख
##d
##ణ
लान
संघसंस्था
##भाई
उन्नति
भ्रम
हेम
##तर्फको
भव्य
रनमा
牌
印
##त्यु
ओलम्पिक
皇
##ak
##60
##वेदना
कुरा
जनतासँग
##ंगी
म्यानचेस्टर
##न्सी
बिन्दुमा
रोप्ने
भारतबाट
गत
क्लिनिक
खडा
तिनीहरूलाई
##ҁ
작
आउँदा
디
पालन
타
##ृतको
ڸ
》
परिपक्व
児
हिमपात
मकवानपुरको
##स्सी
अर्चना
√
##जिम्म
रुपैयाँ
हलमा
अझैसम्म
भियतनाम
ੜ
❶
##िरा
!!
खोजेका
प्रया
संरक्षक
वैध
नेताहरु
##ż
ब्याट्
##12
कुराकानी
##वत
۵
काउन्टर
##टीमा
往
##저
नाति
##✍
ގ
ĵ
काठमान्ड
साना
ਇ
बम
##शामा
खुब
沿
टीम
बा
##ヒ
निकायमा
गीत
निर्वाच
##금
पृथक
हुनुलाई
प्रकृति
さ
विद्यार्थीको
nb
”,
जिस
એ
पूँजीगत
##वरको
ल्याउँदै
एवम्
बस्दा
यत्ति
कान्छो
几
燚
##ालयमा
रोह
संगीत
एक्का
माफी
##ाई
##۴
##पय
##भाष
搭
;&
pro
å
घोषणापत्र
अनशन
##٪
परिक्रमा
सक्छौँ
##ोलि
找
##परा
थापालाई
पुगिसकेको
थाइल्याण्ड
चाहे
##मलाई
आफ्नो
अजित
बढ्यो
बाम
पञ्जा
बिद्यालय
भद्रपुर
हल्
义
##डिओ
दिपा
糇
अपेक्षित
##ेलगत्तै
ओपन
##न्ती
माइती
ݎ
ललितपुर
व्यवसायको
सेना
अग्रवालले
देखाएर
एनस
महाप्र
सम्पर्कमा
हामीकहाँ
堂
अर्कोतर्फ
🌻
परिवर्तनको
怪
##ȉ
##डियो
ԑ
ế
घट्यो
कन
महामन्त्री
सार्बजनिक
##む
नवनियुक्त
संस्म
मलजल
ज्यु
##etail
##न्दन
ٳ
황
##람
चित्त
##ű
त्यसकारण
##ؑ
दीपा
##͋
हैरान
悲
कञ्चनपुरका
चाहन्छु
ъ
देशभरका
पछाडी
##ǂ
##ँद
##पक
पठाउँदा
कतिसम्म
शैलीको
नल्या
扑
##स्ती
पद्ध
ऋष
परिमार्जन
##ۏ
साधनको
卓
비
##सरी
764
बिह
durbarmarg
🚫
##हुनेछ
writ
सरिता
सर्वाधिक
蓋
##देश्य
हाल
鶡
##बन्धु
आफूलाई
मार्ने
܆
ल्याप
띵
##ǆ
##सम्पर्क
फर्निचर
##د
##पर्ने
सेवासुविधा
瑰
माग्दै
भनी
उत्खनन्
कामदारको
##चार
捷
निमन्त्रणा
भूमिस
हवल्दार
लाखको
剧
निष्कर्षमा
मारिएका
महानगरपालिका
͵
स्को
सिड्
जोड्ने
तप
##वन
##वाकोट
##븳
अध्ययनका
##ޫ
बिक्रे
लह
सकिरहेको
拆
गोपी
為
繡
गठबन्धन
अफगानि
बुटवलको
वर्षभरि
沉
##eli
##धारमा
奶
##स्ट
रेखदेख
fa
##da
कार्कीको
आर्क
नआउँदा
##ច
棚
##ोर
ホ
करि
दुर्व्यवहार
केन्द्रबाट
延
ߥ
##ธ
##ɵ
ख
##न्जन
मह
設
##ϣ
##ब्ज
उद्यान
सुक्
पाएनन्
हत्यारा
खायो
##र्सका
咨
##ࡡ
छिटै
विच
सातामा
काठमा
सूर्यको
##k
राजनीतिक
वंशा
##층
हाउस
۲
##ext
##नैतिक
समकालीन
कर्मचारीहरु
भारतमा
पुष्प
##म्बरमा
समूहले
標
í
は
ܴ
गौ
soci
##ision
##ห
러
च्याउ
प्रचण्डको
माध्यम
द्रु
मानसिक
骗
आह्व
##０
क्षेत्रका
##द्री
जातिको
वृद्धा
मन्त्रालयलाई
##ূ
启
टोटन
अब्
悔
##जीले
##٫
##िस
नक्
##र्वाद
ताल
##a
䒛
समुदाय
उद्योगले
कोष
ट्रक
हे
##ʲ
नेपालीहरुले
㻖
अवैधानिक
김
फिट
页
鱠
##शनल
##्हान
整
##ǳ
##ref
##გ
धनकुटा
महासचिव
सुव
कतै
क्याफे
काठमाडौँबाट
मीना
दुरा
##̎
विद्वान्
खोल्न
हव
##लादेश
क्यापिटल
і
सिग्
नबना
इटालियन
##भी
दाइजो
20190
似
रैथा
ꌱ
##ỷ
नाइजेर
रेक
२०६४
##ेश्य
擅
##ुकूल
vers
निष्काश
સ
जुनसुकै
मिलेन
##͟
##ޠ
##번
सीमान्त
खानामा
दिँदा
fir
गार्हस्थ्य
आयोजना
##ng
##डाँडामा
उत्पादकत्व
बिनो
बजेटमा
अठोट
साताअघि
靠
计
मधुमेह
समितिलाई
##सिम
त्रिभु
##वेको
पेशागत
महिनाको
भला
रिजालले
##च्छिक
खुसी
##ṛ
͂
सिक्
आब
गोबर
##न्थ्यो
कान्तिपुरसँग
घरमा
ﳃ
नेपालीमा
चाम्
भण्डारीलाई
पाउनेछ
##सरमा
##ेनको
##112
##н
पर्यटक
पाँच
मोल
ẹ
##____
निकाले
गर्छिन्
##음
##बारेको
विरोधी
##बारीमा
आपसमा
##ò
feat
कार्यक्रम
प्रमुखले
शाक्यको
बाहेक
含
अपर
रजत
遠
##राइज
ओलीका
लक्षण
د
##ӣ
##int
상
抛
नदेख
हुदा
׮
वर्षौ
स्वीडेन
수
ܬ
श्रावण
यात्रा
सम्मेलनमा
哔
आदिका
अत्याचार
##ert
कन्टेनर
##णिक
अवसरमा
isper
गाडीको
##साल
##्रेज
unicode
갥
नेवार
झल्काउने
##लोजि
निधन
नसकिने
##ナ
सायद
हातबाट
ߴ
क्यालिफोर्न
छिरेका
ꍣ
##त्रु
秋
##वु
##चिव
महाकवि
तेलको
सिद्धि
मिल्छ
।'
##ᷠ
##गारी
##वारि
उपभो
##बिक
शरण
蚀
पिछडिएको
ݭ
201809
ज्ञवाल
नपाउँदा
बनाएपछि
स्पर्
राजिनामा
read
##न्तिक
बिरोध
विवेकशील
सम्हाल्ने
पराजय
संविधानको
प्रतिशत
##i
नपाएको
बाहि
लैङ्गिक
г
लोड
员
ཁ
마
पिडित
बालुवा
##💓
शुल्कमा
वेद
❆
捕
जाँगर
बेइजिङमा
भरतपुर
व्यवस्थाप
अनुशासित
ki
एक्स
##ary
##ޱ
##4
पुस्तालाई
महाधिवेशन
लक्ष्मी
पदका
भ्यू
遂
चिसापानी
ዢ
बनाइएका
अधिराज्य
편
##ुश
स्वर्ण
नाका
##षद्
फलो
षड
##͊
निर्देशकको
कठिनाइ
##😮
नेकपाका
प्रमाणित
महाअभियोग
##ुको
##लायक
##ս
ͻ
##ƺ
परीक्षण
गेटमा
छाउ
पिएस
खुकु
##पर्यो
##as
नसा
मूलत
प्ल
असहज
पूर्वाधारका
##सकेपछि
격
खस्क
अबदेखि
आँप
बहाना
बाद
स्याट
खेतबारी
भण्डारी
भलै
प्रोड
गाई
दलहरू
ল
दलहरुको
भ्याट
बिजेता
蔡
##हरि
蒙
अष्ट्रेलियामा
##कू
कलेजका
प्रेमी
##केल
##लाइन
सत्तारूढ
निजाम
विराटनगरको
सुकै
जनमुक्ति
निरीक्षण
बगैंचा
ழ
長
कार्ट
छाएको
##किँदै
उद्देश्यले
अगा
竭
राश
उँ
##बाल
प्रकरण
##्रत
##प्रदान
रेफ्री
हुल
मञ्चका
हालका
##֐
राई
विदुर
##ൾ
नगरेसम्म
##ュ
##हानी
सुप
लगाउ
##शुल्क
आवि
※
🚨
राखियो
लिम्बू
ژ
पिप
##ও
भ्रा
साइबर
##त्तीले
सुन्ने
शाहको
##म्मद
रुचि
##कम
जनजा
तर्क
備
पाइलट
##ालिटी
गरियोस्
񘦈
थानकोट
सविन
सफल
अहिलेका
सिद्धान्तमा
अपराजित
बिशेष
ダ
गइ
बहुप
घोष
##पाथ
away
भेटिएपछि
ϙ
刷
सुचना
सकुशल
ʱ
##am
எ
哈
मनि
##कासि
छुट्याउने
नाइके
輕
एजुक
##पन्थ
23rd
##is
कडा
##दैछ
जनामा
तपाईंलाई
闊
##हुन्न
##ुरो
पोखरी
ͯ
본
##다
##hana
ओझ
֚
遺
गर्छौँ
कागजपत्र
पत्रकारहरु
रेलवे
मनोमानी
हजारसम्म
ᤪ
लगेर
त्यसपछि
पौडेलले
##ञ्चलका
##सुर
कम्प
प्यारा
🎇
##तको
साहस
##नर
##चौकी
되
ऋण
##ܬ
धोका
##ߐ
नगर्ने
वाङ्
लागूऔषध
##ޘ
विगतमा
सहानुभूति
रेलमार्ग
##ठ्ठा
ా
भारतसँगको
म्याग
##हारीक
फोनमा
बलर
##ង
भ्रष्टाचारको
समस्यालाई
कसैको
##래
पहेँलो
線
फिदिम
##त्यक्ष
##सहितको
दुर्भाग्य
##ण्डर
##्या
##ケ
झम
##ौल
तर्
परिसूचक
फ्यान
बी
भ्यान
അ
为
भैसकेको
डब
पुरानै
उत्सुकता
##ौं
##ep
##wa
स्याङ
眉
किमि
ೆ
ਔ
##पेक्षित
hamrokhelkud
##🇸
बनेर
जीवनयापन
विमोचन
छनोट
侧
हेरिरहेका
अंकित
गैंडा
जोडि
ढल्क
頂
##यक
##it
च्याले
पुनरावेदन
गाउँलाई
##र्भ
आकर्ष
՗
किसानका
वर्गले
तोके
पढ्दा
##निर्
##ष्णा
सम्बन्धका
##नू
ɣ
##ү
##च्
सिलवालले
वना
##ŧ
##േ
अन्व
वातावरण
यस्तै
नर्सरी
मेर
कुराकानीको
आख्यान
लेख्नु
दुरी
हुँदैछन्
##प्र
राउन्ड
##जीत
##ट्रिक
##할
##91
##कमल
##ニ
##답
ച
杭
🐍
प्रशोधन
जब
##तरण
थल
कैयौं
##कारा
ग्रामीण
आकास
##ाग्रस्त
##ᤏ
a4
कमाउन
धौलागिरि
##ロ
셍
लुट
##র
##앙
अवधिको
जनार्दन
गुणस्तर
रिया
कूल
प्रचल
¥
पात्रको
탄
֧
उपचारपछि
मारमा
ί
##िचो
榮
घरजग्गा
आर्ट
औष
स्कुल
आफ्ना
⁄
🎼
##ⳁ
निर्वाचनबाट
##कर्षण
समस्य
飾
།
१९९४
##̮
##ङ्कन
झिल
नउ
संस्
##प्रेर
겹
##uld
ன
माध्यममा
ਆ
##वितरण
story
धामी
祺
感
##̹
कांग्रेसबाट
अन्तर्गतको
प्रहरीमा
झल
मोडलमा
भैसकेका
आंश
##ष्टी
##रोग
नसकेपछि
जुनियर
##10
止
सङ्कट
ӗ
राप्रपा
쏄
ठोक
स्वयंले
हालसम्म
व्यावसायिक
अनुमान
##न्दर्भिक
##स्वरुप
##쓋
संघिय
##व्यक्ति
##ߌ
##🌹
हेल
##٩
##ष्य
रनको
##ܘ
##क्षेत्रीय
मोबाइलमा
काण्ड
##쳎
##बासको
लघुव
😆
पुसमा
##जोर
चितवनले
प्रभावले
जेने
सरो
##ुस
##दिए
गर्नुस
इतिहासको
踘
十
बनाउ
उम्
##लार्इ
बसी
载
गुमाउनु
लगाएतका
गरायो
पारा
कोही
लोकमान
भिसा
स्थानका
चालू
आश्वासन
##ዢ
विगतदेखि
गो
सोन
२०५२
प्लेट
辥
सक्नुपर्ने
女
簡
बिहीबारदेखि
खत्रीको
न्युजिल
बियर
##म्न
मेशिन
##पूर्ण
आँखा
##घाती
सरुवा
##ठन
력
पार्टीभित्र
梦
鷣
प्रदेशसभाका
रेल्वे
登
ڬ
संरचनाले
##रुपमा
##सले
पहुँच
##88
##ेरै
चाड
रात्र
सुरू
##ป
लिइरहेका
भट्टराईले
##ݐ
##ђ
काउन्सिलले
दिएनन्
बदल
##िएको
रह्यो
ख्याल
अनुशा
탂
मनमनै
बीपी
दिइयो
##ض
महतो
आयोगका
##４
ใ
आभार
혜
ho
सुरुवात
##า
जनतालाई
पल
末
##ation
##カ
जानुअघि
हेक्टरमा
##सभापति
钥
प्रमुखलाई
##रहित
费
kh
स्पष्ट
विद्रोह
ោ
उद्धारमा
साथसाथै
##शै
##ाउँछौं
##agarmatha
नोबेल
मकवान
पठाए
?”
अनुपस्थित
##ョ
ޥ
別
part
##ѓ
##ۂ
भेने
##හ
त्रिपाठी
पर्थ्यो
##्यौ
भूमिमा
混
##भित्रै
신
थर
आतंक
地
गाविसमा
चुनावी
##सरकारी
नलग
水
##ŉ
许
😅
मिलेमतो
##मान
##&
संसारका
खुम्च
po
हौस
液
##🐍
व्यय
धुर्मुस
महिलाहरुले
जुडो
नियु
भोक
##न्डो
किनारमा
पीडितको
आत्महत्या
ѻ
असिना
恨
##뒽
ह्वाइट
प्रमाण
ᤓ
सम्बोध
##लेर
विश्वमै
##į
छिमेकीले
ը
इङ्
शिक्षामा
टहरा
捞
##ݑ
निरुपण
पहिले
##ट्
##ߔ
##दथ्यो
##हिर
##िरहेका
##पेक्ष
ø
ӆ
उपयुक्त
बनिरहेको
कलकारखाना
थु
रहनुभएका
वडाअध्यक्ष
##गत
⮅
ϔ
किम
घटनास्थल
अन्धा
जोखिममा
27
रमाउने
##ѱ
भाषिक
͑
##՚
##ौती
जगमा
##̄
##टाको
माओवाद
ग्लो
##ङ्ग्रेस
##\
##ん
अघिसम्म
##ज्दा
उग्र
चिकित्सकले
तन्नेरी
कामकारबाही
गर्दाको
##बुल
पोसाक
एयरलाइन्सले
समी
##क्रम
सत्तामा
ޕ
सूचनामा
##क
观
rijal
cre
डेढ
दृष्टि
##क्क
पाठकले
##と
उर्वर
रुपा
समर
वर्षदेखि
ग्
ۍ
gre
कोणबाट
गोल्डेन
##द्दा
we
##ξ
चीनसँग
स्थिरता
##ʻ
मृ
उपलब्
डेभि
बिक्रीमा
皮
24th
֨
🏽
##्लेटिको
##लेपछि
ӿ
शुद्धीकरण
संक्रमण
२०२
ᤒ
अवतार
💯
गरेपनि
##तास
##͞
##स्दा
##ீ
खेतीका
hourly
##ϛ
केन्द्रित
मान्यतालाई
モ
उत्पादनले
##डै
##ीय
##ेब
बन्छन्
हनुमान
ｈ
मलको
विपद
朋
##तन्त्र
##प्रथम
चैत्र
बन्न
नेपालका
जमान
##ۢ
##लिखित
आफूहरूको
दुईपटक
##िकी
क्षेत्र
🌡
##सीका
##फाई
##िभ
तत्पर
सुशील
##ٗ
経
संक
찬
ད
##प्त
##77
लाग्दैन
घोटा
##̍
##कहाँ
वटा
##घरको
ɶ
업
योगी
복
⃣
##सनको
##pe
##सेन्स
##로
##֯
मञ्चले
🧬
雅
पाण्डे
पायो
##ल्दो
चि
ٸ
##ण्डा
तीनै
मेम
घिसिङले
क्याना
ͧ
डिएन
##ita
आल
पालेका
##름
##नासाथ
##ेसनमा
पन्ध्र
##दिक
##एई
##ල
##सेको
चिठी
##쇁
पानीले
ნ
ẫ
##ाइटिस
वीपी
森
क्षमताका
सास्ती
佥
bo
परदेश
बैंकक
पम्प
##र्फ
离
उत्पादनको
लाज
##धारा
敷
यातायातका
##्रेसन
废
थिइनँ
##खेत
उपराष्ट्रपति
झरना
उपविजेताले
कतार
##हु
जाँदै
वर्षमान
फरक
ะ
पुनर्ग
##ྤ
परीक्षकको
概
दिवसीय
भित्रिएका
bf
##대
भूमिका
‑
बालिकालाई
नाटकको
तीस
##와
##थी
##ोदर
ȉ
पाइनेछ
##लागी
矢
रहेको
विस्फोटमा
संक्रमित
लाइनमा
##सद्
ह
⨿
未
दिलाउने
सीधै
肩
डिजाइन
ढुवानी
सुष्मा
##adi
##वत्
घलेले
झा
बनाइ
यात्रालाई
संजाल
नाघेको
ब्यापार
##ियाका
बुझ्नुपर्छ
भित्र्याउन
##०
‰
wordpress
हैर
58
됩
शी
##िनामा
ŀ
##㍺
ח
ओरालो
##लेखा
ڠ
काठमाण्डौ
ഏ
गरिबीको
थाह
सकरात्मक
ཆ
खानी
उपाध्यक्षमा
एनआरए
टेक
ཾ
भन्दा
坊
##ting
울
##ദ
आफूमाथि
प्रभावकारिता
युवतीले
निदा
他
법
गरेबापत
##о
㎡
उल्लंघन
##लेन्द्र
##दीमा
ड्र
मार्केट
输
खुट्टाको
माइक
結
पाठक
[UNK]
##िकेट
पौष
फर्का
हामीलाई
फेड
पुर्या
##शीघ्र
घरधु
सुर्य
##ँदैछ
ओभर
प्रतिमा
擴
##튶
संसद
😹
समाजले
호
##޻
चियापान
किन
##nda
##᝚
##េ
यता
उल्टो
वर्षा
ㅎ
##भित्रका
चक्
##पट्ट
##👏
##관
खारेज
बालेर
परिवारलाई
ल्याउने
##โ
⑻
तदार
प्रवृति
फ़
सन्देश
वर्षकै
##ढाव
प्रदिप
才
विश्लेषण
क्ष
##💿
##е
जनमोर्चा
बुझाएर
ん
##획
##ही
एआई
##जाग
इंग
हाल्न
빙
मारिएको
श्रेष्ठ
अपमान
दाङ
बास्तो
आवत
##🇮
हिंड
बनाएकी
लोपो
##ह्र
सुट
कोशि
कन्स
भाषण
जहिल्यै
मनोवैज्ञानिक
प्रेममा
सक्दो
れ
##֡
नारायणगढ
犬
डेस्क
##ਣ
丹
see
सन्दर्भ
ϒ
संरक्षणमा
मगरको
##र्म
##ৈ
##양
दलसँग
धर्मावलम्बी
##ٷ
झोलुंगे
अन्तराष्ट्रिय
ه
काटेर
##mesh
ठड
尴
2c
##्यान्ड
ma
ẻ
सुमन
निरंकुश
ズ
फलस्वरुप
##ੌ
मगरले
##ball
ܕ
##ԙ
ྷ
##गत्तै
߂
सांगी
स्काइ
सांसदले
२०११
आदिको
प्रभावित
ɜ
##񤔇
जनसंख्याको
विद्य
आएपनि
स्पिन
हरिया
##फिट
आइरहेका
##۵
리
सभाले
##क्की
##ुली
ɋ
擔
##ेट्स
चुहावट
his
弱
##ग्रह
किर
包
##पथ
e2
मिटरमा
सिप
संस्थान
##ठान
धाव
ग्रा
बिताउन
ؙ
##߱
##विधान
##la
एडि
ˏ
सफलताका
¤
増
विभागले
극
##सका
##ի
नलागेको
݃
भने
एन्ड
जेल
संगठन
पारदर्श
級
##ket
जोशी
हावा
##का
२०५०
भिम
##तालिका
ṇ
##접
##ྱ
##ྴ
##🌿
क्याम्पसका
潹
ओमप्रकाश
ụ
🌍
संस्कृत
霤
लिखित
पठ
वनमा
##रमा
##तर्फी
मानिएको
अत्यधिक
चाइ
٬
बेलुकी
ŝ
आइसकेका
続
अन्तरराष्ट्रिय
ܢ
तारेखमा
सर्
विचारलाई
##न्क
लग्यो
##ǡ
##ֵ
##वधिक
बर्सेनि
मेस
मृत
##घ्र
राज्यले
##۸
बेपत्ता
संस्करण
सेवाले
श्रीमा
##enc
##काइ
वरपरका
तान
##_
ढङ्गले
बिष
宗
रुपमा
तिनीहरू
ݬ
भूकम्पबाट
##काका
संसदका
दाल
##ފ
आश्व
खालको
नलिई
桃
साख
##43
भन्छिन्
अर्ध
पुष्पकमल
गैसस
संसारको
सर्तमा
##वि
समस्याबारे
फर्के
सपनाको
牛
चाही
邀
ʍ
越
##न्मुख
ᎆ
url
xml
ᤅ
##द्र्धन
थियौ
##🇳
न्यायको
破
भेटेर
पिउन
प्रशिक्षकको
विपिन
🤗
डिल्ली
पेन्ट
लिएर
polit
बालमैत्री
##ब्लू
笑
पोलिट
जलस्रोत
जहाजमा
खेलाड
छर्ल
瞟
एक्कासी
문
कार्यवि
##शेष
san
उदेश्यले
भन्नेबारे
६५
अख्तियारी
##तली
##सान
ਂ
श्री
प्रभाव
年
प्रहरीका
वास्तव
नभएका
औं
सुविधा
गर्नसमेत
रामकृष्ण
हँुदा
##स्वर
϶
कोरिया
गतेका
बिषयमा
स्वय
फेस्टिभ
പ
##थोक
##एकी
뀐
क्षेत्रले
मैदानको
##ुर
##문
##ालीको
दिनमा
˥
##ل
नपाउँदै
कता
##िब्र
१६०
ভ
##চ
नियन्त्रणको
㗣
##ẽ
बहुमतले
ไ
๛
सरकारले
##न्यो
##ुरू
##ચ
परम्परालाई
पुख
राती
हर्म
##ङ्स
चिरञ्
संरक्षणको
महिलाहरूको
##बाद
ब्रिट
फितलो
##प्रसाद
society
##लेले
लम्सालले
मान्यतामा
उत्तेजित
##ल्सी
लिट
haru
राजभण्ड
##֬
##फोर्न
सेनाले
##ष्ठा
संविधानअनुसार
જ
परिचालन
धौलागिरी
##कली
सी
एकाइ
##कमा
एक्लो
प्राप्तिका
##बरमा
महसु
।[
निषे
粉
##eko
##킸
∀
छाडि
##و
##उँदा
##𔻹
ド
गर्नुपर्दा
इन्द्रबहादुर
##स्थान
õ
आईएमई
##g
फैला
काठमाडा
यसर्थ
पुर्याएर
क्याट
मध्यमाञ्चल
ਾ
嶗
인
खेल्ने
शनिवार
ჹ
關
떨
##ŝ
महालेखा
बिजुलीको
3
घटनाहरु
रुष्ट
लगाउनुपर्ने
कटुवाल
##र्य
##03
सभाका
असहाय
मानबहादुर
समाजका
##ंको
历
##ٵ
##ब्बा
शु
ꗿ
समितिले
राधा
कृषिलाई
缥
thu
##ाले
##ય
매
आयोगले
##ईको
तट
अञ्च
##ुँ
भइरहे
रेग्मी
शोक
##बले
बन्नुपर्ने
सरासर
##ં
ា
उपलव
考
規
स्मरणीय
अनौठो
जेठमा
पुनस्र्थापना
##शायी
तराइ
दाना
सामानको
डेभलपमेन्ट
া
ǰ
##߿
आन्दोलनमा
014227242
विशेषतः
नेम्वाङले
मागेर
चाहेर
दाङका
हुँदो
फाल्ने
अनुभूति
हुम्लाको
कत्ति
सम्बन्धविच्छेद
ԝ
##ߚ
समाजवाद
होमस्ट
छोएको
թ
̚
मुटुमा
唱
💕
वर्क
丰
उद्योगको
वर्षौंदेखि
##ेक्स
ढाँच
पूर्वमन्त्री
गर्नुहोस
裹
स्तरमा
बढाउँदै
##ص
तपाईले
माध्य
सिलि
जिम्बा
ெ
बोर्डका
##ड
##ेवारी
ʌ
ʦ
##जस्तो
##फल
検
डेरी
##에
##ड्डी
坡
ろ
गुठी
閲
नपाए
##्रेजी
##निम
बराबरीमा
ž
##െ
असम
तयारी
चुल
मिथ
प्रान्तमा
गायब
##ियुक्त
##ब्जा
幹
निर्णयलाई
स्मृ
हिंसात्मक
葡
¸
ԇ
##ामुख
संवैधानिक
परिषदको
जान्न
##ाउण्ड
छोरीलाई
बनाइरहेका
##ڀ
##उनुभयो
मनोनित
무
कुटपिट
##օ
दाइले
सर्वसाध
##อ
भुकम्प
另
मस
बृहत्
˨
98
प्रहार
सम्वाद
##बर्ग
##णिज्य
टाइगर
नदी
त्यही
कार्यलाई
##ट्य
խ
अनुरूप
श्रमिकको
발
१२
पृष्ठभूमि
饰
भोलिप
बाइ
童
गुल्मी
येश
स्वागत
उभि
प्रर्दशन
畝
सालसम्म
9d
चहलपहल
बाँडफाँ
बरि
दुवैको
खडेरी
##ुराँ
##ʙ
##जीलाई
लिप
सूर्ती
[<
उत्कृष्ट
पदीय
काठमाण्डौं
ह्या
जसमध्ये
親
उड
##कडा
魅
##ख्या
सरकारप्रति
ϵ
लक्ष
##난
जापान
張
##ः
चिनी
摸
촬
##सामु
दोलखा
हाँस्दै
कार्यकक्षमा
##श्यक
इन्टरनेशनल
##॑
##썮
भरिया
गर्दछ
बलिया
याे
ph
अनुपात
##ɰ
इटाली
##चले
؊
घण्टासम्म
जन्मिएका
##ج
एम्बुलेन्स
बेला
##트
फर्काए
छिमेकी
##ʤ
लाङटाङ
章
##̜
केन्द्रमा
नाथ
##पल
##ਿ
ǌ
विषादी
κ
गर्नुहोला
##١
肺
संगठनमा
̥
भवन
##չ
रविन
सेवाप्र
त्रुटि
एनआई
##٧
##र्याएर
देखाउन
##म्ब
ƕ
拳
जनावर
त्यागेर
##ȕ
##ुक
शरीरमा
ब्यवस्थापन
쮧
##ݝ
##ोन्मुख
容
##ʶ
लामाले
ߠ
हत्याकाण्ड
杜
जानकार
ढकाल
सचिब
सहमतिका
आयोजनाहरू
दे
विविध
पुनर्स्थापना
अलपत्र
（
बच
असन्तुष्टि
सार्ने
##गमन
मञ्चन
स्मार्टफोन
ց
##rg
क्याम्पस
##ʛ
असली
भित्रको
गुमेको
㉠
बढेकाले
मले
##키
प्रथम
last
##ഖ
फुटबलका
太
鉴
न्यायाधीशले
featured
##ې
##घु
##स्थापन
ペ
##यती
b
अमेरिकाका
##라
पुगेन
##🤣
##कारात्मक
कसरत
नपुगेको
उपाधि
सार्वभौ
派
淡
##मू
पुच्छ
सफलतापूर्वक
##🇺
रोजाई
साविकको
##ಬ
##ད
织
लाग्दो
##ݩ
##खाले
गरिसक्ने
័
प्रादेशिक
㣁
अज्ञात
建
प्रदेशबाट
评
computer
राख्छ
घुल
受
झनै
##ߜ
序
भन्या
ى
अनुबन्ध
अफ्रिकी
सल्लाह
##֠
वक्ता
왴
दियो
सुधार
co
二
वित्तिकै
继
तिहार
मुगु
निर्वाह
था
टाउकोमा
प्रचण्ड
एल्
भिडियोको
ন
֮
उम्मेदवारले
कामबाट
62
संगी
ज़
##रोध
之
ݳ
具
##ीकृत
处
अस्वीकार
:
लेखकको
確
ņ
##गल
##मिका
चौला
##शमशेर
कपिलवस्तु
सांके
ۆ
ծ
##ंका
ठेगाना
##닝
सदाचार
राजतन्त्र
आचार्य
万
씱
ګ
峰
महराले
##तले
튜
भित्री
परमेश्वर
श्रीमान्
사
दीक्षित
अस्तित्वमा
नपरोस्
##ƅ
##ƣ
किनबे
लम्ब
अफगानिस्तान
ǧ
##घाटको
सदस्यको
ы
峻
प्रोस
##पका
पाकिस्तानका
कठ्ठा
समीकरण
绳
##ल्ट
,'
लगानीलाई
犁
बनाई
तबसम्म
##ਸ
मान्छेहरू
निस्कने
देखेँ
स्वयम्भू
च्याट
उठाए
氟
देखी
##ȅ
उतै
कतिपयले
फे
आलो
महेन्द्रले
मेरुदण्ड
सुधारमा
मिठाई
टिप्न
暗
##т
फोरमका
बहिस्कार
मिना
लिएकी
##ढ
संस्कृति
मच्च
ݼ
झू
दाता
##राइ
सदस्यहरुलाई
साक्षी
सिक्दै
럼
धौलागि
महानि
फोरम
स
##दुर्गा
##ल
##ặ
彫
ˌ
秀
पुस्तकको
ٹ
߲
##ूहिक
इज
##राल
إ
辰
आदेशको
##unt
##भारा
जाने
क्रोएसिया
दिनको
कट
ニ
##김
औसत
भया
##rat
options
##केको
बन्दुक
विजेताले
跌
रोयल
##ैले
प्रम
बहुसंख्यक
##ेनत
##ค
##ݚ
राध
बढिरहेका
हेर्नु
##ौरा
##नेछ
फो
हाकिम
चाइना
##र्थीलाई
भइ
इट
##ृति
बालबालिका
फर्काउने
भनें
😓
म्याग्
脐
निर्ण
गौतमलाई
गीतमा
राजस्थान
ȅ
निक्षेप
ल्यायो
铜
禁
गोठा
ｔ
莦
ብ
यूएई
҄
[SEP]
yo
कुप
बैंकहरुले
पदयात्रा
क्याले
परिषद्मा
मुद्रास्
गल्ती
प्रहरीलाई
##ൃ
##वाहिक
##लाको
जनकपुरमा
नम्ब
थिइन्
प्लटिङ
सडकको
अग्नि
गाउँघर
##ۍ
̟
##िलै
##პ
̻
##राही
»
##हाकार
वाइडबडी
,
##mb
छिनो
उद्धेश्य
##उडमा
pain
ú
अस्था
ݯ
精
आपराधिक
평
new
जावलाखेल
ٖ
##वादीले
अनुराग
मदन
गाउँग
कतिपयको
नेतामा
युनियन
सुवेदी
‸
婚
##ݬ
कहीँ
##सञ्च
##औँ
##नित
##ere
##समक्ष
आश्रम
गरीब
贯
मूल्यमा
ɭ
बढाउने
निदान
##ិ
रिपोर्ट
博
##̢
ܸ
आउनुपर्छ
प्रगतिको
बास्केटबल
सल्
रौतहटको
ガ
豊
##ꆷ
लखन
तुरुन्तै
मागे
झार
अब्द
##ज्जत
धीर
##बाटो
एनएम
##हरू
सिपा
##न्दोल
मस्तिष्
खेलाडीहरुले
मैथिली
सेट
##🎼
९८
नयाँ
##˼
ӳ
धनी
नपा
मद्द
प्रतिद्वन्द्व
ꞗ
सेर
विमा
##मण
##चक
##ϐ
भत्काइ
वस्तुगत
बन
सन्दीप
पार्थ
समयसीमा
सवा
बिरा
조
महाभार
feeling
स्वाभि
भाग्न
##सम्मले
湾
पर्छन्
निगमका
ताप
##ᤥ
만
घटेर
६०
भारतकै
ओत
ט
##यु
नाई
मधेशका
गर्नेहरु
##क्षक
##नन
厳
레
멘
##जहारी
हुँदैनथ्यो
##rom
##ाउँथे
##एनन्
ড়
छलफलपछि
अभिनित
##85
विश्व
description
##ݘ
##체
विराज
##र्पी
विरोधका
संयन्त्रको
हद
ओर्
उत्पीडित
उठाएर
प्रत्यारोपण
कर्पोरेट
जाँचबुझ
जाओस्
घन
ų
##्यारो
javas
गर्यौँ
राजधानीमा
ঠ
##ਫ
परिवर्तनका
##पोर्ट
##ेश्वर
फास्ट
पर्साको
गिरीको
आधु
##͛
##क्नु
छान
सर्वदलीय
इस्लाम
तरिकाबाट
नदिन
संस्थाहरुले
去
जीवनशैली
##복
##ain
पुर्याउँछ
मूल्यको
गठित
यिनको
सफ्टवेयर
जोडेका
##पक्ष
जनअ
सञ्चारमाध्यमले
娱
ÿ
संचालित
##57
##ानु
लिई
विद्यार्थीलाई
कञ्चनज
##त्त्व
कामना
な
रणनी
मैनाली
##̷
target
##ek
##सव
आउँदो
##ȶ
💐
映
##राज
संशोधनका
घर्ती
आजदेखि
##पको
बढाइने
नियन्त्रणमा
营
ڎ
स्वरूप
बढ्छ
霉
खड्काले
भयान
১
epis
नमिलेको
x
##ॽ
ramro
नग
बेग
आफुले
हुनेले
̸
##खे
चेल्सीले
पर्यट
यस
हरेक
भत्काउन
सोझो
गैरकानुनी
##;
##ਬ
आक्रामक
는
हामि
राउत
##ԕ
आतङ्क
ข
##ver
##खामा
##सम्म
ɫ
याममा
货
सदस्य
चलचित्रले
पुतली
񩈔
मतदाताले
राजदु
डिसेम्बर
┌
आवश्यकताअनुसार
##डारी
##ӊ
भाँ
सम्झौताअनुसार
गर्दैछन्
##ழ
कोलम्ब
उपचारको
भनौं
एपी
##75
दक्षिणी
##मुना
##߀
पानीलाई
##ियस
टिभी
##ポ
महशु
मानिन्छ
यसपाली
##वेदन
रिचार्ज
'
don
ڗ
बजाउने
शाखारहित
आईत
व्याप्त
पण्डित
##்
##†
यहीं
##पुत्र
##टाएका
लिम्बु
म्याग्दीको
का
एजे
##ང
界
##भूति
महाभूकम्प
##णले
आश्विन
चाहन्न
槐
अभाव
तिनमा
##ﾌ
##ेसन
५२
##ڥ
##जिलो
ƛ
c
राकेश
१९५
##り
नेताहरू
##फ
पोखरेलको
बढेर
##ter
संगम
ៈ
लिन्छ
##ागु
##、
बुझेका
निर्माणले
##ĵ
##ő
पढेका
सं
लैन
##ڑ
՘
पाइपलाइन
##तिर
समु
##ञ्च
##ात्मक
յ
आलोपालो
मानन्धर
##¼
##कुर
##ޙ
##िनियर
43
⦁
रेफ
साटा
생
##ताका
##♦
ꭹ
##+
पुष्पलाल
भाग्ने
शनि
चीनमा
छोराले
ز
फुटसल
एलपी
खग
溼
##ाध
गर्ज
तारा
सन्तोषजनक
सुरुआत
两
##right
गायन
짱
गइरहेका
ɓ
घण्ट
वाइड
२००७
##나
बिब
जिल्लाकै
##ुङ
##료
दिनानुदिन
फले
寄
##ӽ
मन्त्रालयमा
corporate
릭
##र्ते
##ｒ
अनिल
##वादन
एचआई
महत्वको
लगत
##ेन्सी
##र्मिक
गर्नुअघि
बाक्
राख्नका
प्युठान
डेमोक्रेट
##ߋ
##खाप
##ेसी
केन्द्रिय
हुनसकेको
##orts
महत्त्व
निर्धारित
पेर
ޙ
हुनुपर्ने
証
隊
##ố
##ि
कम्युनिक
केक
सञ्जाल
阳
ब्लड
समेटेको
##्छु
बहुउद्देश्यीय
फेला
側
와
प्रार्थना
硅
प्रधानमन्त्रीले
वास्त
##पमेन्ट
प्रदायक
u
बाजी
##샵
坛
रियो
असह
##गन्ज
जोगाउने
׾
##ाइज
･
खेलकुद
##पर्छ
खर्चिलो
छवि
बहाल
पाठेघर
जुटेको
ԟ
दशैं
23
बुढ
轻
सम्बोधन
कर्जा
कान्छी
कार्यान्व
प्रजापति
ॄ
##समेतको
फेरिएको
ܘ
भर
놆
双
##ान
##![
गर्दैनन्
सिभिल
बादल
मुख्य
ؤ
##ͪ
岸
##डिब
धुम
यूके
निचोड
दृढ
˽
कीर्तिमानी
嫲
झुण्ड
सर्वप्रथम
गाएका
##णय
बडि
उत्तिकै
##ง
साबिकको
ყ
##बेल
निष्कासन
सैन्य
दोस
ഐ
नामा
आन्दोलन
परियो
बिच
##िलाई
##ར
##ข
सम्मेलनका
##к
बताउँछ
ۻ
##ियोजन
मलेसियाले
शोध
मोबाइलको
प्रत्य
फ्
इन्ध
̴
भियत
ꌍ
उद्देश्यका
गोरु
एसियाका
दर्जनौं
अत्या
थालेको
役
प्रतिनिधी
विभेद
उत्पादन
疃
##nepal
चाबहिल
चलाइरहेका
##ĸ
जिन्दग
##गठ
स्वीका
ਗ
सस
समुद्री
##्याउनु
underst
एशियाली
डडेलधुरा
दीपकराज
##श्मा
ʡ
खासगरी
क्लिन
पक्षबीच
बिस्तार
शक्तिमा
##ે
मार
##झै
वर्षाको
火
नपुग्
बन्नेछ
हिँडे
##59
टेक्नो
१९९६
समाति
नवयुग
स्क
ɿ
गैरआवासीय
닦
पिटर
सनराइज
नाघ
켓
##गरमा
##्याङ्क
##ܿ
रुस्लान
दसैंमा
बिद्या
विकट
कर्पोर
धके
ぎ
く
##լ
コ
मड
अनुत्पादक
##͏
հ
विच्छेद
##गोठ
🙊
ײ
तर्स
फ्रान्समा
际
मान्छेलाई
晴
##urly
विराम
҆
मोन
߷
##गुरु
त्यसमाथि
विद्
लगानीका
##ामी
##ीक
चिउ
नेपालको
शिक्षालाई
##ीका
प्यान
गरिएको
देखिएको
विनाश
मिस्टर
अन्तरदेशीय
प्रेम
शिवराज
हार
할
🐒
##អ
##ेनिङ
庄
आसन
छिन
ড
राष्ट्रसंघ
巨
美
bizmandu
हटाएर
##џ
म्याने
##लीलाई
ϯ
लाश
##हिन
विपरित
##िरहँदा
ਸ਼
##/
##oot
°
ɯ
बाल
महिनासम्म
मानेर
##ສ
##ѹ
##ϻ
गर्नुस्
क्षतिग्रस्त
किन्ने
९९
##֔
व्यवसायीकताको
भोजपुरी
युगमा
आफन्तले
मैन
色
केसी
又
实
अग
बहुउद्
##ेमा
बजार
सुत्केरी
प्रधानमन्त्रीमा
धरात
##ुरुष
펭
एसिड
̓
वृत्त
बन्द
तिहाइ
बत्ति
एड
љ
दलहरूले
घाइते
##ंगो
भईसकेको
##धारण
महोत्तरीको
##ߠ
##धनीले
मोवाइ
पोखराको
निश्चल
घोर
सेन्सर
##ル
विपन्न
दुनियाँमा
##र्तामोड
##प्टर
नसकी
सुपरि
##स्ताव
घण्टा
ץ
纪
##ख्
राजनि
##ᤍ
、
दयाहाङ
नेपथ
を
पक्षको
##धन्दा
##र्इ
##😫
痖
कोषका
अनुभवी
##निमा
म्यानचे
प्राणी
##त्त
एम्ब
強
##लील
छाडा
हजारौं
##सँग
##ोट
नोट
##क्षर
##र्सको
आख
ढुङ्गा
आचारसंहिता
पिट
अनुत्तर
एकै
बागलुङको
##ิ
अनुसन्धानबाट
उम्मेद
प्रोत्साहन
ॽ
&#
कागती
एयरलाइन्सको
##vel
ં
ɝ
##परिणाम
चीन
लाग्दा
भन्छ
जनाए
दिव
स्टेड
##ेदी
होटल
0
cha
सञ्चालनको
अनुसन्धानकर्ता
६४
बडी
西
##भयो
खो
चर्को
當
गगन
सभापति
मनोबल
दशकौं
##त्स
गरेकोछ
जुटाउने
योग्यता
좋
拘
##ƛ
##्याग
##दिन
##िकल
त्रैमासमा
टोलीबाट
नखा
सुरुका
हरियाली
नति
हेयर
ง
अत्यन्त
सेन्स
喍
भइसकेका
##α
डीपीआर
##कला
##abasi
ढंगले
स्वाधीन
##सम्प
##빌
खाँदै
बिम
मिले
##गञ्ज
सदस्यीय
पृष्ठ
स्टुडियो
烈
ャ
तँ
##ސ
मादक
मुलुक
##हरुसँग
बेर
挺
दिपेन्द्र
현
##अर्थ
##ऎ
##߰
बिउ
効
भेटेको
एडी
राज्यमन्त्री
सम्भार
##िनै
眼
एक्ला
कोई
देखिन्छ
届
祖
राहतको
भनियो
लड्ने
긂
युवा
महीना
सुवेदीले
हेलिकप्टर
बौद्धिक
##तामाथि
拥
ڪ
##खबर
जतिसुकै
##ﴽ
दृष्टिकोणबाट
मुर
耐
##नस
幸
पठाएर
ؾ
##כ
अपांग
##पती
##ग्रहण
##ुपमा
##݋
chha
लड्न
विभागीय
##थम
हजारभन्दा
##बायो
घ
नामावली
मापदण्ड
##बिन
खेलकुदको
##बासी
सिस
ϝ
ड्राइभर
##ˊ
고
was
##ie
रामेछा
##न्तरण
निशुल्क
पेजमा
##ार्ज
दीप
ુ
लडेको
कमिटीका
तनहुँ
प्रदेशले
कागजी
##क्ता
##ū
##कर्मी
##क्ष
##ᤆ
डिभाइ
चिनीको
##हीन
##봉
##😤
』
नै
##धुनिक
ԅ
विद्यालयमा
##ia
नज
ठ
ﭨ
एक्सन
जिब्रो
##ग्रा
फला
🇪
रहस्य
踢
घरका
जंगलमा
##तल
फर्म
##ताको
##ानी
##हिल
65
׹
राज्यका
府
समापन
५९
ꍱ
रानी
##ݕ
##त्तीको
##ǘ
if
##उन
߳
प्रस्ट
बाहिरका
还
पुरातात्त्विक
लाम
गरिदिए
置
ْ
हुवा
अभिनन्दन
ʪ
div
γ
चल्नेछ
आयोगबाट
##🇲
समितिमार्फत
वर्षिय
जितेपछि
गाडीले
सुन्नु
आर्
सभामुखको
偏
##र्टमेन्ट
बाँड
समर्पित
祥
##वेयर
regist
यू
极
सञ्ज
०४
कमिस
##लाईन
##️
अप्टिकल
ˎ
‘‘
प्रचारमा
कम्म
उपाधिका
##プ
##समा
सरस्व
गोदाम
兰
׼
सक्दैनौं
##भू
बजारीकरण
then
आश्वास
समाजिक
せ
┍
ब्युरो
झुट
ͺ
राष्ट्रसंघको
德
अनियमित
मधेस
化
##ϟ
##डाइ
अविलम्ब
दन्त
बहानामा
##ḍ
##वाल
ਟ
💪
أ
गङ्गा
भारतका
ڱ
आयु
बला
नदीमा
समुदायबाट
नगरि
##rit
नटआउट
खोप
रिक
व्यास
बेस्ट
##उत्पादन
कपिल
ट्रस्ट
##ड्ने
खोटाङको
जलजला
खाने
कालिका
प्रजातन्त्रको
६६
##डर
मत्स्य
निगमले
##직
उठाइएको
##ख़
रेष्ट
䣒
खवास
चोकमा
युर
अभिनय
##ामुक्त
बस्नु
सिंहदरबारको
परम
सिरि
मनाङका
운
आफूहरुलाई
ս
वक्तव्य
##일
',
પ
##╪
##ੇ
निर्वाचित
८९
̹
काटेको
##ठूला
##र्सन
28th
झण्डै
झन्डै
唔
拉
सर्वो
मतपत्र
拜
胜
नियमको
मुल्य
प्रतिबन्धित
सहभागीता
पग्
##ã
##💘
☆
ン
क्षेत्रिय
need
क्षे
ɧ
खटाउने
##ृ
डिए
मूल्यांकन
उनीसँग
存
衰
आशा
details
##ូ
पूर्वानुमान
बुझाएका
दोषी
एकपटक
पोखराले
प्रदू
͛
सङ्घीय
群
रोकिएका
##मौ
थालिएको
脱
##ितीय
##मिलो
##कालागि
परिधि
##だ
कमर्स
म्युजिक
लग
洛
𘡎
आँसु
##ण्य
ग्य
##ة
##cha
图
आयोगलाई
तपाईको
ब्वाइज
##सर्ग
जोडेर
दशौं
助
祭
गराउँदै
गरिनु
##🇷
रुपान्तरण
me
##떻
##수
购
##पति
उम
##सेर
सारेका
अनुगम
यत्तिकै
अर्का
##ेदारी
##ف
मार्गदर्शन
खेप
##लाउ
खेतीमा
नहुने
उपभोक्ताको
译
##¿
उदाहरणीय
जित्न
जन्मे
##जुले
ड्रा
चिन्ताको
बैज्ञानिक
マ
अभिन
आर्थिक
##जिअ
पक्ष
##विपरीत
नसो
;&#
रगतको
३००
##ꊳ
डेल
प्रतिफल
महाप्रबन्धक
##09
##폿
पछि
छुट्ट
フ
##ს
ܹ
͉
औँ
बोहरा
भविष्यमा
##ेलाइट
किबोर्डको
##]
फलामे
मियाँ
किरा
लामो
##д
संचार
##ick
##पेश
अर्थात
ത
अपे
##ѻ
दलमा
मीठो
大
##हतियार
喂
तरल
l
फार
मेसे
गृहमा
मिलेको
扶
बिरामीको
समूहका
छोटो
म्यानेज
ِ
मिटरको
रेल्
आन्दोलनका
表
थिएनन्
##ԑ
̃
काभ्र
##पमा
滅
रुन
सकेनौं
सूर्यविनायक
जुटेका
थुप
सच
뱻
ꠒ
मादल
सडकखण्ड
भर्खरै
समीर
楼
सेमि
दाङको
##मति
दौडध
छोड्न
##ֽ
नसु
ઓ
एर
##ʋ
धानको
##ूक
मझ
秩
घिस
श्रेणीमा
##me
उपमेयर
भाव
黉
घोराही
प्रत्येक
द्वन्द्वमा
房
ə
##hil
लापरवाही
परिकल्पना
ȭ
##ែ
ۧ
स्तरीय
नकआउट
##🏼
##नुनी
भर्खर
एकाएक
ओनस
##ื
निलम्ब
कोषमा
冊
##ә
##क्रमण
जिसीले
낭
わ
##ੁ
踑
화
種
comple
ज्योतिष
निकाल्यो
ﴄ
##ŭ
䁛
96
##წ
मण्डल
䧂
##우
कलाको
##ꠒ
ॅ
##܍
पी
ज्यादा
ⷙ
##ीकरण
अराजकता
##छिन्द्र
कांग्रेसमा
##वेद
ʂ
झल्कने
भन्नेमा
टेम्पो
##्स
##ȯ
ˣ
##̻
##राजको
भौगोलिक
##크
विद्युत
व्यवस्थापन
ئ
##्रिड
##ԅ
पाँ
अन्तर्वार्तामा
पकेट
नजिकिँदै
रूपन्देही
##ामुखी
##ेले
東
巧
६८
##ҕ
##ुअ
##सोधन
酸
वै
😈
##कै
स्नातकोत्तर
आफूसँग
फर्किएका
臭
वृद्धवृद्ध
प्रतिलि
痩
##भेन्ट
😔
##विरोधी
ȡ
घाट
बाँस्कोटाले
रोजगार
भरपुर
उपाध्याय
kamana
राति
appl
##៉
##ڎ
##ء
भई
菲
निष्काशन
##ℷ
ҁ
ε
##नमा
जीडी
माओवादीको
##तर
##कोट
ు
पिछड
बसिरहेको
अवधिमा
हाते
***
##mber
श्रमको
खोलामा
केजीमा
籸
##शालामा
कटारी
बुल
倾
̢
विस्त
দ
च्याम्पियनसिपको
विचारको
बोक्
##तम्
दुर्इ
पाँचथ
武
##पश्चिमा
##가
변
##ช
##................
ް
὆
काठको
頭
शोषण
ch
पशुपन्छी
请
##ेडी
भूमिकाको
淀
त्यतिबेला
भेटमा
더
सुर्खेतका
夏
देशले
궁
ю
दिनरात
##ब्द
सुर्खेत
ⷲ
आर्मीले
##र्षिक
अस्त
नम्वर
गरिँदै
##बे
แ
बजेटको
बाट
आजसम्म
##ד
बिजु
आना
सघाउने
կ
##शैलीमा
जस्तोसुकै
##ᤤ
उच्च
क्यलन
करोडौं
📻
##ीनगर
辖
खुला
कुरामा
##चिलो
फिचर
उद्यमी
छुटेको
अथ
##िमु
##क्षेत्रमा
एन्ट
##??
कोर्ट
सहकारी
आवाज
अवरोध
हात्ती
नेपालगन्जमा
##ur
सकिदैन
일
परित
##र्फत
महरा
˗
बगाएर
छापा
अप्र
रारा
##ȴ
राजधान
##जाको
माधवकुमार
गाविस
##ूको
调
यतिखेर
मधुमे
쓋
कार्य
दशैँ
संस्थाबाट
🙁
ide
कुण्ठ
##ानुसार
प्याले
लागेन
ǆ
भिक्षु
##खमा
雇
##मेल
##्
भरत
ԙ
जनसमुदाय
뺧
##तिना
##भार
##ुवामा
✏
##सेना
विस्था
फेब्रुअ
那
満
清
dharabasi
##ず
पदको
जेनेर
##लागि
चिनजान
महोत्सव
apr
메
दर्ता
ډ
अरुण
सहयोगले
आउनुपर्ने
##렶
ko
गर्भ
गथ
च्यार
बिक्रीका
##न्तव्य
सहितको
᭴
ऊ
追
कार्यान्वयनमा
८४
##िएफ
अधिक
गुणस्तरमा
##अलि
##पञ्च
अन्तर्वार्ता
आणविक
निराश
नेवि
जातको
##ies
遭
##ở
विद्यालयबाट
जनवाद
अर्ज
त्रिपाठ
नरहेको
##भूकम्प
अवस्थामा
드
विकासका
शृङ्खला
挀
##ǣ
斗
दोहोर्या
त्यहीँ
नराम
布
鬼
दिवसका
एन्
ढाड
##्यौँ
लागेपछि
ज्योति
##नाश
##ŕ
महाम
आमालाई
ਜ਼
डंगोल
मल्
sama
च्याम्पियनसिपमा
痿
##ご
टोलका
🙉
नायब
ˀ
लिमिटेड
संसदको
##ेयर
मिडियाले
तत्काल
स्टाफ
점
侯
##߬
##बर
##व्यस्त
आसपास
##पत्रमा
पुर्वा
##णिज
नदिएर
##の
##ܽ
ι
जोन
पुग्छ
अरूले
##द्रिक
ʾ
नियुक्तिका
娴
राना
##ח
そ
देशबीचको
समता
衃
##लाख
##िरह
##ྩ
門
चित्र
粧
##िटल
##コ
मिस
##भेट
ŉ
अर्जुन
सुन्दर
garnu
अपी
प्रतिष्ठा
##ี
नत
रहेछ
##ⷙ
很
प्रख्यात
४२
४८
यहाँको
##ेस्ट
उठान
ວ
##ारमा
##यरमा
##रोटी
ឹ
ை
北
欺
78
पाटा
मौला
賤
##चोकमा
##पालो
होलान्
卖
##천
कप्तान
##ĥ
नीर
##བ
ɳ
गह
घटाउने
राजमार्ग
她
##भुत
қ
##दृ
ν
आयो
खोलेको
साक्षा
ԛ
मोर्चाले
युट्युब
छ
ɥ
a5
मलेसियाका
परिरहेको
##ผ
वासिङ्टन
##א
##सामान
प्रसारण
सिलिन्डर
##ޢ
इतिहासलाई
育
निगरानी
रकममा
##थर
नियम
##रत
हुरी
अधिकारको
ƺ
க
##र्द्ध
##हो
अद्यावधिक
भाइरल
युवाहरूको
सुनिन्छ
鮡
분
##द्र
##̪
穫
उडेको
##क्त
प्रयो
data
##उनुपर्ने
अन्य
आईसी
कुखु
चल्यो
जलवायु
युक
넥
拼
##¢
##à
##रिद
˄
गोरे
चुनौती
बहुआयामिक
ќ
গ
##धा
बिका
##डम
##ವ
शब्द
सकिने
कामकार
##판
मतदाताको
प्रतिवेदनका
##मन्त्र
$
ථ
मार्केटिङ
लिनुपर्ने
##ു
투
करण
̼
मुचु
वंश
४९
##वीन्द्र
冶
लघुवित्
浣
अधिकृत
则
उनीहरूको
尚
न्य
忠
बहुमतको
तपाइँ
##लट
शिक्षा
##ode
驚
युवाहरुलाई
##ؔ
धरातल
मुक्त
युवक
सक्दैन
##릎
युरोपेली
अभिभावकको
गरिदिने
बजारको
स्था
संस्थाले
घट्छ
ᇎ
##ા
郵
काय
##ݫ
##one
१३
단
ठाँउ
व्यवसायी
भूकम्पले
´
भ्याल
ಡ
##ɫ
##ol
depart
##݊
फरवार्ड
बाढ
माला
##ala
##융
##ȁ
over
छिनोफानो
बहु
बजाउन
हैसिय
##नायक
ブ
访
बीमा
##तिमा
अलआउट
于
२४
उपाधी
##ेय
ק
🎹
तु
संयन्त्र
रोग
औंल्या
लाइन
##ोस्
know
सदस्यहरु
वल्र्डलिंक
बसले
##न्यु
##पेट
आमनागर
फलस्वरूप
ल्याइने
गोल्डकप
प्रतिविम्ब
नआउने
गरिन्
रोकेको
👊
##ウ
월
चलान
玗
金
##र्ता
ल्यान्ड
अज्ञा
पत्राचार
घरी
मै
सिरहा
٘
मञ्ज
疾
इन्डियन
띠
🇷
बिहार
##कवि
𽩞
शा
पैठ
अबस्था
वकालत
हकको
पुराण
त्रैमा
निर्माण
क्रिकेटमा
कोठा
व्यवस्थापनले
##राका
۟
0a
बाल्य
##ฉ
ば
販
फ्रेन्च
##ഡ
嗷
जनयुद्ध
##প
ʫ
##ज्योति
##भव
छरितो
##ैर्य
चुनिएका
कृष्णा
用
बिश्व
थाल
अनियन्त्रित
##ण्डी
##ंगु
बसेकी
险
आएकाले
रुपैयाँमा
गल्
##केट
देखा
क्षम
विश्वास
દ
सिमेन्टको
##ंश
aadha
ا
##ʠ
तरंग
खवर
दिनलाई
असी
##ൊ
薢
चैते
अनिता
निद
##ाउँदो
##ੱ
##ck
सहभागी
सद
##क्सा
ֱ
ٕ
मन्त्रालयसँग
मसान्तभित्र
̠
##चौर
दबा
伙
परम्पराको
मन्त्रिपरिषद्मा
उपलब्धि
न्युरो
##भग
फोन
विश्वसनीय
बङ्गलादेश
रिपब्लिक
खन्ने
圳
अर्थतन्त्रमा
मान्छ
ち
努
आउने
382
कैयौँ
अनुदानको
須
기
##कालका
सिंहलाई
##दिएका
सञ्जय
आध्यात्मिक
copy
उपत्यकामा
陶
खाडी
##मन्त्रण
जितका
webs
एमालेबाट
फूलको
मिश्रित
शानदार
आमूल
ऐनअनुसार
जिम्मेवार
加
हुनुको
권
ユ
##न्नति
योजनाहरु
##ԭ
अनिय
जनक
यसरी
##ַ
अभ्यासको
##ash
##ҡ
सुन्न
##खर्क
कलात्मक
सुरु
पब्लिक
##िब
ठूल
सदन
##संगीत
बड
##कप
##परेका
फ्रिज
ػ
ȏ
सूचनाका
ड
१९५०
##ܡ
जडिब
एनआरएन
##ali
लाग
अमर
ྩ
आशी
खण्डमा
प्रार
याङ
सहर
पूर्वानु
##्थे
सधै
लिड
粒
गरको
हेक्का
##ध्ये
अजय
बुबा
भेटघाट
सुध
议
陷
वारेमा
##शीलता
ताप्लेजु
लज्
संसदबाट
संस्कारको
१९९९
सुम
कोला
録
##셍
##समूह
##सना
bana
##ڶ
जनवरी
घेरा
×
##भाषा
कात्तिकमा
प्याराग्लाइडिङ
समसामयिक
अशक्त
##विर
##ˡ
##॓
टेक्निकल
दक्षि
नाग
बोक
आजीवन
协
٭
लागिपरेका
!!!
बक्सिङ
माक्र्स
ani
सगरमाथाको
इयर
कलेज
तल्लो
मेलामा
萨
आकर्षित
존
##を
ک
रिट
वर्षौं
##िन्थे
##सीले
मोटरसाई
##ށ
##पथ्र्यो
##मेन्ट
ʆ
कही
बोलेको
९४
##दन्ती
मानिसहरूलाई
प
खोजिरहेका
गैँडा
धर्
भुज
##ियसन
##ड्र
द्र
राजपत्र
gare
##lic
करिव
##याे
##७
##बुवा
##वासमा
##pb
नगर
शिक्षाको
अनाव
romanized
भए
एकछिन
嵪
哽
##ार्थ
酿
रहनेछ
डाइभ
अरू
एन्ड्रो
##चारी
तत्कालिन
प्रणाली
画
##ع
मध्यनजर
??
ô
आयोगमा
##केर
आपत
धेरैको
रिले
व्या
शिविरमा
मन्त्रालयको
हाम्रा
##सीको
##̩
प्वाल
##ल्यै
ĺ
पाउनुपर्छ
स्या
##ß
##운
圣
हालेर
##दै
पिडा
विकास
रणनीतिक
sun
##िय
长
##न्तरको
##िसक्यो
garne
तेरो
##ʹ
ħ
ځ
##तीको
लाभग्राही
साह्रै
##グ
##֌
##छौं
कँडेल
चाह
दशैंको
##सहित
धाद
यसैलाई
स्तम्भ
अनावश्यक
काफ
##타
दिनका
#.
🐽
२०६२
चेताव
">
उठेको
जर्म
अविवाहित
##ά
dr
सन्तुष्टि
स्वदेशमा
￼
瓦
संस्कृतिमा
##ީ
रसिद
解
##ʗ
गलत
उदयपुर
माघमा
बिदा
##ٻ
भरी
सामान्य
राजमार्गमा
##ug
अन्त्यका
देखिनु
##बुङ
ठीकै
##र्ने
मतको
मित
##नुपर्ने
##हाले
त्यत्तिकै
पद्धति
शान्ता
♡
ฒ
गोष्ठी
##‘
ұ
परिवारसँग
आधिका
भेट्न
सुरुमा
जानका
%
苹
##वी
##संगै
रोयल्टी
##ফ
अनुवाद
तोरी
पेस्तोल
##थ्य
कारणबाट
##ѽ
फोरजी
##ज्य
##कुटी
स्वामी
纳
सापकोटाले
##लका
##ܜ
अर्घा
प्रिय
स्तरबाट
किसानहरू
विद्यार्थीहरु
जट
प्रतिष्पर्धा
प्रकृया
##ི
साम्
आफू
भैर
้
अरूको
सामग्रीको
खाना
रोपनी
उसका
##ܛ
जनयुद्धको
क्लिक
ഴ
आयोजकको
彦
##ỹ
##і
鏏
##ძ
पहे
##🙉
थाहै
प्रवन्ध
गरिएमा
मनमा
##ര
language
मलाइ
सम्पादन
腾
बिग्रेको
##कुवा
##ｍ
एकेड
##्वल
##ह्रो
उद्ध
老
##с
औषधिको
त्यसतर्फ
##ۚ
सबैजना
##ӏ
रोजाइमा
##वर्गीय
##मिटर
##र्सिलो
योगेन्द्र
##िल्ली
गरिन्छ
सहभागिता
捐
बसेका
भुट
आलोचना
##퍦
ǥ
🎤
象
१३२
विगत
गर्भपत
सधैँ
पुजारी
ȇ
दुइटा
एकाध
##हरु
虐
पुरस्कार
मूर्ति
##̒
歷
काखमा
तुलना
फल
柄
नगरसभा
##ͧ
सम्प
पदार्थ
ܦ
अराज
बराह
件
विज्ञा
गर्नेमा
΅
प्रतिष्पर्
团
सूर्
हालै
संशोधित
तरकारी
बिग्र
歧
ڴ
सुबिधा
##ះ
पारि
惊
सातवटा
ോ
प्रोसेस
वडाका
उम्मेदवारलाई
ձ
लगाई
सत्कार
लामा
##ͥ
जनताबाट
बनाइन्छ
जनस्वास्थ्य
201
##मनको
##रक्षा
बनेपछि
स्र
बाबु
नेम्वाङ
सहाय
##ती
ट्यांकर
的
##ɍ
लिम्बूले
राखि
ɒ
##url
##ष्ण
अभियानको
कँड
转
##्ना
##߳
##दलीय
सहारा
अझ
अन्योल
४०
नगरेपछि
डी
奧
घुमाउरो
喪
गज्ज
##उपर
पाण्डेको
अधिकारीहरू
##st
कामै
विद्यावारिधि
##ن
##दाँ
नाबाल
फ्रि
कहिलेसम्म
रघु
##🇪
तपाईँको
चिसो
试
तेक्वान्द
##लाले
रैछ
सुध्र
##न्द्व
सदस्यका
सीके
##दोहोर
अव
कौशल
इन्जुरी
##̅
##अफ
एक्सचेन्ज
５
पर्यटकलाई
ݖ
गर्नैपर्छ
मीन
ヒ
##वाका
जनाउँदै
.....
अवै
utf
खेलकुदमा
दिइरहेका
बोल्दै
विद्यार्थ
##दशी
निवेदनमा
ǝ
चारैतिर
##ỉ
##परिका
पृथ
अगाडिको
साइनो
ｬ
##ʒ
ท
अवैध
उपकरण
धरो
##ប
दवा
##ल्दार
##ौता
पिक
##्छौं
एच
विजुली
९६
」
姜
통
समन्वयमा
##्छ
आआफ
違
बर्खा
##য়
##ɭ
आरिफ
च्याम्प
उनीहरु
महानगरी
खोजिरहेको
रङको
##ख्यक
##न्ना
##ួ
त्रिपाल
##म्बो
बिपी
लेखा
吴
庫
瞬
तराईका
आलम
##ेसर
##डब
टिमका
जीवन्त
बुझाई
##पट्टी
पूर्वी
##न्दिर
##पार्क
ܑ
नपर्
舉
मद्दतमा
पथरी
ڒ
##दिन्छ
स्रोतसाधन
##शत
जनजीवन
स्वचालित
##हत्या
भार
##बमोजिम
गम्भिर
܌
भ्रमणका
पाइन्छन्
विज्ञान
##֛
##सेल
बूढीगण्डकी
ܻ
पहिरोमा
##ގ
##ँया
घाटा
##िमी
मोर्चामा
莅
वस्तु
तिर्न
##टै
##ổ
अस्तव्यस्त
充
己
घाईते
केशर
畳
##क्ष्म
##कत
##विरुद्ध
जबकी
जरिव
##ेदार
जनप्रतिनिधिलाई
हौँ
दुःख
मध्यरा
प्रवेशद्वार
तथ्याङ्
साफ
ठम
託
##गर्भ
儀
##श्वास
##प्रेषण
##लाञ्चोक
त्यसो
願
##տ
##बाबा
⦮
##वरी
महँगा
##भएको
भरि
҇
मतपरिणाम
गुरुङका
रुस्
यदा
जाँदैन
޲
खनि
गराएर
##र्दै
छली
薄
##केन्द्र
##भाड
छोड्
##ਗ
##ल्ठूला
##हादुर
प्रतिष्ठ
दिएका
al
संस्थाहरू
हराएर
##डान
खोजीमा
चुनौतीको
##णमा
पति
स्वास्थ्यको
संग
##21
##ाइ
पाईन्छ
शान्ति
##स्ते
साथमा
達
गु
ے
अस
मिडियामा
प्रतिवद्ध
##*
߮
##ग्रो
##उँछु
##޿
##ोरियल
##ต
ʭ
略
ݣ
भावनात्मक
##ram
##ाइरहेका
what
कार्यत्र
चल्
摘
मिलो
प्रतिनिध
वैदेशिक
##र्नुपर्ने
एन्टि
ब्रेक
##पर्व
平
租
##खानी
गण्डकी
विज्ञप्तिमा
##स्त्री
परिवर्तनलाई
ു
उपदफा
##항
##रामा
##ϋ
ǣ
##मालले
हत्य
लाग्यो
##साथै
う
धरावासी
有
बंगलादेशको
आन्दोलनले
एकताको
गुड
garna
लाखौँ
##ס
щ
##ꊣ
खुम्
弄
ऋ
##म्बन्ध
प्राध
रोश
महत
ẽ
टुंगिएको
चरि
##भाइ
ᤘ
刻
भरपर्
嫓
ht
त्या
चुम
दही
##ालमा
##タ
अनेरास्ववियु
##li
##दीप
अड्डा
अन्त्यतिर
किलो
ӣ
आयोजनामा
ｒ
🏿
प्रतिव्यक्ति
##र्यो
मुस्किलले
जोखिमयुक्त
हुन्छिन्
宿
योद्धा
##ेटर
national
टुंग्याउने
##र्जी
개
׍
आसपासमा
##िता
एकीकरणको
साधारणसभा
܎
鶴
##31
im
कुट
वो
ਫ
師
##विश्वास
हेरौं
##भले
टुर
ψ
##😒
##थ्यौं
तराई
##फाँ
##58
##लाग
败
अष्ट्रेलियाको
##💥
सनम
२०४६
गोर्खाली
##क्षि
##्राही
छोरालाई
##˵
धनकुटाको
बहुमुखी
应
##build
जित्ने
##ᤠ
कीर्ति
शाखाले
फिल्म
कार्बन
राईले
न्यून
प्ला
अस्ट्र
फिन
भ्रमणलाई
लुम्ब
ڵ
##प्रिय
सिकेका
##ुकै
七
##एसम्म
##ाली
##भेद
पनी
सार्व
##ド
सुहाउँदो
राउतलाई
##ˌ
इन्डिज
અ
##ʫ
##स्तरबाट
एमालेको
व्यक्तिहरुले
रि
ओ
चार्ज
जसका
##कालको
निवेदन
bi
९५
ჭ
##֑
岗
##मले
चौधरी
母
##um
०७०
भएदेखि
मध्यपहा
टुट
bad
सत्तारु
ุ
诊
their
चीनबाट
फेडेर
##ҳ
ഡ
कार्यसूची
लागिएको
盆
अनेक
चुर
छ्या
जघ
स्रष्टा
##दर
ﾥ
२०६९
उछि
予
##रहनुभएको
ớ
घडेरी
##र्त
पर्यो
##ज्यूले
निर्म
##वास्ता
##08
छालाको
निवर्तमान
समेट्ने
सक्त
盖
नाताले
पर्नेमा
##법
ڷ
到
gh
अनुसूची
ߓ
कर्म
अर्को
कोरियाको
डिसी
सुन्दरता
आमाबुबा
पुग्यो
##कोमा
##ռ
ǭ
कृषकले
ढंग
##नेट
थिएन
埼
विदेशमा
##भत्ता
आत्मविश्वास
एसि
##ǖ
गुना
बालबालिकाका
देखाउने
सरोकारवालाले
##å
मोरङ
##load
##तिव
쏿
साउ
##ะ
पत्तो
श्याम
伏
ड्राइ
##ਥ
भित्रिएको
तोडफोड
dur
अवस्था
आकृति
दिवा
व्यक्तिहरुको
नाटकीय
आइन्
##í
विषयलाई
सफ्ट
##तुन
राशि
inst
ऱ
हर्कत
छाडे
ल्याई
कर
सो
कति
慢
계
डेब
गुरुङ
सुगन्ध
##मिन
इञ्ज
पक्कै
##मानव
莱
顔
आतिथ्य
मूल्यांक
##ޞ
पक्षीय
सप्ताह
晙
म्यानचेष्टर
死
난
राष्ट्रसङ्घ
##and
प्रायो
राउतको
युवालाई
८
ゴ
गरिन
मनग्य
📢
prog
##マ
उक्
##ाइल
##01
##olog
घरमै
परिवेशमा
सुनाए
भेटिन्छन्
##गुना
仅
त्यतै
##hile
हतियार
城
##ेग
जीवनलाई
प्रता
##҈
पाँचथरको
बिजयी
ͼ
ؠ
##र्ई
रै
##aya
##˺
रोहित
￣
लाखसम्म
##ध्व
##साधनको
अवस्थाले
̗
तोक्ने
सुखद
दैलेख
व्यवस्थापनमा
補
शि
##हको
विदेशका
शाह
यथा
टाइब्रेक
##उँछौं
शिष्टाचार
सूर्यो
##au
##श्मी
51
##ेशनले
निकायबाट
撂
योजना
सार्थ
##॥
##]]></
##चरण
साइ
😠
सिक्किम
तलमाथि
वेबसाइ
६००
चाहिन्छ
व्यवस्थालाई
4
ピ
##̗
撮
अफिसर
##सेन
अष्ट्रेलिया
अनन्त
दिस
प्रशंसक
##ī
अन्याय
समृद्धिको
##ण्ठ
##लान
##ȫ
##😯
अनुहारको
##पार
資
न्यायपरिषद्
दूतावासले
甘
तनहुँको
श्रीमती
ताली
मूल्याङ्क
हुनुपर्छ
##24
80
नद
कथित
語
膜
नापी
desh
##र्च
֭
गर्भवती
घरहरू
राष्ट्रियता
##ेजको
आदर्श
हुँदाहुँदै
झन्
उद्देश्य
##हुँ
类
##없
दुईको
सङ्क्रमण
किसानको
चुकेको
टर्मिनल
शरि
土
‚
हजुर
क्रि
˫
׵
कभर्ड
##ढोका
राष्ट्र
nov
費
फ्लाइट
##थे
##ौन
कार्यक्रममा
भएपनि
##ìव
##दले
胞
दिनेछन्
पाउन्ड
ߐ
खोज्छ
एक
गिराव
֎
नाकाबन्दीका
मोती
##न्नु
##ͱ
##िनँ
송
##म्भ
बाधक
##62
##चिन्त
किटानी
अनुकूल
##ईमा
定
इजला
##ेयक
##ईं
##ित
अपडेट
##켓
職
स्मृतिमा
ី
##चना
people
ɉ
酢
##ᤋ
##94
लक्ष्यमा
टुक्रा
##ԫ
##गर्दा
नपाएपछि
險
##भाउ
साक्षरता
अनुहार
जनम
कापी
आइपुगेका
##बा
##ď
बोली
साथीले
##क्र्र
हरा
सरकारविरुद्ध
सुत्
##औ
प्रताप
जन
पानामा
लगाउन
##એ
##खोर
##िकरण
ओहो
अदालतको
##भरमा
##िए
##ग्र
सेवनले
##ṏ
खुश
भएछ
उपमहानगर
信
##क्ने
##ך
बैंकले
##मिट
जर्न
เ
립
विस्थापन
##ments
सभासद्
चाङ
ल्याएर
##िएम
सुरक्षा
बोलाएको
हार्ड
२०७६
24
फ्ल
ȯ
##ế
newsofnepal
कानुनबमोजिम
パ
͞
श्रमजीवी
転
##दको
सालमा
##क्रिया
मनोनीत
##’
##्रीष्ट
##ˆ
पटकथा
नलिने
नहुँदा
मिलेमतोमा
##ț
##एला
่
##˜
##स्यक
दिपायल
##फिक
##ʖ
##ेरो
धित
##न्धान
##݇
पतिको
करिडोर
निक्कै
융
##पानी
जनाको
ƥ
##म्सले
勲
ढाका
गम्भीरतापूर्वक
##माई
ब्याटिङमा
रित
श्रीलङ्का
##น
अवधिभर
माग्दा
सबैसँग
फुटबल
डीपी
जनआन्दोल
किशोरी
जीवनका
##ुन्
सुधा
##लाग्
पुर्याइएको
sad
लगायत
जोडी
厨
कसलाई
पूर्णरूपमा
st
##जिकल
चलाउनु
छायाँकन
##थुन
##̫
ԏ
आरोपमा
संख्याको
##ĺ
यसकारण
व्यावसाय
##･
pol
समृद्धिमा
##पिन
ښ
हेरी
শ
ស
##्ञ
##न्तर
पहिरोले
像
२०५१
८७
कभर
मुट
गंगा
##अगावै
टिमले
##जिङ
##पानीमा
भनेपछि
##러
परेको
अन्यो
सम्मका
##खण्ड
打
आरो
प्रर्दश
裕
जायज
स्कु
##ڴ
##फुट
घरदै
प्रसंग
गुलरिया
##भाविक
अध्यय
सूचना
##ϸ
जाडोमा
पारिवार
राख्दैन
यससँगै
प्रत्या
पोखरेलले
##गो
古
खेत
##짱
ने
यु
։
ग्याल
च्याप
##ँड
प्रालि
条
ji
穷
##जुर
बु
񬊾
परिर्वतन
買
भत्का
##ṇ
फ्रान्सका
##कप्त
##रहेकै
बीआरआई
##र्नर
##퓄
सर्वोच्च
लिन्छन्
बेन्च
मान्य
जला
कुनामा
मुस्
##नियम
朴
##϶
##ैपर्ने
व्यक्तिलाई
कन्ट
डुबान
durbarmarga
एभ
ਠ
आयल
गरौ
गाउँलेले
漸
##दायक
##73
##ワ
##ʊ
सर
ぱ
##क्षम
##आईजी
उसले
पारदर्शिता
पुनरागमन
욎
ड़
绸
नेपालीको
त्यति
ए
##पुस्ता
##दरवार
बहा
विहान
कष्टकर
परमाण
ᨵ
अनुयायी
##ኛ
२०४
पै
##ŏ
##च्छुक
कीर्तिपुर
##ुक्त
कालि
##ί
दुब
लौ
##방
made
羁
हडताल
आधारभूत
֖
एमालेका
शिक्षाका
관
अत्याधुनिक
ठिकै
लोकतन्त्रलाई
विन्दुमा
##ޟ
अगाडि
##ैदेखि
ѳ
गर्यौं
ې
आइसकेको
प्यूठान
##सनमा
ს
🏼
##पूर्
##र्ब
##भेल
रावल
##नेका
͡
बक्स
##होला
सोह्र
अव्यवस्थित
कोदो
##टान
##ूह
ぐ
पराजुली
चौर
环
आयोजित
에
दर्ताको
ele
पर्य
क्यान्स
##었
पन्जा
급
す
々
##ڣ
बुद्ध
18
चले
괎
कार्यक्रमहरू
बच्चा
ᤢ
कयौं
repub
गरिरहनुभएको
आवश्यक
ऐनको
महाप्रबन्ध
ۺ
तोकिएको
##ध्यक्ष
रुद्र
हेलिक
##ʼ
थो
झिक
नाफा
हुवावे
🇩
लालबाबु
##कुमार
दौरान
ゃ
쳎
रुची
बढुवा
देशभक्त
अभ्यस्त
लिदै
सिन
बिज्ञ
##ڸ
℃
֔
##मेर
व्यथा
##ंगल
##रहने
크
राईको
察
con
एकोहोरो
खुले
चुनौतीका
प्रदान
##स्य
प्रतिवेदन
फिल्मलाई
##चालित
महानगरपालिकाको
चिल्लो
त्रिभुवन
बस्तीको
##០
department
गोदावरी
ǔ
डे
ྒ
践
रसायन
##ҝ
##दार्थ
इलाममा
ì
##😠
पुरुषतर्फ
先
##स्ट्रो
कम्यु
ڥ
##डी
##ंडा
©
पहाडको
滨
##ेट
लाहुरे
##दैनन्
##हरूलाई
能
86
रस
ڿ
पुरातत्व
##ķ
##ৃ
सादा
##लु
निरा
۞
ｋ
नुवाकोट
##ᤘ
##ֱ
तथ्यांक
距
की
प्रतिष्ठानको
श्रेष्ठलाई
##यिक
ϻ
अभि
##यका
प्याड
##केका
गर्न
##है
तहबाट
धान
एक्सप्रेस
ề
##भमेन्ट
##वर्षीय
ज्ञानेन्द्रले
##र्ना
##ुद्ध
सजाय
##योग्य
परिचालित
##ेवर
नेपाल
##ډ
ی
##र्देशक
##टर
##सेठ
क्षणिक
स्थानीयवासीको
##ाउनका
”
माछा
##ure
जनप्रतिनिधि
शिक्षित
##ारी
##अनुसार
मतलब
##स्टेक
##उने
択
इलाम
जुलुस
भिड्दै
हुनुभएको
🌷
अन्दा
##+%
चैन
जानु
राजदूतावास
षड्यन्त्र
##ٶ
बस्
֏
渥
कोट
लम्साल
ल्याए
सर्ज
हातखुट्टा
##ob
##iz
᎟
बाबुले
बाढीपीडित
४६
##२
खाँचो
प्रिन्सिपल
##ंशी
儿
##वाही
अधिग्रहण
##विराम
एप्स
खातुन
गोल्डकपको
그
ސ
डोर
अंकले
समाधानका
पटकसम्म
##ता
लमही
##ⱦ
##निका
स्थानीयवासी
हिंसाका
सेटमा
उनीहरुको
समूहबाट
##फेर
दिनुभएको
##ᵤ
परिमाणमा
हिँड्न
septe
##िसकेका
पाकिस्तानी
मध्यपहाडी
पुस्तकमा
लुम्बिनी
##भ
उप्रेती
रुटमा
नगरेका
झुटो
भोलि
रुपैयाँको
बुवाले
बाँध
शब्दले
गर्नुभएका
ȿ
सुविधाका
##მ
party
बराबरको
##̑
##जू
##्दा
><![
##ण्डित
ݺ
बराम
##შ
खड
भै
##दानी
##वा
सर्व
यथार्थ
##ut
##᤻
जवाफदेहिता
##ﾥ
##오
निकुञ्जका
##ठ्
##ठाउँमा
##ｂ
լ
वाल
सकिएला
##ङ्ख
##ne
वर्गलाई
काण्डमा
##ौलाले
पानीजहाज
सेप्टे
岐
42
ध्व
߰
सुदूर
😲
उद्योग
प्रकारको
अमृता
##नाइटेड
यताउ
बाढीका
नेपाली
##ϔ
सेकेन्ड
गराएपछि
महानगरले
֠
खाद्यान्न
निल
पेरिस
समाचारको
때
नपाइने
सडकका
पेनाल्टीमा
޺
धितोपत्र
##ठक
राष्ट्रले
##ood
दिइन्
आफन्तलाई
फोहोर
##ृत्ति
##͘
छाँ
सोचेको
बजारले
वडाध्यक्ष
迫
काग
अभिन्न
##डेल्
म्यास
w
दाहिने
तिनीहरूले
फ्रेन्ड
##फ्ट
बाँझ
असुर
sabai
##˅
मं
मेलमिलाप
क्यान
गाउँपालिकाका
घटस्थापना
常
##փ
ǂ
बेलुका
敦
ͣ
w3
हेटौं
विभाजन
ギ
योजनाको
कात्
fal
निर्माणकार्य
؍
##ǉ
रोमा
##ौट
हप्तामा
उठेका
बाझ
##पाटी
सुनेका
ۼ
अल्पसंख्यक
जरा
अठ
##टाएर
संचालन
निकायको
बेइ
##ˣ
##޴
तथ्यलाई
संरचनाको
ß
सयपत्र
##є
संका
##प्रद
माया
टोलीमा
##݂
टायर
मान्छेहरु
विधिको
ਿ
अथवा
गन्तब्य
##ҫ
##ރ
##ಳ
२०५७
##ޔ
٢
飞
催
लगाएकी
ش
##ڦ
समितिका
##থ
##स्था
पीडामा
##30
डाँ
##임
चलचित्रलाई
##ู
गर्नमा
##ｬ
महाभियोग
झडप
ट्रान्ज
विद्यार्थीहरुले
##मे
ӹ
शनिबार
##ڔ
पेस
एक्काइस
正
जनचेत
##कक्ष
##दास्पद
दार्चुला
यिन
यिनी
##ख्यात
मेक्सिको
##ͽ
##ば
तत्कालै
말
पृथ्वी
कृष्णप्रसाद
कारको
अस्पतालको
सन्तानको
लडा
प्रत्याभूति
娩
असाध्यै
處
एनसेलको
詳
अलि
##ब्लु
##त्मा
समाधानमा
##=
फोरमको
सास
कमीले
妹
##न्छन्
९२
患
識
थाम
पथ
एकरूप
##र्का
早
शाहलाई
यस्ता
😊
缩
देखिन्न
राजधानी
##खन
अनुप
दुश्
ʬ
##िमा
दुर्
सदस्यमा
尺
पूर्णता
##no
##गामी
熟
笛
订
कसरी
दुर्व्य
चौमा
##꣕
रक्त
गुम्
ഖ
त्यस्ता
सक्थे
##✋
ट्रयाक
##17
विद्यार्थीका
अन्तरमा
ढिलाई
挩
##15
चिनिया
💔
##डको
##चर्चित
##म्वा
घाँटी
मनिषा
निहुँमा
९३
कक्षामा
साथीहरूले
स्वाय
晚
##एका
गच्छदार
इमा
कार्यसमितिको
प्रजिअ
फलाम
ޜ
संसदमा
पुनर्संरचना
बताउन
ৈ
彩
率
डीआईजी
आगामी
##ारो
सहिद
प्यासिफिक
##चि
##्यापक
एन्टी
括
##बलको
##मुक्त
##हक
##᪰
˛
सह
विकसित
निषेध
##ᨵ
सम्भ
초
लोकतन्त्रमा
ধ
पोस्ट
मंसिरमा
व्यवसायीहरू
..
उही
密
यातायातमा
समयले
香
देवी
##पताल
सिर
अप्रत्यक्ष
सर्वोच्चको
इमरान
͋
风
द्वन्द्व
##उनु
उल्ल
[
ἆ
बादी
##ृत
तरिकाले
##ส
##जीका
अनुमतिपत्र
नाला
झे
आचार
अत्यन्तै
ܠ
कलाकारले
डिप
范
##आईपी
१९
परा
##ामा
रहनस
##ालगायतका
किनकी
##काण्ड
भनेँ
👧
जित्दा
##담
##ɏ
उपेन्द्र
नदीले
ವ
##ਸ਼
।&
अधुरो
सिटौला
##मध्येका
मोक्त
떻
हेर्ने
मुसा
##म्य
शक्तिले
制
##िमूलक
##񺦨
ओखर
संघर्ष
गोल्छा
छै
ഗ
आस्था
##。
पाकिस्तानमा
歉
थपेर
सूर्य
रेमिट्यान्स
紀
ศ
失
उद्योगीले
ァ
##न्त्रिक
##रुक
सपोर्ट
##ून्
विकासको
벃
लागतमा
##ხ
##42272
##कन्या
##🇩
ë
नंको
दबाब
आउनेछ
कानमा
वकाल
##मग्न
##बस्तु
##चार्ज
1st
श्रेय
ह्यान्ड
##ӱ
默
##िनले
सुख
लुम्बिनीको
##टाए
円
म्यान्
री
जो
कर्णालीका
##वलोकन
해
文
संभावना
##ু
##वेश
कोरियो
रोबर्ट
##정
བ
##न्थ
##पट
##ը
##テ
##⇨
रहनुपर्छ
##ы
कठ
##बाजी
##श्रमिक
सशक्त
कँडेलले
ϱ
बालाजु
塑
##ͦ
##ម
##जक
##ɜ
头
खाद्या
श
ַ
##निस्ट
बाध्यात्मक
##「
प्रस्तावको
ി
##ߧ
׋
अंकुश
अर्था
with
ʹ
[…
कारागारमा
अवस्थाबारे
##ेउ
चेल
जात्रा
निच
बाँ
मनसुन
सार्वजनिक
सिकेर
ય
飲
##कुस
उर्व
href
मोही
हकहित
राम्रो
##छोरी
प्राधिकरण
उम्र
यसपाल
##ba
##्रक
ء
欲
चेतनाको
पि
##ૌ
##मुदाय
##ｼ
स्पाइ
##{
ध्यानमा
पान
ฮ
礎
故
निका
दिनदेखि
दोलखाको
सन्तानले
ʮ
##अनुरूप
फलफ
💃
##さ
##बन्दी
##र्दन
##र्चु
ᑀ
闲
##िनिय
ͱ
##मानित
č
अमिताभ
तदर्थ
कं
पाए
भविष्यको
🇲
महान्
##점
नेपालीहरुको
विदेशबाट
à
आत्मनिर्भर
चालकले
गार्
ݫ
##िकमा
##×
ता
‛
प्रदुषण
मुख्यसचिव
##ྟ
特
岩
आफुलाई
##ݮ
勒
झिका
पारिवारिक
##ャ
अमित
̣
प्यू
राइनोज
अहिलेको
##ٴ
सँधै
अनुपा
विधेयकले
玩
१९३
㍺
감
हान्न
elements
गहना
##ự
##विच्छेद
बर्ड
लाग्नुपर्ने
想
खरेलले
दिव्य
##वहादुर
विघटन
芸
##वै
##राष्ट्र
हिँडेको
##सन
戴
तयारीमा
रानाले
यथार्थमा
मनोविज्ञान
भ्रातृ
##ig
##겠
एउटै
म्यानेजर
उपा
##ेख
##ত
सिण्ड
##सक्नु
##93
सिंह
त्रास
##र्गत
##्र्यो
##ोडी
twitter
ѿ
अर्कोलाई
चेतन
जे
ʈ
मारेको
यद्यपि
लगानीकर्ता
वर्ण
입
wonderful
˚
सुरज
द्वन्द्वका
लिटर
आर्सनल
##नुभ
नाइ
##7
##सिक
エ
儯
आमरण
##߼
##लेक्ट
##ؾ
##्याएर
like
߾
便
परीक्षाको
निष्पक्ष
संर
माविको
कलक
目
तिम्रा
खोल
##ߣ
ԉ
޵
गोरखापत्र
सुशीला
भृकुटी
##भन
##ञ्चल
所
कित्ता
रिसा
विखण्ड
久
❹
##रिङ
##अनुरुप
父
-
##آ
##लोकन
राजस्व
गौचन
शौचालय
ᤴ
छिम
स्पेनको
एवं
ल्याइएका
केन्द्रीकृत
copyright
कालिकोट
आइपुग्ने
##बको
घरको
##उड
##ன
परिदृश्य
##भक्ति
इटहरी
ज्यू
पुर्याउने
विश्वभर
록
तेक्वान्दो
गठ
🇭
सोध्न
﮷
##៌
पुग्दैन
बुझ्
साइन
साहित्यका
##징
হ
쇁
##यज
बहर
##चाहिँ
विश्वका
अंग्रेजीमा
扣
與
##ज्ञान
##ar
जनाले
||
कटु
बचत
माइक्रो
##횂
##opost
दिदै
धम
😍
समयावधि
##कीय
अन्तरि
##हार
कक्षाको
nove
मूख्य
प्रतिशतको
##ơ
अस्वा
यसै
पीडक
##टेल
राजनीतिज्ञ
##ぴ
उब्ज
ऋषि
ឆ
स्थग
महानगर
अर्बौं
हुमा
प्रकोप
जमुना
पर्यटन
क्लो
भीमबहादुर
विदा
##िएल
##11
कप
##िन्
हुनुहुन्छ
मुक्ति
##ेकै
अध्यक्षमा
##□
]
ठे
उपन्यासमा
pl
तामाङ
ޓ
पहलक
सरकारका
onlin
स्वार्थको
उपलब्धी
मन्त्रालयका
ज्याद
मोर्चाको
弁
निभा
लुगा
##िदिएको
ờ
联
२०७०
##ालय
घराय
समेटेर
##ย
बनाइयो
विसंग
宪
बचाउ
pa
सुनाइ
##लुङ
मिनेटमै
į
नेप्से
महत्त्वको
सम्वोधन
##ियालाई
ރ
##लो
मिर्गौला
शिक्षालय
ह्यु
रहेकामा
सुझाव
찾
##ानाले
झन्झटिलो
निकायका
times
薪
युएस
साट
reserved
ल्याउनु
संगीता
पुडा
थोपा
रमण
##パ
देउ
फाल्गुन
여
##्ठा
अम
सम्बन्ध
सार्थक
െ
多
https
##′
ŵ
ठाउँको
͇
सिफारिश
##स्टर
##ょ
泊
भित्र्य
सूचीकृत
लाग्ने
站
카
सावधान
铃
명
##-
पर्दछन्
##랜
कभ
杨
मज
दिनुभयो
##बिना
गतिविधिलाई
दायाँबा
देखिन्थ्यो
अफ्
आगो
साताभित्र
退
धैर्य
पहाडका
2015
##ބ
##चानको
भेदभाव
जनाउने
##ڪ
׿
##절
राजभण्डारी
答
肖
कार्यक्रमअन्तर्गत
first
ʥ
##ोषित
नेपालीले
केवल
छोराको
अध्यागमन
वीरगञ्ज
चौधरीको
आर्सन
豪
##राहा
सिध्या
ީ
जनासम्म
बो
पढेपछि
##क्तिक
##ारामा
明
##्रम
डोटी
##ेक्
门
उचाल
निस्क
पूँजी
how
प्रबन्धक
प्रस्ताव
ע
भुसाल
##ᵻ
सुत्ने
ພ
014227212
लोग्ने
हत्
##ालीले
##स्न
छेउछाउ
गरियो
बोर्डमा
##हले
सोचका
उपमे
##नीतिक
क्षयरोग
गर्ने
व्यवस्थित
ঃ
႗
駅
術
जिल्लाबाट
राव
##रहन्छन्
۬
बलको
##निष्ट
लगन
धाम
龠
स्वीकार्य
कपिराइट
छि
व्यक्तित्व
प्रधानाध्यापक
चप
ĉ
##ộ
विहार
जिम्मेवारीमा
आक्र
ताम्रा
अनुसारका
##िरहे
##ऩ
पहिलोपल्ट
मिहिने
##िसँगै
रे
सहजीकरण
##ങ
带
׎
साविक
org
會
٠
##ビ
अनगि
शहर
मातहतमा
ܪ
##ज
##れ
उम्म
दिल्लीमा
प्रक्रियागत
बनाएका
भोगेको
मरा
te
##बृद्धि
ՙ
##----
##̭
##֝
लिङ्ग
टेलिकमले
##ंदा
##तका
चढेर
俯
##जी
भेष
दार्शनिक
##ch
앙
##चित्र
′
html
चाबहि
उपन्यासको
प्रिम
साँघ
परेमा
蜜
##द्वय
घटनाक्रम
意
updatefrequency
सुचारु
इमान
सिँ
##पट्टा
लोह
##~
तिलोत्तमा
##हरे
##राह
##धर
써
मुद्धा
प्रतिष्ठानका
रिजाल
नछाड
##է
असोज
सर्वे
सुझा
void
##न्चाइ
भ्यु
दुर्घटनाको
भातृ
ｼ
महानिरीक्षक
वरिपरि
##ue
पहेंलो
##ओस्
मनोज
忽
##चन्द
昂
##रक्षक
बन्छ
##႗
“
विश्वस
##दन
दक्षिणा
ḿ
##नेश
चट्या
🇧
बाग्
##ѫ
निर्देशक
##घाट
उत्तरा
बैंकबाट
ổ
##een
पशुपन्छ
񵒋
##तेको
ָ
जित
##ागाई
_
##कुलपति
राखिन्छ
आरोही
नभएकोले
पाकि
##ｈ
##वश
##पश्चा
##सिय
एसएस
भनेजस्तै
गर्नुहोस्
मुग्लिन
뇄
घट्न
प्रचारप्रसार
㠷
अभिम
सप्तरीका
😜
ना
ढि
."
##ँग
却
ឈ
भन्नुभयो
अपेक्षाकृत
कनिका
फिल्
रेव
ݙ
शुरू
स्थाना
गाउँगाउँमा
कुकुर
##देवीको
##ކ
奣
नजिकका
बानेश्व
हुनुभन्दा
##ियता
मेला
रकम
छुट्टाछुट
पुनः
🤩
मनस्थिति
##हाल्ने
##ி
अनुभ
गर्नका
中
पार्व
दोब्बर
चम्चा
रंगशालामा
घिमिर
झन्झट
सवारीसाधन
अर्य
##एछ
भीमसेन
निजगढ
पुँ
tar
निकै
݅
गर्यो
##uc
##erson
##포
##यमान
ܐ
समाप्त
नरहने
एपीएफले
##न्ट
कार्यालयमा
##울
दबाव
ற
##गरि
ᤖ
ҽ
भोला
नख
चिया
पक्षले
उज्याल
भनाई
खोले
सेवाग
गरा
यात्री
विश्वकर्मा
티
##ۋ
उत्पाद
विभाजित
##ालले
##रल
##ǐ
घर्तीमगर
संव
狂
##ჩ
!</
##टिक्स
##शरण
##्नुभएको
गिरिजाप्रसाद
बस्नेत
##ग्व
शरीरलाई
उमेर
गर्व
घिमिरे
नियुक्त
##बुद्ध
ธ
׷
जमिनको
│
सुनेर
sup
😄
लाग्छन्
उल्टै
味
輿
बाल्यकाल
##ाउन
कास्कीको
छुट्या
##׎
##ʰ
##अगाडि
सम्भव
ހ
नरेश
##हाङ
हौं
फेसन
संस्थाहरूको
आत्मसमर्पण
हिरो
##🇹
##परक
जानै
众
प्रतिक
टोलीको
߱
अफर
गराई
कथ
##ể
मातृ
ҿ
蕉
並
쌶
ʢ
धर्मावल
प्रतिवेदनमा
途
##वंश
##ụ
##वे
##हरुसंग
近
गहिराइ
गुणस्तरको
अंग
高
##ą
कर्णालीमा
ï
कम्पनीको
xa
पुग्छन्
मान्न
समूह
##35
न्यायोचित
पेट्रोल
दलको
फिलि
27th
##ћ
काठमाडौँको
मित्र
झन्डा
भक्त
ओम
##le
कृति
വ
##̖
念
##स्प
##फोट
성
विवादले
##͕
##ober
ុ
颁
सकियो
##ाचार
वाह
तिहारको
सुदृढी
जाँदा
लोकतान्त्रिक
विकासोन्मुख
छनोटमा
सहयोगको
盵
संकटा
सेनामा
क्रियाकला
लालबहादुर
सघा
##गमा
औचित्य
एक्लैले
काँग्रेसका
डिआइजी
语
##ʧ
임
निषेधित
⛭
##म्बर
एमालेलाई
##짗
珫
##남
핏
कम्प्युट
काठमाड
啦
臣
अली
आयुक्त
बाहिरी
##ेनर
来
介
შ
राख्नुभएको
अनुसारको
##िएका
들
फिफा
ỏ
##तिका
निरन्तर
रायमा
将
7
संस्कृतिका
लाइफ
ठह
निरौलाले
##ट्र
现
चपेटामा
䰟
कारक
नि
दरवार
प्राकृतिक
सदस्यसचिव
नेपालसहित
फुर्
नसक्दा
¡
बुटव
मेश
श्रीमानको
उज्ज
⑸
ܷ
झण्ड
घुम्न
것
मुटुको
मुस्लिम
पुर्पक्ष
अफिसमा
စ
गते
सत्ताको
संघले
समावेश
##ाग्रही
गरिएकी
भारतले
##णा
सुनस
##ूर
##सिनाको
डोरमणि
動
李
धनगढी
67
बोलको
दक्षिण
सार
दिइनेछ
׆
बागलुङ
हृ
श्रीमतीको
कहिलेकाहीँ
वाचन
खातामा
##９
##׊
监
##रणीय
डिजाइनर
丵
签
##पाले
ौ
##ᤒ
##ٱ
क्षेप
बुद्धि
सहकार्यको
home
冲
उत्पादनलाई
कच्ची
मनाएका
񰎄
##चाउ
बनाइदिने
😦
##🏡
入
खाए
##भाषी
जुम्ला
)।
##✔
उसो
मिलियन
##नान्स
अनु
गाउँकै
गुनासो
अलग
महासमिति
शीघ्र
##्याउने
歳
सिंहदरबार
瓶
##धानिक
भित्र्याउने
प्रर्द
आपरा
##irp
##विन्द
आत्मसम
व्यवसायीलाई
筆
टमा
##विद्यु
##्रिक
ş
माग्न
बर्दिवास
सिकेको
सुनाउन
चीनले
नील
##टीको
歩
##चेको
##गायतका
##स्थानमा
##भै
खड्का
सवार
दिउँसो
दिसा
प्याकेट
更
किस्ताको
ۘ
अन्तरले
ल्यापटप
ट्रान्स
वृद्धिका
皆
मुनाफा
हेर्न
प्रकारका
##ङ्टन
भिडियोलाई
विरलै
##40
##ԍ
खत
乡
झुप
भर्ती
बना
विभिन्न
चालिस
％
हत्याका
एभरेस्ट
फौज
##राउ
॑
dislike
सप्तरीमा
##ཏ
归
旱
孔
##लालले
狭
बुध
😰
छात्रा
विमानस्थ
細
豆
नजिकको
सिद्ध
ȳ
साहको
लेखमा
कलेजको
उमेरमै
##पाठन
ឯ
संस्था
राजनैतिक
ʛ
अचान
##लाइ
नियन्त्रणका
परिषद्ले
बाहिरबाट
सुनसान
ђ
⛹
##जान
教
सामाग्रीहरु
वर्षभित्रै
पालिका
##ब्दा
##दमी
##त्पादक
खड्कालाई
नगद
शुक्लाफाँटा
##कृती
ग्राहकको
##🤗
##नको
पार्टीका
पाकिस्त
व्यक्तिमा
चुरोट
विरुद्ध
और
खसेर
भित्र
楽
ठु
직
痛
##बीचमा
##😭
##टाका
छाउपडी
text
दिलबहादुर
##न्ति
ज्वरो
सुरुदेखि
̮
##쥻
##템
पठाइएको
पोलिटब्युरो
विस्तारै
##ш
宣
盛
秉
सम्व
अनुगमनका
भारतिय
##ឆ
##ு
सर्जरी
ფ
गराइरहेका
उनमा
वनले
खादा
धनुष
り
चेन
##생
सम्पत्तिको
समकक्षी
निर्मल
##कुन्द
君
अध्यक्ष
ڍ
##ूमा
मंस
##ച
सापेक्ष
चीनका
केन्द्र
निम्तो
असमझदारी
हेड
ब्ल्या
दला
आप्र
कमान्ड
तलको
उपकरणको
प्रयोगमा
##पण
तोला
नविन
##ri
##ेन
जग्गाधनी
हुन
##जय
ढाँचामा
अभियानले
##न्टिक
उनकी
लडाकु
अभावले
भनिन
स्वदेश
##पुस्त
प्रविध
comp
खस
जबर्जस्ती
स्पर्धामा
##ﹾ
##ागि
नफ
शाखाका
प्रतियोगितामा
एक्सचेञ्ज
१९९८
कार्यको
활
##पु
पद्म
bas
दत्त
ᷠ
##ालका
服
##जनमा
،
व्यवसायीक
सोच
हाराहारीमा
##ɸ
##न्चर
##க
युरोपियन
##्लिस
##१५
##ल्लो
गर्दछन्
गरिएका
摊
##섯
##नले
तले
सन्तुल
सोच्न
陛
##학
##दण्डको
##ﭧ
݇
図
नब
उत्पादित
जवाफदेही
आत
यादवको
▶
कमाउने
लाइसेन्स
नगरी
州
##मका
संयम
इमेल
##ޛ
साग
मानिसहरूको
कर्मचारीको
टाँग
सिनियर
股
##कि
˒
អ
बजारबाट
सभाको
魂
उठ
धारामा
बोनस
##धान
३६
##हेको
阪
मेसी
凄
ц
रुच
sep
संस्थापक
युगको
##ホ
बसिरहेका
चट्टान
दश
लज
##ν
螕
##ेती
महिलामाथि
वीर
杀
##लीन
खस्ने
ੈ
अन्त्यमा
##ݙ
बेज
하
ৃ
##ŷ
##ɿ
즣
वर्षमै
##ते
##लेट
##̤
रोजगारी
कैलाश
纠
##म्भव
炣
##¦
剂
सत्यको
##ोटो
कार्यपालिकाको
असल
##ン
垻
##त्वाकांक्षी
##ाइट
गोर्खा
ਯ
गिरिराज
##ठ
बसमा
審
屽
फ्रेम
渤
बस्यो
🇱
word
सम्झनामा
ओलीलाई
##टाएको
##द्धान्तिक
प्रतिकूल
##गी
भलिबल
份
ヴ
🤚
तुला
लगानीको
मान्छन्
नेम
।’
##इरहेका
माध्यमिक
गिरो
पस्
हिट
खबरले
दोश्रो
नियमित
割
हवाई
🇳
套
亿
छोरो
##ӻ
धुलि
두
लेखापरीक्षण
यौ
कार्यल
##मार्फत
##क्ति
गएकाले
कर्णाली
नम्बर
आशि
कटौती
ओभरको
53
##द्वारी
し
##जीवन
抢
##ंकित
##∀
शताब्दी
社
ट्रि
न्युज
biz
게
関
##महि
##ѝ
전
प्रतिपक्षी
##र्नुपरेको
ѫ
##op
##ќ
h
केदार
मूलधार
सभाबाट
गेम
##दियो
चुना
क्रिम
##क्स
परकम्प
##जहाज
रहनुपर्ने
ac
국
9b
उत्रिएको
महत्
##दिन्छु
##लि
逊
8216
霊
टेकेर
##री
##ガ
फिल्मले
礴
नेताबीच
गुड्ने
##ाही
प्राथ
फेद
##स्पति
कक
が
ۇ
अधिकारी
वाग
भीम
पत्ता
विद्यार्थीले
सङ
२१
##गर्ने
##वस्थामा
n
बीर
揭
##बोध
रियाल
础
उत्पादनमा
मोवाइल
कालोसूचीमा
परिचित
被
##뛥
gover
##क्टर
स्थगित
स्याउ
##दमा
##स्मा
खबर
गुमाउन
菌
ग्रुप
सोधि
##घारी
##£
##शिलता
06
फड्
गाउँपालिकाको
黒
दोहन
族
林
बलि
##ീ
##߆
कैद
##रहेका
सङ्घले
जिउ
##न्छु
##꺂
ɨ
जोशीले
सडकबाट
專
##ਅ
विनियोजित
##54
सुशासनको
##ǩ
¶
आर्जन
향
队
物
##ǒ
हस्पिटल
##ł
ⲣ
कास्की
गाडि
##्यास
गरिरहने
रगतमा
बञ्चित
##र्की
आइ
##놆
व्य
समन्वय
गिट
दुर्व
##ܹ
##स्तान
##‐
##नीमा
बताएकी
##िया
🏻
नेवा
बचा
रोहि
विमानस्थल
்
ヾ
##ire
f
वेष्ट
・
##मती
籍
唷
प्रजा
पासवान
उपमहा
ट्यांकी
पश्चिमका
‘
经
उत्साहित
##डामा
##あ
भागेका
रहेन
ハ
ͽ
घाइ
घोषण
बोलेका
सकिरहेका
##वियु
जोरपाटी
򝠊
##ر
##중
##！
बलियो
έ
मुआ
##ᤜ
##भाब
गायिका
होहल्ला
铬
सहयोगमा
बेनी
घण्टापछि
बज
कामदारलाई
माल्
业
मनाङ
ओसा
⒖
橘
##ँध
प्रशिक्षक
互
निर्द
श्रेणी
उत्सव
भइरहेको
##۱
##ाँउ
##विद्य
पैसामा
##ल्पना
##गर्न
मतदानमा
खुल्ला
जगेर्ना
डटक
🕸
ё
केटाकेटी
विसं
ė
पसेर
थालेँ
विराट
चेक
##ॢ
राष्ट्रपतिले
चेतावनी
##ink
उद्दार
##लले
पाँचौ
ំ
档
##थल
ﹾ
चन्द्रबहादुर
प्रस
भएको
##ア
ญ
ؘ
益
रियलले
आलु
救
##फर
##ក
प्रिन्ट
🇴
लिमिटेडको
##ृय
छिर
डलरको
##ń
聪
विमलेन्द्र
देवदह
##वानीको
##ाएका
नियमन
जन्
ّ
ఓ
ϋ
з
##न्टा
कंक्रिट
मंसिर
µ
आयकर
पपुल
pahilopost
टनेल
महँग
ऩ
04
उल्लेख
मर्या
鲾
##׫
चाडबा
तिलोत्त
कोइरालाको
##लाभ
नभएकै
बन्दर
该
निर्णयको
स्टोर
##27
कित्ताका
控
विमानको
##सायनिक
बैठकमा
उमेद
छिरिङ
टिम
आधारित
सिन्द
अरे
मनमोहन
व्याज
बध
निर्माता
याताया
बलात्कारका
गर्नेछ
कार्यान्वयन
##ڂ
##थु
नरबहादुर
◆
बढ्दा
##यौ
让
##रूपमा
क्रमशः
##पन्न
कार्पेट
답
ܳ
##सिलो
बाहिरिएका
԰
कान्तिपुरमा
##याको
जोड
नआ
मङ्सिर
##ंगे
रंगमञ्च
μ
अनुरोध
सदै
划
্
##अन्तर्गतका
##नन्
जन्ममिति
##ǎ
प्यारो
विकाश
妙
##छौँ
😶
उत्साहजनक
माटो
##◆
एनआईसी
ब्याट्सम्यान
##ग्रस्त
##ैध
एसएसपी
सहि
ब्रान्ड
ȟ
दिइन्छ
अरनिको
कुव
ट्रा
समारोहका
साबुन
##्यांक
दाह
जन्मदिन
अब
जात
जान
अने
खार
蔵
##रुम
by
##ूत
गरिरहँदा
없
भान
कराँ
🔱
मोति
पत्रकारिता
植
##50
आउला
##मह
त्यसपछिका
दिवस
##राख्न
##◌
##डम्ब
कुश
दिन
##ฒ
輻
गर्नैपर्ने
##ुटीको
##फ्टिङ
mahana
पालना
पाहु
##ӛ
पस
आएर
##नुपर्छ
##ause
जम
दशकअघि
मंगल
म्या
सम्झन
##ंँ
##पसार
##ͬ
घटना
सभामुख
सोचले
आरा
झल्को
पाँचौँ
धान्न
😏
एकको
भेटियो
रुप
##ు
##im
अपवाद
प्रस्तुत
##कुमा
##मशेर
##񵒋
##क्वे
प्रशासनको
सोध
य़
कोइराला
##टन
##देखी
बिघा
विपक्ष
स्वे
##परि
##ेमी
जुम्
मोटो
तला
करु
तपाइको
प्रतिनिधिसभा
बेलायत
殿
अमेरिका
अर्थमन्त्रीले
क्यामेरा
ग्रह
표
उपस्थितिमा
गर्द
महत्वपूर्ण
घटनाको
काभ
मिनी
सन्नी
सेवाग्राहीलाई
什
माथिल्लो
सम्पत्तिमा
दिइसकेको
प्रसू
याएको
खेलाडी
##च्चा
विभागमा
堵
ґ
##ढीमा
लेख्छन्
婷
ޅ
हेत
बयानमा
乗
टेक्स्ट
##ź
征
都
##नान्तर
首
गिट्टी
अरुले
##ҽ
जन्मिएको
##ħ
गराउन
哲
टोलीका
सरोकारवाला
comm
डुङ्गा
परिसू
##ϯ
##ṵ
व्यवस्थापिका
֍
निकट
रंगशालाको
類
एकले
तोकेका
पत्नी
ផ
करमा
##ेसम्म
कक्षा
प्रारम्भ
̰
ޟ
व्यवसायलाई
सदुपयोग
泪
露
२०५४
##लको
दिनयता
गोरखा
time
घण्टामा
斓
मातहत
नमुना
पारिश्रमिक
भवनको
चार्ट
प्रशिक्षण
؆
##कित
##ള
स्वतन्त्रताको
युवतीलाई
⭕
##नबाट
纺
देखाउँछ
हीरा
स्पा
거
##ؕ
##🇭
##1
आवरण
निर्ध
शताब्द
##3
##ꕄ
##घाटा
##イ
गराउँदा
अञ्चल
##लगायतले
आत्म
गर्थे
दशक
लोकप्रिय
उहाँको
गीतलाई
च्याप्टर
보
खाका
सि
भइसकेकाले
साथि
लिनुपर्छ
##గ
किलोमिट
ब्यूरो
ポ
阴
##हरूमध्ये
उदार
गरिबी
##रिक
भावना
निष्कर्ष
动
झापाको
सिक्ने
सिल्
##vert
##तीत
तीजको
##ピ
निशान
##se
उद्
傳
䣰
भाडामा
cong
वातावरणमा
सञ्चारमा
सभ
आँच
रिजल्ट
姆
सँगसँगै
गोविन्द
鉛
मौन
##ܓ
##्याइ
नखोज
΍
सञ्चय
ュ
महो
विभागका
##त्वा
सरस्वती
ग्यार
स्वदेशी
荷
ग्या
##ȃ
दीर्घकालीन
सुझ
ڤ
ケ
##უ
##된
उहाँले
सही
कमै
पानी
##बीले
कानुनी
चलाइएको
प्राङ्ग
秘
नपरेको
ठा
शे
पुर्याए
सिकार
ㄚ
हातेमालो
डिजेल
प्रजाति
प्रदर्शनीमा
कामहरू
##य्या
सूचकांक
पावर
##ֶ
##र्पा
##ϭ
##ۻ
##ack
##ागर
##٭
##۩
##िति
गरिरहेका
चर
##</
‹
लमजु
शिलान्यास
਼
बनेकी
जनताको
राप्र
रोनाल्डोको
『
🌴
##कथा
跳
ѹ
##विक्रम
##पेच
##ub
##֨
##cd64
नबि
अनश
ゲ
घुँडा
बिक्रेता
##सक्
कांग्रेस
बाबुराम
##ot
युएई
वारपार
##ڲ
रमाइ
##फरक
प्रोफाइल
##̱
सीमित
एमाओ
खि
##महल
राष्ट्रिय
साह
सय
सिंगा
हस्ताक्षर
डोल्
</
उच्चस्तरीय
गर्भपतन
बनाउनुपर्ने
尼
羽
सालपछि
##भो
रिसोर्ट
##ould
ꇯ
वस्त
नायिका
致
नथ
##ツ
प्रणालीले
क्यार
थप्न
वताए
უ
貨
गृहमन्त्री
राष्ट्रको
##ᤡ
मु
##ाइएको
##֓
हाइड्रोपावर
नाकाबन्दीको
摆
##दर्शक
##γ
硕
##फ्र
##꯭
ｵ
नचाहेको
干
##ex
उपन्या
इकाइ
##ge
अस्पतालले
पत्रिकामा
निधो
पठन
पाउँदै
##आर
स्
नपुग्दै
块
मापद
##सेनापति
ａ
le
ڹ
आर्मीका
बुवाको
झन्झ
भरिएको
पौ
लहान
反
##🏻
֦
?’
##॰
अभियुक्तलाई
##ाग्रह
पद्
पर्दछ
##🌙
##रिक्त
##्वाल
सच्च
पशु
लक्ष्य
स्याल
##वानी
टेल
भूत
##मेट
२५०
##,,,,
##काश
##क्य
##ेजमा
लगाए
和
藵
碗
पौड्याल
प्रचार
विस्फोट
자
##भोज
–
##फामा
सचिव
항
##धामा
गुराँस
नगरपालिकामा
千
##허
अलिकति
된
एनआर
֓
इष्ट
याउने
उप्रेत
##߃
औसतमा
भोटेको
सवाल
चट्ट
프
विश्वलाई
㝞
पुलिसका
ؖ
䗬
b9
मज्जा
आशय
॰
कार्यक्रमको
तानाशाही
त्यो
राजेन्द्र
鳥
क्रियाशील
##वण
##ۗ
##ۛ
इन्स्टाग्र
जुवा
तथ्य
informa
प्रणालीका
युवराज
सिका
माधव
##ल्य
छानिएका
से
馆
१
##ে
अफगान
बासिन्दाले
आफूमा
दोहोर
पार्वती
वातावरणीय
कल्या
लैजाँ
ǿ
##ê
##߄
##ܗ
##ॊ
इन्स
##け
##हरूकै
अहो
मध्यवर्ती
筋
झाडा
##न्सको
पारदर्शी
राजन
दिमागमा
प्रेमिका
जमेको
दी
सन्तानलाई
ѯ
प्रतिशतभन्दा
颗
बिष्ट
##देल
लैजान
##ٚ
##बोल
?'
##ほ
愁
बाग्लुङ
धरान
##ंव
##ना
कोसिस
फुटबलको
संस्थाहरूले
कर्तव्य
##मञ्च
î
ۋ
दिवसको
##वाडी
ភ
ϥ
抠
प्रश्रय
वर्गमा
पश्चिम
रुख
##द
स्वर्ग
सुनचाँदी
मावि
##नन्द
##ागाउँ
पूर्वस
आदेश
अदाल
दिल्लीको
##̘
û
बढदै
वली
##कड
अमानव
##िम
̩
##पाद
रेल
##प्रदेश
##을
पहिलो
今
##un
##्यु
実
आशंकामा
##थो
पल्टन
एन्फा
झन
课
देशहरूमा
அ
阐
रोक्ने
अनुमानित
踹
भद
飯
##जि
##ꞗ
##हिरो
september
सहभागिताको
##कात्मक
##पीए
राजनीतिका
सञ्चालक
तथ्यांकले
दिउसो
##ॉ
साधन
##֚
छनौट
रेफ्र
अत्य
##थेँ
पाटो
टिप्प
भुटान
कपको
लक्ष्मण
सोझ
lo
खगेन्द्र
##や
उत्र
देख्नु
पार्न
फ
हक
कांस्य
हेटौंडा
रोजगारदाता
它
##ुट्ट
phone
##ाउन्ड
सदरमु
ȶ
पठाउने
##ट
गैरजिम्म
पशुपालन
बनाउँदै
मान्दै
त्योभन्दा
संगठनात्मक
संसदीय
##६
យ
##ȏ
एयरको
फाउण्ड
##”
३१
बताइन्
जतिसक्दो
😭
राजवंशी
साथै
समर्थ
फ्रन्ट
शिल
अवधारणा
सिल
सहमती
२०६३
राष्ट्रियसभाको
똖
##ण्
##܃
##교
0142272
बैँ
低
##ڱ
ල
##िमन्त्री
##ोधन
केबलकार
चाँगुन
प्रजन
##쁺
ऊर्जाको
ममता
偶
给
शर्माका
पश
##(
##लोभ
-‘
माओ
##육
ठेकेदार
##्याई
उर्
निकाल्दै
पूर्ण
संगठनलाई
बोर्डिङ
मध्यन
ट्वीट
गर्दैछ
ब्रह्मा
स्टेट
փ
दावा
बेंसी
खाएका
箭
ߛ
राख्न
θ
##लोजी
ޖ
艺
अंश
कर्मा
##हट
जगा
##गण्डकी
##काव्य
आइसीसी
सोचेजस्तो
##ेका
कानू
निज
##ँु
टेष्ट
परिवारमा
연
##नाउ
##أ
कदापि
छायांकन
बीचको
##सै
##नाव
##त्व
स्वतः
督
##ेनमा
गएरा
दोस्रो
##ത
पीडा
欫
##ം
##िटी
दुख्ने
हालेका
##तिया
मेसीले
##̆
ణ
आइफोन
##घार
##ूरो
निर्देशित
बराबरी
ऐश्व
##ूस
ۚ
͍
कारवाही
विकासमन्त्री
##मण्ड
数
##पीड
सर्किट
नर्स
विश्वासमा
but
##िच्युट
˧
एकअ
##఼
सुर्खेतको
##प्टेन
फेवात
लाग्थ्यो
ต
##ԏ
दै
##릭
घन्
तातोपानी
憑
##ँलो
ώ
##ीया
䪩
दा
बुझाइएको
नियाल
गाउँका
##܁
##ซ
साइकल
तिमल्सिना
ꊒ
गाउने
jun
仿
सौर्य
त्य
संविधानले
हुँदैछ
योजनाहरू
पाउनु
陆
अनुसन्धानमा
प्राय
युनिट
##ूले
यसप्र
यहि
रोगबाट
नहोला
माल्दिभ्स
month
प्रतिष्ठानले
า
मोरङमा
采
स्मार्ट
##मिङ
ޡ
open
पञ्च
等
##विहीन
##तापूर्वक
݂
मेसेजिंगलाई
स्पोर्ट्स
बस्छ
त्यहाँबाट
modules
शेष
फर्केका
ݴ
कर्मचारी
दाहाल
बाहिर
س
銀
एपीएफका
कास्कीका
मेरा
कसैसँग
फलफुल
मर्यादित
बाज
劇
गर्नुपर्नेमा
ꦱ
##ेपछि
##⁄
ʩ
बहाव
अपनाइ
श्रेण
ह्वात्तै
जापानी
अग्रिम
ิ
किरण
##गर
अन्तरिक्ष
मेलाको
एमाले
नगरपालीका
##☻
द्रुत
सबभन्दा
विरुद्धमा
ゆ
伺
ठानेर
सम्पादक
##वाग
33
##क्छ
हिन्दू
अक्टो
कै
##लिङ
##٥
आफूले
चार
凭
##राजले
चेप
绝
खोलाको
♢
##दृश्य
निर्मम
##पना
गुन्जन
섯
यसबाहेक
फ्याँ
##ेक्सन
覩
぀
थालिन्
आत्मसात
फोक्
ដ
स्कुलको
終
##¶
##राङ
旋
हतारमा
##호
##पू
जी
##कर्ष
˭
##रण
##ित्तिकै
पलायन
मेहन
##यख
स्कुटरको
टा
郑
काठमाडौंको
लियोनल
##ゃ
सुदीप
ں
वर्षअघि
##ानै
पुल
हिंसाको
ể
寂
गोलमा
स्वामित्व
उनीहरूले
नियोग
栓
؎
गरिदिएको
तालमेल
नृ
##बल
अनुसन्धानले
腿
##गोल
झिकेर
साल
पूर्वाधारमा
सम्भावनाको
吞
##डि
सहयोग
कम्प्युटर
##ç
जस्तै
पाकिस्तानले
g
निक
##კ
##せ
ค
a6
֡
लाउन
え
सबैमा
丝
##،
अँग
कुखुरा
सम्मानित
##खाना
सुवेदीको
निन्दा
फ्रा
##पछ
&
आन्दोल
परिषद
߇
पुँजीवादी
##ाल
कामु
समाधानको
👌
ط
छोड्ने
̀
साहसिक
根
򡔖
मामि
डीएनए
##ूप
बिकास
៍
栅
स्तर
재
अधिका
淇
काइ
डुड
闻
ល
प्रतिवेदनले
पर्नु
##िङका
व्यवहारमा
##बुझ
नभएपछि
থ
##ile
🌿
嗯
##ाउने
मैत्री
लघु
##वमा
網
##굼
गणना
प्रारम्भिक
##सकिएको
##˶
##ट्जर
रसुवा
गर्दिन
कारमा
तुलाधर
##उत्
प्रस्थान
मातहतका
紧
歬
उपस्थिती
निमार्ण
भेटिन्छ
हैन
沦
##टाले
##ौटी
आपसी
##दामा
उनले
बैंकको
##मन्त्री
##ेरा
साधना
##राइट
##ya
दुर्गा
कुन
##ैन
##ric
un
۹
अभिलेख
प्रयोगकर्ता
रेकर्ड
對
स्रोत
処
應
खान्छ
चाडपर्व
##़
##ɞ
आश
村
टेलिक
##साय
मुद्रा
२०१५
लगानीकर्तालाई
हारको
शताब्दीमा
##ヨ
रहर
नमि
होस
##बर्ष
ด
स्ट्राइकर
##ƌ
##t
he
सञ्चित
▷
##मात्रै
##ӎ
##ۇ
चकले
द्वितीय
##मुल
नितान्त
रिमालले
##έ
##ṭ
सकेपछि
##צ
चीज
꼭
नीतिमा
弥
##』
परिस्थितिको
झु
採
##es
व्यापारघाटा
ۜ
शिला
प्रतिलिपि
निर्मला
स्पेनि
##खाला
粤
##वासीय
गुरुङलाई
परिणत
निवास
भद्रकाली
ਭ
नियमावली
राख्ने
吸
दार्जी
ོ
ग्रामिण
सङ्ख्यामा
बाटोको
राम्रै
मोट
叶
shre
कहाँ
चाहेका
निर्माणको
आक्रमणको
खोलेर
टिक
##पछिका
खेला
##종
पक्षधर
सासू
हातको
##घर
त्रिवि
पख
काँग्रेसले
ऋतु
जित्
नवदुर्गा
भोग्दै
निर्मित
¯
क्वाटरफाइनल
तालिका
##ݛ
आयरल्याण्ड
भारु
यसमा
विद्यार्थीहरू
तेस
छैन्
हेर्नुपर्ने
󠅌
प्याक
टो
भक्तपुरमा
up
##៨
उत्पादनमूलक
##वंशी
##बिर
##འ
हिँडेर
सहज
##चाप
ϐ
उल्लं
䭯
##वाको
涉
##्नुस्
##노
ڲ
दैनिकमा
🇯
॒
रहेकाले
##फाइल
शिखरमा
फिल्ममा
粕
सम्मेलनको
पठाएका
##बद्धता
们
##ק
ब्यार
‡
उतार्न
मठ
##ेशनको
🤪
霼
ď
जनकपुरधाम
अप्ठेरो
##ꭝ
सोचे
##ational
##명
देखिन्थे
कारबाहीमा
哺
झाको
संरक्षण
##तिरबाट
०६३
्
づ
स्कुट
ⲫ
धकेल
कमसल
३७
##נ
ہ
स्वा
세
炯
खेलाडीलाई
##ीर
अध्यक्षता
26
む
मुसि
उपम
बढ्दै
ུ
🌾
대
हदसम्म
##ci
##र्ती
छानबिन
खेलाडीमा
ब्ल्याक
समया
畑
##tem
उठाएका
##नाइ
दायर
प्लास्टिक
वान
枡
ठेक
嬉
खुलेका
换
##ै
##्छन्
पूर्वप्र
पाँचवटा
सूचक
〟
निर्वाध
सजिलै
##ۣ
अपराध
सिन्धु
पन्त
##ϗ
अदालतका
परिवारका
软
##लासी
83
विरोधमा
फा
##कृया
ォ
म
क्लबलाई
लाख
##업
##݌
ゼ
版
यात्रामा
ṏ
ラ
त्रसित
आन्दोलनकारी
सब
शुभेच्छुक
चण्ड
मेमोरियल
对
##ふ
कुकुरको
संस्थाहरु
मृत्युपछि
कार्वाही
क्रममा
ब्लग
भर्ना
समुदायका
प्रय
बुझेर
मिलाइ
धरोहर
##यद
अतुल
विश्वयुद्ध
रातको
爆
车
##समेत
सोलु
##ਨ
##ス
उपसमिति
पप्पु
##ङक
##निर्म
##सङ्घ
मे
ぶ
नायक
आत्मकथा
चक्रपथ
##ბ
)–
ओछ
नपु
जनमान
थिएटर
ap
गरेँ
##िएमा
झरेको
हटाएको
हस्प
毛
##होरेको
ː
萄
##नुपर्ला
۫
##न्दर
गर्नेगरी
lit
##ढुङ्गा
उनलाई
##ҋ
नलाग
यथावत्
햵
शिर
ޒ
¾
बेलासम्म
ӄ
वर्चस्व
एभरेष्ट
धिमा
जोडिने
बोक्सी
##ɡ
ɺ
जता
शुभे
ब्राह्मण
私
##्रा
߶
जनाइएको
तथ्या
सर्भ
पढाइ
नेपालीहरु
fri
पाइयो
##ौरी
##ڢ
जनकपुरको
मुहान
ⶬ
नेकपा
बानियाँ
युद्धको
डिएनए
ཤ
##љ
?,
reg
निर्माणलाई
ഫ
अमेरिकी
จ
##ញ
܍
समयदेखि
देखापरेको
##ុ
挨
टेबल
sur
लागिरहेका
प्रतिपक्ष
🇨
मकवानपुर
बनाएको
##ʬ
व्याप
कार्यविधि
हरिबहादुर
पाका
धातु
महिलाहरु
माथिबाट
विज्ञ
कम्तीमा
##सिस
मुसल
शास्त्र
बद्री
वीर्य
##ｗ
स्नेह
चारजना
苗
##ǫ
##ϒ
सक्नु
जर
冥
जनसम्पर्क
沬
रोय
##्रोत
##ங
थप्दै
बितिसक्दा
ޝ
##ર
##ণ
懂
खोटाङ
जिम्मेवारी
मधेसी
亮
ш
##साहित्य
दिदीबहि
पसल
सुख्
##ठी
अगाडी
##सो
पाइएको
रहनेछन्
##esh
##वस्था
荒
##ਜ਼
##पछी
सम्ब
शिखर
मल्लको
०३
##पिच्छे
माम
松
##ूल्य
##भूमि
##ּ
##ght
आपूर्
सुर्खेतमा
ƞ
विश्वकै
##👈
एजेन्ट
धादिङ
ਢ
##ﴌ
भात
瘝
##ाउँदै
बितेको
सकिएपछि
शम्भु
##ƽ
##ധ
थाले
आकांक्षा
免
##м
काठमाडौंका
##चन्द्र
तथ
पुरस्कृत
सेवाका
इजरायल
सिलसिलामा
नाकाबन्दी
ও
लाग्नु
कस्
प्रश
勤
विभाग
विचारमा
##हरले
आउँथ्यो
v
dep
##ction
जाजरकोट
顧
]]></
सवारी
बताउनु
##षाध्यक्ष
烌
डान्स
≡
थन्क
😉
मिनाहा
##จ
तर
बृद्धि
बोहराले
09
##वलीमा
गइरहेको
प्रविधि
ध्रुव
##ల
शै
सदर
綾
२०६५
碍
दिनमै
त्यता
##सि
э
नेदर
प्रक्रियाबाट
ދ
##ْ
विक्रम
##✖
##ʺ
##क्चर
##ने
भुक
뢽
##बराबरको
कमज
रगत
आयातमा
उठाउनु
##होस्
थियो
सिस्ट
##सेवा
स्टेडियम
##िदि
बुझाउने
शय्या
着
##फेक्ट
विधाका
शारी
डेटा
ⲁ
दिशा
٨
##उप
इतिहासमा
घटक
##गार
सुरुको
##खित
޷
फुटबलमा
आखिर
पुण्य
वासिङ
महिलाहरुलाई
टोली
##झ
##data
गयो
##्दैन
/
##र्तित
मुलुकलाई
##दाताको
टिभ
गरिसकेपछि
ҭ
难
##न्याय
प्रतिबद्ध
मानिन्छन्
तटबन्ध
यम
समायोजन
##फोर
ढोकामा
ൢ
घेर
ℷ
݈
विद्रो
況
##कस्
ǃ
महासेठले
डिभिजन
##򤨪
गरिसक
##😖
बज्राचार्य
##ȣ
##ीकोट
उचाइमा
##elf
दर
सांग
व्यावहारिक
异
##एमा
##ग्ला
वर्षभित्रमा
चिरा
##ियोग
##पुग्
ň
प्रयोजनका
मुख्यमन्त्री
##डा
׃
ഞ
जबकि
##খ
亲
详
##ག
मदिरा
##υ
##ेता
मुहार
ঙ
झण्डा
धर्ममा
नसक्नु
लागेको
about
भिडन्तमा
適
डेट
परिसरमा
देखायो
灵
##तान
校
錄
बिही
ೊ
ۙ
ब्ला
निश्
##लिंक
मोडल
##pl
इंग्लिस
हुनुअघि
##견
सक्दछ
लगाइ
दिशामा
मुख्यमन्त्रीको
็
संसारमा
获
홈
परशुराम
##พ
ϸ
दान
टेनिस
##ड्ड
गठनका
सिन्डिकेट
ত
3rd
글
अंक
नभएमा
बैठकले
खतिवडाले
दस्त
腕
न्युयोर्क
##:
##ἆ
उपमहानगरपालिकाको
सम्झौता
इमोजी
छुट्याइएको
##ܵ
सुनौ
𫿮
मक
##िनु
india
कार्यदलको
夺
##া
##बारे
दिएमा
##ou
##س
##न्तुक
साइट
अम्ब
##भावना
सबैभन्दा
幊
실
##िरह्यो
मन्त्रि
ͷ
अत्तर
नेपालीहरूको
ℑ
division
##҉
गरिब
पाइप
तत्व
अनुगमनको
केसीले
बिहानदेखि
##ꁰ
##जुक
環
बगान
०८
अग्रसर
ാ
##ө
##क्ष्
##ाउँदैन
ईश्व
##स्थापना
##ᤰ
,‘
न्यूयोर्क
सबैखाले
सिड्नी
製
##संस्कार
झट्ट
2017
रामवरण
##ञ्जना
##를
आर्मी
छन्द
학
롨
ѐ
शाहीले
##टि
א
हुन्थ्यो
ෘ
थारू
सेक्युरिटी
सामरिक
ढिला
##दम
##दिनु
सघाउन
ש
bata
ӎ
馩
अभिनेत्री
आक्रमण
##ूँ
अनुसार
सेवाहरू
##eat
अभ्यासमा
किस्ता
अङ्ग
##पनको
बढाउ
##ᤃ
##ऊन्
धुलो
委
##थोकी
防
घो
##ङ्गी
पुँजीको
ʝ
墜
२०६८
３
##आमा
缘
ۿ
हिउँद
##कडभिट्टा
##चीमा
潮
##ｐ
##ity
͚
तुलनात्मक
मोहन
type
योग्य
药
पुनर्निर्माणका
सकेन
##🏿
रिहा
सिर्जन
##޽
##ेटी
lastbuild
गाईघाट
प्रतियोगी
##माद
##ⲁ
닩
##क्र
शर
अवकास
कलेजो
२०४९
##µ
##ⶬ
unic
महत्त्वपूर्ण
諚
陸
गिरी
only
##co
आचारसं
##chha
तेश्रो
तारिफ
विस्तारका
सरिक
रिप
ﾧ
##ालियन
मुसहर
ऄ
लाल
##सूची
भेटेका
护
सुनुवाई
बालक
##वधि
युवायु
##ेको
दिनु
म्याद
सरसफाई
開
ۢ
##cription
##ͨ
ਕ
सन्ध
##शा
क्वार्टर
बढाउनका
ร
information
शोभा
昧
फाइन
記
राजा
जवाफदे
महर्जनले
शंख
हार्दिक
एप्पल
ா
देखाएको
##छन्
पेसा
चितव
यामा
मुद्दाको
##ܕ
प्रशासक
##णु
純
##ɴ
सहरी
हौ
सिटीले
कल्याणकारी
दिवंगत
अधिना
सम्पत्ति
नल
##ફ
बन्दी
लागेर
##ल्याण्ड
##वक्ता
##era
विसंगति
##ong
व्यवहारले
एजेन्स
睛
##ized
##न्दामा
आवेदन
एकपछि
राखिएको
源
पशुपतिनाथ
इन्जिनियरिङ
घरघरमा
##कूल
##पर्
कत्तिको
׶
##👍
ट्विट
हवाइ
अमेरिकाले
पाथीभरा
##पाट
मो
२०१२
निति
##지
अस्पतालमा
話
बैंकहरूको
मन्त्रीलाई
छात्रवृत्ति
सिजन
बोका
आमन्त्रण
शुद्ध
##ク
टाटा
नीलो
विश्वासको
継
ߒ
欠
सामुन्ने
##💯
सरा
क्षेप्यास्त्र
##њ
सुख्खा
##न्थे
##सम्मत
☔
##ष्कार
रुपले
##षित
बहन
चिनाउने
खी
गोपनीय
नारायण
बुँदा
भारतलाई
विस्तार
सभा
समिक्षा
琉
##च्यु
##क्सि
सुशासन
##ᤢ
वन्य
साँघु
##ामन्त्री
काँकडभिट्टा
澥
श्रीमानले
##ाधिकार
ल्हो
सङ्ग्रह
प्रतिलिटर
साढे
हप्ता
डिजिटल
2019
##स्वा
इन्दि
नश
गए
लखेट
कार
##बार
##like
सुनिल
हेर्नुस्
राख्
लु
##नेन्द्र
वञ्चित
##॔
##नल
甩
踪
झोलुङ्गे
उत्रने
##ي
우
필
सर्वेक्षण
ɕ
रमाई
歌
##ल्या
##감
केन्द्रीय
ag
साझेदार
료
ว
गाडीमा
래
##ह्न
##ढ़
ठप्प
##पुरा
करिब
##ʈ
बनेको
यद्य
濟
##िसके
आर
दुईवटा
प्रवासी
माइकल
लेखनाथ
विव
हिउँदे
ਲ
##कृत
##ﻘ
खोक
佛
##बुबा
पर्वतको
काट्ने
##वाकोटी
person
##ाव
कमिटीमा
प्रती
8f
फिर्ता
वक्तव्यमा
शुक्ल
֬
महिनौं
尸
##mana
भरमा
माझी
鹰
आफूहरूले
इजा
孫
##ǻ
लाइभ
위
कार्यभार
範
👱
##ाम
100
टोलमा
##फोनको
गर्नेहरू
दिप
##परीक्षण
हङकङ
##25
नसक्ने
बिगा
मकवानपुरका
ﶲ
हारेर
बढाउनु
us
फ्र
##याधीश
भनाइमा
गरिदिन्छ
उपरीक्षक
लोकप्रियता
दाब
ކ
बजारमा
야
बाटोमै
जोडिएको
##ߊ
बाँस
२००९
眕
##œव
विना
ツ
##ोल
##ओले
##कर्ता
兵
ה
迭
##नाको
##ुरी
##߯
##हण
जर्मनी
उत्सुक
एकीकृत
पचास
बरामद
क्लबका
##ƥ
##िटर
ṵ
##ی
##͝
ago
##ត
ܽ
त्यसैलाई
गरौं
रु
हटाउने
नियुक्तिमा
運
विपत्ति
仙
##ञ्जली
̎
द्व
##߂
##हरूबीच
13
जिवि
##ढाई
i
१९१
सुधारको
##ङका
उप्
縮
समूहमा
असुरक्षा
##नगरमा
آ
उसैको
##न्ध
##랍
लोडस
ო
ढुंग
बब
##ebook
एयरलाइ
奉
अधिकारीहरूले
##ी
मिडफिल्डर
२०१८
♪
मित्रता
##ेडिट
##uary
खरी
http
पार्टीलाई
##वीकरण
ﾪ
गुज
##ेत्र
##ﶲ
##ដ
परिमा
ｌ
꯬
ओबा
##था
पाठकको
दरबन्दी
कारा
इतिहासमै
.,
अधिकारीहरु
हिम्मत
펥
त्यस्तै
बन्दको
##바
##जरको
##लेस
##쯬
लिनका
##식
सँग
ั
##ततै
ƴ
मान्छेको
खत्रीले
बिन
##😈
छिचो
##निकट
उठाउँदै
##छुत
episode
##erai
##जे
कालीमाटी
ネ
##दिभ
लेन
넓
##प्या
##계
राजस्वको
##port
गान्धीको
tha
##ताल
##ě
र्
##֣
हुनै
##लालाई
पुरुष
##नीका
न्
##stha
##........
दाहालको
##्नु
बेलाबेला
स्ट
श्रेष्ठले
मि
जोम
##क्ल
सद्
असक्षम
ठेक्
߼
##नीत
संविधानसभामा
##코
##मोल
३३
मञ्चको
गोलकिपर
नाकाबन्द
उर्जा
सिधा
合
ة
##ܶ
चौरजहारी
गर्नुभ
तमु
नलिएको
विस्फोटक
##नाइट
❸
संस्थाहरुको
##ݣ
##"
##߽
माक्र्सवादी
##😏
रहेका
##जित
कम्प्ले
गठबन्धनका
साप्ता
創
어
लिइएको
血
चौकी
गीतका
योसँगै
##लिज
44
खुबै
##राजनीतिक
घुइँचो
१९९०
सभामा
कामहरु
##स्सा
##쐎
除
पारस्परिक
अभ
बनाउनका
नसकेका
##ुप्
킸
##ुप्रसाद
नसकेर
दिएँ
##हुन्थ्यो
दिदीबहिनी
समाजलाई
सर्वसाधारणलाई
मेल
हाली
##कालदेखि
नोभेम्बर
यसपछि
अपना
त्यसबाहेक
娘
हिस
면
आफूहरुले
समिती
तिज
कार्यालयहरु
निहुँ
डम्बर
ū
ख्रीष्ट
chann
男
इच्छाशक्ति
सहितका
##भौ
भएजस्तो
##क्षीय
बनाउँछन्
उपस्थिति
लुइस
गर्छन्
इतिहा
मुटुरोग
रुपियाँ
##ग्गा
ٻ
कम्युनिकेशनस्
तिन
##ٹ
बर्षको
कुरै
प्रशस्त
तुलाध
##ズ
raj
रोटी
##न्डा
##វ
बसपार्क
होस्ट
##चेत
##ञ्चित
कले
मरे
##नेको
ි
๊
弹
चलाउँदै
隅
पराजित
##ाइड
त्यसको
행
आइलाग
##ेललाई
उपधारा
ʿ
##ुकी
##닦
लेनको
##जियम
向
शेख
🏡
जापानले
എ
##ە
##ԓ
##माइ
ट्वा
बिद्य
.......
ử
परीक्षार्थी
शेयरको
プ
काट्न
##सुब्बा
##वादको
վ
समावेशी
निकासा
समर्थन
##क्रान्त
सेत
##वहन
साझा
आप्रवासी
निरु
ț
##डीमा
##मन
##जीको
इन्स्टिच्युट
贝
里
##ឯ
##र्ग
अगुवा
झ
आवश्यकताको
##최
कब्जा
हावाहुरी
समझदारीपत्रमा
नीतिले
रमेश
शासन
斎
飣
सकिन्छ
बनेका
अभिवृद्धि
></
##ekhabar
