<unk>	0
<s>	0
</s>	0
को	-0
मा	-1
▁स	-2
▁प	-3
न्	-4
्र	-5
र्	-6
का	-7
▁र	-8
▁ग	-9
्य	-10
ला	-11
▁भ	-12
▁व	-13
ने	-14
ले	-15
▁ह	-16
▁ब	-17
▁क	-18
▁अ	-19
नि	-20
▁म	-21
▁य	-22
▁ज	-23
हर	-24
ार	-25
▁त	-26
▁द	-27
्त	-28
▁।	-29
ना	-30
▁प्र	-31
हरू	-32
▁उ	-33
▁छ	-34
ाल	-35
▁आ	-36
थि	-37
▁गर	-38
▁वि	-39
ान	-40
यो	-41
ति	-42
लाई	-43
त्र	-44
▁मा	-45
▁थि	-46
्व	-47
▁रा	-48
म्	-49
एको	-50
▁श	-51
▁गर्	-52
न्छ	-53
ित	-54
▁न	-55
क्	-56
रा	-57
स्	-58
▁हु	-59
था	-60
न्द	-61
▁च	-62
▁का	-63
▁यस	-64
्या	-65
िक	-66
▁ल	-67
ता	-68
वा	-69
ेको	-70
▁ए	-71
ष्	-72
ुर	-73
ल्	-74
बा	-75
हा	-76
▁नि	-77
ङ्	-78
या	-79
नु	-80
स्त	-81
ेर	-82
▁ख	-83
▁१	-84
▁उन	-85
▁सा	-86
▁ला	-87
▁पनि	-88
▁थियो	-89
क्ष	-90
पाल	-91
कार	-92
▁पा	-93
▁यो	-94
िन	-95
द्	-96
▁ध	-97
ेश	-98
▁राज	-99
▁हो	-100
▁रह	-101
बाट	-102
▁ने	-103
▁थिए	-104
▁सं	-105
हि	-106
▁गरि	-107
▁स्	-108
▁फ	-109
क्त	-110
रि	-111
री	-112
ेका	-113
▁सम	-114
▁त्य	-115
▁लाग	-116
ष्ट	-117
लो	-118
दा	-119
न्त	-120
ूप	-121
त्	-122
द्ध	-123
▁एक	-124
▁दे	-125
वि	-126
▁भएको	-127
टा	-128
▁नेपाल	-129
छि	-130
ुन	-131
्च	-132
्न	-133
▁सम्	-134
ङ्ग	-135
भा	-136
ूर्	-137
त्त	-138
ाउ	-139
▁ना	-140
एका	-141
ीको	-142
पा	-143
िय	-144
▁रूप	-145
खि	-146
▁बा	-147
▁क्	-148
जा	-149
्रा	-150
न्त्र	-151
धि	-152
▁भा	-153
▁वा	-154
ीय	-155
▁लागि	-156
▁को	-157
हरूको	-158
सा	-159
िल्	-160
ली	-161
रण	-162
▁तथा	-163
िम	-164
▁मु	-165
▁आफ	-166
▁छन्	-167
र्य	-168
दै	-169
▁क्ष	-170
▁पु	-171
▁भने	-172
▁हुन्छ	-173
▁रहेको	-174
▁रूपमा	-175
ण्	-176
ही	-177
न्य	-178
गा	-179
ेल	-180
िर	-181
योग	-182
ष्ट्र	-183
ेत्र	-184
ारा	-185
▁इ	-186
▁से	-187
▁विश	-188
▁दि	-189
▁वर्	-190
ास	-191
दछ	-192
▁के	-193
▁गर्न	-194
न्न	-195
कि	-196
ध्य	-197
त्य	-198
ण्ड	-199
▁उप	-200
▁गर्ने	-201
र्म	-202
▁त्यस	-203
िका	-204
नी	-205
िल्ला	-206
भि	-207
▁क्षेत्र	-208
▁स्व	-209
▁सु	-210
ती	-211
डा	-212
▁सि	-213
ारत	-214
▁दु	-215
देश	-216
▁भए	-217
▁प्रा	-218
▁कु	-219
स्था	-220
▁निर्	-221
ानी	-222
▁जा	-223
▁सन्	-224
न्द्र	-225
दी	-226
▁व्य	-227
दि	-228
▁ट	-229
▁पर्	-230
सि	-231
हाँ	-232
प्र	-233
पछि	-234
बै	-235
दे	-236
न्ध	-237
ँग	-238
▁आफ्न	-239
्रम	-240
▁जिल्ला	-241
न्दा	-242
▁लि	-243
्रो	-244
मु	-245
▁गरे	-246
▁नै	-247
नको	-248
▁गरेका	-249
की	-250
ुद्ध	-251
▁प्रति	-252
▁उनी	-253
▁अव	-254
▁अनु	-255
हरूमा	-256
लि	-257
▁गरिएको	-258
्यो	-259
▁सबै	-260
डि	-261
▁जस	-262
▁राष्ट्र	-263
क्ति	-264
गर	-265
सार	-266
एर	-267
मी	-268
षा	-269
▁जन	-270
हरूले	-271
▁मानि	-272
▁आफ्नो	-273
▁ा	-274
्री	-275
▁मह	-276
▁कि	-277
र्थ	-278
कु	-279
म्म	-280
ब्	-281
सं	-282
▁परि	-283
थान	-284
▁हा	-285
प्त	-286
▁बना	-287
▁तर	-288
ाउँ	-289
हरु	-290
▁कार्य	-291
लेख	-292
पुर	-293
ारी	-294
▁हि	-295
▁गरी	-296
धान	-297
मान	-298
▁गरेको	-299
▁हुने	-300
▁देखि	-301
ुट	-302
▁राज्य	-303
ेला	-304
सँग	-305
धार	-306
म्प	-307
▁उनले	-308
मि	-309
▁दिन	-310
ुरु	-311
ेत	-312
▁मि	-313
पूर्	-314
▁सर	-315
ीन	-316
▁नाम	-317
▁गा	-318
▁गर्दछ	-319
म्ब	-320
▁विश्व	-321
▁भारत	-322
यु	-323
▁पहि	-324
▁पर	-325
▁बि	-326
▁हुन्	-327
णा	-328
▁थ	-329
▁गो	-330
निक	-331
▁शि	-332
▁वर्ष	-333
खा	-334
हरूलाई	-335
ेरै	-336
▁शा	-337
हु	-338
नमा	-339
▁समा	-340
▁धेरै	-341
ाली	-342
र्ग	-343
▁राजा	-344
जी	-345
▁पूर्	-346
न्ने	-347
्ने	-348
ोक	-349
िता	-350
▁अन्त	-351
उने	-352
इन्छ	-353
छन्	-354
तिक	-355
ंग	-356
डी	-357
वी	-358
▁समय	-359
श्च	-360
सी	-361
▁सह	-362
ालय	-363
▁साथ	-364
ेट	-365
▁प्रयोग	-366
ेक	-367
द्व	-368
जन	-369
▁पछि	-370
▁स्था	-371
▁स्थान	-372
▁उनको	-373
र्व	-374
शा	-375
न्दिर	-376
ख्य	-377
सम्म	-378
▁कुन	-379
▁नेपाली	-380
कै	-381
▁महा	-382
▁भयो	-383
▁भाषा	-384
्रि	-385
▁यसको	-386
रो	-387
▁चि	-388
भिन्न	-389
द्य	-390
्रे	-391
न्त्री	-392
ख्या	-393
▁भएका	-394
▁अर्	-395
▁अन्य	-396
पति	-397
▁गरिन्छ	-398
मुख	-399
▁मात्र	-400
राज	-401
क्षा	-402
▁मन्दिर	-403
▁कुनै	-404
▁रो	-405
▁विभिन्न	-406
ज्	-407
स्क	-408
▁सरकार	-409
पना	-410
▁अधि	-411
टक	-412
दान	-413
धा	-414
▁हुन	-415
▁छो	-416
भन्दा	-417
स्ता	-418
▁व्यव	-419
▁साल	-420
▁देश	-421
ष्ण	-422
▁सेना	-423
पूर्ण	-424
ोल	-425
बन्ध	-426
▁केही	-427
से	-428
▁भन्ने	-429
▁जो	-430
निन्छ	-431
चा	-432
मो	-433
▁महि	-434
ेद	-435
टर	-436
क्रम	-437
▁सकि	-438
उँ	-439
▁मुख्य	-440
सको	-441
▁भाग	-442
▁ड	-443
वार	-444
▁था	-445
ुवा	-446
लको	-447
ीत	-448
माण	-449
▁सद	-450
टी	-451
▁सङ्	-452
स्य	-453
वन	-454
सो	-455
▁धर्म	-456
▁सक्	-457
उन	-458
लमा	-459
▁मध्य	-460
ेष	-461
व्य	-462
न्ति	-463
रमा	-464
▁ता	-465
देखि	-466
च्च	-467
तन्त्र	-468
▁कारण	-469
▁उत्	-470
▁यहाँ	-471
▁जी	-472
▁गु	-473
ग्	-474
▁एउ	-475
▁गर्नु	-476
▁उत्त	-477
्रह	-478
▁रहेका	-479
त्व	-480
पर्	-481
यत	-482
▁काम	-483
▁सम्म	-484
▁व्या	-485
पि	-486
▁शास	-487
▁्	-488
▁लगा	-489
ूल	-490
हित	-491
▁प्रमुख	-492
ैन	-493
▁चा	-494
मेर	-495
▁भू	-496
▁राम	-497
▁सो	-498
▁राख	-499
न्या	-500
भाग	-501
▁हुँ	-502
भाव	-503
टो	-504
क्षि	-505
▁रु	-506
दैन	-507
चि	-508
▁युद्ध	-509
▁पहिलो	-510
शी	-511
▁लेख	-512
चार	-513
▁अनुसार	-514
जना	-515
▁बो	-516
▁प्राप्त	-517
▁आदि	-518
▁ि	-519
▁प्रधान	-520
समा	-521
▁दुई	-522
▁खेल	-523
▁ो	-524
स्थि	-525
▁जुन	-526
▁स्थापना	-527
▁दा	-528
▁लग	-529
▁खा	-530
भारत	-531
न्थ	-532
रह	-533
याँ	-534
ुक	-535
जि	-536
िनी	-537
जार	-538
▁पू	-539
्ट	-540
कारी	-541
▁पाइन्छ	-542
▁एउटा	-543
मन्त्री	-544
▁भि	-545
त्त्व	-546
ते	-547
▁पश्च	-548
रको	-549
युक्त	-550
▁साम	-551
स्तु	-552
▁मानिस	-553
त्म	-554
▁पद	-555
▁व्यवस्था	-556
▁सकिन्छ	-557
स्तै	-558
▁आधार	-559
▁राष्ट्रिय	-560
▁देव	-561
क्षिण	-562
र्ष	-563
नेपाल	-564
▁या	-565
▁खो	-566
▁यी	-567
▁विका	-568
▁जन्	-569
फल	-570
तिहा	-571
्छ	-572
वेश	-573
▁प्रदेश	-574
▁भन्दा	-575
श्य	-576
▁सहर	-577
▁ले	-578
▁समेत	-579
▁सम्बन्ध	-580
न्ड	-581
पु	-582
ीमा	-583
दुर	-584
गत	-585
▁पुग	-586
रु	-587
इएको	-588
▁कुरा	-589
▁जना	-590
स्थ	-591
▁चल	-592
▁क्षेत्रमा	-593
के	-594
द्वारा	-595
▁नेपालको	-596
ोर	-597
▁विशेष	-598
र्फ	-599
▁महत्त्व	-600
स्ट	-601
▁गरेर	-602
▁ति	-603
▁छैन	-604
वान	-605
र्श	-606
ंश	-607
▁श्री	-608
▁सदस्य	-609
▁बेला	-610
▁बने	-611
▁सामा	-612
यन	-613
▁भनिन्छ	-614
▁कम	-615
चना	-616
▁पो	-617
ीर	-618
ताको	-619
▁निर्माण	-620
बल	-621
▁,	-622
यम	-623
▁नगर	-624
र्ण	-625
ँच	-626
ूलो	-627
▁पूर्व	-628
ीच	-629
▁पार्	-630
▁प्रश	-631
हो	-632
काल	-633
काश	-634
▁धा	-635
▁पुर	-636
करण	-637
बार	-638
ंह	-639
▁निर्वा	-640
▁प्रकार	-641
टि	-642
▁मान	-643
हार	-644
▁दक्षिण	-645
सु	-646
▁देख	-647
र्त	-648
पालिका	-649
▁सुरु	-650
चित	-651
▁मन	-652
ोष	-653
स्व	-654
▁अध	-655
▁मानिन्छ	-656
▁अध्य	-657
▁यु	-658
त्या	-659
▁गर्दा	-660
▁केन्द्र	-661
▁हाल	-662
ैले	-663
▁बु	-664
▁नदी	-665
▁सबैभन्दा	-666
▁व्यक्ति	-667
क्षण	-668
श्व	-669
स्थित	-670
स्रो	-671
▁मो	-672
▁यस्त	-673
▁हे	-674
▁सेवा	-675
पाद	-676
हादुर	-677
सङ्	-678
वल	-679
ाउने	-680
वाह	-681
▁योग	-682
▁ती	-683
त्यु	-684
▁विकास	-685
तको	-686
ेन्द्र	-687
तिहास	-688
वै	-689
तिको	-690
▁यसलाई	-691
जिक	-692
पी	-693
▁सू	-694
पनि	-695
रूप	-696
▁अधिकार	-697
▁अवस्था	-698
▁जन्म	-699
त्रा	-700
▁विष	-701
वाद	-702
▁स्त	-703
ङ्क	-704
▁गाउँ	-705
▁राजनी	-706
▁छा	-707
नाले	-708
▁सुर	-709
माड	-710
▁भग	-711
▁साथै	-712
▁गर्छ	-713
▁जि	-714
धन	-715
▁तीन	-716
▁सभा	-717
▁उनलाई	-718
▁वै	-719
द्यालय	-720
दाय	-721
देव	-722
▁पश्चिम	-723
▁हिन्द	-724
यण	-725
▁पानी	-726
नामा	-727
▁द्व	-728
तमा	-729
ुल	-730
▁गर्दै	-731
▁शाह	-732
▁हुनु	-733
राम	-734
र्ता	-735
▁समु	-736
▁मे	-737
ानो	-738
धी	-739
▁बै	-740
▁लोक	-741
▁भो	-742
▁उल्	-743
▁पि	-744
सर	-745
र्क	-746
▁हर	-747
▁फुट	-748
स्त्र	-749
▁समयमा	-750
▁जिल्लाको	-751
▁नेपालमा	-752
▁बङ्ग	-753
जु	-754
त्मक	-755
▁खे	-756
वादी	-757
बि	-758
▁पार	-759
नका	-760
इन्	-761
▁दो	-762
▁रे	-763
▁टा	-764
च्छ	-765
▁सै	-766
▁महिला	-767
हिले	-768
हरूका	-769
बहादुर	-770
▁हुन्छन्	-771
▁अर्थ	-772
स्तो	-773
सम	-774
▁त्यो	-775
▁संस्क	-776
▁सङ्ग	-777
किस्त	-778
▁शक्ति	-779
म्भ	-780
▁जनसङ्	-781
छा	-782
▁प्रजा	-783
▁आर्	-784
▁प्रत्य	-785
▁बाल	-786
▁आव	-787
▁अमेर	-788
थे	-789
▁पर्ने	-790
▁ई	-791
▁उक्त	-792
काली	-793
हित्य	-794
▁संर	-795
तो	-796
▁सफल	-797
▁आयो	-798
षि	-799
फा	-800
ष्ट्रिय	-801
▁छोरा	-802
तिमा	-803
ल्ल	-804
▁आएको	-805
▁जनसङ्ख्या	-806
शु	-807
इन	-808
द्र	-809
ल्या	-810
▁प्रधानमन्त्री	-811
ड्	-812
गो	-813
▁बस्	-814
ब्द	-815
▁प्रभाव	-816
▁े	-817
▁डि	-818
▁गर्दछन्	-819
▁कम्प	-820
कको	-821
▁पर्व	-822
त्यका	-823
▁स्वा	-824
इने	-825
▁नभ	-826
▁अर्को	-827
▁उनका	-828
्यान	-829
ाउन	-830
▁बीच	-831
▁यसले	-832
टन	-833
▁न्या	-834
शेर	-835
सक	-836
मार	-837
▁विषय	-838
न्छन्	-839
ज्य	-840
▁पुन	-841
▁गते	-842
▁स्वतन्त्र	-843
▁अप	-844
वर	-845
▁महत्त्वपूर्ण	-846
गरी	-847
▁उल्लेख	-848
▁नयाँ	-849
ोप	-850
त्ता	-851
▁उच्च	-852
र्न	-853
▁विद	-854
▁बे	-855
▁पाकिस्त	-856
थम	-857
▁चार	-858
▁व्याप	-859
▁अन्तर	-860
पन	-861
्चाल	-862
▁राष्ट्रपति	-863
▁डा	-864
▁ल्या	-865
▁साहित्य	-866
▁पर्य	-867
▁शिक्षा	-868
▁उपत्यका	-869
▁सालमा	-870
थिक	-871
▁प्रक	-872
▁पर्दछ	-873
श्यक	-874
िया	-875
▁जसले	-876
ित्व	-877
मध्य	-878
▁अभ	-879
मे	-880
▁मन्त्र	-881
▁तत्	-882
▁सर्व	-883
▁समाज	-884
▁प्रकाश	-885
यक	-886
▁माथि	-887
▁यिन	-888
▁बसो	-889
विधान	-890
सद	-891
▁गण	-892
ानको	-893
म्परा	-894
▁ते	-895
।।	-896
▁दर	-897
▁स्थि	-898
तिर	-899
▁पूजा	-900
डे	-901
लग	-902
▁आर्थिक	-903
चल	-904
▁जस्तै	-905
ष्टि	-906
▁क्रम	-907
▁रि	-908
▁फा	-909
र्मा	-910
्रिया	-911
▁पटक	-912
▁किन	-913
स्कार	-914
▁पुरा	-915
▁फुटबल	-916
भू	-917
धु	-918
▁आवश्यक	-919
क्र	-920
▁चु	-921
वं	-922
मै	-923
र्मिक	-924
▁विवाह	-925
▁भएर	-926
▁अनि	-927
▁भित्र	-928
▁गर्छन्	-929
चन	-930
▁मूल	-931
▁शासन	-932
▁रोग	-933
▁वटा	-934
▁।।	-935
▁त्यसपछि	-936
▁उत्पाद	-937
▁भारतीय	-938
शि	-939
वास	-940
टे	-941
ारायण	-942
▁वर्ग	-943
्ज	-944
▁खु	-945
▁पक्ष	-946
▁सामान्य	-947
प्	-948
चित्र	-949
▁क्या	-950
▁गीत	-951
▁परम्परा	-952
▁संग	-953
पर	-954
▁राजनीतिक	-955
▁छन	-956
ेश्व	-957
▁शरी	-958
▁जस्ता	-959
▁त्यहाँ	-960
पो	-961
▁यसमा	-962
नाको	-963
्यु	-964
र्गत	-965
▁नेत	-966
▁पोख	-967
बर	-968
▁जान	-969
▁बाह	-970
योगिता	-971
▁हजार	-972
▁आधारमा	-973
▁उद	-974
▁ताल	-975
▁कुल	-976
▁विर	-977
ारे	-978
नाथ	-979
▁बाँ	-980
त्ति	-981
लामा	-982
मण	-983
▁सम्प	-984
बु	-985
थ्व	-986
▁गरा	-987
▁धार्मिक	-988
▁संविधान	-989
▁जीव	-990
न्दोल	-991
द्धा	-992
▁सर्	-993
▁मन्त्री	-994
▁जसमा	-995
तु	-996
मन	-997
▁अद	-998
बास	-999
्वा	-1000
▁सहयोग	-1001
▁भनि	-1002
▁राखि	-1003
▁मना	-1004
दो	-1005
न्थ्यो	-1006
सन	-1007
सलाई	-1008
ट्ट	-1009
जय	-1010
▁यसै	-1011
गु	-1012
▁स्थ	-1013
ूह	-1014
▁प्रदान	-1015
▁संस्था	-1016
क्ष्	-1017
▁शिव	-1018
राज्य	-1019
▁उत्तर	-1020
स्या	-1021
भु	-1022
▁थापा	-1023
▁प्रण	-1024
मको	-1025
▁लगायत	-1026
यार	-1027
▁पहा	-1028
्ना	-1029
▁पूर्ण	-1030
▁दश	-1031
लादेश	-1032
ङ्ग्रे	-1033
▁निकै	-1034
पित	-1035
ग्र	-1036
▁जिल्लामा	-1037
र्ने	-1038
रहेको	-1039
र्च	-1040
म्बर	-1041
▁ी	-1042
श्र	-1043
धिक	-1044
▁निका	-1045
ल्ला	-1046
▁जु	-1047
▁जीवन	-1048
ोषणा	-1049
धारण	-1050
▁अन	-1051
एपछि	-1052
▁जित	-1053
▁अवस्थित	-1054
ल्लो	-1055
▁कथा	-1056
▁चलचित्र	-1057
साद	-1058
क्रमण	-1059
ग्री	-1060
▁प्रतियोगिता	-1061
▁बस	-1062
▁निय	-1063
्राष्ट्रिय	-1064
सिया	-1065
कर	-1066
▁एका	-1067
▁थाले	-1068
वे	-1069
▁जब	-1070
पमा	-1071
चीन	-1072
जित	-1073
▁जे	-1074
▁दोस्रो	-1075
▁त्यसैले	-1076
पत	-1077
तार	-1078
मशेर	-1079
परि	-1080
▁कस	-1081
▁लाई	-1082
ियन	-1083
▁भारतको	-1084
▁स्थानीय	-1085
▁उद्	-1086
▁आन्दोल	-1087
▁ज्	-1088
▁विभाग	-1089
माल	-1090
ट्	-1091
सिद्ध	-1092
▁मध्ये	-1093
▁हुँदै	-1094
▁मानव	-1095
कालीन	-1096
▁बन्द	-1097
▁बुद्ध	-1098
ीले	-1099
▁फि	-1100
सिंह	-1101
ङ्गा	-1102
ीम	-1103
▁मान्य	-1104
वर्त	-1105
▁उपा	-1106
िएको	-1107
▁अभि	-1108
▁अस	-1109
्योग	-1110
▁पाँच	-1111
▁विश्वास	-1112
सले	-1113
▁शै	-1114
ून	-1115
लाको	-1116
▁वर्ण	-1117
▁स्थानमा	-1118
▁अहिले	-1119
रक	-1120
▁मल्ल	-1121
▁मै	-1122
▁थाल	-1123
▁फै	-1124
▁करि	-1125
▁विभा	-1126
▁जसको	-1127
तया	-1128
▁शता	-1129
▁आफ्ना	-1130
उनु	-1131
▁किस	-1132
मध्ये	-1133
षद	-1134
▁अमेरिका	-1135
▁वन	-1136
▁क्र	-1137
▁विस्त	-1138
ची	-1139
▁सक्छ	-1140
▁नगरपालिका	-1141
भग	-1142
▁पहिले	-1143
विद्यालय	-1144
रे	-1145
डो	-1146
▁भक्त	-1147
▁सिंह	-1148
न्ट	-1149
्रान्ति	-1150
▁जहाँ	-1151
▁थिइन्	-1152
▁रू	-1153
▁हत्या	-1154
जे	-1155
कमा	-1156
▁दुवै	-1157
▁बसोबास	-1158
▁विद्या	-1159
▁वीर	-1160
न्तर	-1161
▁प्रत्येक	-1162
मिका	-1163
▁अवस्थामा	-1164
र्शन	-1165
▁मत	-1166
द्धि	-1167
▁अध्ययन	-1168
▁नी	-1169
कोट	-1170
▁पाल	-1171
ूर्य	-1172
▁लामो	-1173
▁शब्द	-1174
▁बनेको	-1175
▁देखिन्छ	-1176
▁टो	-1177
▁पत्र	-1178
▁गरियो	-1179
▁महिना	-1180
तम	-1181
लेर	-1182
▁बता	-1183
▁पर्यटक	-1184
▁दिने	-1185
▁राज्यको	-1186
▁भगवान	-1187
▁कर्म	-1188
कल	-1189
▁दल	-1190
वारी	-1191
▁अगा	-1192
▁ु	-1193
▁परिवार	-1194
▁भु	-1195
▁प्रशास	-1196
णी	-1197
▁योगदान	-1198
▁आक्रमण	-1199
▁राम्रो	-1200
दर	-1201
ल्य	-1202
ताका	-1203
जुन	-1204
▁आमा	-1205
▁राणा	-1206
▁नागर	-1207
▁भनेर	-1208
▁अदाल	-1209
▁जसलाई	-1210
▁समावेश	-1211
स्थान	-1212
धानी	-1213
यर	-1214
▁आफू	-1215
▁अन्तर्राष्ट्रिय	-1216
▁जल	-1217
दार	-1218
ुलो	-1219
▁इन्	-1220
▁शहर	-1221
भित्र	-1222
▁गरिने	-1223
्राह	-1224
▁नागरिक	-1225
लब	-1226
तिहासिक	-1227
▁बङ्गलादेश	-1228
▁सय	-1229
▁सम्पूर्ण	-1230
▁अर	-1231
▁कम्पनी	-1232
िल	-1233
पे	-1234
▁कान	-1235
▁जङ्ग	-1236
▁तर्फ	-1237
▁यिनी	-1238
तिका	-1239
▁११	-1240
▁भइ	-1241
न्स	-1242
▁फल	-1243
▁बहु	-1244
▁एवं	-1245
▁अफ	-1246
धिकार	-1247
▁भएपछि	-1248
लु	-1249
हान	-1250
ाउँमा	-1251
हे	-1252
ल्ने	-1253
▁त्यसै	-1254
विता	-1255
ब्ब	-1256
र्ड	-1257
▁सैनिक	-1258
वरण	-1259
त्री	-1260
ैं	-1261
वेद	-1262
▁पर्छ	-1263
▁भेट	-1264
▁सहित	-1265
ेश्वर	-1266
्चालन	-1267
▁मान्यता	-1268
लाम	-1269
▁इतिहास	-1270
दु	-1271
जिम	-1272
▁यसरी	-1273
▁खेला	-1274
▁अत्य	-1275
▁बजार	-1276
▁हुँदा	-1277
विक	-1278
पर्ने	-1279
▁सन्त	-1280
▁विचार	-1281
▁वर्षको	-1282
▁प्रणाली	-1283
▁सक्ने	-1284
▁नियन्त्र	-1285
▁दिए	-1286
यी	-1287
▁नियम	-1288
▁सामाजिक	-1289
र्या	-1290
▁छुट	-1291
▁चलन	-1292
▁पदा	-1293
▁राजधानी	-1294
▁अन्तर्गत	-1295
थ्यो	-1296
▁आइ	-1297
त्मा	-1298
▁हिन्दु	-1299
▁हुनेछ	-1300
▁समि	-1301
टना	-1302
णय	-1303
▁सां	-1304
पूर्व	-1305
▁प्रतिश	-1306
▁बाहि	-1307
▁प्रसिद्ध	-1308
▁यस्तो	-1309
▁प्रस्तु	-1310
▁अगाडि	-1311
▁आज	-1312
▁वस्तु	-1313
ष्य	-1314
्नु	-1315
▁संसद	-1316
▁भाइ	-1317
▁ग्रह	-1318
▁सूर्य	-1319
▁अध्यक्ष	-1320
▁हात	-1321
▁दरबार	-1322
▁कार्यालय	-1323
▁विक	-1324
क्स	-1325
▁काल	-1326
▁प्रतिनि	-1327
▁लाख	-1328
▁दू	-1329
▁ग्र	-1330
▁पुरु	-1331
दीको	-1332
▁प्राय	-1333
नले	-1334
▁द्वारा	-1335
▁विश्वविद्यालय	-1336
▁देवी	-1337
▁स्थल	-1338
▁तिम	-1339
▁वे	-1340
▁प्रचल	-1341
▁शु	-1342
तथा	-1343
▁अन्त्य	-1344
▁कार्यक्रम	-1345
जिल्ला	-1346
▁संयुक्त	-1347
▁प्रवेश	-1348
▁व्यापार	-1349
भव	-1350
▁सार्व	-1351
▁परिवर्त	-1352
िमा	-1353
▁उहाँ	-1354
▁हुनाले	-1355
ीकरण	-1356
राई	-1357
▁प्राचीन	-1358
▁गएको	-1359
▁पुस्त	-1360
▁प्रथम	-1361
म्न	-1362
▁क्रान्ति	-1363
▁विजय	-1364
्रह्	-1365
▁भूमिका	-1366
▁उत्पादन	-1367
▁अध्या	-1368
▁तिन	-1369
नेक	-1370
▁निर्णय	-1371
ैँ	-1372
▁टिम	-1373
▁प्रतिशत	-1374
िरह	-1375
▁करिब	-1376
▁रचना	-1377
काव्य	-1378
▁त्यही	-1379
▁दुर्	-1380
पर्छ	-1381
▁नियन्त्रण	-1382
लिक	-1383
भर	-1384
▁पाइने	-1385
▁समुदाय	-1386
बी	-1387
▁मुल	-1388
▁विदेश	-1389
▁पार्टी	-1390
▁खान	-1391
▁विस्तार	-1392
▁सङ्ख्या	-1393
काम	-1394
ँदा	-1395
▁किलो	-1396
▁क्षेत्रको	-1397
▁नजिक	-1398
म्मा	-1399
▁अधिक	-1400
ोट	-1401
लोक	-1402
▁भएकाले	-1403
▁चन्द्र	-1404
▁आउने	-1405
▁सरकारले	-1406
ममा	-1407
म्बा	-1408
थवा	-1409
▁दै	-1410
▁लो	-1411
साय	-1412
▁रहे	-1413
कट	-1414
▁आक	-1415
ामा	-1416
▁सानो	-1417
▁सँग	-1418
▁न्याय	-1419
र्थी	-1420
▁बारे	-1421
▁विज्	-1422
इयो	-1423
्राज्य	-1424
पत्र	-1425
▁चिनि	-1426
▁पुरुष	-1427
ुरी	-1428
▁माध्य	-1429
▁विद्यालय	-1430
▁मूर्	-1431
▁शासक	-1432
▁नाच	-1433
▁थिएन	-1434
ँडा	-1435
▁धारा	-1436
▁जस्तो	-1437
▁त्यस्तै	-1438
▁श्र	-1439
णको	-1440
िकी	-1441
मोजिम	-1442
बेला	-1443
▁यसका	-1444
▁आयोजना	-1445
मार्ग	-1446
साइ	-1447
▁तह	-1448
▁संरक्षण	-1449
▁हरि	-1450
देश्य	-1451
न्तिम	-1452
▁अस्	-1453
▁योजना	-1454
▁सहभाग	-1455
खु	-1456
▁त्यसको	-1457
ँड	-1458
▁यही	-1459
▁माग	-1460
▁पोखरी	-1461
▁सुरक्षा	-1462
ीक	-1463
▁वंश	-1464
▁लेखि	-1465
▁पुरस्कार	-1466
उँछ	-1467
▁रण	-1468
माथि	-1469
▁खेलाडी	-1470
ेरी	-1471
▁कै	-1472
पश्च	-1473
▁अनेक	-1474
▁समूह	-1475
▁बाहेक	-1476
लेको	-1477
▁की	-1478
सिय	-1479
▁उत्प	-1480
ष्णु	-1481
▁पाण्ड	-1482
▁लु	-1483
ध्या	-1484
▁उपल	-1485
▁निर	-1486
धुनिक	-1487
▁त्रि	-1488
एक	-1489
▁हाम	-1490
▁लगभग	-1491
सित	-1492
नुसार	-1493
▁कायम	-1494
▁लिपि	-1495
संग	-1496
हरूबाट	-1497
तालाई	-1498
▁सात	-1499
▁परिवर्तन	-1500
▁जय	-1501
▁कला	-1502
▁कानु	-1503
छी	-1504
ाँ	-1505
जको	-1506
ालको	-1507
▁सक	-1508
▁स्ना	-1509
हरी	-1510
द्रा	-1511
चार्य	-1512
राष्ट्र	-1513
▁बल	-1514
ानमा	-1515
▁बाछि	-1516
▁देशको	-1517
▁किसिम	-1518
वलम्ब	-1519
र्जा	-1520
▁गावि	-1521
तामा	-1522
▁नेपालका	-1523
▁अन्तिम	-1524
▁निर्वाचन	-1525
▁हामी	-1526
न्ती	-1527
▁बनाउने	-1528
▁पं	-1529
रका	-1530
▁लाग्ने	-1531
▁विरुद्ध	-1532
सल	-1533
▁क्लब	-1534
▁उमेर	-1535
▁माध्यम	-1536
▁स्वरूप	-1537
गि	-1538
टमा	-1539
▁साम्राज्य	-1540
▁गि	-1541
▁बाछिटा	-1542
देवी	-1543
▁प्रया	-1544
पक	-1545
▁गोर	-1546
▁लिन	-1547
िकेट	-1548
▁धार	-1549
▁महाकाव्य	-1550
▁भई	-1551
श्रम	-1552
▁यस्ता	-1553
तर्फ	-1554
श्री	-1555
भारतको	-1556
हन	-1557
▁भै	-1558
ब्दी	-1559
ारम्भ	-1560
▁आएका	-1561
निया	-1562
ुरोप	-1563
▁चीन	-1564
▁छि	-1565
▁देखा	-1566
▁भागमा	-1567
▁कविता	-1568
्चा	-1569
▁जाति	-1570
▁थु	-1571
▁उद्देश्य	-1572
विश्व	-1573
क्ष्मी	-1574
▁समस्या	-1575
▁आँ	-1576
▁बमोजिम	-1577
नाव	-1578
▁क्रममा	-1579
▁गुरु	-1580
षण	-1581
ूला	-1582
▁तत्कालीन	-1583
विधा	-1584
▁फ्रा	-1585
ित्त	-1586
थी	-1587
दल	-1588
▁फर्	-1589
▁श्रे	-1590
ंक	-1591
टु	-1592
धीश	-1593
रिया	-1594
भारतीय	-1595
दू	-1596
▁अङ्ग्रे	-1597
▁निम	-1598
विधि	-1599
तीय	-1600
मती	-1601
प्रिय	-1602
▁अस्पत	-1603
▁परेको	-1604
▁मिश्र	-1605
▁न्य	-1606
क्षित	-1607
▁फे	-1608
▁लिग	-1609
▁बैङ्क	-1610
वात	-1611
▁अत्यन्त	-1612
णि	-1613
▁पूर्वी	-1614
रव	-1615
ेरि	-1616
▁कप	-1617
▁अथवा	-1618
▁तिब्ब	-1619
▁शमशेर	-1620
▁सहा	-1621
▁ब्रि	-1622
▁प्रकारका	-1623
▁्र	-1624
▁लिएर	-1625
▁प्रकारको	-1626
भयो	-1627
ंग्रे	-1628
▁सरकारको	-1629
▁अर्था	-1630
▁संसार	-1631
सभा	-1632
वर्	-1633
▁जारी	-1634
▁सी	-1635
दछन्	-1636
▁किरा	-1637
न्ज	-1638
▁लडा	-1639
ङ्ख	-1640
▁मुख	-1641
▁जाने	-1642
▁तेस्रो	-1643
▁राखिएको	-1644
बो	-1645
भो	-1646
स्थल	-1647
सकेको	-1648
प्रसाद	-1649
▁पुरानो	-1650
▁युद्धमा	-1651
▁गुण	-1652
▁तुल	-1653
च्चा	-1654
▁भारतमा	-1655
्रु	-1656
▁बस्ने	-1657
वटा	-1658
▁क्रिकेट	-1659
▁निर्देश	-1660
हरा	-1661
▁उद्योग	-1662
▁शान्ति	-1663
▁स्थापित	-1664
▁वास्त	-1665
▁उपलब्	-1666
▁मार्ग	-1667
डेर	-1668
क्क	-1669
▁पूरा	-1670
ानीको	-1671
महा	-1672
्रत	-1673
▁चर्	-1674
विध	-1675
▁सुन	-1676
▁सुन्द	-1677
ारमा	-1678
नाम	-1679
पानी	-1680
▁चला	-1681
▁बनाउन	-1682
▁सेनाले	-1683
डिया	-1684
▁पुत्र	-1685
याधीश	-1686
यको	-1687
▁वर्त	-1688
लाल	-1689
▁कति	-1690
▁कोइ	-1691
▁हरू	-1692
▁धन	-1693
▁तिर	-1694
▁खेलकु	-1695
▁प्रारम्भ	-1696
त्न	-1697
गायत	-1698
▁आधुनिक	-1699
▁सरकारी	-1700
दन	-1701
प्रा	-1702
सका	-1703
▁अस्पताल	-1704
▁हरेक	-1705
▁आफ्नै	-1706
▁शताब्दी	-1707
गण	-1708
लीमा	-1709
▁भाव	-1710
ल्यान्ड	-1711
लित	-1712
मिटर	-1713
▁प्राक	-1714
ँदै	-1715
▁छोरी	-1716
▁खेलकुद	-1717
▁सम्बन्धित	-1718
▁पश्चा	-1719
▁जिम्म	-1720
▁विमान	-1721
▁प्रस्तुत	-1722
लै	-1723
▁शरीर	-1724
▁लोकप्रिय	-1725
▁फरक	-1726
तिहरू	-1727
तह	-1728
▁परा	-1729
▁रङ्ग	-1730
▁उत्तरी	-1731
▁नदीको	-1732
▁रुपमा	-1733
▁भाषाको	-1734
्चार	-1735
▁खोला	-1736
▁कारणले	-1737
▁ग्रन्थ	-1738
पको	-1739
▁अग्	-1740
▁नारायण	-1741
▁बारेमा	-1742
▁पिता	-1743
▁मेला	-1744
्राह्	-1745
▁अर्जुन	-1746
ेलि	-1747
ग्रह	-1748
जनिक	-1749
डियो	-1750
▁भाषामा	-1751
▁निर्वाचित	-1752
नै	-1753
▁ष	-1754
ेरो	-1755
▁गए	-1756
▁सम्बन्धी	-1757
▁शे	-1758
▁बाहिर	-1759
क्ने	-1760
बे	-1761
ीका	-1762
▁बज	-1763
अनुसार	-1764
दशी	-1765
▁भएकोले	-1766
मह	-1767
ंगा	-1768
बीच	-1769
▁बनेका	-1770
▁भनेको	-1771
वती	-1772
शास्त्र	-1773
▁वर्तमान	-1774
▁नव	-1775
▁हुँदैन	-1776
▁बन्न	-1777
▁गति	-1778
▁कानून	-1779
▁जम्मा	-1780
▁विविध	-1781
ेली	-1782
त्रि	-1783
▁सुधार	-1784
▁बी	-1785
▁पहाड	-1786
▁च्या	-1787
▁विभाजन	-1788
▁बग	-1789
▁पाकिस्तानी	-1790
स्ती	-1791
हिन्द	-1792
▁अदालत	-1793
▁मन्त्रालय	-1794
▁मुक्त	-1795
▁गरेपछि	-1796
▁ब्रह्	-1797
▁भूमि	-1798
ोका	-1799
▁मुलुक	-1800
नेर	-1801
र्खा	-1802
सँगै	-1803
▁युरोप	-1804
लेका	-1805
▁हनु	-1806
▁सहभागी	-1807
▁सार्वजनिक	-1808
▁भर	-1809
मारी	-1810
जर	-1811
लक	-1812
▁सदर	-1813
▁हिमाल	-1814
▁केन्द्रीय	-1815
▁किलोमिटर	-1816
▁विद्यार्थी	-1817
र्ट	-1818
▁रहन	-1819
▁जात्रा	-1820
▁दिएको	-1821
टै	-1822
ाउनु	-1823
युद्ध	-1824
▁संरचना	-1825
श्	-1826
▁स्ट	-1827
▁देवता	-1828
▁इन्द्र	-1829
ुरू	-1830
ुरो	-1831
व्या	-1832
▁दिनु	-1833
जग	-1834
▁हेर्	-1835
▁जिम्मे	-1836
सिक	-1837
▁पै	-1838
▁स्थित	-1839
ारि	-1840
▁अरु	-1841
▁मिटर	-1842
▁हिन्दू	-1843
▁तयार	-1844
▁सेनाको	-1845
▁तथ	-1846
द्यु	-1847
भएको	-1848
▁बीचमा	-1849
न्जा	-1850
▁खास	-1851
उँछन्	-1852
▁प्रे	-1853
▁विधि	-1854
▁चित्र	-1855
▁आधारित	-1856
गोल	-1857
शाली	-1858
क्षेत्र	-1859
▁सिद्धा	-1860
▁आन्दोलन	-1861
▁नामक	-1862
▁नो	-1863
क्षी	-1864
▁कर	-1865
खण्ड	-1866
▁चाह	-1867
▁वेद	-1868
▁हटा	-1869
▁पुगेको	-1870
मण्ड	-1871
हुन्छ	-1872
▁गर्द	-1873
मिन	-1874
▁न्यायाधीश	-1875
▁पशु	-1876
▁उपनि	-1877
▁फैलि	-1878
▁सीमा	-1879
▁यात्रा	-1880
पछी	-1881
्ले	-1882
▁नग	-1883
▁बन	-1884
▁अभिय	-1885
ल्न	-1886
▁बह	-1887
रहेका	-1888
▁निम्न	-1889
जो	-1890
ालु	-1891
▁परी	-1892
▁कले	-1893
▁चरा	-1894
▁अनुस	-1895
▁जोडि	-1896
▁छे	-1897
▁रहने	-1898
▁साना	-1899
्रोत	-1900
▁विष्णु	-1901
त्तर	-1902
▁अवधि	-1903
▁मिल्	-1904
▁थुप्र	-1905
▁बच्चा	-1906
तक	-1907
षद्	-1908
▁नर	-1909
यती	-1910
्राम	-1911
शील	-1912
त्ती	-1913
वासी	-1914
▁पदार्थ	-1915
▁व्यक्त	-1916
खो	-1917
बाल	-1918
▁दर्शन	-1919
मति	-1920
तीको	-1921
▁पुग्	-1922
▁युवा	-1923
▁तिनी	-1924
▁निधन	-1925
▁प्रमाण	-1926
▁्त	-1927
▁बलि	-1928
▁बाट	-1929
कालमा	-1930
▁चै	-1931
▁खाने	-1932
कहरू	-1933
▁भीम	-1934
प्रति	-1935
▁म्या	-1936
ङको	-1937
िन्छ	-1938
▁यदि	-1939
▁दिइएको	-1940
▁मन्दिरमा	-1941
ेकी	-1942
कर्ता	-1943
▁कार	-1944
▁देशमा	-1945
कम	-1946
ताले	-1947
धिकारिक	-1948
ेन	-1949
चाल	-1950
▁सम्पन्न	-1951
▁सामग्री	-1952
च्छा	-1953
न्धी	-1954
▁सके	-1955
▁प्रद	-1956
▁अम	-1957
कुल	-1958
जस्ता	-1959
सेन	-1960
▁ब्य	-1961
ल्प	-1962
▁अप्र	-1963
्दै	-1964
▁न्	-1965
▁समर्थ	-1966
भ्य	-1967
स्ताव	-1968
▁टोली	-1969
▁त्यस्तो	-1970
▁स्वतन्त्रता	-1971
यात	-1972
▁सम्मान	-1973
गी	-1974
▁ची	-1975
कुमार	-1976
▁प्रती	-1977
▁नियुक्त	-1978
▁वर्षा	-1979
▁पराज	-1980
▁पहाडी	-1981
▁प्रकाशित	-1982
▁हास	-1983
▁विरो	-1984
▁मानिसहरू	-1985
गल	-1986
क्षर	-1987
▁कोइरा	-1988
▁चिनिन्छ	-1989
र्ति	-1990
न्तु	-1991
▁ताप	-1992
▁नामले	-1993
▁प्रहरी	-1994
▁चरण	-1995
▁गरिएका	-1996
▁यहाँको	-1997
भाषा	-1998
▁शुरु	-1999
नेपाली	-2000
▁सैन्य	-2001
न्व	-2002
▁आए	-2003
▁उनीहरू	-2004
▁उचा	-2005
लगायत	-2006
▁सालको	-2007
लाइ	-2008
▁मिल	-2009
ँस	-2010
▁पदमा	-2011
▁तु	-2012
रिका	-2013
▁नेता	-2014
▁निकाय	-2015
तन	-2016
▁नदि	-2017
▁भ्रम	-2018
▁थुप्रै	-2019
▁बनाएको	-2020
भे	-2021
▁्य	-2022
शाला	-2023
▁अधिका	-2024
▁गर्यो	-2025
्राह्मण	-2026
▁कब्	-2027
▁युग	-2028
▁नीति	-2029
▁त्यति	-2030
▁निम्त	-2031
▁दस	-2032
▁जानकारी	-2033
त्वमा	-2034
स्थ्य	-2035
हरण	-2036
▁जंग	-2037
चिव	-2038
शाख	-2039
साथ	-2040
▁सांस्क	-2041
▁कहिले	-2042
▁दिएका	-2043
▁अमेरिकी	-2044
▁आधिकारिक	-2045
▁प्रक्रिया	-2046
ालो	-2047
र्ना	-2048
▁राख्ने	-2049
▁क्षम	-2050
▁सिद्धान्त	-2051
ानु	-2052
▁ध्यान	-2053
▁भनिएको	-2054
▁संख्या	-2055
▁बाटो	-2056
▁रानी	-2057
▁उपयोग	-2058
िक्त	-2059
वस्था	-2060
▁डे	-2061
बाह	-2062
राध	-2063
ड्ने	-2064
▁समान	-2065
▁पी	-2066
ण्डा	-2067
▁प्रस्ताव	-2068
▁प्रत्यक्ष	-2069
▁व्रत	-2070
ालि	-2071
▁सम्ब	-2072
▁वर्णन	-2073
ित्	-2074
ँको	-2075
क्षक	-2076
लाका	-2077
▁बेलायत	-2078
्चल	-2079
▁फु	-2080
▁गएर	-2081
धानिक	-2082
▁मात्रामा	-2083
पान	-2084
यमा	-2085
न्थे	-2086
▁माछा	-2087
चन्द्र	-2088
▁उनीहरूको	-2089
गुन	-2090
▁अब	-2091
▁भी	-2092
▁सिम	-2093
स्पति	-2094
▁जर्म	-2095
सहित	-2096
▁वरि	-2097
▁देखेर	-2098
▁उपलब्ध	-2099
▁सामान्यतया	-2100
साई	-2101
▁आद	-2102
▁आकार	-2103
▁यद्य	-2104
पटक	-2105
र्स	-2106
समेत	-2107
▁आकर्ष	-2108
▁क्याम्प	-2109
▁ू	-2110
क्ता	-2111
▁एसिया	-2112
▁जान्छ	-2113
▁लगायतका	-2114
▁उदा	-2115
▁युद्धको	-2116
▁लेखक	-2117
ीलाई	-2118
▁सत्य	-2119
▁प्रयास	-2120
मत	-2121
▁आर	-2122
▁बोक	-2123
▁अग	-2124
▁ज्या	-2125
▁सुन्दर	-2126
▁पे	-2127
वीर	-2128
▁तो	-2129
डक	-2130
म्बु	-2131
▁आयोग	-2132
टको	-2133
वरी	-2134
▁थप	-2135
▁हिमा	-2136
▁पाउने	-2137
▁सदरमु	-2138
ाइ	-2139
प्ट	-2140
▁पदक	-2141
▁मार	-2142
▁सुरू	-2143
▁खेती	-2144
नेपालको	-2145
धे	-2146
▁इस्	-2147
▁पत्	-2148
दिए	-2149
▁लिने	-2150
▁प्रतिनिधि	-2151
रेल	-2152
▁सजि	-2153
▁स्क	-2154
▁कालो	-2155
▁ब्रिटि	-2156
▁सङ्गीत	-2157
▁कांग्रे	-2158
ंसा	-2159
▁साँ	-2160
काको	-2161
▁दिव	-2162
▁कार्	-2163
▁श्रेष्	-2164
▁मन्दिरको	-2165
पद	-2166
▁कवि	-2167
▁पात	-2168
पश्चिम	-2169
▁धर्मका	-2170
▁धर्मको	-2171
पोख	-2172
▁चो	-2173
▁नभएको	-2174
▁सन्धि	-2175
मिल	-2176
▁अलग	-2177
▁सुविधा	-2178
▁गाउँपालिका	-2179
▁ताइ	-2180
▁ै	-2181
र्भ	-2182
▁डो	-2183
द्दा	-2184
▁सन्द	-2185
▁एकादशी	-2186
▁फ्रान्	-2187
▁हाम्रो	-2188
द्द	-2189
ानका	-2190
क्रिय	-2191
▁दक्षिणमा	-2192
इँ	-2193
▁नामबाट	-2194
▁सिं	-2195
▁गरेकी	-2196
आदि	-2197
चारी	-2198
तन्त्रको	-2199
▁फूल	-2200
▁भनी	-2201
पुरको	-2202
▁विक्रम	-2203
शो	-2204
नन्	-2205
▁मनो	-2206
▁रंग	-2207
▁विषयमा	-2208
▁अधिकांश	-2209
▁दी	-2210
▁थाहा	-2211
▁भिन्न	-2212
▁यद्यपि	-2213
पण	-2214
▁सुख	-2215
▁सत्ता	-2216
▁समिति	-2217
रूपमा	-2218
▁अङ्ग	-2219
▁चुनाव	-2220
▁मूर्ति	-2221
▁भट्ट	-2222
▁सेतो	-2223
वंश	-2224
▁टि	-2225
न्नु	-2226
▁वडा	-2227
▁यिनको	-2228
यं	-2229
▁अति	-2230
▁कलेज	-2231
▁मानिसहरूको	-2232
११	-2233
र्फत	-2234
▁माइ	-2235
तावरण	-2236
केत	-2237
पाई	-2238
ल्ट	-2239
▁टु	-2240
▁गयो	-2241
▁भना	-2242
▁बनाए	-2243
▁संगीत	-2244
▁भन्द	-2245
▁उनीहरूले	-2246
राको	-2247
▁आत्म	-2248
▁सिमा	-2249
▁ग्रहण	-2250
▁रक्षा	-2251
तर	-2252
क्टर	-2253
निर्	-2254
▁कानुन	-2255
▁निर्वाच	-2256
▁शास्त्र	-2257
▁अरू	-2258
▁होइन	-2259
मन्त्र	-2260
▁सदरमुकाम	-2261
▁पुराण	-2262
फी	-2263
▁प्	-2264
टीको	-2265
▁पेश	-2266
▁त्या	-2267
लङ्	-2268
▁ब्या	-2269
▁इतिहा	-2270
▁समाप्त	-2271
र्ख	-2272
▁तब	-2273
हरूसँग	-2274
▁सर्वो	-2275
▁जग	-2276
▁वर	-2277
▁रेल	-2278
▁त्यसलाई	-2279
▁बनाइएको	-2280
▁पश्चिममा	-2281
ईको	-2282
उको	-2283
िकै	-2284
▁हासिल	-2285
▁गर्नका	-2286
▁स्प	-2287
▁कर्ण	-2288
▁लागेको	-2289
हाल	-2290
▁खण्ड	-2291
▁हातमा	-2292
▁पूर्वमा	-2293
▁स्वर्ग	-2294
▁आवश्यकता	-2295
▁खोज	-2296
▁त्र	-2297
▁पारि	-2298
▁सुरुवात	-2299
▁राजमार्ग	-2300
▁जङ्गबहादुर	-2301
▁थर	-2302
▁सोही	-2303
▁वातावरण	-2304
▁स्वास्थ्य	-2305
▁डु	-2306
▁सभ्य	-2307
▁भूभाग	-2308
▁विदेशी	-2309
▁परम्परागत	-2310
▁नहु	-2311
▁हावा	-2312
▁अवतार	-2313
▁नस	-2314
माण्ड	-2315
▁श्रीक	-2316
▁मी	-2317
▁चित	-2318
▁तरिका	-2319
क्का	-2320
क्किम	-2321
▁आँखा	-2322
खित	-2323
निय	-2324
▁पाई	-2325
▁प्रसाद	-2326
▁सूची	-2327
▁तत्काल	-2328
▁पाइन्छन्	-2329
मल	-2330
▁महान	-2331
▁पन्जा	-2332
र्नु	-2333
▁गाभि	-2334
रस	-2335
स्ति	-2336
▁डिसे	-2337
▁व्यापक	-2338
▁अङ्ग्रेजी	-2339
तियार	-2340
शमशेर	-2341
▁धनु	-2342
▁नामा	-2343
रोड	-2344
गावि	-2345
ीकार	-2346
▁लामा	-2347
▁डिग्री	-2348
थो	-2349
पय	-2350
▁सभाको	-2351
▁दक्षिणी	-2352
जरा	-2353
▁बच	-2354
▁पुग्न	-2355
दैनन्	-2356
▁साधारण	-2357
ियत	-2358
बद्ध	-2359
▁कब्जा	-2360
▁पर्यटकीय	-2361
▁दिनमा	-2362
▁धर्मा	-2363
▁रहन्छ	-2364
▁सक्रिय	-2365
▁उमेरमा	-2366
▁अल	-2367
ण्टा	-2368
▁निष्	-2369
▁विशाल	-2370
वाल	-2371
▁मात्रै	-2372
▁राजाको	-2373
▁उत्पन्न	-2374
चान	-2375
▁भएमा	-2376
▁जनावर	-2377
भक्त	-2378
▁भार	-2379
ंस	-2380
▁भवन	-2381
▁तीर्थ	-2382
▁महादेव	-2383
▁हनुमान	-2384
▁व्यवसाय	-2385
▁गोरखा	-2386
▁मान्छ	-2387
▁मित्र	-2388
▁जिम्मेवारी	-2389
▁वेब	-2390
▁अस्त	-2391
▁आत्मा	-2392
खे	-2393
ानिक	-2394
▁स्म	-2395
ल्लाह	-2396
▁पात्र	-2397
गम	-2398
बाद	-2399
धारा	-2400
▁विरा	-2401
▁देख्न	-2402
▁नाममा	-2403
▁सूचना	-2404
▁कोइराला	-2405
भने	-2406
▁कल	-2407
िल्ली	-2408
▁आदेश	-2409
▁पुगे	-2410
▁अनुमान	-2411
थ्वी	-2412
▁कपडा	-2413
▁इच्छा	-2414
▁सकिने	-2415
▁अक्	-2416
▁देउ	-2417
वित्र	-2418
शक्ति	-2419
सकेका	-2420
▁दुबै	-2421
▁बनाएर	-2422
▁मुख्यत	-2423
▁सम्पाद	-2424
▁निरन्तर	-2425
▁महेन्द्र	-2426
एफ	-2427
▁भ्रमण	-2428
▁सन्तान	-2429
▁उत्तरमा	-2430
वली	-2431
▁नाग	-2432
▁क्रिया	-2433
▁विश्वक	-2434
कुर	-2435
▁लड	-2436
▁चिनियाँ	-2437
▁छुट्ट	-2438
▁विकसित	-2439
▁लेखिएको	-2440
▁नु	-2441
▁यज्	-2442
धित्व	-2443
▁दर्श	-2444
▁खेलमा	-2445
गे	-2446
▁हक	-2447
▁टेलि	-2448
चे	-2449
तै	-2450
िकाको	-2451
▁फैलिएको	-2452
▁जिल्लाका	-2453
▁प्रशासनिक	-2454
▁मक	-2455
धिष्	-2456
योजन	-2457
▁फागुन	-2458
▁यहाँका	-2459
▁सङ्ग्रह	-2460
राजा	-2461
▁गोल	-2462
▁क्षेत्रका	-2463
▁टे	-2464
द्दी	-2465
्युट	-2466
▁ट्र	-2467
▁सतह	-2468
▁चाहि	-2469
▁आचार्य	-2470
▁ब्राह्मण	-2471
उँदै	-2472
वैधानिक	-2473
▁फो	-2474
▁थिएँ	-2475
▁बनाई	-2476
▁प्रविधि	-2477
लीको	-2478
▁करोड	-2479
▁बाबु	-2480
▁चीनको	-2481
▁महारा	-2482
▁उपनिषद	-2483
▁अधिकारी	-2484
हुँ	-2485
न्यु	-2486
▁हरा	-2487
▁श्रा	-2488
भनिन्छ	-2489
▁रूपले	-2490
▁प्रतिष्	-2491
यस	-2492
▁लक्ष	-2493
▁उपचार	-2494
▁बालबाल	-2495
▁महिनामा	-2496
पू	-2497
ष्म	-2498
श्चित	-2499
▁मूल्य	-2500
▁अनुसन्ध	-2501
सहरू	-2502
▁तेल	-2503
्योति	-2504
▁वायु	-2505
िमि	-2506
श्वर	-2507
▁लाभ	-2508
▁बाजा	-2509
▁कालमा	-2510
▁प्रतिनिधित्व	-2511
्टा	-2512
स्वरूप	-2513
▁कतिपय	-2514
▁राजेन्द्र	-2515
बले	-2516
्दा	-2517
ष्टा	-2518
वलम्बीको	-2519
गन	-2520
▁जमी	-2521
द्वार	-2522
▁लागू	-2523
▁उपजिल्ला	-2524
▁भे	-2525
▁रथ	-2526
नीको	-2527
▁फेरि	-2528
▁यस्तै	-2529
▁स्पष्ट	-2530
▁पश्चिमी	-2531
खी	-2532
▁रुख	-2533
▁मार्च	-2534
▁समाजमा	-2535
भुवन	-2536
▁नैं	-2537
▁प्रतिस्	-2538
▁जला	-2539
▁मण्ड	-2540
▁निस्क	-2541
▁पर्वत	-2542
▁राख्न	-2543
▁पवित्र	-2544
▁लगाउने	-2545
▁जोडिएको	-2546
▁तर्फबाट	-2547
वान्	-2548
▁रुप	-2549
▁भण्ड	-2550
▁ब्	-2551
कम्प	-2552
▁महत्व	-2553
▁सहरको	-2554
▁क्षमता	-2555
▁ताइवान	-2556
▁सब	-2557
▁उपाधि	-2558
▁मुद्रा	-2559
कारण	-2560
नन्द	-2561
▁बोलि	-2562
गाउँ	-2563
▁भोज	-2564
▁एउटै	-2565
▁काव्य	-2566
फि	-2567
दिन	-2568
▁मारि	-2569
▁रामा	-2570
प्रदाय	-2571
रामा	-2572
पुरमा	-2573
वमा	-2574
▁भव	-2575
द्योग	-2576
न्तरण	-2577
▁स्रोत	-2578
तका	-2579
नलाई	-2580
▁योग्य	-2581
▁सहरमा	-2582
▁स्वर्ण	-2583
▁केवल	-2584
▁माटो	-2585
युक्ति	-2586
▁सर्वा	-2587
▁सिद्ध	-2588
▁प्रदेशको	-2589
फो	-2590
उमा	-2591
ाको	-2592
त्रु	-2593
▁उत्क	-2594
राष्ट्रिय	-2595
दय	-2596
लय	-2597
▁तल	-2598
▁बिच	-2599
▁पराजित	-2600
▁सर्वोच्च	-2601
▁है	-2602
भूमि	-2603
प्रधान	-2604
▁गोत्र	-2605
▁शी	-2606
▁बिर	-2607
▁अप्रिल	-2608
▁जातिको	-2609
▁पुर्या	-2610
दिक	-2611
परी	-2612
ाका	-2613
▁कसै	-2614
ख्यात	-2615
स्ट्र	-2616
▁लक्ष्मी	-2617
▁अधिराज्य	-2618
▁पेट	-2619
▁निजी	-2620
िरहेको	-2621
▁पत्नी	-2622
▁प्रशि	-2623
विश्वास	-2624
▁राजनीति	-2625
नेट	-2626
रान	-2627
▁जनता	-2628
सियाली	-2629
▁पानीको	-2630
पथ	-2631
▁प्रचलन	-2632
▁प्रतिस्पर्	-2633
▁व्यवस्थापन	-2634
▁धर्मवलम्बीको	-2635
्पा	-2636
िकित्	-2637
▁जनवरी	-2638
न्त्रिक	-2639
चो	-2640
▁दान	-2641
▁खाना	-2642
▁शुद्ध	-2643
मक	-2644
नगर	-2645
लिङ	-2646
▁जति	-2647
▁सार	-2648
▁अभिलेख	-2649
न्धु	-2650
▁मैदान	-2651
▁रह्यो	-2652
फे	-2653
हम	-2654
▁कर्ता	-2655
▁सहायक	-2656
▁अन्न	-2657
▁तल्लो	-2658
हमा	-2659
अन्त	-2660
वेदन	-2661
▁कर्त	-2662
दक्षिण	-2663
▁पाण्डव	-2664
▁सक्छन्	-2665
▁एकै	-2666
▁परे	-2667
हरुको	-2668
्युनि	-2669
▁अतिर	-2670
▁तामा	-2671
▁हिसा	-2672
ब्दीको	-2673
▁अतिरिक्त	-2674
▁ार	-2675
पर्व	-2676
▁आवा	-2677
▁जीवनको	-2678
▁बेलायती	-2679
▁हुदै	-2680
ष्टिको	-2681
▁नदीमा	-2682
▁संवैधानिक	-2683
क्षे	-2684
▁चाड	-2685
▁बाग	-2686
▁रातो	-2687
▁शुरू	-2688
▁किल्ला	-2689
ल्याण्ड	-2690
▁निबन्ध	-2691
नो	-2692
▁आम	-2693
▁केहि	-2694
▁प्रो	-2695
▁बनाइ	-2696
▁देवीको	-2697
भारतीयराज्य	-2698
ंड	-2699
लिम	-2700
▁नम	-2701
▁जन्मि	-2702
▁लडाकु	-2703
▁हेर्दा	-2704
एस	-2705
रल	-2706
▁लागे	-2707
▁प्रसार	-2708
▁अर्थात्	-2709
▁अस्तित्व	-2710
▁कर्मचारी	-2711
▁गरिन्थ्यो	-2712
जुर	-2713
▁निकु	-2714
▁रक्त	-2715
▁फिर्ता	-2716
▁विद्यु	-2717
▁पाकिस्तान	-2718
वण	-2719
▁ण	-2720
अर्	-2721
▁मनोर	-2722
▁सकेको	-2723
संयुक्त	-2724
▁स्थिति	-2725
एन	-2726
ह्र	-2727
ाएर	-2728
▁री	-2729
▁ललित	-2730
▁र्	-2731
▁पछा	-2732
▁ब्र	-2733
▁मानिसको	-2734
▁नियुक्ति	-2735
इल	-2736
ेय	-2737
पुरका	-2738
▁पहिला	-2739
▁समुद्र	-2740
▁किसिमको	-2741
▁हुन्थ्यो	-2742
▁बर	-2743
▁सन	-2744
▁अभियान	-2745
▁प्रतियोगितामा	-2746
लग्न	-2747
▁दास	-2748
▁भक्ति	-2749
▁अध्याय	-2750
▁व्यवहार	-2751
दश	-2752
कला	-2753
▁मात	-2754
▁हिउँ	-2755
▁निर्म	-2756
▁पुस्तक	-2757
क्य	-2758
धमा	-2759
राण	-2760
▁भवि	-2761
क्षिक	-2762
▁मिला	-2763
स्थिति	-2764
▁पन्जाब	-2765
▁तापक्रम	-2766
ाई	-2767
▁नं	-2768
गोलिक	-2769
▁शाहको	-2770
ीनारायण	-2771
▁विद्रो	-2772
▁मन्त्रि	-2773
दम	-2774
मय	-2775
ँडे	-2776
तले	-2777
▁उम्म	-2778
▁शाही	-2779
▁संस्करण	-2780
सव	-2781
क्ल	-2782
शेष	-2783
▁सडक	-2784
मात्र	-2785
▁निम्ति	-2786
सू	-2787
वत्	-2788
▁विधा	-2789
▁विना	-2790
▁गर्दथे	-2791
चक	-2792
ाट	-2793
▁उनकी	-2794
▁अपराध	-2795
▁चिकित्	-2796
▁बहादुर	-2797
▁माथिल्लो	-2798
ाए	-2799
▁कसरी	-2800
▁पाउन	-2801
▁मुस्	-2802
व्यापी	-2803
▁मान्छे	-2804
न्यो	-2805
▁आरो	-2806
▁बेलामा	-2807
▁मुक्ति	-2808
तरण	-2809
भिजन	-2810
▁आएर	-2811
▁तराई	-2812
▁याता	-2813
▁दिन्छ	-2814
राइ	-2815
▁रज	-2816
▁सध	-2817
▁जाग	-2818
ष्णले	-2819
वलम्बी	-2820
साधारण	-2821
▁प्रकाशन	-2822
▁नियन्त्रणमा	-2823
▁जै	-2824
उँदा	-2825
▁मनु	-2826
▁विवाद	-2827
▁एकीकरण	-2828
▁बनाएका	-2829
▁इतिहासमा	-2830
▁राख्	-2831
▁प्रश्न	-2832
▁लासलाई	-2833
▁मुख्यतया	-2834
हारी	-2835
▁श्रम	-2836
▁आश्रम	-2837
▁हस्ता	-2838
▁शताब्दीको	-2839
▁धु	-2840
थमिक	-2841
रीमा	-2842
▁उसको	-2843
▁मार्	-2844
▁गान्ध	-2845
▁यिनले	-2846
▁उदय	-2847
▁जोड	-2848
भावना	-2849
▁उचाइ	-2850
▁विवरण	-2851
▁विभाजित	-2852
जसो	-2853
डान	-2854
षित	-2855
▁पाए	-2856
▁तपाई	-2857
▁वाणि	-2858
▁सूत्र	-2859
ब्रु	-2860
▁इस्लाम	-2861
▁बसोवास	-2862
▁वनस्पति	-2863
जमा	-2864
भरि	-2865
सुर	-2866
▁स्तन	-2867
▁विशेषता	-2868
थ्वीनारायण	-2869
▁अनुसन्धान	-2870
▁मन्त्रिपरि	-2871
चर	-2872
यल	-2873
जले	-2874
दमा	-2875
नित	-2876
▁लै	-2877
हरुका	-2878
▁लिएका	-2879
▁पश्चात्	-2880
रीय	-2881
ारो	-2882
▁बार	-2883
रू	-2884
ाल्	-2885
▁एव	-2886
्यू	-2887
▁तय	-2888
▁भारतका	-2889
टनगर	-2890
▁नभए	-2891
▁अर्थात	-2892
रत	-2893
द्या	-2894
▁गराए	-2895
▁नाटक	-2896
▁लगाएर	-2897
▁स्वयं	-2898
▁उपयुक्त	-2899
▁संस्कार	-2900
▁काग	-2901
▁फर्क	-2902
▁राजाले	-2903
टल	-2904
हल	-2905
▁खस	-2906
▁खि	-2907
▁गत	-2908
सम्ब	-2909
▁काट	-2910
▁आफूलाई	-2911
▁गर्नको	-2912
▁आप	-2913
▁चर	-2914
▁बद	-2915
▁शं	-2916
▁तत्व	-2917
▁अग्लो	-2918
▁बुद्धि	-2919
▁नामाकरण	-2920
▁विमानस्थल	-2921
▁सम्बन्धमा	-2922
द्वा	-2923
कुमारी	-2924
▁अनुमति	-2925
▁पर्दछन्	-2926
▁डिसेम्बर	-2927
▁दुइ	-2928
▁सहज	-2929
▁खुला	-2930
पूर्वक	-2931
▁किराँ	-2932
▁प्रान्त	-2933
▁काङ्ग्रे	-2934
हुन्	-2935
▁कहि	-2936
▁रगत	-2937
ँमा	-2938
▁टुक	-2939
्याङ्क	-2940
▁गराउने	-2941
▁प्रदेशमा	-2942
▁कर्ताहरूका	-2943
कोशी	-2944
र्जन	-2945
▁बर्	-2946
▁रमा	-2947
▁भोजन	-2948
▁लेखा	-2949
▁कर्तव्य	-2950
▁सेनापति	-2951
बुट	-2952
यान	-2953
शास	-2954
▁तै	-2955
ण्डकी	-2956
ुङ्गा	-2957
▁खर्च	-2958
▁धारण	-2959
▁शाखा	-2960
▁प्रजन	-2961
▁उत्पत्ति	-2962
कलन	-2963
ोडा	-2964
▁ली	-2965
▁भुट	-2966
▁रात	-2967
▁उसले	-2968
▁परिषद	-2969
▁परेका	-2970
▁सल्लाह	-2971
▁शाहले	-2972
▁मुद्दा	-2973
▁वाणिज्य	-2974
▁आई	-2975
िकार	-2976
▁बरा	-2977
वस्तु	-2978
▁जमिन	-2979
▁बिहान	-2980
▁उत्तरा	-2981
सरमा	-2982
होस्	-2983
▁सचिव	-2984
▁शर्मा	-2985
▁देशहरूमा	-2986
न्धि	-2987
▁सम्व	-2988
▁उम्मेद	-2989
धर्म	-2990
▁पाइ	-2991
किएको	-2992
▁अग्र	-2993
▁माता	-2994
▁वैशाख	-2995
▁प्रचलित	-2996
▁प्रख्यात	-2997
▁क्षेत्रीय	-2998
खर	-2999
सला	-3000
▁आयु	-3001
▁पित	-3002
न्तरिक	-3003
▁जुलाई	-3004
▁सङ्केत	-3005
▁सम्पदा	-3006
▁निर्वाचनमा	-3007
सत	-3008
▁आग	-3009
बन्द	-3010
▁अड्	-3011
▁विष्ट	-3012
▁थाल्यो	-3013
▁भविष्य	-3014
▁प्रभावित	-3015
▁सम्पत्ति	-3016
ङमा	-3017
▁सजा	-3018
▁प्रव	-3019
▁क्षति	-3020
▁मार्फत	-3021
▁निर्धारण	-3022
▁प्रतिस्पर्धा	-3023
र्जना	-3024
▁गोली	-3025
▁विशि	-3026
द्योगिक	-3027
▁त्यसमा	-3028
▁संलग्न	-3029
▁प्राथमिक	-3030
कीय	-3031
गति	-3032
नीय	-3033
▁गै	-3034
कारा	-3035
▁कल्	-3036
▁जनजा	-3037
▁पार्टीको	-3038
ाउँछ	-3039
▁लाल	-3040
▁चक्र	-3041
▁चर्चित	-3042
▁शैक्षिक	-3043
▁कम्प्युट	-3044
▁उपत्यकाको	-3045
खल	-3046
शल	-3047
ुरे	-3048
▁कोष	-3049
धिकारी	-3050
▁बाँकी	-3051
▁शताब्दीमा	-3052
पक्ष	-3053
याको	-3054
ोषित	-3055
▁अत्या	-3056
र्ज	-3057
▁फाइ	-3058
▁अभाव	-3059
▁फिल्	-3060
▁सामु	-3061
▁टाउको	-3062
ुला	-3063
▁तप	-3064
प्टे	-3065
▁साइ	-3066
▁जाडो	-3067
▁लगाउन	-3068
▁परिषद्	-3069
▁जग्	-3070
▁जहा	-3071
▁नाश	-3072
पुत्र	-3073
शुराम	-3074
▁भएपनि	-3075
वत	-3076
भियत	-3077
नागरी	-3078
▁नहुने	-3079
▁भगवती	-3080
▁हेर्न	-3081
▁वर्षमा	-3082
▁किसिमका	-3083
▁चेत	-3084
▁भावना	-3085
▁वितरण	-3086
ीहरू	-3087
▁हेर	-3088
▁काली	-3089
▁निकट	-3090
▁होस्	-3091
▁आन्तरिक	-3092
मन्त्रीको	-3093
▁प्रारम्भिक	-3094
▁आस	-3095
▁चे	-3096
स्को	-3097
▁अरब	-3098
▁खड्	-3099
▁बिक	-3100
▁ज्योति	-3101
▁रेडियो	-3102
▁जिल्लाहरू	-3103
मला	-3104
यता	-3105
सके	-3106
▁गएका	-3107
▁महार	-3108
▁साधन	-3109
▁युधिष्	-3110
▁प्रजाति	-3111
▁राजकुमार	-3112
लम्प	-3113
▁प्या	-3114
▁गाभिएका	-3115
▁गई	-3116
लोकन	-3117
▁फुटब	-3118
▁परिचित	-3119
▁विश्वको	-3120
▁युरोपेली	-3121
भी	-3122
ूर	-3123
▁असर	-3124
▁जनताको	-3125
▁प्रदर्शन	-3126
णाम	-3127
▁सश	-3128
र्पा	-3129
▁मगर	-3130
▁प्रस	-3131
▁भन्न	-3132
▁सर्प	-3133
प्रकाश	-3134
▁कान्छ	-3135
▁पाँडे	-3136
▁हिमाली	-3137
▁प्रशासन	-3138
▁गणतन्त्र	-3139
▁व्याख्या	-3140
लका	-3141
स्म	-3142
स्टा	-3143
▁सहि	-3144
उत्तर	-3145
▁नियमित	-3146
▁पंक्षी	-3147
▁सिक्किम	-3148
▁पूर्णिमा	-3149
ियम	-3150
रित्र	-3151
▁हिस्	-3152
ष्टिले	-3153
▁उदाहरण	-3154
▁हतियार	-3155
▁एम	-3156
न्डो	-3157
▁रकम	-3158
▁शुभ	-3159
त्वको	-3160
ब्रुअ	-3161
▁पाएका	-3162
▁बिहार	-3163
▁मिलेर	-3164
▁सूच	-3165
ेलिया	-3166
▁अफ्र	-3167
▁राधा	-3168
▁जित्न	-3169
▁शत्रु	-3170
▁सर्वाधिक	-3171
चु	-3172
खेल	-3173
ङ्गी	-3174
▁असार	-3175
▁दाजु	-3176
▁मेरो	-3177
▁पहिचान	-3178
▁पत्रकार	-3179
▁राज्यमा	-3180
▁स्वीकार	-3181
▁सम्भावना	-3182
▁बङ्गलादेशको	-3183
▁आह	-3184
▁बसे	-3185
▁साध	-3186
्चायत	-3187
▁अनुभव	-3188
▁सम्भव	-3189
▁मध्येको	-3190
ईमा	-3191
पचार	-3192
▁यथा	-3193
▁प्रतिक	-3194
▁राख्नु	-3195
▁एसियाली	-3196
द्वी	-3197
ारको	-3198
दन्ती	-3199
▁स्या	-3200
▁तिनको	-3201
▁यसबाट	-3202
▁सिकार	-3203
▁मानसिक	-3204
▁वरिपरि	-3205
जक	-3206
सुन	-3207
र्ती	-3208
▁लिए	-3209
▁दिशा	-3210
▁प्रेम	-3211
▁पाकिस्तानको	-3212
नर	-3213
शन	-3214
▁भरि	-3215
▁कार्या	-3216
▁सिर्जना	-3217
▁मानिसहरूले	-3218
त्क	-3219
फ्ट	-3220
कोटा	-3221
ङ्गो	-3222
▁राई	-3223
▁पोखरा	-3224
▁गर्दछन	-3225
▁वास्तविक	-3226
िनय	-3227
▁खुट	-3228
▁शुक	-3229
िरहेका	-3230
▁स्नान	-3231
▁रामायण	-3232
▁तिब्बती	-3233
राष्ट्रपति	-3234
▁क्षेत्रफल	-3235
डु	-3236
ट्टा	-3237
बारे	-3238
▁शरण	-3239
भारतका	-3240
▁कसैले	-3241
लक्ष्मी	-3242
▁पश्चात	-3243
▁मनाउने	-3244
क्ट	-3245
शिव	-3246
जनको	-3247
िकरण	-3248
▁छिम	-3249
▁आकाश	-3250
▁एवम्	-3251
▁दिएर	-3252
▁बिना	-3253
यात्रा	-3254
▁दैनिक	-3255
▁दुर	-3256
▁शोक	-3257
▁ग्या	-3258
सम्मको	-3259
▁जग्गा	-3260
▁विभागको	-3261
▁अंग	-3262
र्षिक	-3263
▁उपभो	-3264
▁चर्चा	-3265
▁पर्या	-3266
▁पार्न	-3267
▁भन्दै	-3268
▁पानीमा	-3269
▁शासनको	-3270
▁मुस्लिम	-3271
▁उनीहरूलाई	-3272
▁सम्प्रदाय	-3273
रुप	-3274
रीको	-3275
▁जेल	-3276
▁बजा	-3277
▁बास	-3278
मानको	-3279
म्शेर	-3280
▁लिनु	-3281
▁अक्टो	-3282
▁सन्दर्भ	-3283
रै	-3284
याम	-3285
लले	-3286
▁म्	-3287
छिन्	-3288
ल्यै	-3289
कारको	-3290
ङ्खला	-3291
धारणा	-3292
▁आदिको	-3293
▁गङ्गा	-3294
▁सामान	-3295
ष्टिकोण	-3296
तान्त्रिक	-3297
▁शक्तिशाली	-3298
▁क्रान्तिको	-3299
थर	-3300
▁सल	-3301
सीको	-3302
▁गुफा	-3303
▁किसान	-3304
▁जातीय	-3305
▁दिनको	-3306
▁भूकम्प	-3307
▁फेब्रुअ	-3308
ब्ल	-3309
▁्व	-3310
▁समेट	-3311
▁पुनर्	-3312
▁साथमा	-3313
▁सेप्टे	-3314
▁हिन्दी	-3315
▁किनारमा	-3316
▁व्यक्तिगत	-3317
ात	-3318
▁यू	-3319
लागि	-3320
स्मा	-3321
▁शिला	-3322
▁विशिष्ट	-3323
क्ष्म	-3324
▁जनगण	-3325
▁ब्रा	-3326
▁सफलता	-3327
▁मल्लले	-3328
मेल	-3329
▁जात	-3330
▁ध्व	-3331
▁अवसर	-3332
▁दलको	-3333
▁बलियो	-3334
▁वैदिक	-3335
▁जातिमा	-3336
▁लक्ष्य	-3337
▁शरीरको	-3338
खाल	-3339
न्ता	-3340
▁कमा	-3341
▁ग्रा	-3342
▁चन्द	-3343
▁गोर्खा	-3344
▁कम्युनि	-3345
▁जसमध्ये	-3346
▁परशुराम	-3347
गमा	-3348
ारण	-3349
▁आगो	-3350
▁एको	-3351
▁दुर्यो	-3352
▁सङ्कलन	-3353
ियो	-3354
कर्ण	-3355
▁आफु	-3356
▁गणेश	-3357
▁गर्थे	-3358
▁बङ्गाल	-3359
▁उपस्थित	-3360
▁नेपालले	-3361
▁साहित्यिक	-3362
न्सर	-3363
वराज	-3364
वर्ण	-3365
▁किम	-3366
▁बेल	-3367
▁गाविस	-3368
▁लिएको	-3369
▁शरीरमा	-3370
्चोक	-3371
▁बोला	-3372
वानपुर	-3373
▁चितवन	-3374
▁दुर्ग	-3375
▁राखेर	-3376
▁प्रतीक	-3377
▁विश्ले	-3378
▁शासनका	-3379
▁ब्रिटिस	-3380
▁बालबालिका	-3381
▁दसैँ	-3382
▁डाँडा	-3383
▁उपन्या	-3384
▁देवकोटा	-3385
पाण्ड	-3386
▁पुग्यो	-3387
▁निश्चित	-3388
▁मानिएको	-3389
जोर	-3390
रले	-3391
कामा	-3392
▁गाई	-3393
▁जरा	-3394
ाउँछन्	-3395
▁प्रेर	-3396
▁लिखित	-3397
▁पुराना	-3398
प्रधानमन्त्री	-3399
र्जि	-3400
▁क्य	-3401
▁खुवा	-3402
▁गणना	-3403
▁रत्न	-3404
पचारिक	-3405
▁छुट्टै	-3406
▁यातायात	-3407
▁संस्थापक	-3408
▁उम्मेदवार	-3409
खन	-3410
णु	-3411
ापा	-3412
▁अं	-3413
न्ना	-3414
▁गहि	-3415
▁बित	-3416
▁हित	-3417
▁पर्यटन	-3418
▁गर्नाले	-3419
▁परीक्षा	-3420
रिक	-3421
▁इन	-3422
▁ाई	-3423
▁वैज्	-3424
▁फर्कि	-3425
▁समग्र	-3426
▁कार्यमा	-3427
क्न	-3428
िको	-3429
टेको	-3430
र्वती	-3431
हरुले	-3432
▁इलाका	-3433
▁निर्मित	-3434
▁भइरहेको	-3435
▁क्याम्पस	-3436
▁ये	-3437
▁द्र	-3438
▁बस्न	-3439
▁शीर्ष	-3440
▁स्मार	-3441
▁जर्मनी	-3442
▁वेबसाइ	-3443
▁चाल	-3444
▁मद्द	-3445
▁हस्त	-3446
व्यवस्था	-3447
▁अवधारणा	-3448
▁तुलनामा	-3449
▁प्रजातिका	-3450
▁कतै	-3451
▁जवा	-3452
िकामा	-3453
▁आर्य	-3454
▁सिमाना	-3455
▁क्षेत्रहरूमा	-3456
उप	-3457
सै	-3458
ेछा	-3459
▁दूध	-3460
पूर्ति	-3461
ब्ल्यु	-3462
▁त्याग	-3463
▁प्रकट	-3464
▁चरित्र	-3465
▁सक्नेछ	-3466
▁समाचार	-3467
▁पुस्तकाल	-3468
्जन	-3469
▁कय	-3470
▁्न	-3471
जारी	-3472
सँगको	-3473
संस्क	-3474
▁धारणा	-3475
▁वास्तवमा	-3476
▁राजनीतिमा	-3477
निज	-3478
▁नजिकै	-3479
▁विरोध	-3480
अन्तर्गत	-3481
▁वर्षसम्म	-3482
▁अमेरिकाको	-3483
▁उपत्यकामा	-3484
न्च	-3485
षधि	-3486
प्ता	-3487
▁काँ	-3488
▁दाय	-3489
▁प्रथा	-3490
▁प्रभु	-3491
▁बसेका	-3492
▁बाध्य	-3493
नेपालमा	-3494
▁हिमालय	-3495
▁हालसम्म	-3496
▁कार्यान्व	-3497
▁असो	-3498
▁लोप	-3499
▁सफा	-3500
▁हाइ	-3501
▁धातु	-3502
▁बाँध	-3503
▁बहिनी	-3504
▁कोरिया	-3505
▁छिमेकी	-3506
▁विकासको	-3507
▁सेनालाई	-3508
▁रङ्गशाला	-3509
▁क्षेत्रहरू	-3510
▁साम्राज्यको	-3511
पार	-3512
▁मर्	-3513
▁हिम	-3514
मित्र	-3515
▁आउँछ	-3516
▁उसलाई	-3517
▁टेलिभिजन	-3518
जिद	-3519
ब्र	-3520
भार	-3521
न्दु	-3522
▁वित्त	-3523
▁टुक्रा	-3524
▁स्थायी	-3525
▁गरिरहेका	-3526
▁त्यसबेला	-3527
▁स्थानहरूमा	-3528
जंग	-3529
र्पण	-3530
▁धान	-3531
▁चारै	-3532
न्द्रा	-3533
▁बसेको	-3534
▁लगानी	-3535
▁लिइन्छ	-3536
▁एस	-3537
पुरी	-3538
बाहेक	-3539
▁परिक	-3540
▁भएकी	-3541
▁लगाए	-3542
▁नेवार	-3543
▁विधान	-3544
▁अङ्ग्रेज	-3545
णत	-3546
भूत	-3547
माले	-3548
पोखरी	-3549
▁जनरल	-3550
▁शैली	-3551
▁पत्ता	-3552
▁परिणाम	-3553
▁सम्मेल	-3554
▁सेनामा	-3555
▁भक्तपुर	-3556
▁सुरक्षित	-3557
कले	-3558
थिए	-3559
▁भेद	-3560
▁भोग	-3561
ण्डित	-3562
▁दिइयो	-3563
▁बन्यो	-3564
▁पक्षमा	-3565
▁प्रजनन	-3566
▁भगवान्	-3567
▁व्यासलाई	-3568
दण्ड	-3569
बङ्ग	-3570
र्वा	-3571
ध्यक्ष	-3572
नात्मक	-3573
▁तापनि	-3574
▁ब्रह्म	-3575
▁समितिको	-3576
▁विश्वयुद्ध	-3577
▁मस्	-3578
▁कम्त	-3579
▁चिसो	-3580
▁अर्का	-3581
▁मतदान	-3582
▁पशुपति	-3583
▁हिस्सा	-3584
▁मल	-3585
▁टोल	-3586
▁भ्र	-3587
कुण्ड	-3588
▁धर्मावलम्बी	-3589
उछ	-3590
र्षि	-3591
लम्पिक	-3592
गरपालिका	-3593
▁राष्ट्रपतिको	-3594
लर	-3595
ल्क	-3596
्ला	-3597
डीको	-3598
▁आदी	-3599
▁रोक	-3600
पर्दछ	-3601
राणिक	-3602
▁रोजग	-3603
▁लाग्	-3604
▁विसं	-3605
▁हजुर	-3606
▁व्याव	-3607
▁राज्यका	-3608
▁कार्यकारी	-3609
हत	-3610
रना	-3611
अमेर	-3612
कर्म	-3613
गन्ज	-3614
▁जसो	-3615
▁फलफ	-3616
▁अपना	-3617
▁दियो	-3618
▁नोभे	-3619
▁पाएको	-3620
▁अक्टोबर	-3621
▁अदालतको	-3622
▁ँ	-3623
मिला	-3624
र्वेद	-3625
▁गरिन्	-3626
▁भाषाहरू	-3627
▁मुख्यतवेद	-3628
ूट	-3629
काई	-3630
हको	-3631
धारी	-3632
सन्त	-3633
▁जगत	-3634
▁दिइ	-3635
▁खेल्	-3636
▁भनाइ	-3637
न्दर्य	-3638
▁महिलाको	-3639
▁वार्षिक	-3640
▁श्राद्ध	-3641
हाइ	-3642
गरमा	-3643
▁मकै	-3644
प्रथम	-3645
▁गोपाल	-3646
▁संसदीय	-3647
▁कहिल्यै	-3648
▁मनाइन्छ	-3649
▁उपनिषदहरूको	-3650
व्र	-3651
ल्याण	-3652
ालीको	-3653
▁भएता	-3654
▁राखी	-3655
▁क्रमश	-3656
▁तत्कालिन	-3657
वर्ष	-3658
ुंगा	-3659
▁आधा	-3660
िल्लो	-3661
▁अस्व	-3662
▁निको	-3663
▁गराउन	-3664
▁उहाँले	-3665
▁माध्यमिक	-3666
▁क्षेत्रलाई	-3667
डको	-3668
▁मज	-3669
▁वी	-3670
दरबार	-3671
वार्य	-3672
▁काजी	-3673
▁शब्दको	-3674
▁अनिवार्य	-3675
▁कम्प्युटर	-3676
▁व्यक्तिको	-3677
▁व्यक्तिले	-3678
▁साहित्यमा	-3679
ुनी	-3680
▁आय	-3681
▁रस	-3682
खाना	-3683
दुर्	-3684
▁राय	-3685
▁अड्डा	-3686
▁भर्ना	-3687
▁कीर्ति	-3688
▁भट्टराई	-3689
▁साहित्यको	-3690
भाइ	-3691
सरी	-3692
▁ान	-3693
क्रो	-3694
हिता	-3695
▁उपाय	-3696
▁गायक	-3697
▁बहुमत	-3698
वधि	-3699
▁छु	-3700
▁रेक	-3701
▁असफल	-3702
▁पार्ने	-3703
▁विरुवा	-3704
▁स्वामी	-3705
▁च्याम्प	-3706
▁व्यापारिक	-3707
▁गर्नुपर्ने	-3708
सिन्दा	-3709
▁गर्छन	-3710
▁नम्बर	-3711
▁समर्थन	-3712
▁सम्मको	-3713
▁मिश्रको	-3714
▁अत्यन्तै	-3715
टिन	-3716
▁वं	-3717
योजना	-3718
▁बालक	-3719
▁बिता	-3720
▁विकि	-3721
▁सँगै	-3722
न्नाले	-3723
▁परिणत	-3724
▁देखिने	-3725
▁पुगेका	-3726
▁मस्जिद	-3727
▁लेख्ने	-3728
▁समाजको	-3729
▁सहरहरू	-3730
▁पहिलोपटक	-3731
▁माध्यमबाट	-3732
थु	-3733
दको	-3734
विर	-3735
िन्	-3736
जीले	-3737
ल्का	-3738
▁खेत	-3739
▁अन्ध	-3740
लगायतका	-3741
▁भक्तजन	-3742
▁मानिने	-3743
▁सार्वभ	-3744
▁त्रिभुवन	-3745
डित	-3746
साम	-3747
सिन	-3748
सेली	-3749
▁यहा	-3750
▁कपाल	-3751
▁दिवस	-3752
▁पिण्ड	-3753
▁स्तरमा	-3754
गाविसहरू	-3755
▁फुटबलको	-3756
▁यि	-3757
सेना	-3758
न्द्व	-3759
▁बोल्	-3760
शालामा	-3761
▁गरेमा	-3762
▁गाउँमा	-3763
▁सेप्टेम्बर	-3764
ियर	-3765
कुटा	-3766
थ्वीको	-3767
▁छैनन्	-3768
स्थापना	-3769
▁पाल्पा	-3770
छु	-3771
मर	-3772
▁षड	-3773
भूति	-3774
वंशी	-3775
▁भाष	-3776
▁सिख	-3777
क्षमा	-3778
▁अभिम	-3779
▁राजी	-3780
ेश्वरी	-3781
▁शुक्र	-3782
सम्बन्धी	-3783
▁महाभारत	-3784
वाई	-3785
▁पालन	-3786
▁मासु	-3787
▁अनुवाद	-3788
▁सहायता	-3789
▁हिसाबले	-3790
नेका	-3791
▁आइपु	-3792
▁उचित	-3793
ष्णलाई	-3794
हिन्दू	-3795
▁आदर्श	-3796
▁कार्यहरू	-3797
मूल	-3798
ँदैन	-3799
▁गोरख	-3800
▁बसेर	-3801
▁सजिलै	-3802
▁गीतहरू	-3803
▁्छ	-3804
निको	-3805
▁गाँ	-3806
▁जमा	-3807
न्ध्र	-3808
मण्डल	-3809
ष्णको	-3810
▁द्रो	-3811
▁बसाइ	-3812
▁गर्मी	-3813
▁राखेको	-3814
जीको	-3815
▁नजी	-3816
▁न्छ	-3817
▁लिई	-3818
▁माया	-3819
▁अभिनय	-3820
▁खेल्ने	-3821
▁भण्डार	-3822
▁स्वस्थ	-3823
▁सम्पादन	-3824
▁तट	-3825
र्की	-3826
लिपि	-3827
्राट	-3828
जन्तु	-3829
▁आनन्द	-3830
▁देशका	-3831
▁राजवंश	-3832
▁बङ्गाली	-3833
▁आन्दोलनमा	-3834
ंको	-3835
ण्य	-3836
राग	-3837
▁भय	-3838
▁मर	-3839
क्षम	-3840
माको	-3841
ुङ्ग	-3842
▁उपम	-3843
▁थोर	-3844
▁यति	-3845
▁सिफ	-3846
▁क्रि	-3847
▁बन्ध	-3848
▁थापाले	-3849
▁प्रचार	-3850
▁मान्ने	-3851
▁रामेछा	-3852
▁विरोधी	-3853
रिय	-3854
ेरा	-3855
ट्टी	-3856
▁चुन	-3857
मानित	-3858
▁बाली	-3859
▁लक्षण	-3860
▁सामेल	-3861
▁खुट्टा	-3862
▁थालेको	-3863
▁पाईन्छ	-3864
▁सोभियत	-3865
▁आन्दोलनको	-3866
▁शासनकालमा	-3867
▁प्रभावकारी	-3868
लुङ	-3869
ग्रा	-3870
धनको	-3871
स्तर	-3872
▁साह	-3873
▁निस्	-3874
▁यिनै	-3875
▁लागु	-3876
▁भइसकेको	-3877
▁संस्थान	-3878
▁हस्ताक्षर	-3879
लभ	-3880
हं	-3881
िरो	-3882
विज्	-3883
ूहिक	-3884
▁खरा	-3885
▁माल	-3886
▁कप्त	-3887
▁नगरी	-3888
ुवाकोट	-3889
▁किनभने	-3890
▁खण्डमा	-3891
▁मनुष्य	-3892
▁सामूहिक	-3893
लम	-3894
हण	-3895
जुङ	-3896
द्म	-3897
मुखी	-3898
▁पाप	-3899
▁तिमी	-3900
▁थोरै	-3901
▁इत्या	-3902
▁हालको	-3903
▁समुन्द्र	-3904
एल	-3905
ग्व	-3906
ध्व	-3907
▁अत	-3908
उत्त	-3909
नबाट	-3910
▁आउन	-3911
▁चोक	-3912
▁कोही	-3913
▁गर्भ	-3914
▁बिरा	-3915
नारायण	-3916
▁आरम्भ	-3917
▁विद्व	-3918
नुहुन्छ	-3919
▁अवलोकन	-3920
▁शासकीय	-3921
▁संख्यामा	-3922
▁व्यक्तिलाई	-3923
षध	-3924
सेर	-3925
▁शो	-3926
लम्ब	-3927
▁एक्	-3928
▁कमी	-3929
▁छोड	-3930
▁पैसा	-3931
▁हमला	-3932
▁स्वीक	-3933
्चालनमा	-3934
▁निर्देशक	-3935
▁फेब्रुअरी	-3936
▁प्रजातन्त्र	-3937
व्	-3938
ँगा	-3939
एकी	-3940
िकल	-3941
▁ाल	-3942
▁सामना	-3943
▁तपस्या	-3944
▁पण्डित	-3945
▁समाधान	-3946
▁सिफारि	-3947
कारात्मक	-3948
▁त्यतिबेला	-3949
▁सर्वसाधारण	-3950
▁प्रतियोगिताको	-3951
▁प्रधानमन्त्रीको	-3952
एम	-3953
जल	-3954
परा	-3955
ुका	-3956
ोषण	-3957
ियार	-3958
▁दशक	-3959
▁ब्लग	-3960
▁मोती	-3961
▁साथी	-3962
▁स्वर	-3963
▁अन्तत	-3964
▁लिच्छ	-3965
गरि	-3966
बना	-3967
▁नज	-3968
▁पच	-3969
▁मेल	-3970
▁रहि	-3971
▁पद्ध	-3972
▁पर्न	-3973
▁राखे	-3974
▁भित्री	-3975
▁कहिलेका	-3976
▁अर्थशास्त्र	-3977
खोला	-3978
जङ्ग	-3979
डीमा	-3980
नीति	-3981
श्मी	-3982
्रमा	-3983
▁शपथ	-3984
ब्रह्	-3985
▁छोटो	-3986
▁मङ्ग	-3987
▁सुना	-3988
निर्माण	-3989
▁गर्नेछ	-3990
▁योद्धा	-3991
▁प्रशस्त	-3992
▁विश्वका	-3993
▁तथ्याङ्क	-3994
▁विराटनगर	-3995
▁मन्त्रालयको	-3996
धर	-3997
पात	-3998
ेशन	-3999
▁त्	-4000
▁जबकि	-4001
▁सिका	-4002
तराष्ट्र	-4003
▁मानिसले	-4004
▁क्यान्सर	-4005
ितीय	-4006
▁जोग	-4007
▁शीत	-4008
▁श्व	-4009
▁किता	-4010
▁नष्ट	-4011
▁बनार	-4012
▁रहेर	-4013
▁अभ्या	-4014
▁काण्ड	-4015
▁राजदू	-4016
▁सरस्व	-4017
▁हिंसा	-4018
▁श्रव्य	-4019
▁स्नातक	-4020
▁राखिन्छ	-4021
जीव	-4022
डेल	-4023
लिन	-4024
▁धर	-4025
नामक	-4026
▁पुल	-4027
लिङ्ग	-4028
▁समर्	-4029
▁इन्टर	-4030
▁बीचको	-4031
▁विश्वमा	-4032
चिन	-4033
साल	-4034
▁यम	-4035
▁चतु	-4036
▁निज	-4037
▁आवाज	-4038
▁तिथि	-4039
▁नभएर	-4040
▁संकट	-4041
▁खेलको	-4042
▁समक्ष	-4043
▁भाषाका	-4044
खमा	-4045
ताप	-4046
रोध	-4047
▁छै	-4048
▁हल	-4049
तिले	-4050
पुरा	-4051
ाएका	-4052
▁कडा	-4053
▁मोह	-4054
▁सीम	-4055
▁ेको	-4056
ध्याय	-4057
▁अधीन	-4058
▁उपकरण	-4059
▁प्राण	-4060
▁फाइदा	-4061
▁शेर्पा	-4062
▁समयसम्म	-4063
▁प्रस्तुति	-4064
इस	-4065
चय	-4066
कका	-4067
ङले	-4068
दूर	-4069
▁इट	-4070
▁जम	-4071
▁सेन	-4072
▁देखी	-4073
पूर्वी	-4074
▁द्वार	-4075
▁सम्हा	-4076
▁किराँत	-4077
▁पर्वमा	-4078
▁बनाउनु	-4079
▁युवराज	-4080
▁निर्देशन	-4081
▁राष्ट्रको	-4082
ाने	-4083
सुकै	-4084
िरको	-4085
▁चाँ	-4086
जस्तै	-4087
▁जसका	-4088
▁पुजा	-4089
▁चलेको	-4090
▁दर्जा	-4091
▁पारेको	-4092
▁पुग्ने	-4093
▁अत्यधिक	-4094
▁व्यवस्थाप	-4095
▁विश्वव्यापी	-4096
एमा	-4097
सचिव	-4098
▁सोम	-4099
वादको	-4100
▁दलित	-4101
▁धनुष	-4102
▁वन्य	-4103
▁गरिरह	-4104
▁लम्बा	-4105
▁सजिलो	-4106
▁कान्ति	-4107
▁बोल्ने	-4108
हरूमध्ये	-4109
▁वर्गीकरण	-4110
▁शिक्षाको	-4111
शे	-4112
▁पछ	-4113
▁िक	-4114
▁केश	-4115
▁दुध	-4116
▁नमो	-4117
▁्या	-4118
▁मद्दत	-4119
▁सभामा	-4120
▁गराएका	-4121
▁धर्ममा	-4122
▁शिक्षण	-4123
▁प्रसारण	-4124
▁नोभेम्बर	-4125
स्ट्रेलिया	-4126
▁ं	-4127
कथा	-4128
बको	-4129
▁गी	-4130
पल्ट	-4131
सङ्ग	-4132
्याङ	-4133
▁दमन	-4134
▁बुध	-4135
नेसिया	-4136
▁कन्या	-4137
▁समयको	-4138
▁सभापति	-4139
▁नुवाकोट	-4140
▁विद्रोह	-4141
▁बासिन्दा	-4142
▁गर्नुपर्छ	-4143
गको	-4144
हीन	-4145
▁श्	-4146
स्टर	-4147
सलमान	-4148
स्तान	-4149
▁काशी	-4150
▁टापु	-4151
▁शुक्ल	-4152
▁त्यसका	-4153
▁सेवाको	-4154
▁हाम्रा	-4155
▁व्यक्तिहरू	-4156
मले	-4157
स्की	-4158
▁मुगल	-4159
▁लेखन	-4160
▁राजनै	-4161
▁लाग्छ	-4162
▁लेखेका	-4163
▁विकासका	-4164
वट	-4165
चुर	-4166
जात	-4167
हरि	-4168
▁पट	-4169
स्ने	-4170
▁धनी	-4171
▁रही	-4172
▁दक्ष	-4173
▁बजेट	-4174
▁अनुरो	-4175
▁जापान	-4176
▁स्कूल	-4177
▁स्थिर	-4178
▁मनाइने	-4179
▁फ्रान्स	-4180
▁श्रीलङ्	-4181
▁कार्यकाल	-4182
ोको	-4183
▁अश	-4184
म्ला	-4185
्ररी	-4186
नालाई	-4187
▁असोज	-4188
▁प्रगति	-4189
▁प्रहार	-4190
▁गाविसमा	-4191
▁बङ्गालको	-4192
ये	-4193
लाग	-4194
ल्स	-4195
ाएको	-4196
सायिक	-4197
▁इसाई	-4198
▁खोजी	-4199
▁जसरी	-4200
▁जाँच	-4201
▁वनमा	-4202
▁कल्याण	-4203
▁सिन्धु	-4204
▁कम्पनीको	-4205
▁च्याम्पियन	-4206
दव	-4207
्स	-4208
▁वध	-4209
मुना	-4210
▁पति	-4211
▁सागर	-4212
▁भारदार	-4213
▁आकर्षित	-4214
हरूद्वारा	-4215
▁चिकित्सा	-4216
▁त्यसैगरी	-4217
बन	-4218
पास	-4219
क्सी	-4220
▁पतन	-4221
▁पहे	-4222
▁बडा	-4223
ारामा	-4224
▁उनकै	-4225
▁कैला	-4226
▁तथ्य	-4227
▁लगाई	-4228
▁वंशा	-4229
देवीको	-4230
▁आफूले	-4231
▁खाद्य	-4232
▁विविधता	-4233
▁सरकारका	-4234
ेज	-4235
डमा	-4236
बर्	-4237
मका	-4238
ैयाँ	-4239
▁पुत	-4240
▁जानु	-4241
▁बुबा	-4242
▁नामको	-4243
▁जन्मेका	-4244
▁सूर्यको	-4245
▁अभिमन्यु	-4246
▁केन्द्रित	-4247
ँजी	-4248
त्सा	-4249
पाती	-4250
र्चा	-4251
सागर	-4252
▁्ने	-4253
कविता	-4254
▁तारा	-4255
▁वहाँ	-4256
▁विजे	-4257
▁जाँदा	-4258
▁सबैको	-4259
▁छुट्या	-4260
▁थिएनन्	-4261
▁पाण्डे	-4262
▁स्वभाव	-4263
▁ब्यक्ति	-4264
ल्ड	-4265
सक्	-4266
नेता	-4267
▁कन्	-4268
▁मुटु	-4269
▁लागी	-4270
▁आमाको	-4271
▁चिन्त	-4272
▁लडाइँ	-4273
▁गाड्ने	-4274
▁पत्रिका	-4275
▁सदस्यको	-4276
▁परियोजना	-4277
▁कार्यान्वयन	-4278
दानी	-4279
वाला	-4280
्याल	-4281
▁तेज	-4282
▁दोष	-4283
काण्ड	-4284
योग्य	-4285
▁अङ्क	-4286
▁पुरै	-4287
▁गरिदि	-4288
▁फैसला	-4289
▁बराबर	-4290
▁वर्षे	-4291
▁बजारमा	-4292
▁ल्याएको	-4293
▁सशस्त्र	-4294
▁राजनैतिक	-4295
ङका	-4296
जनक	-4297
सिं	-4298
▁खै	-4299
इएका	-4300
प्रे	-4301
बजार	-4302
रिजा	-4303
लामी	-4304
▁पका	-4305
▁फिफा	-4306
यन्त्र	-4307
▁जङ्गल	-4308
▁तयारी	-4309
▁दरवार	-4310
▁त्यसरी	-4311
▁निर्मा	-4312
▁महाराज	-4313
▁कार्यरत	-4314
▁पुस्तकालय	-4315
▁महत्वपूर्ण	-4316
▁प्रयोगकर्ता	-4317
▁मन्त्रिपरिषद्	-4318
ष्क	-4319
▁गल	-4320
खुवा	-4321
साथै	-4322
▁थान	-4323
▁भगव	-4324
▁मन्	-4325
▁अष्ट	-4326
▁भनाई	-4327
प्रमुख	-4328
विक्रम	-4329
▁दिइन्छ	-4330
▁रहेकोे	-4331
्जा	-4332
आएको	-4333
प्ती	-4334
वायु	-4335
▁अल्	-4336
▁कुँ	-4337
▁नभई	-4338
▁महो	-4339
▁हार	-4340
▁कालि	-4341
▁विधे	-4342
मन्दिर	-4343
▁छेउमा	-4344
▁ज्यान	-4345
▁शम्शेर	-4346
▁आपूर्ति	-4347
▁उपराष्ट्रपति	-4348
टेड	-4349
प्य	-4350
▁मध	-4351
कर्ष	-4352
ानले	-4353
▁गाउ	-4354
▁सुग	-4355
कार्य	-4356
▁जोडी	-4357
▁रूपा	-4358
▁सकेन	-4359
▁सजाय	-4360
▁आफ्नी	-4361
▁उत्तम	-4362
▁चरणमा	-4363
▁दिल्ली	-4364
▁सम्पर्	-4365
▁थालिएको	-4366
▁मानिसलाई	-4367
▁सरकारलाई	-4368
भै	-4369
न्दी	-4370
▁गाय	-4371
वाहित	-4372
▁भैरव	-4373
▁बन्ने	-4374
▁सेन्ट	-4375
▁आयुक्त	-4376
▁पक्षको	-4377
▁ब्रह्मा	-4378
▁महिनाको	-4379
▁शिलालेख	-4380
▁अधिकारको	-4381
▁हुनुपर्छ	-4382
ंव	-4383
▁मू	-4384
लिया	-4385
ेदार	-4386
▁पला	-4387
▁पाट	-4388
▁भलि	-4389
हरुमा	-4390
▁देखे	-4391
▁सुनि	-4392
▁अक्षर	-4393
▁ग्राम	-4394
▁सबैले	-4395
▁कलाकार	-4396
▁जनगणना	-4397
▁बोलिने	-4398
▁राखेका	-4399
▁सम्ममा	-4400
▁सूचीमा	-4401
▁प्रतिबन्ध	-4402
▁नगरपालिकाको	-4403
गर्	-4404
▁पन	-4405
जीवन	-4406
रेलु	-4407
▁अहि	-4408
तिब्ब	-4409
▁अल्प	-4410
▁गन्त	-4411
▁मैले	-4412
▁ह्या	-4413
▁कमजोर	-4414
▁जीवित	-4415
▁पुर्ण	-4416
▁मान्द	-4417
▁स्वाम	-4418
▁सक्दैन	-4419
▁सभ्यता	-4420
▁प्रदर्श	-4421
▁शक्तिको	-4422
▁प्रतिवेदन	-4423
▁बङ्गलादेशी	-4424
भेद	-4425
▁ल्	-4426
रीका	-4427
ष्णा	-4428
▁दिई	-4429
▁परम	-4430
▁भरत	-4431
▁कुखु	-4432
▁चेतना	-4433
▁देखिन	-4434
▁यसैले	-4435
पालिकार	-4436
▁जीवनमा	-4437
▁पाइएको	-4438
▁पुस्ता	-4439
▁पूर्वा	-4440
▁कार्तिक	-4441
▁दिनसम्म	-4442
▁श्रीमती	-4443
▁सालदेखि	-4444
▁प्रयोगमा	-4445
▁हावापानी	-4446
न्ह	-4447
▁द्	-4448
उनको	-4449
रहरू	-4450
▁दुख	-4451
क्षेप	-4452
ाउँदा	-4453
▁कष्ट	-4454
▁बोली	-4455
▁भव्य	-4456
▁कुमार	-4457
▁शिकार	-4458
▁संवत्	-4459
▁सुनेर	-4460
▁खेलहरू	-4461
▁मात्रा	-4462
▁विषयको	-4463
▁इन्डिया	-4464
▁गाविसको	-4465
▁राजालाई	-4466
▁ललितपुर	-4467
▁वस्तुको	-4468
▁गरिरहेको	-4469
▁एफ	-4470
▁कट	-4471
दायक	-4472
▁अंश	-4473
▁गैर	-4474
▁सरल	-4475
पुर्ण	-4476
▁क्षे	-4477
▁तमिल	-4478
▁पक्र	-4479
▁किताब	-4480
▁बाह्र	-4481
▁भनेका	-4482
▁अन्तरि	-4483
▁महर्षि	-4484
▁सिद्धि	-4485
▁परीक्षण	-4486
▁मुसलमान	-4487
▁संविधानमा	-4488
▁उद्देश्यले	-4489
षक	-4490
ेे	-4491
टिक	-4492
सिप	-4493
क्सि	-4494
चण्ड	-4495
बाबु	-4496
ाटमा	-4497
▁जनक	-4498
▁शेख	-4499
त्रेय	-4500
ष्कार	-4501
▁गरिए	-4502
▁दैलेख	-4503
▁परिचय	-4504
▁उचाइमा	-4505
▁त्यसले	-4506
▁देखिएको	-4507
▁नगरपालिकामा	-4508
ंद	-4509
▁ित	-4510
सामा	-4511
सिलो	-4512
▁थिय	-4513
दर्शन	-4514
▁बीमा	-4515
▁इन्जि	-4516
▁छोडेर	-4517
▁शहरमा	-4518
▁स्कुल	-4519
▁रेकर्ड	-4520
▁लगातार	-4521
▁विश्लेषण	-4522
▁सर्वप्रथम	-4523
शै	-4524
दारी	-4525
न्दे	-4526
▁कानू	-4527
▁सिपा	-4528
▁अग्नि	-4529
▁शान्त	-4530
▁दुईवटा	-4531
▁संसदको	-4532
▁स्त्री	-4533
▁विद्युत	-4534
▁विद्वान	-4535
▁वेबसाइट	-4536
▁संसारमा	-4537
▁समर्पित	-4538
▁सरकारमा	-4539
▁सहभागीता	-4540
▁क्षेत्रबाट	-4541
ँची	-4542
ब्रि	-4543
लियो	-4544
▁मल्	-4545
▁गम्भ	-4546
▁निवास	-4547
▁भन्नु	-4548
▁विद्य	-4549
▁विनाश	-4550
▁संचाल	-4551
▁कुमारी	-4552
▁तिब्बत	-4553
▁लाग्यो	-4554
▁हात्ती	-4555
▁हेर्ने	-4556
▁आदिवासी	-4557
▁चुनावमा	-4558
▁भाषालाई	-4559
▁दुर्योधन	-4560
▁हस्तक्षेप	-4561
सबाट	-4562
▁दबा	-4563
लोचना	-4564
िमिटर	-4565
▁कुण्ड	-4566
▁बैशाख	-4567
▁मार्न	-4568
▁सीमित	-4569
▁कप्तान	-4570
▁लगाएका	-4571
▁हुन्छन	-4572
▁सङ्ग्रहालय	-4573
शोर	-4574
िरे	-4575
संख्य	-4576
▁जमीन	-4577
▁तातो	-4578
▁मिसि	-4579
▁मुनि	-4580
▁सहिद	-4581
▁शहरको	-4582
▁अवसरमा	-4583
▁दरबारमा	-4584
▁महारानी	-4585
▁पर्याप्त	-4586
▁सन्दर्भमा	-4587
भीम	-4588
▁गह	-4589
प्ले	-4590
बारी	-4591
मीका	-4592
▁भजन	-4593
▁सदा	-4594
स्तार	-4595
▁आउनु	-4596
▁सप्त	-4597
▁बनायो	-4598
▁समारो	-4599
▁पार्वती	-4600
▁सूक्ष्म	-4601
▁समुदायमा	-4602
▁सहभागिता	-4603
▁प्रजातिको	-4604
टिल	-4605
दत्त	-4606
▁गगन	-4607
▁बुट	-4608
▁मले	-4609
▁ग्री	-4610
▁न्यु	-4611
▁कारबा	-4612
▁पछाडि	-4613
▁प्रहर	-4614
▁सहयोगी	-4615
▁कर्णाली	-4616
▁अन्त्यमा	-4617
▁राजतन्त्र	-4618
महि	-4619
तुमा	-4620
ोलखा	-4621
▁एकल	-4622
▁साउ	-4623
▁फेला	-4624
▁आफन्त	-4625
▁चीनमा	-4626
▁वार्ता	-4627
▁धेरैजसो	-4628
▁अर्थतन्त्र	-4629
रथ	-4630
डामा	-4631
▁कदम	-4632
▁डाँ	-4633
▁माध	-4634
▁दूरस	-4635
▁शिवा	-4636
▁आग्रह	-4637
▁खेल्न	-4638
▁गुप्त	-4639
▁सक्षम	-4640
▁अनुरोध	-4641
▁गान्धी	-4642
▁तिम्रो	-4643
▁लागेका	-4644
महेन्द्र	-4645
▁सुरक्षाको	-4646
छन	-4647
ंका	-4648
चेत	-4649
लास	-4650
सना	-4651
डाको	-4652
▁अला	-4653
▁बनि	-4654
▁मदन	-4655
देशिक	-4656
▁ट्या	-4657
▁देहा	-4658
▁भोलि	-4659
▁भ्या	-4660
▁स्तु	-4661
▁स्पे	-4662
विद्या	-4663
सकेपछि	-4664
हिन्दु	-4665
▁गहिरो	-4666
▁आयोजित	-4667
▁नसक्ने	-4668
▁स्थाना	-4669
▁अमेरिकामा	-4670
▁भनिन्थ्यो	-4671
▁कम्युनिस्ट	-4672
यू	-4673
ाटन	-4674
▁आत	-4675
न्डर	-4676
एकाले	-4677
▁तहको	-4678
▁भाले	-4679
▁रुचि	-4680
▁सेवन	-4681
▁अनुया	-4682
▁चाहिँ	-4683
▁पारेर	-4684
▁फर्के	-4685
▁बस्ती	-4686
▁डाक्टर	-4687
▁मिलाएर	-4688
▁हामीले	-4689
▁गतिविधि	-4690
▁सरस्वती	-4691
▁प्रचलनमा	-4692
▁उपाध्यक्ष	-4693
▁गर्नुभएको	-4694
▁अस्तित्वमा	-4695
▁भद	-4696
ासँग	-4697
▁चम्	-4698
▁नाय	-4699
ाउँदै	-4700
▁यादव	-4701
▁राम्ररी	-4702
▁सहयोगमा	-4703
▁स्नातको	-4704
▁परिक्रमा	-4705
▁उल्लेखनीय	-4706
▁तिनीहरूको	-4707
च्	-4708
पोल	-4709
प्न	-4710
ेमा	-4711
यस्क	-4712
▁अमर	-4713
▁आशा	-4714
▁उनि	-4715
▁खबर	-4716
▁लास	-4717
▁वाह	-4718
लिखित	-4719
▁काला	-4720
▁गोरु	-4721
▁नराम	-4722
▁निरा	-4723
▁अपहरण	-4724
▁दिव्य	-4725
▁बाल्य	-4726
▁सेवामा	-4727
▁त्यस्ता	-4728
▁पछिल्लो	-4729
▁विश्वकप	-4730
▁फलस्वरूप	-4731
▁समुदायको	-4732
▁जिम्मेवार	-4733
कुश	-4734
हीँ	-4735
नेको	-4736
न्टि	-4737
ल्लु	-4738
▁वाण	-4739
ुकुरी	-4740
▁आर्म	-4741
▁रेसल	-4742
भारतमा	-4743
▁कुकुर	-4744
▁लेख्न	-4745
▁समस्त	-4746
▁थालेका	-4747
▁विधेयक	-4748
▁सन्देश	-4749
▁पुरुषको	-4750
▁सबभन्दा	-4751
हम्	-4752
▁आउ	-4753
▁कथ	-4754
किलो	-4755
▁पहु	-4756
नाथको	-4757
ानन्द	-4758
▁गुमा	-4759
▁सारा	-4760
▁होला	-4761
्चायती	-4762
नेपालका	-4763
▁राजकीय	-4764
▁सेनाका	-4765
▁निर्वाह	-4766
▁स्वामित्व	-4767
▁बख	-4768
क्सा	-4769
विभाग	-4770
▁पोथी	-4771
▁कक्षा	-4772
▁पर्यो	-4773
▁भनिने	-4774
ष्टाचार	-4775
▁अभ्यास	-4776
▁बिरामी	-4777
▁ल्याउन	-4778
▁स्वच्छ	-4779
▁कारबाही	-4780
▁ज्योतिष	-4781
▁राजीनामा	-4782
आजा	-4783
▁चैत	-4784
▁कुशल	-4785
▁मुजि	-4786
▁सधैं	-4787
▁बिचमा	-4788
▁सवारी	-4789
साहित्य	-4790
▁कुरामा	-4791
▁गम्भीर	-4792
▁बाहिरी	-4793
क्रान्ति	-4794
▁बुद्धको	-4795
▁यिनीहरू	-4796
▁आयुर्वेद	-4797
▁स्थितिमा	-4798
▁छल	-4799
▁तन	-4800
वाही	-4801
▁मंग	-4802
▁तहमा	-4803
▁फेरी	-4804
मेनिया	-4805
स्थापित	-4806
▁कुराको	-4807
▁पदावधि	-4808
▁हुन्थे	-4809
▁इत्यादि	-4810
▁मकवानपुर	-4811
▁जंगबहादुर	-4812
▁सङ्ख्यामा	-4813
▁रेसलमेनिया	-4814
▁विश्वविद्यालयमा	-4815
सिर	-4816
दलीय	-4817
बुटी	-4818
र्का	-4819
वर्ग	-4820
▁अना	-4821
▁चयन	-4822
▁जोखि	-4823
▁ज्वा	-4824
▁शिवको	-4825
▁उपमहान	-4826
▁संहिता	-4827
▁श्रद्धा	-4828
▁गर्नुभयो	-4829
▁व्यक्तित्व	-4830
डिङ	-4831
बोध	-4832
▁अवि	-4833
▁यहि	-4834
▁विप	-4835
▁गुरू	-4836
परिवार	-4837
▁किनकि	-4838
▁पंक्ष	-4839
▁पर्दा	-4840
▁भलिबल	-4841
▁हुदैन	-4842
▁दिएपछि	-4843
▁तरिकाले	-4844
▁प्रणालीमा	-4845
▁अर्थव्यवस्था	-4846
ँट	-4847
ंमा	-4848
कवि	-4849
पट्ट	-4850
जस्तो	-4851
▁खड्ग	-4852
▁पल्ट	-4853
▁राति	-4854
क्ष्मण	-4855
▁खालको	-4856
▁परिभा	-4857
▁गराउनु	-4858
▁चिनिने	-4859
▁इतिहासकार	-4860
▁क्रियाकला	-4861
▁व्यावसायिक	-4862
गोर	-4863
▁तस	-4864
र्चु	-4865
ेन्ट	-4866
▁यसो	-4867
ग्रहण	-4868
ब्लिक	-4869
▁गोला	-4870
▁यूरो	-4871
▁रेखा	-4872
गण्डकी	-4873
ारीरिक	-4874
▁शैलीमा	-4875
▁सतहबाट	-4876
▁उपस्थिति	-4877
▁प्रकारले	-4878
▁प्रणालीको	-4879
छो	-4880
तरा	-4881
▁बाण	-4882
▁राइ	-4883
त्कार	-4884
र्खेत	-4885
अर्जुन	-4886
▁तालको	-4887
▁दशकमा	-4888
▁सुम्प	-4889
▁कान्छा	-4890
▁दुर्गा	-4891
▁सिपाही	-4892
▁चाहन्थे	-4893
▁त्यहाँबाट	-4894
▁जङ्गबहादुरले	-4895
ष्प	-4896
तारा	-4897
▁उन्	-4898
न्तको	-4899
ब्ल्य	-4900
▁टीका	-4901
▁बाबा	-4902
▁मापन	-4903
▁वाला	-4904
▁साउन	-4905
ामित्र	-4906
▁पार्क	-4907
▁राक्ष	-4908
डब्ल्यु	-4909
▁उहाँको	-4910
▁सम्राट	-4911
ङ्ल्यान्ड	-4912
▁महाभारतको	-4913
▁विषयवस्तु	-4914
▁शास्त्रीय	-4915
▁जनसङ्ख्याको	-4916
▁प्रजातान्त्रिक	-4917
ंध	-4918
आफ	-4919
शं	-4920
टीमा	-4921
फ्रा	-4922
▁अलि	-4923
▁पङ्	-4924
▁बोट	-4925
▁शिर	-4926
▁सिर	-4927
ग्राम	-4928
द्वीप	-4929
पनिषद	-4930
▁ख्या	-4931
▁पूरै	-4932
▁स्मरण	-4933
▁अंग्रे	-4934
▁यिनलाई	-4935
जिल्लाको	-4936
▁राज्यले	-4937
ेड	-4938
अभि	-4939
गमन	-4940
र्के	-4941
▁ईसा	-4942
▁मधु	-4943
▁सही	-4944
लिएको	-4945
▁पेशा	-4946
▁शङ्ख	-4947
गरमाथा	-4948
▁तसर्थ	-4949
▁रोगको	-4950
केन्द्र	-4951
व्यक्ति	-4952
▁चित्रण	-4953
▁जमीनमा	-4954
▁जितेका	-4955
▁बोकेको	-4956
▁ब्रिटिश	-4957
▁अर्जुनले	-4958
▁उल्लेखित	-4959
▁कांग्रेस	-4960
▁देवनागरी	-4961
▁सम्मानित	-4962
▁डी	-4963
▁ास	-4964
नीले	-4965
श्रो	-4966
▁भएन	-4967
तिलाई	-4968
महारा	-4969
ाल्ने	-4970
▁छनोट	-4971
▁जीवा	-4972
▁तात्	-4973
▁मन्द	-4974
▁राजग	-4975
▁जनताले	-4976
▁दुर्लभ	-4977
▁पर्नेछ	-4978
▁सम्हाल	-4979
▁परिभाषा	-4980
▁खेलकुदमा	-4981
▁व्यापारी	-4982
ोस	-4983
भोज	-4984
त्तै	-4985
ालका	-4986
देवले	-4987
ेदारी	-4988
लकत्ता	-4989
▁त्यहा	-4990
▁बग्ने	-4991
▁वरिष्	-4992
▁अधीनमा	-4993
▁अन्तमा	-4994
▁कल्पना	-4995
▁जिल्लाहरूमा	-4996
धै	-4997
ाम	-4998
मोर	-4999
िने	-5000
िलो	-5001
▁बजे	-5002
▁रूख	-5003
▁रोप	-5004
टनामा	-5005
बीचको	-5006
▁छिन्	-5007
▁उत्सव	-5008
▁सक्दछ	-5009
▁अवधिमा	-5010
▁भीमसेन	-5011
▁लिइएको	-5012
▁सिमसार	-5013
▁सुरुमा	-5014
ाउमा	-5015
ुरुप	-5016
ेपछि	-5017
▁क्व	-5018
▁नमा	-5019
▁क्रो	-5020
▁चट्ट	-5021
▁छाला	-5022
▁परमा	-5023
इन्द्र	-5024
पिडिया	-5025
▁नजीकै	-5026
▁आयोगको	-5027
▁प्राणी	-5028
▁स्मारक	-5029
▁जुनसुकै	-5030
▁विकासमा	-5031
▁बाछिटाको	-5032
▁निर्माणमा	-5033
▁साहित्यका	-5034
ताल	-5035
फुट	-5036
रिङ	-5037
▁मय	-5038
उँदछ	-5039
किने	-5040
▁करी	-5041
▁खडा	-5042
▁ियो	-5043
गटेको	-5044
्चलको	-5045
▁निजा	-5046
▁षड्य	-5047
▁िन्छ	-5048
ब्ल्यू	-5049
श्रमिक	-5050
▁सङ्कट	-5051
▁टोलीले	-5052
▁लिपिमा	-5053
▁अनुयायी	-5054
▁बिस्तार	-5055
▁नागरिकता	-5056
▁सदस्यहरू	-5057
▁प्रतिक्रिया	-5058
ुम	-5059
ँचो	-5060
चोक	-5061
त्स	-5062
स्र	-5063
▁नप	-5064
केको	-5065
द्रो	-5066
▁पखे	-5067
ख्यान	-5068
बिहार	-5069
▁दिदी	-5070
▁दीर्	-5071
कात्मक	-5072
पाण्डव	-5073
्याउने	-5074
▁दत्ता	-5075
पूर्वमा	-5076
▁परिचाल	-5077
▁भिडियो	-5078
▁शमशेरले	-5079
▁हनुमानको	-5080
▁परराष्ट्र	-5081
▁भ्रष्टाचार	-5082
ग्न	-5083
मोह	-5084
तीमा	-5085
द्री	-5086
▁आज्	-5087
त्तिक	-5088
▁आवास	-5089
▁माहि	-5090
▁शिशु	-5091
स्थलमा	-5092
▁काममा	-5093
▁पछाडी	-5094
▁फिल्म	-5095
प्राप्त	-5096
▁भोजपुर	-5097
▁विजेता	-5098
▁सिंहले	-5099
▁कम्तीमा	-5100
▁देवताको	-5101
▁लिच्छवि	-5102
▁शारीरिक	-5103
न्डोनेसिया	-5104
▁अध्यक्षको	-5105
▁देखिन्छन्	-5106
▁विद्यालयमा	-5107
▁स्नातकोत्तर	-5108
समु	-5109
मुनि	-5110
▁असह	-5111
▁जैन	-5112
▁बहा	-5113
त्मिक	-5114
सत्ता	-5115
▁फलाम	-5116
▁मलाई	-5117
▁मेरा	-5118
टनाहरू	-5119
सम्मका	-5120
▁अगस्ट	-5121
▁उपभोग	-5122
▁बाह्य	-5123
▁शासित	-5124
▁गरिनेछ	-5125
▁मार्ने	-5126
▁लिम्बु	-5127
▁योग्यता	-5128
भ्र	-5129
वाट	-5130
ोलु	-5131
रानी	-5132
सीमा	-5133
ेक्षा	-5134
▁नारी	-5135
▁पद्म	-5136
▁शेयर	-5137
▁हालै	-5138
म्बरमा	-5139
ानुभक्त	-5140
▁थापाको	-5141
▁भेटिन्छ	-5142
▁परिभाषित	-5143
▁राज्यलाई	-5144
फर	-5145
ट्र	-5146
र्द	-5147
भ्रे	-5148
शाही	-5149
ुक्त	-5150
▁सिट	-5151
मुक्त	-5152
▁खनिज	-5153
▁रमाइ	-5154
हयुद्ध	-5155
▁आस्था	-5156
▁भएपछी	-5157
हुन्थ्यो	-5158
▁वर्षपछि	-5159
▁मन्दिरहरू	-5160
▁वन्यजन्तु	-5161
▁फ्रान्सेली	-5162
▁राज्यहरूको	-5163
नाइ	-5164
ितो	-5165
्दो	-5166
टाको	-5167
बाटै	-5168
रणको	-5169
ाइते	-5170
▁चरम	-5171
▁चिन	-5172
▁नहर	-5173
▁पास	-5174
▁मरा	-5175
▁राव	-5176
विधिक	-5177
▁बाँच	-5178
▁बाधा	-5179
▁आएपछि	-5180
▁पुर्व	-5181
▁बिष्ट	-5182
▁शाहका	-5183
▁जिम्मा	-5184
▁ज्यादै	-5185
▁दोश्रो	-5186
▁भरद्वा	-5187
▁गन्तव्य	-5188
▁जयप्रकाश	-5189
▁बासस्थान	-5190
▁राष्ट्रपतिले	-5191
इदि	-5192
▁गज	-5193
▁ाट	-5194
सम्प	-5195
▁जडि	-5196
▁प्य	-5197
▁लुट	-5198
हरलाल	-5199
िकाका	-5200
▁संशो	-5201
▁स्वत	-5202
▁हवाई	-5203
▁आपसमा	-5204
▁यसपछि	-5205
▁सहमति	-5206
▁कमाण्ड	-5207
▁मोर्चा	-5208
▁ल्याउने	-5209
▁व्यवस्थित	-5210
▁पारिश्रमिक	-5211
▁स्वतन्त्रताको	-5212
ाव	-5213
जीत	-5214
णमा	-5215
नाल	-5216
▁रक	-5217
▁रै	-5218
▁सत	-5219
पाली	-5220
ष्णव	-5221
ैंचा	-5222
▁बाइ	-5223
ङ्गले	-5224
परेको	-5225
▁बाला	-5226
▁सीता	-5227
म्बिनी	-5228
ुरुन्त	-5229
▁काटेर	-5230
▁दक्षि	-5231
▁भीष्म	-5232
▁मस्ति	-5233
▁युगमा	-5234
▁समन्व	-5235
▁मल्लको	-5236
▁वर्गमा	-5237
▁समूहमा	-5238
▁दायित्व	-5239
▁बताउँछन्	-5240
▁सभ्यताको	-5241
ङ्कन	-5242
र्जी	-5243
शिष्	-5244
न्धित	-5245
वर्ती	-5246
▁गराई	-5247
कुल्ला	-5248
▁किरात	-5249
▁तथापि	-5250
▁पुण्य	-5251
▁यिनका	-5252
▁आइरहेको	-5253
▁उपविभाग	-5254
▁एकमात्र	-5255
▁जान्छन्	-5256
▁भिन्नता	-5257
▁साथसाथै	-5258
▁लडिरहेका	-5259
▁अन्तराष्ट्रिय	-5260
ेस	-5261
्द	-5262
देख	-5263
ेसन	-5264
कल्प	-5265
वानी	-5266
▁सोच	-5267
पेक्ष	-5268
▁डिजा	-5269
▁पन्छ	-5270
▁भइरह	-5271
▁मनमा	-5272
▁मातह	-5273
▁आध्या	-5274
▁कश्मी	-5275
▁मनोरम	-5276
पाकिस्त	-5277
▁धनकुटा	-5278
▁पूर्वीय	-5279
क्षेत्रमा	-5280
▁उत्पादनको	-5281
मू	-5282
शू	-5283
ब्ज	-5284
भुट	-5285
सुस	-5286
होर	-5287
ारद	-5288
▁रङ	-5289
नेमा	-5290
मीटर	-5291
म्मद	-5292
▁तोक	-5293
▁नेक	-5294
पश्चा	-5295
▁उद्य	-5296
▁स्वि	-5297
▁जन्मा	-5298
▁दर्ता	-5299
▁न्यून	-5300
▁बोकेर	-5301
▁प्रवाह	-5302
▁बोक्रा	-5303
▁सबैलाई	-5304
ानेन्द्र	-5305
▁सूत्रकविता	-5306
▁प्रतीकात्मक	-5307
केश	-5308
निस	-5309
▁एच	-5310
▁हद	-5311
निधि	-5312
विद्	-5313
ूद्ध	-5314
▁उता	-5315
▁टाइ	-5316
▁नाइ	-5317
▁रोज	-5318
▁ाको	-5319
कामना	-5320
▁आहार	-5321
▁उद्ध	-5322
▁एकाइ	-5323
▁खुसी	-5324
▁गुल्	-5325
▁भेटि	-5326
▁तीव्र	-5327
▁फलफूल	-5328
▁अधिकतम	-5329
▁शिक्षक	-5330
▁तुरुन्त	-5331
▁पोखरीको	-5332
▁सदस्यता	-5333
▁अविश्वास	-5334
▁ल्याइएको	-5335
▁फ्रान्सको	-5336
▁षड्यन्त्र	-5337
उन्	-5338
शाह	-5339
षिक	-5340
सहर	-5341
हीं	-5342
ैमा	-5343
▁फू	-5344
डिकल	-5345
फाइन	-5346
▁फिट	-5347
▁भीड	-5348
▁रमण	-5349
▁छन्द	-5350
▁भेला	-5351
▁मीटर	-5352
▁राशि	-5353
▁लगेर	-5354
▁चैत्र	-5355
▁छाडेर	-5356
▁दाहाल	-5357
▁सांसद	-5358
▁आउँछन्	-5359
▁खेलेका	-5360
▁तिमीले	-5361
▁बिक्री	-5362
▁हामीलाई	-5363
▁नेपाललाई	-5364
ईं	-5365
कुम	-5366
बिक	-5367
ोपा	-5368
▁दम	-5369
▁दह	-5370
त्वा	-5371
नीमा	-5372
बाजा	-5373
्जना	-5374
▁पहल	-5375
▁इजरा	-5376
▁उडान	-5377
▁छापा	-5378
▁हानि	-5379
थ्वीमा	-5380
र्गतको	-5381
ेरिएको	-5382
्तियार	-5383
▁प्रिय	-5384
श्रीलङ्	-5385
▁कुखुरा	-5386
▁निर्णा	-5387
▁राजस्व	-5388
▁स्वदेश	-5389
▁चाडपर्व	-5390
▁किलोमीटर	-5391
चाइ	-5392
जान	-5393
दमै	-5394
▁एन	-5395
रण्य	-5396
▁छाप	-5397
▁नपा	-5398
▁वास	-5399
अन्तर	-5400
नीतिक	-5401
रात्र	-5402
▁केटी	-5403
▁नाति	-5404
▁उपदेश	-5405
▁दोलखा	-5406
▁नेकपा	-5407
▁पुग्छ	-5408
▁भुक्त	-5409
▁मण्डल	-5410
▁हालेर	-5411
सिक्किम	-5412
▁पुष्टि	-5413
▁बनाइयो	-5414
बङ्गलादेश	-5415
▁प्रमाणित	-5416
▁हुनुहुन्छ	-5417
▁आध्यात्मिक	-5418
▁सक्नुहुन्छ	-5419
▁अस्ट्रेलिया	-5420
▁मन्त्रिपरिषद	-5421
लाक	-5422
▁अच	-5423
▁गे	-5424
ूपमा	-5425
▁कर्	-5426
▁मोर	-5427
▁सती	-5428
▁अक्ष	-5429
▁समुह	-5430
▁म्याच	-5431
▁युक्त	-5432
▁सम्बत	-5433
▁गुम्बा	-5434
▁तरकारी	-5435
▁वर्गका	-5436
▁सुवर्ण	-5437
▁मोतीराम	-5438
▁जन्मिएका	-5439
▁परिवारका	-5440
▁पार्टीले	-5441
▁प्राविधिक	-5442
▁क्रान्तिकारी	-5443
ख्	-5444
▁बध	-5445
न्डा	-5446
रामि	-5447
मेन्ट	-5448
ुङ्गे	-5449
ुवाको	-5450
▁आयाम	-5451
▁कहाँ	-5452
▁काटि	-5453
▁खारे	-5454
▁टोपी	-5455
▁पारी	-5456
▁मिति	-5457
▁विनि	-5458
प्रकार	-5459
▁सट्टा	-5460
▁गण्डकी	-5461
▁भागलाई	-5462
▁रमाइलो	-5463
त्युदण्ड	-5464
▁अफ्रिका	-5465
▁आधारभूत	-5466
▁कलकत्ता	-5467
▁लेखिएका	-5468
▁सचिवालय	-5469
▁स्थलहरू	-5470
▁अत्याधिक	-5471
▁जात्रामा	-5472
▁यिनीहरूको	-5473
डर	-5474
वक	-5475
कान	-5476
टिस	-5477
सान	-5478
▁अा	-5479
▁िए	-5480
जुली	-5481
न्टा	-5482
म्ना	-5483
रीले	-5484
ल्पा	-5485
ुरूप	-5486
▁अली	-5487
▁अहम	-5488
▁लाइ	-5489
▁विव	-5490
न्याय	-5491
वासमा	-5492
▁ईश्व	-5493
▁तर्क	-5494
▁दिला	-5495
▁हानी	-5496
रामर्श	-5497
▁बत्ती	-5498
▁मारिए	-5499
▁हैसिय	-5500
पश्चात्	-5501
▁जलवायु	-5502
▁दिशामा	-5503
▁नगर्ने	-5504
▁लगाएको	-5505
▁व्याकरण	-5506
▁प्राप्ति	-5507
▁संरक्षित	-5508
▁मानिन्छन्	-5509
शय	-5510
शर	-5511
सग	-5512
हिक	-5513
हुन	-5514
ेटि	-5515
▁रम	-5516
▁ज्य	-5517
▁पाउ	-5518
▁मरे	-5519
▁राउ	-5520
▁शनि	-5521
▁चाहे	-5522
▁फैला	-5523
▁भारी	-5524
▁रावण	-5525
वादीले	-5526
विष्णु	-5527
▁जैविक	-5528
▁पारित	-5529
▁वसन्त	-5530
▁त्यहीँ	-5531
▁पक्राउ	-5532
▁श्रद्ध	-5533
▁आश्रममा	-5534
▁दिन्छन्	-5535
▁भागहरूमा	-5536
▁राजाहरूले	-5537
▁विश्वामित्र	-5538
▁च्याम्पियनसिप	-5539
कोप	-5540
दास	-5541
म्र	-5542
▁भन	-5543
▁रच	-5544
वधान	-5545
संगै	-5546
्चित	-5547
▁माई	-5548
▁गायन	-5549
वादीको	-5550
स्थापन	-5551
मण्डलमा	-5552
▁अर्थमा	-5553
▁आकर्षक	-5554
▁गरिदिए	-5555
▁गाउँका	-5556
▁ग्रामी	-5557
▁पन्ध्र	-5558
▁प्रार्थ	-5559
▁क्षेत्रफ	-5560
▁परिवारमा	-5561
▁प्रजातन्त्रको	-5562
ूष	-5563
ंदै	-5564
बेर	-5565
्खा	-5566
जरको	-5567
द्वि	-5568
पादन	-5569
▁चास	-5570
▁नोट	-5571
▁बोल	-5572
▁शंख	-5573
▁शेर	-5574
▁हेट	-5575
कुलमा	-5576
्याउन	-5577
▁चैते	-5578
▁नुहा	-5579
▁हप्त	-5580
स्त्री	-5581
हतियार	-5582
▁अस्थि	-5583
▁उर्जा	-5584
▁किम्ब	-5585
▁लाग्न	-5586
▁वंशको	-5587
▁सोह्र	-5588
▁उपयोगी	-5589
▁निर्भर	-5590
▁समर्थक	-5591
▁स्तरको	-5592
▁अदालतमा	-5593
▁अध्यापन	-5594
▁उपन्यास	-5595
▁मण्डलको	-5596
▁निष्कर्ष	-5597
▁स्थानबाट	-5598
▁उत्पादनमा	-5599
▁संस्थाहरू	-5600
ंच	-5601
स्न	-5602
▁उड	-5603
▁जर	-5604
▁उभि	-5605
▁पुस	-5606
▁मही	-5607
▁हाँ	-5608
ङ्गिक	-5609
हरिया	-5610
▁आम्ब	-5611
▁नायक	-5612
▁फाइन	-5613
▁माथी	-5614
▁अवशेष	-5615
▁छात्र	-5616
▁भागको	-5617
▁रामको	-5618
▁श्रोत	-5619
▁सुनको	-5620
▁कानुनी	-5621
▁क्षत्र	-5622
▁दूरीमा	-5623
▁लिपिको	-5624
▁स्तम्भ	-5625
▁तिनीहरू	-5626
▁परामर्श	-5627
▁प्रेरित	-5628
▁निर्णायक	-5629
▁विस्तारै	-5630
▁अधिराज्यको	-5631
▁उत्तराधिकारी	-5632
चरण	-5633
पला	-5634
होस	-5635
▁फ्	-5636
साना	-5637
लाहरू	-5638
▁आराध	-5639
▁द्रु	-5640
▁मोहन	-5641
▁कथामा	-5642
▁चतुर्	-5643
▁थियोे	-5644
▁महसुस	-5645
▁लिगको	-5646
▁सुदूर	-5647
▁उपविधा	-5648
▁खुल्ला	-5649
▁पिताको	-5650
▁सहितको	-5651
▁बस्न्या	-5652
▁स्थानिय	-5653
डल	-5654
ारु	-5655
नाका	-5656
मीको	-5657
यामा	-5658
▁अछा	-5659
त्विक	-5660
▁पट्ट	-5661
▁बताए	-5662
▁ब्रह	-5663
योध्या	-5664
स्तुते	-5665
▁भित्त	-5666
▁बालुवा	-5667
▁कविताको	-5668
▁क्षेत्री	-5669
▁अहिलेसम्म	-5670
▁चलचित्रमा	-5671
▁हुनुपर्ने	-5672
▁प्रभावशाली	-5673
भनि	-5674
▁कह	-5675
श्चा	-5676
सेवा	-5677
▁दाँ	-5678
▁फाउ	-5679
हुँदै	-5680
▁आसपा	-5681
▁गुँड	-5682
▁सूर्	-5683
क्रममा	-5684
▁कामको	-5685
▁जसबाट	-5686
▁कसैलाई	-5687
▁जङ्गली	-5688
▁जातिका	-5689
▁पिरामि	-5690
▁पुनर्ग	-5691
▁मेडिकल	-5692
▁लाग्दछ	-5693
▁शाहलाई	-5694
▁उपनिवेश	-5695
▁मैदानमा	-5696
▁रामेछाप	-5697
▁भोलिपल्ट	-5698
▁पत्रकारिता	-5699
पल	-5700
जिन	-5701
टाङ	-5702
पती	-5703
्चन	-5704
▁ुर	-5705
क्कै	-5706
क्लो	-5707
म्बू	-5708
▁असम	-5709
▁सता	-5710
▁सवै	-5711
डिएको	-5712
धारित	-5713
विकार	-5714
▁खैरो	-5715
▁जटिल	-5716
▁पाउनु	-5717
▁साम्य	-5718
▁सामन्त	-5719
▁नेपालकै	-5720
▁विवाहको	-5721
▁शरीरलाई	-5722
▁राज्यहरू	-5723
▁स्थानहरू	-5724
▁संविधानको	-5725
आई	-5726
गुण	-5727
पिल	-5728
मिक	-5729
तकको	-5730
िनमा	-5731
▁करा	-5732
▁बिन	-5733
▁विज	-5734
▁सिल	-5735
बन्धन	-5736
भक्ति	-5737
सेनले	-5738
▁आगमन	-5739
▁आजको	-5740
▁एक्स	-5741
▁करिव	-5742
▁खानी	-5743
▁माडी	-5744
▁लोगो	-5745
▁हकमा	-5746
प्रदेश	-5747
▁तिर्थ	-5748
▁पहुँच	-5749
▁बोहरा	-5750
▁नजिकको	-5751
▁पर्वको	-5752
▁राजदूत	-5753
▁सकेनन्	-5754
▁सुख्खा	-5755
▁काव्यिक	-5756
▁पूजाआजा	-5757
यरल्यान्ड	-5758
▁इन्जिनिय	-5759
▁गान्धीको	-5760
▁द्वन्द्व	-5761
▁प्रावधान	-5762
▁दत्तात्रेय	-5763
रब	-5764
काे	-5765
टेर	-5766
रगा	-5767
्नो	-5768
काएर	-5769
टाउन	-5770
पुरु	-5771
वाहक	-5772
▁जाप	-5773
▁दही	-5774
कुन्द	-5775
टनाको	-5776
मुख्य	-5777
स्ताङ	-5778
▁आश्व	-5779
▁जंगल	-5780
▁जुका	-5781
निर्वा	-5782
ाउँबाट	-5783
▁केदार	-5784
▁नित्य	-5785
▁निवार	-5786
▁वरदान	-5787
▁हरिहर	-5788
विरुद्ध	-5789
▁तन्त्र	-5790
▁दुरीमा	-5791
▁मिल्ने	-5792
▁प्राचिन	-5793
▁अस्वीकार	-5794
▁किनारामा	-5795
▁परिवारको	-5796
▁प्रशिक्षण	-5797
▁मानिसहरूलाई	-5798
विरा	-5799
▁कलि	-5800
▁छरि	-5801
▁बाब	-5802
▁भूत	-5803
▁भेष	-5804
▁सान	-5805
▁्री	-5806
न्नति	-5807
वक्ता	-5808
सक्ने	-5809
सूर्य	-5810
▁कक्ष	-5811
▁जहाज	-5812
▁धरान	-5813
▁पहेँ	-5814
▁पाहु	-5815
क्षत्र	-5816
सिंहको	-5817
▁क्यान	-5818
▁खारेज	-5819
▁जोखिम	-5820
▁त्यहि	-5821
▁भवनमा	-5822
▁एकिकरण	-5823
▁जितेको	-5824
▁पुजारी	-5825
▁मामिला	-5826
▁यसैगरी	-5827
▁बच्चाको	-5828
▁वित्तीय	-5829
ष्टिकोणले	-5830
▁गर्दथ्यो	-5831
▁त्यसकारण	-5832
▁महादेवको	-5833
▁विष्णुको	-5834
▁हातहतियार	-5835
ज्ज	-5836
नाग	-5837
बमा	-5838
रिद	-5839
कुरा	-5840
क्टो	-5841
गानि	-5842
परीत	-5843
विजय	-5844
▁अमा	-5845
▁ामा	-5846
तापनि	-5847
ेरोजग	-5848
▁अशोक	-5849
▁दाबी	-5850
▁रहनु	-5851
संख्यक	-5852
▁दुल्लु	-5853
त्रिभुवन	-5854
▁चारैतिर	-5855
▁निमित्त	-5856
▁परिचालन	-5857
▁विशेषगरी	-5858
▁सम्बन्धि	-5859
▁सुरेन्द्र	-5860
▁सामग्रीहरू	-5861
पेर	-5862
फोन	-5863
फ्त	-5864
मणि	-5865
रुण	-5866
सिस	-5867
िके	-5868
▁बम	-5869
▁बू	-5870
त्तम	-5871
थियो	-5872
स्वी	-5873
▁कमल	-5874
▁धनग	-5875
▁बली	-5876
▁बसा	-5877
▁भिम	-5878
▁रेड	-5879
पोखरा	-5880
भगवान	-5881
▁उनमा	-5882
▁तनाव	-5883
▁लुगा	-5884
▁शर्त	-5885
▁सपना	-5886
तावादी	-5887
दिल्ली	-5888
▁एकदमै	-5889
▁किशोर	-5890
▁प्रयो	-5891
▁बन्नु	-5892
▁मुखमा	-5893
▁रहँदा	-5894
▁खासगरी	-5895
▁मुलुकको	-5896
▁त्यहाँका	-5897
▁नेपालीमा	-5898
▁लगाउँछन्	-5899
ंगे	-5900
इजि	-5901
दरा	-5902
फार	-5903
बाग	-5904
ारू	-5905
▁सड	-5906
पन्थ	-5907
पालन	-5908
▁त्व	-5909
▁मित	-5910
कुन्त	-5911
युरोप	-5912
र्वाद	-5913
▁आयात	-5914
▁जवाफ	-5915
▁जर्मन	-5916
▁नैतिक	-5917
▁सभाका	-5918
▁कथाहरू	-5919
▁गर्नमा	-5920
▁जनताका	-5921
▁अन्तरिम	-5922
▁अन्त्ये	-5923
▁तिमीलाई	-5924
▁भन्दछन्	-5925
▁राज्यहरूमा	-5926
ंगो	-5927
जन्	-5928
सम्	-5929
▁गइ	-5930
ड्डी	-5931
ल्दो	-5932
वरको	-5933
वाली	-5934
स्वा	-5935
्याम	-5936
्युत	-5937
▁आलु	-5938
▁सुद	-5939
ाइएको	-5940
्यांक	-5941
▁थिइन	-5942
▁लियो	-5943
त्तिकै	-5944
▁तामाङ	-5945
▁भुमिका	-5946
▁संशोधन	-5947
▁प्रतिभा	-5948
▁बैङ्कको	-5949
▁स्थानको	-5950
▁वीरेन्द्र	-5951
▁उपजिल्लामा	-5952
▁व्यवस्थाको	-5953
चू	-5954
ूम	-5955
गान	-5956
दथे	-5957
वित	-5958
▁नच	-5959
अथवा	-5960
द्धन	-5961
नाडु	-5962
भैरव	-5963
माया	-5964
हिने	-5965
ाकुर	-5966
▁आम्	-5967
▁यता	-5968
नुवार	-5969
बुद्ध	-5970
▁अनुप	-5971
▁कुरु	-5972
▁गंगा	-5973
▁गाएर	-5974
▁चिया	-5975
▁छिटो	-5976
▁पन्त	-5977
▁शिल्	-5978
▁आहारा	-5979
▁कसैको	-5980
▁पुरूष	-5981
▁शिक्ष	-5982
शमशेरको	-5983
▁आकर्षण	-5984
▁बेरोजग	-5985
▁यथार्थ	-5986
▁सन्तुल	-5987
▁कात्तिक	-5988
▁द्वितीय	-5989
▁निजामती	-5990
▁लगाइएको	-5991
▁पदयात्रा	-5992
▁गणतन्त्रको	-5993
अन्तर्राष्ट्रिय	-5994
हू	-5995
ोड	-5996
कुन	-5997
रवी	-5998
षेक	-5999
▁ाम	-6000
जनमा	-6001
ब्रे	-6002
लाहा	-6003
लोको	-6004
▁आशी	-6005
▁मंस	-6006
▁सरह	-6007
▁उज्य	-6008
▁किंव	-6009
▁छलफल	-6010
▁बनाउ	-6011
▁हाँस	-6012
▁हाना	-6013
▁च्याउ	-6014
▁जनाको	-6015
▁बायाँ	-6016
▁वयस्क	-6017
▁सिंजा	-6018
▁खुकुरी	-6019
▁चट्टान	-6020
▁जलाउने	-6021
▁थालियो	-6022
▁परिकार	-6023
▁पालामा	-6024
▁नारायणी	-6025
▁भारतबाट	-6026
▁महासचिव	-6027
▁रुपैयाँ	-6028
▁सम्पर्क	-6029
▁सामुदाय	-6030
▁निर्माता	-6031
▁पार्टीका	-6032
▁विचारधारा	-6033
▁क्रियाकलाप	-6034
▁कार्यपालिका	-6035
▁जिल्लाभारतको	-6036
▁विश्वविद्यालयको	-6037
रन	-6038
सह	-6039
ाङ	-6040
कास	-6041
त्सव	-6042
▁कुर	-6043
▁गिर	-6044
▁चेक	-6045
▁तार	-6046
▁नको	-6047
▁ेका	-6048
ष्टिक	-6049
ियाली	-6050
▁गन्ध	-6051
▁जनसं	-6052
▁बाहु	-6053
▁शल्य	-6054
▁शिखर	-6055
▁सेल्	-6056
▁जातजा	-6057
▁म्यान	-6058
शमशेरले	-6059
▁राप्ती	-6060
▁गणराज्य	-6061
▁महात्मा	-6062
▁ताइवानको	-6063
▁काङ्ग्रेस	-6064
▁जिल्लालाई	-6065
▁अन्त्येष्टि	-6066
▁न्यायाधीशको	-6067
फ्	-6068
ुङ	-6069
ण्ट	-6070
तित	-6071
थित	-6072
क्ती	-6073
ङ्कर	-6074
नुपा	-6075
र्सि	-6076
ुट्ट	-6077
▁कुट	-6078
▁नति	-6079
▁यशो	-6080
▁रजत	-6081
गुप्त	-6082
न्मुख	-6083
लेक्ट	-6084
ारीको	-6085
ोलुखु	-6086
▁केटा	-6087
▁भालु	-6088
▁रोमा	-6089
▁कुँवर	-6090
▁पुच्छ	-6091
▁बस्तु	-6092
▁मिनेट	-6093
▁आराधना	-6094
▁बाटोमा	-6095
▁मिलियन	-6096
▁लगत्तै	-6097
▁सुरुवा	-6098
▁स्तरीय	-6099
▁ग्रामीण	-6100
▁पराक्रम	-6101
▁प्रेरणा	-6102
▁प्रार्थना	-6103
▁पूर्णिमाको	-6104
खिल	-6105
फ्र	-6106
ुमा	-6107
▁नब	-6108
ंत्र	-6109
नुका	-6110
शासन	-6111
ेडकर	-6112
▁उका	-6113
▁उर्	-6114
▁नजर	-6115
दिएको	-6116
शुक्ल	-6117
▁दोहो	-6118
▁मैथि	-6119
लेश्वर	-6120
▁पछिको	-6121
▁मान्न	-6122
▁श्लोक	-6123
▁सिमित	-6124
▁हरूले	-6125
र्जिलिङ	-6126
▁गराएको	-6127
▁बगैंचा	-6128
▁रुद्रा	-6129
▁स्वरुप	-6130
▁बनाइन्छ	-6131
▁हानाहान	-6132
▁सदस्यहरूको	-6133
▁बालबालिकाको	-6134
▁कार्यक्रमहरू	-6135
जाल	-6136
बिर	-6137
स्फ	-6138
िणी	-6139
ंदैन	-6140
धुरा	-6141
न्दि	-6142
▁कैद	-6143
▁मणि	-6144
▁मत्	-6145
मिलित	-6146
▁इस्ट	-6147
▁कागत	-6148
▁पाएर	-6149
▁पैदा	-6150
▁मानक	-6151
▁रथमा	-6152
▁चिहान	-6153
▁मुजिब	-6154
▁डिजाइन	-6155
▁प्रष्ट	-6156
▁ब्राजि	-6157
▁सिंहको	-6158
▁उज्यालो	-6159
▁पोखरीमा	-6160
▁भन्नाले	-6161
▁मलेसिया	-6162
▁समाजवादी	-6163
▁निरन्तरता	-6164
▁पुस्तकहरू	-6165
▁मुख्यमन्त्री	-6166
इक	-6167
काय	-6168
नाक	-6169
शैली	-6170
हिमा	-6171
ालिन	-6172
▁दाङ	-6173
कालिन	-6174
नियाँ	-6175
पिएको	-6176
पुरुष	-6177
▁नेपा	-6178
हस्पति	-6179
▁तालिम	-6180
▁द्रोण	-6181
▁निहित	-6182
▁प्रशा	-6183
▁साउदी	-6184
नुपर्ने	-6185
▁आकारको	-6186
▁ल्याएर	-6187
▁सेवाका	-6188
▁परिसरमा	-6189
▁बोलिन्छ	-6190
▁भण्डारी	-6191
▁न्यायालय	-6192
▁निर्माणको	-6193
▁आयरल्यान्ड	-6194
▁पाकिस्तानका	-6195
▁उपमहानगरपालिका	-6196
थक	-6197
राख	-6198
रोग	-6199
हाट	-6200
▁्ष	-6201
न्डै	-6202
▁गित	-6203
▁फास	-6204
▁बिष	-6205
▁सदन	-6206
किन्छ	-6207
बन्दी	-6208
िमण्ड	-6209
▁आह्व	-6210
▁युनि	-6211
▁क्रोध	-6212
▁निजको	-6213
▁सभाले	-6214
▁हटाउन	-6215
नुपातिक	-6216
▁देशलाई	-6217
▁वस्त्र	-6218
▁गोरखाली	-6219
▁पारिवार	-6220
▁अस्पतालमा	-6221
पदी	-6222
ल्छ	-6223
तलाई	-6224
्वाल	-6225
▁बहि	-6226
▁रको	-6227
▁रेश	-6228
▁हेल	-6229
धर्मा	-6230
बिधान	-6231
भन्ने	-6232
ाराही	-6233
ासम्म	-6234
▁आरोप	-6235
▁नवीन	-6236
▁निरी	-6237
▁पाली	-6238
▁वंशज	-6239
जात्रा	-6240
बेलायत	-6241
र्शनिक	-6242
समर्पण	-6243
सायनिक	-6244
▁आदिमा	-6245
▁गद्दी	-6246
▁बित्त	-6247
▁विजयी	-6248
▁अनुहार	-6249
▁पुराता	-6250
▁विदेशमा	-6251
▁आम्बेडकर	-6252
▁इन्टरनेट	-6253
▁त्यहाँको	-6254
▁दार्शनिक	-6255
▁यसप्रकार	-6256
▁चलचित्रको	-6257
▁महत्त्वका	-6258
▁महेन्द्रको	-6259
▁व्यक्तिहरूको	-6260
नाई	-6261
राव	-6262
ाँस	-6263
चानक	-6264
नियर	-6265
न्दन	-6266
राणा	-6267
वनको	-6268
श्यप	-6269
सीले	-6270
ाँचा	-6271
▁पल्	-6272
▁भोट	-6273
▁क्वा	-6274
▁जाती	-6275
▁दावी	-6276
▁बनेर	-6277
त्युको	-6278
नियाको	-6279
▁ग्राह	-6280
▁टिमले	-6281
▁दर्जन	-6282
▁नियमा	-6283
▁मालिक	-6284
▁आयोगले	-6285
▁कुस्ती	-6286
▁गरीएको	-6287
▁बजाउने	-6288
▁भेदभाव	-6289
▁यसकारण	-6290
▁लम्बाई	-6291
▁हेक्टर	-6292
▁अवस्थाको	-6293
▁मुख्यालय	-6294
▁श्रद्धालु	-6295
▁उपत्यकालाई	-6296
▁किम्बदन्ती	-6297
▁ग्रन्थहरूमा	-6298
▁पाकिस्तानमा	-6299
ंदा	-6300
टेन	-6301
लिस	-6302
▁वो	-6303
दायी	-6304
नायक	-6305
माला	-6306
लाग्	-6307
▁कमि	-6308
▁कोट	-6309
▁नील	-6310
डाँडा	-6311
▁टावर	-6312
▁मर्म	-6313
▁विशे	-6314
▁अलावा	-6315
▁गीतको	-6316
संस्कार	-6317
▁मानवीय	-6318
ब्राह्मण	-6319
स्ट्रिया	-6320
▁गरेकाले	-6321
▁बन्दरगा	-6322
▁संसारको	-6323
▁हिमालको	-6324
▁स्वरूपमा	-6325
▁निर्धारित	-6326
▁सकारात्मक	-6327
▁इङ्ल्यान्ड	-6328
▁कार्यकर्ता	-6329
ँडि	-6330
तडी	-6331
१मा	-6332
जाने	-6333
मीमा	-6334
वारि	-6335
सक्छ	-6336
▁फला	-6337
▁ूको	-6338
इँदैन	-6339
न्सको	-6340
▁अनुक	-6341
▁वरपर	-6342
▁विगत	-6343
दुर्यो	-6344
▁दायाँ	-6345
▁दैत्य	-6346
▁रिक्त	-6347
▁स्वाद	-6348
▁हरियो	-6349
▁ध्वस्त	-6350
▁पहाडको	-6351
▁प्रवर्	-6352
▁राम्रा	-6353
▁वर्णित	-6354
▁समन्वय	-6355
▁सल्यान	-6356
▁छोराहरु	-6357
▁जनशक्ति	-6358
▁दक्षिणा	-6359
▁प्रसन्न	-6360
▁प्राधिक	-6361
▁भएतापनि	-6362
▁महिलाहरू	-6363
▁विद्यमान	-6364
▁केन्द्रको	-6365
▁राजकुमारी	-6366
पोत	-6367
ल्त	-6368
▁पक	-6369
▁ाँ	-6370
▁माथ	-6371
▁िका	-6372
चितवन	-6373
▁तटमा	-6374
▁प्ले	-6375
▁ब्रज	-6376
▁किच्च	-6377
▁नामका	-6378
▁बर्मा	-6379
▁भेगमा	-6380
▁महाधि	-6381
▁वेदको	-6382
▁सेनले	-6383
▁अहिंसा	-6384
▁निम्ना	-6385
▁मध्यमा	-6386
▁विपरीत	-6387
▁उपलब्धि	-6388
▁भगवानको	-6389
▁यहाँबाट	-6390
▁प्रारम्भमा	-6391
केट	-6392
मद्	-6393
▁ही	-6394
गुरु	-6395
ड्नु	-6396
्नको	-6397
▁गाह	-6398
▁फुल	-6399
▁साफ	-6400
▁टुप्	-6401
▁बार्	-6402
▁भइन्	-6403
▁रोचक	-6404
▁च्यान	-6405
▁पदबाट	-6406
▁भाद्र	-6407
▁विराट	-6408
▁हटाएर	-6409
श्चात्य	-6410
▁अनुरूप	-6411
▁आख्यान	-6412
▁देशहरू	-6413
▁भन्छन्	-6414
▁दरबारको	-6415
▁रोजगारी	-6416
▁विरूद्ध	-6417
▁भविष्यमा	-6418
▁संस्थाको	-6419
▁पाश्चात्य	-6420
▁सामुदायिक	-6421
जिर	-6422
नदी	-6423
ब्य	-6424
नियम	-6425
मानव	-6426
्वाँ	-6427
▁नवा	-6428
▁प्रय	-6429
▁भिटा	-6430
▁साहि	-6431
आन्दोल	-6432
विद्यु	-6433
स्टाइन	-6434
▁अचानक	-6435
▁नेहरू	-6436
▁न्वार	-6437
▁बन्दि	-6438
▁मंसिर	-6439
▁रमणीय	-6440
▁रहमान	-6441
▁सकेका	-6442
▁सुन्त	-6443
▁अधिवेश	-6444
▁कास्की	-6445
▁निवारण	-6446
▁पर्दैन	-6447
▁राखियो	-6448
▁कुराहरू	-6449
▁न्यायिक	-6450
▁बहुमुखी	-6451
▁स्टालिन	-6452
प्रान्तको	-6453
▁बाल्यकाल	-6454
▁भानुभक्त	-6455
▁रूपान्तरण	-6456
▁कार्यालयहरू	-6457
लं	-6458
ूत	-6459
लेट	-6460
लकण्	-6461
ललाई	-6462
साको	-6463
सियस	-6464
्रेड	-6465
▁तरल	-6466
▁थलो	-6467
▁नरि	-6468
▁कोशी	-6469
▁चिना	-6470
▁दलका	-6471
सस्त्र	-6472
▁आयोजन	-6473
▁ईश्वर	-6474
▁खालका	-6475
▁जनाले	-6476
▁थालनी	-6477
▁पुगेर	-6478
▁तिनलाई	-6479
▁पहेँलो	-6480
▁वर्षका	-6481
▁साँस्क	-6482
▁देवीलाई	-6483
▁बनाइएका	-6484
▁सुर्खेत	-6485
▁उपभोक्ता	-6486
▁चन्द्रमा	-6487
▁चिकित्सक	-6488
▁मूर्तिहरू	-6489
▁कहिलेकाहीँ	-6490
▁कांग्रेसको	-6491
अव	-6492
खेर	-6493
पदा	-6494
याल	-6495
राय	-6496
▁शू	-6497
ण्डै	-6498
▁अन्	-6499
▁अवै	-6500
▁डलर	-6501
▁भात	-6502
किएका	-6503
▁आदान	-6504
▁गाडी	-6505
▁रुक्	-6506
▁स्टे	-6507
पानीको	-6508
स्थलको	-6509
हरुलाई	-6510
▁दस्ता	-6511
▁प्रज्	-6512
▁बस्दै	-6513
▁बुटवल	-6514
▁भवनको	-6515
▁वशिष्	-6516
▁शिष्य	-6517
▁संवाद	-6518
▁पद्धति	-6519
▁माथिको	-6520
▁शैलीको	-6521
▁हदसम्म	-6522
▁एसियामा	-6523
▁यसबाहेक	-6524
▁वंशावली	-6525
▁शक्तिपी	-6526
▁संबिधान	-6527
▁अभियानमा	-6528
▁कम्पनीले	-6529
▁परापूर्व	-6530
▁श्रीलङ्का	-6531
▁महाकाव्यमा	-6532
▁राज्यमन्त्री	-6533
थ्य	-6534
पाट	-6535
पुग	-6536
बेल	-6537
मिर	-6538
ुतम	-6539
्ती	-6540
कालत	-6541
जलाई	-6542
यहाँ	-6543
हस्थ	-6544
▁आंश	-6545
▁जाल	-6546
▁पछी	-6547
▁बंग	-6548
▁लिप	-6549
▁गिरी	-6550
▁चलाए	-6551
▁चुनि	-6552
र्नाटक	-6553
▁गाउने	-6554
▁जुद्ध	-6555
▁मानेर	-6556
▁गाह्रो	-6557
▁छुट्टा	-6558
▁दिवसको	-6559
▁पाएपछि	-6560
▁मिल्दछ	-6561
▁कलात्मक	-6562
▁कागतीको	-6563
▁सम्मेलन	-6564
▁जनसंख्या	-6565
▁समुदायले	-6566
▁कान्तिपुर	-6567
▁पारिवारिक	-6568
▁प्रशिक्षक	-6569
▁बाछिटालेख	-6570
▁भाषाहरूमा	-6571
▁विद्युतीय	-6572
▁विरुद्धको	-6573
▁अभिव्यक्ति	-6574
▁महाकाव्यलाई	-6575
▁स्थानान्तरण	-6576
कलक	-6577
काइ	-6578
गीत	-6579
▁कं	-6580
▁रन	-6581
▁ेश	-6582
▁्ध	-6583
म्या	-6584
रत्न	-6585
ल्टी	-6586
▁अजि	-6587
▁गलत	-6588
▁जून	-6589
▁विल	-6590
▁चालि	-6591
▁जिते	-6592
▁प्रह	-6593
▁शरणा	-6594
ग्रीको	-6595
द्धिको	-6596
▁अवकाश	-6597
▁तपाईँ	-6598
▁नगरमा	-6599
द्यान्न	-6600
मण्डलको	-6601
▁नदीहरू	-6602
▁नामकरण	-6603
▁पारेका	-6604
▁शिवाजी	-6605
▁अयोध्या	-6606
▁निर्यात	-6607
▁पुराणमा	-6608
▁भिटामिन	-6609
▁महासागर	-6610
▁आशीर्वाद	-6611
▁बेलायतको	-6612
▁लुम्बिनी	-6613
▁सम्मिलित	-6614
▁स्वरूपको	-6615
▁किंवदन्ती	-6616
▁खाद्यान्न	-6617
▁पर्यटकहरू	-6618
▁प्राथमिकता	-6619
▁व्यवस्थापिका	-6620
ुस	-6621
टार	-6622
तना	-6623
रबाट	-6624
षिले	-6625
सनको	-6626
ुम्न	-6627
▁नया	-6628
▁बग्	-6629
कालको	-6630
गाविस	-6631
देवको	-6632
पन्थी	-6633
▁जोशी	-6634
▁सेन्	-6635
▁गुरुङ	-6636
▁चिन्ह	-6637
▁नेपोल	-6638
▁पखेटा	-6639
▁मासिक	-6640
▁हप्ता	-6641
संविधान	-6642
▁जुम्ला	-6643
▁प्याले	-6644
▁माताको	-6645
▁मानन्ध	-6646
▁मुर्ति	-6647
▁भेटिएको	-6648
▁मुक्तिका	-6649
▁उपत्यकाका	-6650
▁प्रविधिको	-6651
▁मन्त्रीले	-6652
▁सम्हालेका	-6653
▁स्वस्थानी	-6654
▁प्रजातिहरू	-6655
▁हुनुहुन्थ्यो	-6656
ंज	-6657
ंसी	-6658
इएफ	-6659
प्प	-6660
ाखा	-6661
क्री	-6662
तमिल	-6663
ित्य	-6664
▁विस	-6665
▁शरि	-6666
ग्वेद	-6667
▁खरिद	-6668
▁चामल	-6669
▁जाँड	-6670
▁निभा	-6671
▁पाँड	-6672
▁मोबा	-6673
▁रहेक	-6674
▁हुदा	-6675
पत्रमा	-6676
स्तिना	-6677
हिन्दी	-6678
▁अध्यय	-6679
▁अनुमो	-6680
▁कर्जा	-6681
▁गाईको	-6682
▁परिमा	-6683
▁बन्दी	-6684
▁विषेश	-6685
▁सत्या	-6686
▁हरूको	-6687
▁गुल्मी	-6688
▁विशेषा	-6689
▁अपेक्षा	-6690
▁आम्दानी	-6691
▁पुगेपछि	-6692
▁प्रत्या	-6693
जंगबहादुर	-6694
▁इन्द्रको	-6695
▁गर्दैनन्	-6696
▁जवाहरलाल	-6697
▁वस्तुहरू	-6698
धो	-6699
डेन	-6700
भाष	-6701
मरा	-6702
ोस्	-6703
▁मद	-6704
कालि	-6705
रलाई	-6706
ललित	-6707
सिना	-6708
्छन्	-6709
्जमा	-6710
▁आफै	-6711
▁बला	-6712
▁मरु	-6713
▁वार	-6714
कालिक	-6715
▁अव्य	-6716
▁तस्व	-6717
▁दण्ड	-6718
▁दानव	-6719
▁ब्यब	-6720
ग्रस्त	-6721
समुदाय	-6722
▁पुटिन	-6723
▁मध्यम	-6724
▁राष्ट	-6725
▁शुल्क	-6726
▁आह्वान	-6727
▁चिन्तन	-6728
▁छोराको	-6729
▁नसकेको	-6730
▁पानीले	-6731
▁फाउन्ड	-6732
▁राजाका	-6733
▁स्थलको	-6734
▁जानिन्छ	-6735
▁भगवतीको	-6736
▁वास्तुक	-6737
▁सेवाहरू	-6738
▁इतिहासको	-6739
▁प्रोत्सा	-6740
▁बिस्तारै	-6741
▁रङ्गशालामा	-6742
▁मन्त्रिमण्ड	-6743
▁शान्तिपूर्ण	-6744
गका	-6745
ुम्	-6746
क्या	-6747
क्षु	-6748
थाको	-6749
दीमा	-6750
बरको	-6751
भएका	-6752
यरको	-6753
लाइन	-6754
हेको	-6755
▁पेय	-6756
▁रिस	-6757
जरकोट	-6758
पालको	-6759
विन्द	-6760
▁मधेश	-6761
दोस्रो	-6762
ाउँलाई	-6763
▁चल्ने	-6764
▁देउवा	-6765
▁भर्ती	-6766
▁सम्वत	-6767
स्थानको	-6768
▁जापानी	-6769
▁नराम्रो	-6770
▁बिहारको	-6771
▁विश्वभर	-6772
▁सगरमाथा	-6773
▁समितिले	-6774
ोलुखुम्बु	-6775
▁महिलालाई	-6776
▁एकादशीलाई	-6777
▁कार्यकालमा	-6778
रद	-6779
देउ	-6780
सिल	-6781
िनो	-6782
स्पे	-6783
▁जीत	-6784
▁जुट	-6785
▁मुर	-6786
▁वाम	-6787
▁साब	-6788
पतिको	-6789
सभाको	-6790
ाउँको	-6791
ानलाई	-6792
ियाको	-6793
▁असुर	-6794
▁आश्र	-6795
▁एण्ड	-6796
▁खरेल	-6797
▁नाता	-6798
▁बराल	-6799
▁मामा	-6800
ारखण्ड	-6801
▁आंशिक	-6802
▁उप्रे	-6803
▁गएपछि	-6804
▁तिनका	-6805
▁तेह्र	-6806
▁थाल्छ	-6807
▁नागरी	-6808
▁पीडित	-6809
▁रक्सी	-6810
▁साधना	-6811
पाल्चोक	-6812
▁गतिशील	-6813
▁निवासी	-6814
▁पर्छन्	-6815
▁बिजुली	-6816
▁महादेश	-6817
विराटनगर	-6818
▁जनतालाई	-6819
▁भूभागमा	-6820
▁लक्ष्मण	-6821
▁प्राध्या	-6822
▁बाछिटामा	-6823
▁स्थानलाई	-6824
▁पदाधिकारी	-6825
▁भक्तपुरका	-6826
▁कार्यक्रमको	-6827
किङ	-6828
जला	-6829
थले	-6830
भरी	-6831
यणी	-6832
राह	-6833
▁व्	-6834
जर्म	-6835
लबार	-6836
हुने	-6837
▁संस	-6838
दाबाद	-6839
पदण्ड	-6840
िमियर	-6841
▁इष्ट	-6842
▁करीब	-6843
▁चोरी	-6844
▁टिका	-6845
▁डोटी	-6846
▁पोशा	-6847
▁प्ला	-6848
▁शोभा	-6849
▁संगै	-6850
क्रिया	-6851
युधिष्	-6852
ानुसार	-6853
▁आर्मी	-6854
▁पालना	-6855
▁भाँडा	-6856
▁रामले	-6857
▁वाक्य	-6858
क्षिप्त	-6859
जिमेन्ट	-6860
▁उचाईमा	-6861
▁तत्कालै	-6862
▁परिस्थि	-6863
▁बताइएको	-6864
▁वैदेशिक	-6865
▁प्रभावले	-6866
▁महाधिवेश	-6867
▁समारोहमा	-6868
▁अविश्वासको	-6869
▁आत्मसमर्पण	-6870
▁निम्नानुसार	-6871
▁पुनर्निर्माण	-6872
दुन	-6873
पशु	-6874
फको	-6875
मिण	-6876
▁यश	-6877
▁ुन	-6878
ख्रा	-6879
डाका	-6880
पत्य	-6881
▁कटु	-6882
▁कथन	-6883
▁भरी	-6884
नुभयो	-6885
पोर्ट	-6886
▁बर्त	-6887
▁हिलो	-6888
ङ्ग्रा	-6889
प्रदान	-6890
भीमसेन	-6891
्चालित	-6892
▁दुलाल	-6893
▁नाचको	-6894
▁ल्याए	-6895
खुवासभा	-6896
▁आफुलाई	-6897
▁कुन्ती	-6898
▁ताप्ले	-6899
▁बन्दुक	-6900
▁किराँती	-6901
▁व्याप्त	-6902
▁समितिमा	-6903
▁प्रभुत्व	-6904
▁भुक्तानी	-6905
▁विद्रोही	-6906
▁समुदायका	-6907
▁तिनीहरूले	-6908
▁परम्पराको	-6909
ुइ	-6910
म्स	-6911
र्छ	-6912
▁पत	-6913
ट्या	-6914
बोधन	-6915
मोहन	-6916
शंकर	-6917
शाखा	-6918
▁अज्	-6919
▁टिक	-6920
गङ्गा	-6921
गोत्र	-6922
च्छेद	-6923
ालीमा	-6924
ेकाले	-6925
▁खेले	-6926
▁ताजा	-6927
▁शंकर	-6928
स्तरीय	-6929
हुँदैन	-6930
्यक्रम	-6931
▁चित्त	-6932
▁बोर्ड	-6933
▁मतभेद	-6934
▁रंगको	-6935
▁हल्का	-6936
▁इलेक्ट	-6937
▁ग्रहको	-6938
▁च्यानल	-6939
▁दुवैको	-6940
▁पात्रो	-6941
▁बनाइने	-6942
▁अनुमोदन	-6943
▁डब्ल्यु	-6944
▁रहिआएको	-6945
▁शुरुवात	-6946
▁प्रतिद्व	-6947
▁प्रमुखको	-6948
▁नकारात्मक	-6949
इड	-6950
फु	-6951
उदै	-6952
र्प	-6953
▁कब	-6954
▁्म	-6955
ईन्छ	-6956
उनका	-6957
कुरी	-6958
क्की	-6959
खर्क	-6960
सायी	-6961
▁जटा	-6962
▁मरि	-6963
▁सको	-6964
उँदैन	-6965
जापान	-6966
म्यान	-6967
▁उब्ज	-6968
▁कुमा	-6969
▁कोदो	-6970
▁खासै	-6971
▁चण्ड	-6972
▁निगम	-6973
▁परेर	-6974
▁बानी	-6975
▁वीरे	-6976
▁सधैँ	-6977
▁सिलग	-6978
▁सुधा	-6979
▁सेमी	-6980
▁आयोजक	-6981
▁कामना	-6982
▁खानले	-6983
▁नतिजा	-6984
▁ब्राह	-6985
▁मजदुर	-6986
▁युगको	-6987
▁यूरोप	-6988
▁सुन्न	-6989
अङ्ग्रे	-6990
णाचार्य	-6991
▁अनुकूल	-6992
▁काभ्रे	-6993
▁टोलीको	-6994
▁पुच्छर	-6995
▁प्रकोप	-6996
▁बनाउँछ	-6997
▁बस्छन्	-6998
▁बस्नेत	-6999
▁हिरण्य	-7000
प्रसिद्ध	-7001
▁अवधिलाई	-7002
▁एसियाका	-7003
▁पाइँदैन	-7004
▁पिरामिड	-7005
▁महिलाले	-7006
▁महोत्सव	-7007
▁माइक्रो	-7008
▁यिनीहरु	-7009
▁सुधारका	-7010
▁अध्यायमा	-7011
▁शान्तिको	-7012
▁अमेरिकाले	-7013
▁किलोमिटरको	-7014
▁निम्नलिखित	-7015
▁साहित्यकार	-7016
मग	-7017
साह	-7018
पूजा	-7019
ब्रो	-7020
मोरङ	-7021
▁आवि	-7022
▁ीको	-7023
दशीको	-7024
ाउनको	-7025
▁अलिक	-7026
▁अश्व	-7027
▁खराब	-7028
▁चर्च	-7029
▁रेग्	-7030
▁रोगी	-7031
▁ूपमा	-7032
रियाली	-7033
▁गोप्य	-7034
▁जोडेर	-7035
▁मकवान	-7036
▁मोहित	-7037
▁हुलाक	-7038
ष्टद्यु	-7039
▁क्लबले	-7040
▁खेलेको	-7041
▁पुरातन	-7042
▁सिनेमा	-7043
▁स्तरका	-7044
मकवानपुर	-7045
▁प्रचण्ड	-7046
▁लैङ्गिक	-7047
▁शसस्त्र	-7048
▁चलिरहेको	-7049
▁नियमावली	-7050
▁कार्यविधि	-7051
▁वर्षहरूमा	-7052
▁विकिपिडिया	-7053
▁बङ्गलादेशका	-7054
पं	-7055
यद	-7056
किम	-7057
डाँ	-7058
तेर	-7059
रात	-7060
▁सँ	-7061
कारक	-7062
जहाँ	-7063
प्चा	-7064
सप्त	-7065
साधन	-7066
स्का	-7067
स्ते	-7068
▁डरा	-7069
▁बगा	-7070
▁भन्	-7071
राहरू	-7072
षिकेश	-7073
हत्या	-7074
िरलाई	-7075
▁अपरि	-7076
▁अरुण	-7077
▁इलाम	-7078
▁चार्	-7079
▁दशरथ	-7080
▁दाना	-7081
▁द्वि	-7082
▁बिदा	-7083
▁रहेछ	-7084
▁शोषण	-7085
▁सहरी	-7086
पशुपति	-7087
प्रयोग	-7088
▁गुजरा	-7089
▁महान्	-7090
▁रोक्न	-7091
▁हरूमा	-7092
▁जनाएको	-7093
▁तुल्या	-7094
▁निकालि	-7095
▁मिटरको	-7096
▁रावणको	-7097
▁अहिलेको	-7098
▁कमाण्डर	-7099
▁तोकिएको	-7100
▁त्यसबाट	-7101
▁ध्यानमा	-7102
▁रहेकाले	-7103
▁सिफारिस	-7104
जिल्लाहरू	-7105
▁पदार्थको	-7106
▁प्रवाहित	-7107
▁रासायनिक	-7108
▁सेल्सियस	-7109
▁पूर्वाधार	-7110
▁समानुपातिक	-7111
▁इन्डोनेसिया	-7112
▁कार्यक्रममा	-7113
▁पर्यटकहरूको	-7114
ईन	-7115
थल	-7116
बम	-7117
मध	-7118
ँगो	-7119
विद	-7120
मोदर	-7121
षिको	-7122
स्टि	-7123
▁उपर	-7124
▁मिस	-7125
बिम्ब	-7126
▁आफैं	-7127
▁आराम	-7128
▁उदार	-7129
▁खानु	-7130
▁धागो	-7131
▁नजरु	-7132
▁नाम्	-7133
▁हारा	-7134
र्ताको	-7135
▁अभिने	-7136
▁खड्का	-7137
▁तपाईं	-7138
▁त्रुट	-7139
▁कैलाली	-7140
▁जनतामा	-7141
▁जनवादी	-7142
▁विकल्प	-7143
▁शरीरका	-7144
▁स्वागत	-7145
▁अन्तरगत	-7146
▁नजरबन्द	-7147
▁मल्ललाई	-7148
▁रहन्छन्	-7149
▁सल्लाहकार	-7150
▁इन्जिनियरिङ	-7151
आइ	-7152
ड्न	-7153
देल	-7154
बाँ	-7155
म्व	-7156
ल्फ	-7157
हाय	-7158
▁कव	-7159
▁ाज	-7160
जन्य	-7161
बुवा	-7162
लीले	-7163
वैज्	-7164
सत्य	-7165
▁उही	-7166
▁बिग	-7167
▁मुह	-7168
▁सरी	-7169
▁सिँ	-7170
गुजरा	-7171
चीनको	-7172
र्षको	-7173
▁कारो	-7174
▁तारि	-7175
▁दलले	-7176
▁धामी	-7177
▁ध्रु	-7178
▁पेरि	-7179
▁माग्	-7180
▁आदिका	-7181
▁उपमहा	-7182
▁गोर्ख	-7183
▁जातका	-7184
▁भागेर	-7185
▁रेलवे	-7186
▁वस्ती	-7187
▁शरणमा	-7188
▁सुमेर	-7189
▁उनीसँग	-7190
▁कार्की	-7191
▁गिरिजा	-7192
▁चितुवा	-7193
▁नरसिंह	-7194
▁बताउनु	-7195
▁माहिला	-7196
▁मिल्दो	-7197
▁त्यसपछी	-7198
▁बजाइन्छ	-7199
▁बताइन्छ	-7200
▁मार्क्स	-7201
▁वीरगन्ज	-7202
▁समुद्री	-7203
▁हिउँदमा	-7204
▁नागरिकलाई	-7205
▁हस्तान्तरण	-7206
▁पुरातात्विक	-7207
▁विशेषाधिकार	-7208
म्य	-7209
युग	-7210
विष	-7211
ेष्	-7212
▁इस	-7213
त्ते	-7214
वहार	-7215
स्टो	-7216
िएका	-7217
▁इजि	-7218
▁एसि	-7219
▁जोन	-7220
▁सति	-7221
▁हाई	-7222
देवता	-7223
संहार	-7224
सरकार	-7225
▁पारे	-7226
▁माधव	-7227
पश्चात	-7228
▁आफुले	-7229
▁काराग	-7230
▁गतिमा	-7231
▁मुल्य	-7232
▁श्रेण	-7233
परीक्षण	-7234
▁इजिप्ट	-7235
▁कर्णेल	-7236
▁गर्दैन	-7237
▁गिरफ्त	-7238
▁लगाउनु	-7239
लम्पिकमा	-7240
▁निकायको	-7241
▁महाकाली	-7242
▁मान्छन्	-7243
▁मिश्रमा	-7244
▁लगाइन्छ	-7245
▁सुन्दरी	-7246
▁तिब्बतमा	-7247
▁भूमिकामा	-7248
▁कोइरालाको	-7249
▁खेलाडीहरू	-7250
▁विश्वकपको	-7251
▁उपजिल्लाको	-7252
▁कम्युनिष्ट	-7253
▁राजतन्त्रको	-7254
▁राष्ट्रमण्डल	-7255
▁डब्ल्युडब्ल्यु	-7256
शक	-7257
निन	-7258
वाङ	-7259
हिर	-7260
्तन	-7261
▁एड	-7262
▁षा	-7263
ंकित	-7264
पिता	-7265
मन्त	-7266
लाही	-7267
्याव	-7268
▁आइत	-7269
▁उति	-7270
▁एएफ	-7271
▁कां	-7272
▁चिर	-7273
▁दाह	-7274
▁नाथ	-7275
▁सिक	-7276
ँसराइ	-7277
एसिया	-7278
कर्मी	-7279
र्जुन	-7280
वाहिक	-7281
▁पद्य	-7282
▁रेशम	-7283
▁किनार	-7284
▁जरुरी	-7285
▁प्रोट	-7286
▁सिंहा	-7287
उपत्यका	-7288
ब्रिटिस	-7289
महाभारत	-7290
▁चारवटा	-7291
▁बिरुवा	-7292
▁विशेषत	-7293
▁अदालतले	-7294
▁जडिबुटी	-7295
▁पर्वतको	-7296
▁प्रबन्ध	-7297
▁गान्धीले	-7298
▁निकाल्ने	-7299
▁मान्दछन्	-7300
▁मिलिमिटर	-7301
▁कम्पनीलाई	-7302
▁तात्कालिक	-7303
▁तीर्थस्थल	-7304
▁रुद्राक्ष	-7305
▁डिसेम्बरमा	-7306
▁दुर्योधनको	-7307
▁प्रमाणपत्र	-7308
▁महेन्द्रले	-7309
▁राज्यलक्ष्मी	-7310
इट	-7311
टप	-7312
पिङ	-7313
मदन	-7314
सीय	-7315
ाटा	-7316
ूनी	-7317
▁खर	-7318
▁ग्	-7319
▁हट	-7320
▁हड	-7321
टीका	-7322
नुवा	-7323
ब्बा	-7324
भद्र	-7325
रुणा	-7326
▁कूल	-7327
▁क्त	-7328
▁गुट	-7329
▁धीर	-7330
▁माण	-7331
द्धिक	-7332
▁ट्रा	-7333
▁फ्या	-7334
▁रिहा	-7335
▁लेखे	-7336
▁हिँड	-7337
न्देही	-7338
रामलाई	-7339
▁आबद्ध	-7340
▁आरोहण	-7341
▁जेलमा	-7342
▁धानको	-7343
▁नदीले	-7344
▁भुटान	-7345
▁मोक्ष	-7346
▁समापन	-7347
प्रतिको	-7348
▁चलाएका	-7349
▁टोलीका	-7350
▁दाहिने	-7351
▁मोबाइल	-7352
▁वैष्णव	-7353
▁निम्त्या	-7354
▁सिमानामा	-7355
▁कर्मकाण्ड	-7356
▁महिनासम्म	-7357
▁ङ	-7358
डोर	-7359
थाइ	-7360
रहो	-7361
्थे	-7362
▁डर	-7363
▁पह	-7364
ग्नि	-7365
द्दि	-7366
बिधा	-7367
राजक	-7368
र्दै	-7369
▁आलो	-7370
▁जिन	-7371
▁ज्व	-7372
▁दाल	-7373
▁बसी	-7374
▁बीस	-7375
म्बार	-7376
रसिंह	-7377
▁अहमद	-7378
▁उष्ण	-7379
▁गाँउ	-7380
▁पटना	-7381
▁पुर्	-7382
▁बर्ष	-7383
▁भद्र	-7384
▁माला	-7385
▁मिसा	-7386
▁मेगा	-7387
▁यिनि	-7388
▁सहमत	-7389
▁सेती	-7390
ँडिखेल	-7391
पब्लिक	-7392
▁आफैले	-7393
▁चन्दन	-7394
▁तैनाथ	-7395
▁दुर्व	-7396
▁नदीका	-7397
▁पुँजी	-7398
▁बनारस	-7399
▁रणजित	-7400
▁वकालत	-7401
▁हातले	-7402
कलकत्ता	-7403
▁कालिका	-7404
▁जनजाति	-7405
▁नेवारी	-7406
▁पुर्खा	-7407
▁फर्केर	-7408
▁मेलामा	-7409
▁श्रावण	-7410
▁सकिनेछ	-7411
▁सिक्का	-7412
▁समयदेखि	-7413
▁हराउँदै	-7414
▁उपाध्याय	-7415
▁गरिसकेका	-7416
▁प्रिमियर	-7417
▁मन्दिरलाई	-7418
▁विस्थापित	-7419
▁सुनिश्चित	-7420
▁स्थापनाको	-7421
▁महिलाहरूले	-7422
▁क्षेत्रफलमा	-7423
ुड	-7424
ँका	-7425
कटा	-7426
कल्	-7427
किल	-7428
्जय	-7429
र्जु	-7430
लिबि	-7431
ल्सी	-7432
वाणी	-7433
्जको	-7434
▁काई	-7435
▁कोत	-7436
▁लहर	-7437
ताबाट	-7438
नासाथ	-7439
नेपछि	-7440
▁एन्ड	-7441
▁कस्त	-7442
▁जिल्	-7443
▁मिले	-7444
ज्योति	-7445
▁आउँदा	-7446
▁छरिएर	-7447
▁तिहार	-7448
▁दर्शक	-7449
▁अनुगमन	-7450
▁असन्तु	-7451
▁संसदमा	-7452
▁गर्नुका	-7453
▁जन्मेको	-7454
▁दाजुभाइ	-7455
▁पूर्वको	-7456
▁बकुल्ला	-7457
▁बोल्छन्	-7458
▁भइसकेका	-7459
▁सम्बोधन	-7460
▁हप्ताको	-7461
▁रणबहादुर	-7462
▁संयन्त्र	-7463
▁समालोचना	-7464
▁राम्रोसँग	-7465
धाम	-7466
नास	-7467
पहा	-7468
वले	-7469
स्प	-7470
▁बट	-7471
च्छि	-7472
ड्दा	-7473
संसद	-7474
▁ईशा	-7475
▁एके	-7476
▁ख्य	-7477
▁धाम	-7478
▁पमा	-7479
▁फार	-7480
▁बेच	-7481
▁लाम	-7482
▁ाले	-7483
गोरखा	-7484
नीहरू	-7485
पुराण	-7486
▁अब्द	-7487
▁गहना	-7488
▁पदको	-7489
▁पैदल	-7490
▁माथे	-7491
दुर्गा	-7492
पुरबाट	-7493
▁खत्री	-7494
▁गतेको	-7495
▁पूँजी	-7496
▁बन्दै	-7497
▁बर्खा	-7498
▁लेखमा	-7499
▁वंशका	-7500
▁वाहेक	-7501
▁शाक्य	-7502
ङ्खलाको	-7503
▁राणाले	-7504
▁समाजका	-7505
▁सम्वत्	-7506
▁आमाबाबु	-7507
▁उप्रेती	-7508
▁प्रयोजन	-7509
▁हत्याको	-7510
▁ग्रन्थमा	-7511
▁चतुर्दशी	-7512
▁नागरिकको	-7513
▁पन्जाबको	-7514
▁बच्चालाई	-7515
▁समस्याको	-7516
जू	-7517
ाय	-7518
किए	-7519
ज्व	-7520
परक	-7521
रीद	-7522
सिम	-7523
ावा	-7524
ियु	-7525
ुली	-7526
ेरे	-7527
▁उँ	-7528
▁कफ	-7529
▁फर	-7530
याका	-7531
श्रे	-7532
सममा	-7533
▁काउ	-7534
▁पिछ	-7535
▁बरु	-7536
▁मधे	-7537
▁रसा	-7538
नेटमा	-7539
सुन्द	-7540
्याभि	-7541
▁अर्ध	-7542
▁आफैँ	-7543
▁फोर्	-7544
▁बैंक	-7545
▁माल्	-7546
▁लिया	-7547
कारीको	-7548
नुपर्छ	-7549
शम्शेर	-7550
▁अस्था	-7551
▁पित्त	-7552
▁मरेको	-7553
▁मर्या	-7554
▁महीना	-7555
▁राधाक	-7556
▁वक्ता	-7557
▁सहरका	-7558
▁सिलसि	-7559
▁स्वाय	-7560
▁तस्वीर	-7561
▁पाटनको	-7562
▁मध्यको	-7563
▁रेग्मी	-7564
▁सोमबार	-7565
राजकुमार	-7566
▁कुरालाई	-7567
▁मापदण्ड	-7568
▁मुस्ताङ	-7569
▁युद्धका	-7570
▁शमशेरको	-7571
▁जर्मनीको	-7572
▁तुरुन्तै	-7573
▁प्रदेशका	-7574
▁बारम्बार	-7575
▁समर्थनमा	-7576
▁सूर्यग्रहण	-7577
जति	-7578
माइ	-7579
हेब	-7580
आर्य	-7581
कियो	-7582
कुनै	-7583
पनीय	-7584
पाँच	-7585
फिफा	-7586
सरको	-7587
▁अप्	-7588
▁देङ	-7589
▁पोल	-7590
▁बचा	-7591
▁बोध	-7592
▁मङ्	-7593
▁मेट	-7594
▁शेष	-7595
राजले	-7596
रामले	-7597
श्रीक	-7598
▁कुहि	-7599
▁पाटन	-7600
▁बुवा	-7601
▁सुका	-7602
▁स्तर	-7603
उत्तरा	-7604
सहितको	-7605
्यान्ड	-7606
▁अम्बा	-7607
▁इजराय	-7608
▁कामका	-7609
▁तुलसी	-7610
▁पुतली	-7611
▁प्रेत	-7612
▁बाँदर	-7613
▁सूचीक	-7614
▁आइपुग्	-7615
▁इन्जिन	-7616
▁गरीन्छ	-7617
▁जीवनका	-7618
▁महाकवि	-7619
▁मारुनी	-7620
▁मैत्री	-7621
▁रोजगार	-7622
▁हेर्नु	-7623
दुर्योधन	-7624
▁अंग्रेज	-7625
▁कार्यको	-7626
▁देखाएको	-7627
▁नेहरूले	-7628
▁पछिल्ला	-7629
▁बनारसमा	-7630
▁मुकुन्द	-7631
▁सहयोगको	-7632
▁सालसम्म	-7633
▁टुँडिखेल	-7634
▁पंक्षीले	-7635
▁प्रयुक्त	-7636
▁वर्षदेखि	-7637
▁शमशेरलाई	-7638
▁सम्पुर्ण	-7639
▁क्षेत्रिय	-7640
▁पुर्याउने	-7641
▁मुलुकहरूमा	-7642
ंले	-7643
दर्	-7644
राँ	-7645
शनल	-7646
ेलु	-7647
▁अख	-7648
▁कू	-7649
▁ोग	-7650
▁्ड	-7651
ङ्का	-7652
र्दन	-7653
ालमा	-7654
िकको	-7655
▁फोर	-7656
▁बखत	-7657
▁विच	-7658
▁सना	-7659
रालाई	-7660
▁खगोल	-7661
▁खाली	-7662
▁मानी	-7663
▁िएको	-7664
श्चर्य	-7665
▁असमान	-7666
▁पतिको	-7667
▁रहस्य	-7668
▁सरेका	-7669
▁निक्कै	-7670
▁बाक्लो	-7671
▁मत्स्य	-7672
▁माटोको	-7673
▁शासनमा	-7674
▁सम्शेर	-7675
▁कारोबार	-7676
▁गुणस्तर	-7677
▁प्रशंसा	-7678
▁विभागमा	-7679
▁हुनसक्छ	-7680
▁आविष्कार	-7681
▁सेन्टिमिटर	-7682
लन	-7683
यम्	-7684
शहर	-7685
▁िर	-7686
ङ्जा	-7687
डेको	-7688
बर्ट	-7689
भिया	-7690
मिलो	-7691
सनमा	-7692
▁लखन	-7693
▁समी	-7694
यातको	-7695
▁एकदम	-7696
▁दिल्	-7697
▁दैवी	-7698
▁नारा	-7699
▁बच्न	-7700
▁सक्त	-7701
त्यक्ष	-7702
द्धान्	-7703
नुभएको	-7704
न्तरमा	-7705
सिन्धु	-7706
▁आमाले	-7707
▁उद्गम	-7708
▁उपसभा	-7709
▁जयद्र	-7710
▁देखिए	-7711
▁भाषिक	-7712
▁अनलाइन	-7713
▁अस्थिर	-7714
▁आश्विन	-7715
▁तत्त्व	-7716
▁दिनलाई	-7717
▁नपाउने	-7718
▁मान्नु	-7719
▁लम्बाइ	-7720
▁लाग्नु	-7721
▁व्यङ्ग	-7722
देवनागरी	-7723
पश्चिममा	-7724
▁अभिनेता	-7725
▁प्रदायक	-7726
▁प्रयत्न	-7727
▁विष्णुले	-7728
▁राजनीतिज्	-7729
▁क्याम्पसमा	-7730
▁भक्तजनहरूको	-7731
▁राजेन्द्रलाई	-7732
▁प्रतिद्वन्द्व	-7733
गै	-7734
किन	-7735
थली	-7736
ापन	-7737
िती	-7738
िनै	-7739
▁आध	-7740
▁शत	-7741
त्था	-7742
प्या	-7743
बाबा	-7744
याधि	-7745
राले	-7746
रोधी	-7747
ल्दै	-7748
वामा	-7749
ष्मा	-7750
्र्य	-7751
▁एमा	-7752
▁त्त	-7753
▁निक	-7754
▁बीउ	-7755
▁मास	-7756
▁वचन	-7757
केतिक	-7758
ङ्कुश	-7759
च्युत	-7760
प्रजा	-7761
भागमा	-7762
लम्बन	-7763
सन्धि	-7764
सभामा	-7765
सेनको	-7766
▁एकीक	-7767
▁खोज्	-7768
▁दत्त	-7769
▁द्वी	-7770
▁नलाग	-7771
▁ब्रत	-7772
▁मेजर	-7773
▁रिसा	-7774
▁हटाई	-7775
ब्रह्म	-7776
हरादुन	-7777
▁अग्ला	-7778
▁किनकी	-7779
▁देशले	-7780
▁पातलो	-7781
▁लडेका	-7782
परम्परा	-7783
पार्वती	-7784
▁अन्याय	-7785
▁आलोचना	-7786
▁नामहरू	-7787
▁पहाडमा	-7788
▁बिद्रो	-7789
▁कानुनको	-7790
▁तपाईँको	-7791
▁परिषदको	-7792
▁बुद्धका	-7793
▁मातहतमा	-7794
▁मुलुकमा	-7795
▁संकटकाल	-7796
▁संगीतमा	-7797
▁समायोजन	-7798
▁अर्जुनको	-7799
▁आक्रमणको	-7800
▁जनआन्दोल	-7801
▁तिब्बतको	-7802
▁परमात्मा	-7803
▁शरणार्थी	-7804
▁संस्थाले	-7805
▁सदस्यहरु	-7806
▁बसाइँसराइ	-7807
▁सामग्रीको	-7808
▁नगरपालिकार	-7809
▁अधिराजकुमार	-7810
▁महानगरपालिका	-7811
▁उपप्रधानमन्त्री	-7812
बह	-7813
ंखल	-7814
शमा	-7815
ाटु	-7816
▁ेर	-7817
थिन्	-7818
नत्व	-7819
न्दै	-7820
स्ना	-7821
ाँटी	-7822
▁उमा	-7823
▁खस्	-7824
▁यसअ	-7825
▁रङ्	-7826
▁र्य	-7827
▁लोभ	-7828
▁व्र	-7829
▁साग	-7830
▁हरु	-7831
कन्या	-7832
नेटको	-7833
याममा	-7834
▁कहीं	-7835
▁गोल्	-7836
▁निधि	-7837
▁फाँट	-7838
▁राष्	-7839
▁समथर	-7840
▁सिंग	-7841
▁सुपर	-7842
पत्रको	-7843
▁अण्डा	-7844
▁एकसाथ	-7845
▁द्रुत	-7846
▁मनाउन	-7847
▁विश्र	-7848
ंखलताका	-7849
कालदेखि	-7850
डब्ल्यू	-7851
▁कामदार	-7852
▁दसैँको	-7853
▁यन्त्र	-7854
▁वर्गको	-7855
▁सुबिधा	-7856
▁उच्चारण	-7857
▁कानूनले	-7858
▁गर्थ्यो	-7859
▁मार्गको	-7860
▁विभागीय	-7861
▁विशेषज्	-7862
▁शक्तिमा	-7863
▁शब्दहरू	-7864
▁समाप्ति	-7865
▁आत्मालाई	-7866
▁मूर्तिको	-7867
▁सक्दैनन्	-7868
▁मन्त्रीको	-7869
▁मुख्तियार	-7870
▁विश्वकर्मा	-7871
ुण	-7872
ट्स	-7873
धरी	-7874
ब्ध	-7875
ेता	-7876
▁खत	-7877
काका	-7878
गर्न	-7879
चक्र	-7880
न्डी	-7881
प्ति	-7882
म्पा	-7883
सन्ध	-7884
स्पर	-7885
▁कूट	-7886
▁गोप	-7887
▁चोट	-7888
▁जबर	-7889
▁टेल	-7890
▁द्ध	-7891
▁नेट	-7892
▁लुई	-7893
क्ष्य	-7894
दर्शी	-7895
रुद्र	-7896
▁एकता	-7897
▁कब्ज	-7898
▁छोरो	-7899
▁दशमल	-7900
▁मिलन	-7901
ग्रन्थ	-7902
▁ब्रम्	-7903
▁शामिल	-7904
▁हुनको	-7905
ङ्गापुर	-7906
▁छालाको	-7907
▁रणनीति	-7908
▁वर्षीय	-7909
पिलवस्तु	-7910
▁आश्चर्य	-7911
▁जाजरकोट	-7912
▁बिताएका	-7913
शास्त्रमा	-7914
▁क्षत्रिय	-7915
▁गिरफ्तार	-7916
▁बन्दरगाह	-7917
▁जनविश्वास	-7918
▁राजपरिवार	-7919
▁व्यवसायिक	-7920
▁अधिराज्यमा	-7921
▁विश्वविद्यालयका	-7922
चाई	-7923
जरी	-7924
लीन	-7925
लोड	-7926
ुकी	-7927
▁उस	-7928
▁धो	-7929
गणेश	-7930
जियम	-7931
तिकै	-7932
त्रो	-7933
नयाँ	-7934
प्रो	-7935
फिल्	-7936
रहने	-7937
लोजी	-7938
वेली	-7939
▁गहन	-7940
▁नगद	-7941
▁नचा	-7942
टनाले	-7943
पछिको	-7944
ात्मक	-7945
▁किरण	-7946
▁क्षण	-7947
▁क्षु	-7948
▁गार्	-7949
▁धुलो	-7950
▁फ्रे	-7951
▁सर्ग	-7952
▁्ट्र	-7953
रामायण	-7954
ीहरूले	-7955
▁अनुसू	-7956
▁चलाउन	-7957
▁जागिर	-7958
▁जातको	-7959
▁नक्सा	-7960
▁पछ्या	-7961
▁यशोदा	-7962
▁सनातन	-7963
▁स्पर्	-7964
▁तराईमा	-7965
▁नाच्ने	-7966
▁पर्खाल	-7967
▁पाण्डु	-7968
▁पुग्दछ	-7969
▁मिडिया	-7970
▁रहेकोछ	-7971
▁विपक्ष	-7972
▁सकिएको	-7973
▁समानता	-7974
▁कम्तिमा	-7975
▁जहाँबाट	-7976
▁मार्गमा	-7977
पाकिस्तान	-7978
▁अनुसारको	-7979
▁जीवनशैली	-7980
▁निरीक्षण	-7981
▁प्रस्थान	-7982
▁सूर्यलाई	-7983
▁अल्पसंख्यक	-7984
षे	-7985
ुव	-7986
गाई	-7987
बरी	-7988
रिस	-7989
हाङ	-7990
िमी	-7991
▁एल	-7992
▁मम	-7993
जुरा	-7994
ट्टर	-7995
डेल्	-7996
पन्न	-7997
बासी	-7998
भ्या	-7999
सर्व	-8000
हीको	-8001
▁चाै	-8002
▁डटक	-8003
▁दाग	-8004
▁नखा	-8005
▁नाप	-8006
▁हाउ	-8007
गर्ने	-8008
▁गराउ	-8009
▁गुना	-8010
▁चिनी	-8011
▁छोडि	-8012
▁तिमि	-8013
▁नसके	-8014
▁वाग्	-8015
▁व्यब	-8016
धनकुटा	-8017
मुक्ति	-8018
वरसिंह	-8019
▁अराजक	-8020
▁प्रेस	-8021
▁बगेको	-8022
▁बन्धन	-8023
▁ल्याई	-8024
▁शाश्व	-8025
▁गुलियो	-8026
▁जनाउँछ	-8027
▁जित्यो	-8028
▁ज्यादा	-8029
▁तीनवटा	-8030
▁द्रव्य	-8031
▁बताएका	-8032
▁संवेदन	-8033
तापूर्वक	-8034
▁अध्यापक	-8035
▁संचालित	-8036
▁हुनुभयो	-8037
▁निरङ्कुश	-8038
▁निस्केको	-8039
▁प्रतिरोध	-8040
▁परिस्थिति	-8041
▁सिफारिसमा	-8042
आज	-8043
कं	-8044
भय	-8045
भ्	-8046
ँडै	-8047
णका	-8048
ोमा	-8049
ँबाट	-8050
दिया	-8051
वाको	-8052
वारा	-8053
ोहित	-8054
्रिक	-8055
▁आफ्	-8056
▁इरा	-8057
▁उने	-8058
▁एयर	-8059
▁खटा	-8060
▁जडी	-8061
▁तला	-8062
▁दफा	-8063
▁धेर	-8064
▁ध्य	-8065
▁भाई	-8066
▁शैल	-8067
▁सरो	-8068
▁्ति	-8069
विवाह	-8070
▁उत्र	-8071
▁गद्य	-8072
▁जीवि	-8073
▁तिनै	-8074
▁नन्द	-8075
▁भत्क	-8076
▁माने	-8077
▁शक्त	-8078
▁साङ्	-8079
▁सेके	-8080
तिब्बत	-8081
त्तिको	-8082
पनिवेश	-8083
लिङ्गी	-8084
वर्तित	-8085
शिक्षा	-8086
▁अतिथि	-8087
▁एकपटक	-8088
▁किम्व	-8089
▁खरायो	-8090
▁गिद्ध	-8091
▁गीतमा	-8092
▁डुवर्	-8093
▁बुध्द	-8094
▁भेट्न	-8095
▁लागेर	-8096
▁सशक्त	-8097
▁सुल्त	-8098
विद्युत	-8099
▁अष्ट्र	-8100
▁जोड्ने	-8101
▁ज्वाला	-8102
▁प्रताप	-8103
▁बाख्रा	-8104
▁बिलिबि	-8105
▁भूमिमा	-8106
▁मङ्सिर	-8107
▁राक्षस	-8108
▁सहरलाई	-8109
▁स्टेशन	-8110
▁उहाँलाई	-8111
▁निस्कने	-8112
▁प्रवर्त	-8113
▁रहेकोले	-8114
▁सत्तामा	-8115
▁स्वदेशी	-8116
अमेरिकाका	-8117
▁कार्यकार	-8118
▁जात्राको	-8119
▁प्रतिवेद	-8120
▁शिक्षाका	-8121
▁सङ्गीतको	-8122
▁कोइरालाले	-8123
▁तुलनात्मक	-8124
▁पाण्डवहरू	-8125
▁राष्ट्रसं	-8126
▁महाकाव्यको	-8127
खिक	-8128
लेक	-8129
सनल	-8130
ाले	-8131
गोडा	-8132
ग्ने	-8133
टोको	-8134
पाटन	-8135
ब्रा	-8136
र्तन	-8137
र्नर	-8138
लागी	-8139
लेजु	-8140
सुरु	-8141
▁अंत	-8142
▁खतर	-8143
▁तमा	-8144
▁तस्	-8145
▁बीर	-8146
▁भिड	-8147
▁हिं	-8148
▁ाली	-8149
▁्रा	-8150
करणको	-8151
जस्ती	-8152
नार्थ	-8153
न्जेल	-8154
▁गहुँ	-8155
▁ट्रि	-8156
▁ट्रे	-8157
▁नाका	-8158
▁पाला	-8159
▁बर्ग	-8160
▁मामि	-8161
▁रहयो	-8162
▁लसुन	-8163
▁स्वी	-8164
उपनिषद	-8165
बिक्रम	-8166
▁एक्लै	-8167
▁कास्य	-8168
▁दशमलव	-8169
▁नगरको	-8170
▁भूगोल	-8171
▁रुद्र	-8172
▁सरदार	-8173
▁स्टार	-8174
भित्रको	-8175
मार्गको	-8176
▁अग्रणी	-8177
▁आजसम्म	-8178
▁खतरनाक	-8179
▁टुप्पो	-8180
▁यात्रु	-8181
▁राख्दछ	-8182
▁राणाको	-8183
▁समारोह	-8184
पूर्णिमा	-8185
▁कानूनको	-8186
▁छोराहरू	-8187
▁जातिहरू	-8188
▁दस्तावे	-8189
▁प्रतिमा	-8190
▁शासनकाल	-8191
▁संगीतको	-8192
▁सन्धिको	-8193
▁सुन्तला	-8194
▁स्तनपान	-8195
क्षेत्रको	-8196
▁उद्योगको	-8197
▁परिषद्को	-8198
▁सामानहरू	-8199
▁संक्षिप्त	-8200
▁अस्पतालहरू	-8201
▁विद्यावारि	-8202
▁नेपालीहरूको	-8203
▁लोकतान्त्रिक	-8204
अन	-8205
कन	-8206
णे	-8207
वश	-8208
ुके	-8209
ेकै	-8210
क्दै	-8211
जाको	-8212
ट्ने	-8213
नहरू	-8214
पारी	-8215
राँस	-8216
ेट्स	-8217
▁खाए	-8218
▁टोक	-8219
▁भोक	-8220
▁रिक	-8221
▁लको	-8222
निएको	-8223
न्यास	-8224
भनेको	-8225
सुधार	-8226
▁अवैध	-8227
▁आइन्	-8228
▁उर्व	-8229
▁कचुर	-8230
▁चुना	-8231
▁जम्म	-8232
▁थाल्	-8233
▁नारद	-8234
▁नेदर	-8235
▁प्यु	-8236
▁रोमन	-8237
▁सत्त	-8238
स्त्रा	-8239
▁एकेडे	-8240
▁कस्तो	-8241
▁त्यसो	-8242
▁पराजय	-8243
▁पातको	-8244
▁पार्व	-8245
▁राँगा	-8246
▁वर्षअ	-8247
हरूदेखि	-8248
▁टोलीमा	-8249
▁मार्नु	-8250
▁रङ्गको	-8251
▁सुनसरी	-8252
▁रंगशाला	-8253
▁सम्पादक	-8254
▁गरिदिएका	-8255
▁स्वभावका	-8256
▁हाराहारी	-8257
▁देशव्यापी	-8258
▁परम्परामा	-8259
▁कार्यालयको	-8260
▁कार्यालयमा	-8261
▁अर्थमन्त्री	-8262
▁मन्त्रालयले	-8263
▁सम्प्रदायमा	-8264
▁वटाजिल्लाहरू	-8265
▁विश्वयुद्धमा	-8266
आँ	-8267
एवं	-8268
खान	-8269
बहु	-8270
भोग	-8271
लाह	-8272
गामी	-8273
ट्टै	-8274
ध्वज	-8275
फोर्	-8276
मलाई	-8277
वरमा	-8278
सान्	-8279
सिरी	-8280
ूलको	-8281
▁एल्	-8282
▁डाय	-8283
▁दाउ	-8284
▁पस्	-8285
▁फिन	-8286
▁मकर	-8287
▁हेड	-8288
▁्नो	-8289
फुटबल	-8290
र्धमा	-8291
वलपरा	-8292
▁गाउन	-8293
▁ग्रि	-8294
▁नवाब	-8295
▁मागे	-8296
▁मोटा	-8297
▁लिमि	-8298
अधिकार	-8299
काहारी	-8300
जुल्दो	-8301
त्मकता	-8302
▁अनन्त	-8303
▁उत्खन	-8304
▁एकजना	-8305
▁खेलका	-8306
▁टिमका	-8307
▁दिँदै	-8308
▁पर्यट	-8309
▁मारेर	-8310
▁लिगमा	-8311
▁सुत्क	-8312
▁आइपुगे	-8313
▁कांस्य	-8314
▁गोकर्ण	-8315
▁जमिनमा	-8316
▁त्रुटि	-8317
▁दुर्गम	-8318
▁देवराज	-8319
▁भाइहरू	-8320
▁मल्लका	-8321
▁मानेका	-8322
▁समुहमा	-8323
▁सुन्ने	-8324
उपनिषदहो	-8325
शास्त्री	-8326
▁कुनैपनि	-8327
▁खुवाउने	-8328
▁थापालाई	-8329
▁बैङ्कले	-8330
▁ब्रिटेन	-8331
▁विष्टले	-8332
▁समग्रमा	-8333
▁नेपालबाट	-8334
▁महाद्वीप	-8335
▁राजगद्दी	-8336
▁सैद्धान्	-8337
▁स्वर्गीय	-8338
▁अध्यक्षता	-8339
▁संवेदनशील	-8340
▁सिलसिलामा	-8341
▁हुनुपर्दछ	-8342
ंत	-8343
एच	-8344
पहि	-8345
मात	-8346
सन्	-8347
▁अक	-8348
▁थै	-8349
न्री	-8350
मोचन	-8351
र्सी	-8352
ष्टी	-8353
िनको	-8354
ेटिक	-8355
▁अपा	-8356
▁आति	-8357
▁इति	-8358
▁एन्	-8359
▁पसल	-8360
▁बरि	-8361
▁रुच	-8362
▁सधै	-8363
आफ्नो	-8364
र्थको	-8365
लेपछि	-8366
शासित	-8367
िनीको	-8368
▁गोपी	-8369
▁जगत्	-8370
▁निरु	-8371
▁फलको	-8372
▁भनें	-8373
▁माहा	-8374
▁रूको	-8375
▁वेदा	-8376
▁स्ने	-8377
▁स्रो	-8378
▁हलको	-8379
▁होटल	-8380
क्सिको	-8381
सुनसरी	-8382
▁उत्ते	-8383
▁जगतमा	-8384
▁परिसर	-8385
▁पिउने	-8386
▁प्वाल	-8387
▁बन्दछ	-8388
▁मलामी	-8389
▁माग्न	-8390
▁व्यास	-8391
त्युपछि	-8392
सेनापति	-8393
▁गाउँको	-8394
▁गोपनीय	-8395
▁जातिले	-8396
▁नगर्नु	-8397
▁शकुन्त	-8398
▁शासकको	-8399
▁हाल्ने	-8400
▁अनुभूति	-8401
▁खोलाहरू	-8402
▁गराइन्छ	-8403
▁नभएसम्म	-8404
▁मस्तिष्	-8405
▁रूपैयाँ	-8406
▁हुनेछन्	-8407
अङ्ग्रेजी	-8408
ष्णप्रसाद	-8409
▁प्रहरीको	-8410
▁परिवारलाई	-8411
▁विरुद्धमा	-8412
धर्मावलम्बी	-8413
▁द्रोणाचार्य	-8414
▁लेखापरीक्षण	-8415
भए	-8416
ंगी	-8417
उत्	-8418
जका	-8419
टान	-8420
शीत	-8421
िमु	-8422
ेतु	-8423
▁उम	-8424
▁डल	-8425
▁धि	-8426
कैला	-8427
च्छे	-8428
प्टर	-8429
बियन	-8430
भनेर	-8431
मिन्	-8432
म्बो	-8433
रिवा	-8434
ाराम	-8435
▁गाइ	-8436
▁डुब	-8437
▁दमा	-8438
▁दाइ	-8439
▁नलि	-8440
▁नास	-8441
▁पटु	-8442
▁भिर	-8443
▁मुज	-8444
▁रका	-8445
▁रवि	-8446
▁सहन	-8447
दिएका	-8448
पर्दा	-8449
लाउने	-8450
▁गुला	-8451
▁जिया	-8452
▁फाल्	-8453
▁बन्छ	-8454
▁रामक	-8455
शान्ति	-8456
▁उदाहर	-8457
▁कट्टर	-8458
▁करुणा	-8459
▁क्षमा	-8460
▁चराको	-8461
▁देहाय	-8462
▁नभएका	-8463
▁मिल्छ	-8464
▁सन्या	-8465
धार्मिक	-8466
▁अनुसरण	-8467
▁अफगानि	-8468
▁चलाउने	-8469
▁नगरेको	-8470
▁पोखरेल	-8471
▁प्रचुर	-8472
▁भवनहरू	-8473
▁स्कन्द	-8474
ाउँहरूमा	-8475
▁कब्जामा	-8476
▁चाहिन्छ	-8477
▁पश्चिमा	-8478
▁बाहुल्य	-8479
▁उल्लेख्य	-8480
▁नेपोलियन	-8481
▁पत्रपत्र	-8482
▁प्रयोगको	-8483
▁बर्खास्त	-8484
▁बित्तिकै	-8485
▁श्रीखण्ड	-8486
▁जिल्लाबाट	-8487
▁संरक्षणका	-8488
▁सिंहदरबार	-8489
▁हुनुभन्दा	-8490
▁अप्रत्यक्ष	-8491
▁महिलाहरूको	-8492
▁व्यवस्थामा	-8493
▁अन्धविश्वास	-8494
▁प्रधानमन्त्रीले	-8495
▁विद्यार्थीहरूको	-8496
आन	-8497
ुत	-8498
ँला	-8499
ंडा	-8500
परे	-8501
भुत	-8502
मगर	-8503
लेन	-8504
शाल	-8505
▁कण	-8506
▁लम	-8507
▁सङ	-8508
केशर	-8509
तिथि	-8510
प्पा	-8511
मान्	-8512
योजक	-8513
रेखा	-8514
्चमी	-8515
▁अद्	-8516
▁ङ्ग	-8517
▁चलि	-8518
▁जमद	-8519
▁शार	-8520
खुट्ट	-8521
दैलेख	-8522
नामको	-8523
पन्जा	-8524
पार्क	-8525
रिएको	-8526
वलपुर	-8527
ारोहण	-8528
ेरवाद	-8529
▁अर्ब	-8530
▁गुणा	-8531
▁चुरे	-8532
▁छाना	-8533
▁जुम्	-8534
▁पीडा	-8535
▁बसाई	-8536
▁मोटर	-8537
▁रुपा	-8538
▁विलय	-8539
▁सफ्ट	-8540
▁स्टा	-8541
▁हेको	-8542
टनालाई	-8543
ण्टाको	-8544
म्बईमा	-8545
रभित्र	-8546
▁चल्ला	-8547
▁तालमा	-8548
▁बाहुन	-8549
▁साबित	-8550
▁खोलाको	-8551
▁जित्ने	-8552
▁पब्लिक	-8553
▁फर्किए	-8554
▁भागहरू	-8555
▁भ्यागु	-8556
▁माथेमा	-8557
▁लिम्बू	-8558
▁शीर्षक	-8559
▁सर्पको	-8560
▁स्तुति	-8561
▁असाधारण	-8562
▁गर्नुको	-8563
▁दर्शनको	-8564
▁प्रसङ्ग	-8565
▁प्राङ्ग	-8566
▁योजनाको	-8567
▁विपक्षी	-8568
▁वैधानिक	-8569
▁सकिएपछि	-8570
▁उदाहरणका	-8571
▁पश्चिमको	-8572
▁सहरहरूमा	-8573
उत्तराखण्ड	-8574
▁अभिनेत्री	-8575
▁यिनीहरूले	-8576
▁स्वच्छन्द	-8577
▁अन्तर्गतको	-8578
▁उपजिल्लाका	-8579
▁तत्पश्चात्	-8580
▁काङ्ग्रेसको	-8581
▁खेलाडीहरूको	-8582
▁सैद्धान्तिक	-8583
एउ	-8584
सय	-8585
थुम	-8586
लता	-8587
वल्	-8588
ुरि	-8589
्वे	-8590
▁गभ	-8591
▁छर	-8592
▁थो	-8593
▁शव	-8594
क्खा	-8595
तत्व	-8596
निकी	-8597
बादी	-8598
बायो	-8599
बिलो	-8600
ब्या	-8601
र्मि	-8602
हरूक	-8603
ाँसे	-8604
▁आका	-8605
▁आदर	-8606
▁जता	-8607
▁नरक	-8608
▁फरा	-8609
▁फाँ	-8610
▁फाल	-8611
▁बेत	-8612
▁मीर	-8613
▁सेल	-8614
▁हाे	-8615
▁हैन	-8616
न्डमा	-8617
स्त्य	-8618
ाँउमा	-8619
ाउँदछ	-8620
ितामा	-8621
ुरीको	-8622
्चलमा	-8623
▁काटी	-8624
▁बिहे	-8625
▁राजन	-8626
▁लड्न	-8627
▁सचेत	-8628
द्वारी	-8629
नानन्द	-8630
पाल्पा	-8631
वर्षीय	-8632
सम्ममा	-8633
▁काखमा	-8634
▁कुमाल	-8635
▁चाँडै	-8636
▁छायाँ	-8637
▁जीर्ण	-8638
▁तुलना	-8639
▁दशकको	-8640
▁दुरुप	-8641
▁फर्का	-8642
▁बचाउन	-8643
▁बाँधि	-8644
▁मार्क	-8645
▁रोकथा	-8646
▁हिसाब	-8647
लाहाबाद	-8648
हरूमाथि	-8649
्राह्मी	-8650
▁जिब्रो	-8651
▁जोगाउन	-8652
▁नातिका	-8653
▁पुत्री	-8654
▁भित्रै	-8655
▁साक्षर	-8656
▁होइनन्	-8657
्याभिषेक	-8658
▁उत्तिकै	-8659
▁डब्ल्यू	-8660
▁त्यागेर	-8661
▁पशुपालन	-8662
▁राखिएका	-8663
▁खेलकुदको	-8664
▁दुरुपयोग	-8665
▁प्रकाशको	-8666
▁रिपब्लिक	-8667
▁व्यवसायी	-8668
महाराष्ट्र	-8669
▁आत्महत्या	-8670
▁खेलाडीलाई	-8671
▁फ्रान्समा	-8672
▁रंगशालामा	-8673
▁संविधानले	-8674
▁हनुमानलाई	-8675
▁सोलुखुम्बु	-8676
ँइ	-8677
आर	-8678
धक	-8679
महल	-8680
येर	-8681
रहे	-8682
सर्	-8683
ह्य	-8684
ाँउ	-8685
▁चू	-8686
ंद्र	-8687
कक्ष	-8688
कुमा	-8689
ङलाई	-8690
परित	-8691
म्ची	-8692
ल्डो	-8693
ान्द	-8694
िरले	-8695
▁अफि	-8696
▁अरि	-8697
▁गया	-8698
▁चोर	-8699
▁न्न	-8700
▁लाज	-8701
प्रया	-8702
योगमा	-8703
षिहरु	-8704
सारको	-8705
हिमाल	-8706
ूर्ति	-8707
▁आर्क	-8708
▁करार	-8709
▁किमी	-8710
▁ग्रे	-8711
▁डेरा	-8712
▁तीनै	-8713
▁पायो	-8714
▁बेग्	-8715
▁भीषण	-8716
▁रचित	-8717
▁रहेन	-8718
नेपालर	-8719
ीहरूको	-8720
▁अवश्य	-8721
▁चाहने	-8722
▁धनुर्	-8723
▁नियमन	-8724
▁पचाउन	-8725
▁बेइजि	-8726
▁बोल्न	-8727
▁मर्ने	-8728
▁यातना	-8729
▁रक्षे	-8730
▁रहँदै	-8731
▁रुखको	-8732
▁रेस्ट	-8733
▁व्यूह	-8734
▁सुयोग	-8735
▁चिन्ता	-8736
▁छिट्टै	-8737
▁ज्येष्	-8738
▁द्वन्द	-8739
▁लेख्नु	-8740
▁शाश्वत	-8741
▁इन्द्रा	-8742
▁गोत्रीय	-8743
▁थालेपछि	-8744
▁नजिकैको	-8745
▁पदमुक्त	-8746
▁मर्यादा	-8747
▁युद्धभु	-8748
▁युरोपमा	-8749
▁लडाकुको	-8750
▁सापेक्ष	-8751
▁सीतालाई	-8752
▁स्थानका	-8753
▁हुनेगर्	-8754
▁आयुक्तको	-8755
▁गोर्खाली	-8756
▁पंक्षीको	-8757
▁राजदरबार	-8758
▁सिन्धुली	-8759
▁सेमीफाइन	-8760
▁जनजातिहरू	-8761
▁नेताहरूले	-8762
▁परशुरामले	-8763
▁प्रतिपादन	-8764
▁प्रतिबद्ध	-8765
▁प्रान्तको	-8766
▁अध्यक्षतामा	-8767
दह	-8768
िउ	-8769
ंग्	-8770
अछा	-8771
आमा	-8772
देन	-8773
मेन	-8774
लाप	-8775
सज्	-8776
हत्	-8777
ैनी	-8778
▁िय	-8779
क्कर	-8780
ण्डर	-8781
देखी	-8782
माणु	-8783
म्बई	-8784
ल्दा	-8785
स्नो	-8786
स्फी	-8787
▁गुर	-8788
▁छैट	-8789
▁नात	-8790
▁बेर	-8791
▁भएक	-8792
▁लुक	-8793
▁सित	-8794
ताहरू	-8795
त्रको	-8796
द्रास	-8797
वस्या	-8798
▁उन्न	-8799
▁काँग	-8800
▁काका	-8801
▁खनाल	-8802
▁खाडी	-8803
▁छेउछ	-8804
▁न्यू	-8805
▁पागल	-8806
▁बारा	-8807
▁युना	-8808
▁संगम	-8809
▁सहाय	-8810
नियामा	-8811
पोर्चु	-8812
संस्था	-8813
ेत्रमा	-8814
ोन्मुख	-8815
▁आर्जन	-8816
▁कुम्भ	-8817
▁जन्मे	-8818
▁नदिको	-8819
▁नमुना	-8820
▁प्रदू	-8821
▁बसाइँ	-8822
▁याममा	-8823
▁वेदका	-8824
▁श्वेत	-8825
कर्णाली	-8826
▁अधिनमा	-8827
▁उमेरका	-8828
▁एकातिर	-8829
▁ग्राहक	-8830
▁त्रिभु	-8831
▁बागमती	-8832
▁भित्ता	-8833
▁यात्री	-8834
▁रानीको	-8835
▁लाग्दा	-8836
▁शब्दमा	-8837
▁शिवलाई	-8838
▁श्रमिक	-8839
▁सभामुख	-8840
▁आसपासका	-8841
▁दुवैलाई	-8842
▁नक्षत्र	-8843
▁सम्बद्ध	-8844
▁सुधार्न	-8845
▁सेनाबाट	-8846
▁जिल्लाले	-8847
▁बस्न्यात	-8848
▁अवस्थालाई	-8849
▁प्रशासनको	-8850
▁विराटनगरमा	-8851
▁विमानस्थलमा	-8852
▁परिणामस्वरूप	-8853
अल	-8854
भरत	-8855
शको	-8856
सबै	-8857
्नी	-8858
▁उत	-8859
▁मग	-8860
▁्क	-8861
अश्व	-8862
किएर	-8863
क्सो	-8864
ड्रो	-8865
तिया	-8866
त्ने	-8867
बुल्	-8868
श्रा	-8869
साले	-8870
ियता	-8871
ोलिक	-8872
▁आजा	-8873
▁कोर	-8874
▁चाप	-8875
▁जाम	-8876
▁बडो	-8877
▁सोध	-8878
दथ्यो	-8879
लालाई	-8880
वार्ड	-8881
▁अछाम	-8882
▁अरबी	-8883
▁इण्ड	-8884
▁गरिन	-8885
▁गोदा	-8886
▁छाया	-8887
▁दस्त	-8888
▁बारी	-8889
▁मुना	-8890
▁विवा	-8891
▁सहजै	-8892
न्तरित	-8893
सङ्ख्य	-8894
▁क्लिक	-8895
▁ट्रफी	-8896
▁पराशर	-8897
▁पेटमा	-8898
▁पोशाक	-8899
▁बजाउन	-8900
▁बेहोस	-8901
▁शिल्प	-8902
▁सन्तु	-8903
▁हिउँद	-8904
युद्धको	-8905
▁गिर्जा	-8906
▁परिवेश	-8907
▁बाँधेर	-8908
▁खान्छन्	-8909
▁गतेदेखि	-8910
▁ग्रामिण	-8911
▁प्रतिज्	-8912
▁लडाइँमा	-8913
▁सारिएको	-8914
▁खेलाडीको	-8915
▁दिनहरूमा	-8916
▁महिनापछि	-8917
▁राख्दछन्	-8918
▁अस्ट्रिया	-8919
▁गगनसिंहको	-8920
▁रेजिमेन्ट	-8921
▁लिम्बुवान	-8922
▁संस्करणमा	-8923
▁संस्थानको	-8924
▁दाहसंस्कार	-8925
▁बङ्गलादेशमा	-8926
▁महाविद्यालय	-8927
▁व्यक्तिहरूलाई	-8928
चाप	-8929
नुन	-8930
भगव	-8931
यज्	-8932
षधी	-8933
▁इँ	-8934
▁्ट	-8935
इएफए	-8936
ज्या	-8937
पुरर	-8938
मिमा	-8939
लागा	-8940
▁कोण	-8941
▁ताँ	-8942
▁देह	-8943
▁भत्	-8944
▁मदि	-8945
▁र्व	-8946
▁सपथ	-8947
आत्मा	-8948
न्तित	-8949
रान्त	-8950
रुद्ध	-8951
समक्ष	-8952
▁किला	-8953
▁खेति	-8954
▁खोजि	-8955
▁गरेन	-8956
▁चराच	-8957
▁चोखो	-8958
▁जैसी	-8959
▁तराइ	-8960
▁दशैं	-8961
▁दिउँ	-8962
▁नाफा	-8963
▁पाटी	-8964
▁बीजा	-8965
▁भङ्ग	-8966
▁भान्	-8967
▁विषा	-8968
▁सेता	-8969
▁सेयर	-8970
▁सोहि	-8971
नेस्को	-8972
वेक्षण	-8973
ुरेन्ट	-8974
▁आवामी	-8975
▁कानमा	-8976
▁गतेका	-8977
▁चीनले	-8978
▁न्द्र	-8979
▁बनेपा	-8980
▁म्याक	-8981
▁विराज	-8982
▁सडकमा	-8983
▁हुर्क	-8984
अमेरिका	-8985
▁अभावमा	-8986
▁उत्पति	-8987
▁उहाँका	-8988
▁थेरवाद	-8989
▁बिन्दु	-8990
▁भारतले	-8991
▁वास्तु	-8992
▁शनिबार	-8993
▁सर्पले	-8994
▁सुर्मा	-8995
▁कारवाही	-8996
▁केटाकेट	-8997
▁नभएकाले	-8998
▁नरसंहार	-8999
▁नलाग्ने	-9000
▁वर्षभरि	-9001
▁संक्रमण	-9002
▁सदस्यमा	-9003
▁अमावस्या	-9004
▁गर्नेछन्	-9005
▁बङ्गालमा	-9006
▁मस्तिष्क	-9007
▁सुत्केरी	-9008
▁हरिद्वार	-9009
▁राजमार्गको	-9010
▁सूर्यबहादुर	-9011
▁राष्ट्रप्रमुख	-9012
▁प्रतियोगिताहरू	-9013
▁मन्त्रिपरिषद्को	-9014
तल	-9015
लू	-9016
चलन	-9017
तिम	-9018
निङ	-9019
नेछ	-9020
पेश	-9021
लान	-9022
हिन	-9023
▁चम	-9024
▁पड	-9025
गर्भ	-9026
गाहा	-9027
जीवी	-9028
तुको	-9029
धिका	-9030
न्दो	-9031
पर्य	-9032
यानक	-9033
सफ्ट	-9034
हाको	-9035
ीकोट	-9036
ूलमा	-9037
▁कोड	-9038
▁खलक	-9039
▁तेश	-9040
▁धरो	-9041
▁पाद	-9042
▁पुष	-9043
▁फेर	-9044
▁बेग	-9045
▁भैं	-9046
▁रोल	-9047
▁वेश	-9048
▁शंक	-9049
▁सूर	-9050
जुद्ध	-9051
स्केट	-9052
▁चासो	-9053
▁छँदा	-9054
▁नगरे	-9055
▁बाग्	-9056
▁मनको	-9057
▁मोटो	-9058
▁युरो	-9059
▁सानै	-9060
कास्की	-9061
गोर्खा	-9062
दात्री	-9063
स्वरुप	-9064
िकालाई	-9065
▁कैलाश	-9066
▁जलाएर	-9067
▁तनहुँ	-9068
▁तरबार	-9069
▁त्रिश	-9070
▁देउसी	-9071
▁पाइन्	-9072
▁प्रदु	-9073
▁भयानक	-9074
▁भोजना	-9075
▁लिन्छ	-9076
▁सात्य	-9077
द्वीपमा	-9078
नुवाकोट	-9079
▁अनुरुप	-9080
▁कलेजमा	-9081
▁कान्छी	-9082
▁गरेनन्	-9083
▁टेलिभि	-9084
▁तेश्रो	-9085
▁दुसान्	-9086
▁धनुषमा	-9087
▁बाबुको	-9088
▁भागबाट	-9089
▁रूपबाट	-9090
▁लेखहरू	-9091
▁वर्गीक	-9092
▁विसङ्ग	-9093
▁संयोजन	-9094
▁सम्भवत	-9095
▁कवितामा	-9096
▁गर्छिन्	-9097
▁छोरालाई	-9098
▁पुरोहित	-9099
▁प्रस्तर	-9100
▁भत्केको	-9101
▁लेखिन्छ	-9102
▁विभागले	-9103
ल्यान्डको	-9104
▁खानेपानी	-9105
▁खेलाडीले	-9106
▁भूकम्पले	-9107
▁मामिलामा	-9108
▁छोराहरूले	-9109
▁बेरोजगारी	-9110
▁व्यक्तिका	-9111
▁सम्मेलनमा	-9112
▁सुरक्षाका	-9113
▁निर्वाचनको	-9114
▁हाराहारीमा	-9115
▁मिल्दोजुल्दो	-9116
▁कर्मचारीहरूको	-9117
ङग	-9118
डम	-9119
नयन	-9120
सिए	-9121
▁टी	-9122
▁पख	-9123
केका	-9124
ग्नु	-9125
चारु	-9126
ण्डि	-9127
भवती	-9128
ेलको	-9129
्रास	-9130
▁जनै	-9131
▁दशै	-9132
▁धित	-9133
▁नाक	-9134
▁शही	-9135
डिन्छ	-9136
तरिया	-9137
पट्टी	-9138
ाक्ने	-9139
ेरिया	-9140
▁उचाई	-9141
▁केने	-9142
▁खाल्	-9143
▁निरं	-9144
▁पारा	-9145
▁पोषण	-9146
▁बदला	-9147
▁सलाम	-9148
▁हत्य	-9149
अष्ट्र	-9150
कल्पिक	-9151
खानाको	-9152
नरसिंह	-9153
फ्रान्	-9154
▁एक्का	-9155
▁ग्यास	-9156
▁चरणको	-9157
▁चुम्ब	-9158
▁च्याङ	-9159
▁जंगली	-9160
▁परेवा	-9161
▁प्रभा	-9162
▁भुसाल	-9163
▁यमुना	-9164
▁वाद्य	-9165
▁शून्य	-9166
▁सरुवा	-9167
ालिफोर्	-9168
▁आमालाई	-9169
▁उपासना	-9170
▁किराती	-9171
▁नदीलाई	-9172
▁प्रिया	-9173
▁अस्थायी	-9174
▁जनाउँदछ	-9175
▁देखिएका	-9176
▁भाषाबाट	-9177
▁संसारका	-9178
▁सेनाहरू	-9179
दार्जिलिङ	-9180
▁देवताहरू	-9181
▁बलात्कार	-9182
▁मनोकामना	-9183
▁सुगन्धित	-9184
ष्टद्युम्न	-9185
▁निर्वासित	-9186
▁बाहुल्यता	-9187
▁व्यापारमा	-9188
▁साधारणतया	-9189
▁मुद्रास्फी	-9190
डन	-9191
जनी	-9192
थोक	-9193
्ता	-9194
▁चट	-9195
ंगजे	-9196
ंबाट	-9197
गुडी	-9198
ङ्गे	-9199
ज्यू	-9200
लेखा	-9201
ल्लभ	-9202
ल्ली	-9203
वर्क	-9204
षिमा	-9205
ुन्ड	-9206
्जाल	-9207
▁असु	-9208
▁उनै	-9209
▁गदा	-9210
▁तास	-9211
▁पदो	-9212
▁मरण	-9213
▁मेर	-9214
▁मोड	-9215
▁राष	-9216
▁वाज	-9217
▁होम	-9218
तावास	-9219
द्वाज	-9220
न्तमा	-9221
सारिक	-9222
सुदेव	-9223
ाइन्छ	-9224
▁आएकी	-9225
▁किमि	-9226
▁केसी	-9227
▁कोले	-9228
▁खतरा	-9229
▁चल्न	-9230
▁दन्त	-9231
▁नाउँ	-9232
▁बलको	-9233
▁भर्ख	-9234
▁भाकल	-9235
▁लडाई	-9236
▁लाखे	-9237
▁शहरी	-9238
भाषाको	-9239
▁अपभ्र	-9240
▁काट्न	-9241
▁छोड्न	-9242
▁देउडा	-9243
▁पुलिस	-9244
▁प्रबल	-9245
▁फुयाल	-9246
▁येसको	-9247
▁राजनि	-9248
थ्वीलाई	-9249
▁आँखाको	-9250
▁आदिलाई	-9251
▁उत्साह	-9252
▁खेतीको	-9253
▁गरेपछी	-9254
▁चाहिने	-9255
▁नसकिने	-9256
▁निकटता	-9257
▁नेताको	-9258
▁परन्तु	-9259
▁भरिएको	-9260
▁राख्दै	-9261
▁विजयको	-9262
▁संग्रह	-9263
▁सभालाई	-9264
ालक्ष्मी	-9265
ोपाध्याय	-9266
▁आत्माको	-9267
▁क्षुद्र	-9268
▁गङ्गाको	-9269
▁गोविन्द	-9270
▁चिन्तित	-9271
▁छापामार	-9272
▁पक्षबाट	-9273
▁परिश्रम	-9274
▁मध्यस्थ	-9275
▁महाराजा	-9276
▁मुजिबुर	-9277
▁युवाहरू	-9278
▁सन्तुलन	-9279
▁सुनकोशी	-9280
प्रतिनिधि	-9281
शास्त्रको	-9282
▁अनिरुद्र	-9283
▁अभिलेखमा	-9284
▁जबरजस्ती	-9285
▁त्यतिखेर	-9286
▁प्रयोगले	-9287
▁प्रशिद्ध	-9288
▁भीमसेनले	-9289
▁रामेश्वर	-9290
▁वर्णमाला	-9291
▁विनियोजन	-9292
▁हुनसक्ने	-9293
▁त्रुटिहरु	-9294
▁रामचन्द्र	-9295
▁सिक्किमको	-9296
▁सम्पत्तिको	-9297
▁सरकारद्वारा	-9298
▁प्रतिद्वन्द्वी	-9299
उड	-9300
ैव	-9301
अनु	-9302
इरा	-9303
गगन	-9304
जाउ	-9305
देह	-9306
निर	-9307
नीत	-9308
पुण	-9309
बरा	-9310
वेत	-9311
िकन	-9312
▁नल	-9313
▁शम	-9314
▁िम	-9315
उँथे	-9316
एउटा	-9317
दीले	-9318
न्यू	-9319
बीको	-9320
भण्ड	-9321
माछा	-9322
यसको	-9323
याली	-9324
रपाल	-9325
राका	-9326
षिका	-9327
सनीय	-9328
ोष्ण	-9329
▁अम्	-9330
▁जाड	-9331
▁जुल	-9332
▁भला	-9333
▁भाँ	-9334
गोपाल	-9335
जातीय	-9336
भुटान	-9337
यित्व	-9338
श्वरी	-9339
ियन्स	-9340
ेक्वा	-9341
▁आँसु	-9342
▁उत्स	-9343
▁कम्म	-9344
▁कोटा	-9345
▁दोषी	-9346
▁परिव	-9347
▁पाल्	-9348
▁प्रत	-9349
▁बाकी	-9350
▁मानस	-9351
▁विदा	-9352
▁शंका	-9353
▁हिजो	-9354
▁हेरि	-9355
जेन्टि	-9356
नाइटेड	-9357
बमोजिम	-9358
विरोधी	-9359
▁उपलव्	-9360
▁एन्टि	-9361
▁तरवार	-9362
▁द्वरा	-9363
▁नेशनल	-9364
▁पाउँछ	-9365
▁पार्थ	-9366
▁मकैको	-9367
▁रसायन	-9368
▁रिमाल	-9369
▁शिर्ष	-9370
▁सिन्ध	-9371
▁हात्त	-9372
▁आइतबार	-9373
▁कुराले	-9374
▁तिवारी	-9375
▁दिउँसो	-9376
▁देखिनै	-9377
▁धेरैले	-9378
▁पक्षले	-9379
▁प्रसंग	-9380
▁बेबिलो	-9381
▁लामाले	-9382
▁वर्गले	-9383
▁शस्त्र	-9384
▁समयपछि	-9385
▁समातेर	-9386
▁सीताको	-9387
▁कारखाना	-9388
▁जङ्गलमा	-9389
▁जनावरको	-9390
▁जीवनलाई	-9391
▁देखाउने	-9392
▁न्यूनतम	-9393
▁बर्तमान	-9394
▁बुद्धले	-9395
▁राजशाही	-9396
▁सैनिकको	-9397
वीरेन्द्र	-9398
▁अत्याचार	-9399
▁इन्द्रिय	-9400
▁ईसापूर्व	-9401
▁कार्यलाई	-9402
▁बनाउँछन्	-9403
▁स्वायत्त	-9404
अन्तर्गतको	-9405
गाउँपालिका	-9406
▁कार्यवाहक	-9407
▁जीवनानन्द	-9408
▁ताप्लेजुङ	-9409
▁देवकोटाले	-9410
▁भट्टराईले	-9411
▁भाषाहरूको	-9412
▁राजाहरूको	-9413
▁शासकहरूले	-9414
अस्ट्रेलिया	-9415
▁महाराष्ट्र	-9416
▁राष्ट्रवादी	-9417
▁उत्तरपूर्वमा	-9418
▁उपराष्ट्रपतिको	-9419
▁डब्ल्युडब्ल्युई	-9420
▁प्रदेशप्रान्तको	-9421
इए	-9422
वध	-9423
ुप	-9424
उदय	-9425
गिक	-9426
दका	-9427
बुल	-9428
भिक	-9429
मेह	-9430
र्ब	-9431
▁पस	-9432
▁बड	-9433
च्ची	-9434
ड्के	-9435
निका	-9436
मानी	-9437
ीहरु	-9438
▁अयु	-9439
▁केर	-9440
▁जिर	-9441
▁तोप	-9442
▁थाह	-9443
▁बहस	-9444
▁भर्	-9445
▁भुइ	-9446
▁संव	-9447
▁सरस	-9448
▁सीप	-9449
▁ीमा	-9450
कासुर	-9451
खिएको	-9452
चालित	-9453
चिएको	-9454
जदारी	-9455
डिएका	-9456
पर्यो	-9457
रीलाई	-9458
विद्य	-9459
स्टिक	-9460
▁कीरा	-9461
▁कोशि	-9462
▁खाएर	-9463
▁गोही	-9464
▁डाउन	-9465
▁तक्र	-9466
▁तटीय	-9467
▁तिहा	-9468
▁प्रम	-9469
▁मतदा	-9470
▁मोरङ	-9471
▁रक्ष	-9472
▁रोकि	-9473
▁लन्ड	-9474
▁वादी	-9475
इरहेका	-9476
प्रताप	-9477
▁अगुवा	-9478
▁अजिमा	-9479
▁उत्ती	-9480
▁टर्की	-9481
▁तिर्न	-9482
▁तैयार	-9483
▁दिइने	-9484
▁निश्च	-9485
▁बनाइए	-9486
▁बिताए	-9487
▁माणिक	-9488
▁युवती	-9489
▁लासको	-9490
▁वेस्ट	-9491
▁हवेली	-9492
गार्जुन	-9493
िनरसिंह	-9494
▁किच्चक	-9495
▁क्याले	-9496
▁ख्याति	-9497
▁जिन्ना	-9498
▁बोलाएर	-9499
▁मिश्रण	-9500
▁व्यस्त	-9501
▁सुब्बा	-9502
नरेन्द्र	-9503
▁चम्किलो	-9504
▁जापानमा	-9505
▁दरवारमा	-9506
▁नातेदार	-9507
▁नेटवर्क	-9508
▁महान्या	-9509
▁विषयलाई	-9510
न्यायाधीश	-9511
महाभारतमा	-9512
याधिवक्ता	-9513
▁मानदेवले	-9514
▁शम्शेरले	-9515
▁स्वरूपका	-9516
▁कीर्तिपुर	-9517
▁भक्तपुरको	-9518
▁लोकतन्त्र	-9519
▁विद्यार्थ	-9520
▁संस्करणको	-9521
▁साम्यवादी	-9522
▁राजमार्गले	-9523
▁राष्ट्रहरू	-9524
▁प्रवेशद्वार	-9525
▁राजेन्द्रको	-9526
▁सुदूरपश्चिम	-9527
गले	-9528
तहट	-9529
मूख	-9530
ेदन	-9531
▁पल	-9532
▁मण	-9533
ंकार	-9534
गन्ध	-9535
गाजा	-9536
टरको	-9537
दलाई	-9538
नालय	-9539
निमा	-9540
रचना	-9541
सम्भ	-9542
स्मि	-9543
ारोप	-9544
▁खेर	-9545
▁तान	-9546
▁निग	-9547
▁नेप	-9548
▁मता	-9549
▁मयम	-9550
▁रेट	-9551
▁लम्	-9552
▁लाह	-9553
▁हले	-9554
द्दीन	-9555
न्दार	-9556
न्नाथ	-9557
न्समा	-9558
राजको	-9559
र्डिङ	-9560
लमजुङ	-9561
्चालक	-9562
▁अयुब	-9563
▁खाले	-9564
▁गणित	-9565
▁जानि	-9566
▁बनोट	-9567
▁भाषण	-9568
▁भोटे	-9569
▁मारे	-9570
▁रहित	-9571
▁रूपम	-9572
▁रूसी	-9573
▁स्तो	-9574
▁ारमा	-9575
नमार्क	-9576
यात्मक	-9577
्चाङ्ग	-9578
▁तरीका	-9579
▁धरोहर	-9580
▁नरिवल	-9581
▁पहिरन	-9582
▁पाईने	-9583
▁पुनरा	-9584
▁प्वाँ	-9585
▁भनियो	-9586
▁राख्छ	-9587
▁रुकुम	-9588
▁लिगका	-9589
राज्यको	-9590
▁आकारमा	-9591
▁आकाशमा	-9592
▁उदयपुर	-9593
▁एक्सचे	-9594
▁कुराका	-9595
▁गुराँस	-9596
▁जसकारण	-9597
▁दिनपछि	-9598
▁पत्रमा	-9599
▁भुटानी	-9600
▁माल्दि	-9601
▁स्थलमा	-9602
पुरेश्वर	-9603
▁अधिवेशन	-9604
▁फुटबलमा	-9605
▁भैरहेको	-9606
▁मिश्रित	-9607
▁वैवाहिक	-9608
▁शाहजहाँ	-9609
▁हटाइएको	-9610
▁इतिहासका	-9611
▁उदाहरणको	-9612
▁एकीकरणको	-9613
▁तालिकामा	-9614
▁प्रशान्त	-9615
▁मान्छेको	-9616
▁मित्रसेन	-9617
▁मुद्राको	-9618
▁श्रेणीमा	-9619
▁हुनुभएको	-9620
▁लोपोन्मुख	-9621
▁मानिन्थ्यो	-9622
▁लोकप्रियता	-9623
▁महिलाहरूलाई	-9624
तिय	-9625
दित	-9626
पेट	-9627
लिप	-9628
शेख	-9629
ियल	-9630
्न्	-9631
▁गं	-9632
▁रत	-9633
अर्थ	-9634
एलसी	-9635
जिटल	-9636
दशरथ	-9637
देवा	-9638
नेली	-9639
बलको	-9640
भूषण	-9641
मोहक	-9642
रियल	-9643
र्सा	-9644
षधीय	-9645
सनले	-9646
होरा	-9647
ाउको	-9648
▁एकआ	-9649
▁काय	-9650
▁धमि	-9651
▁नली	-9652
▁यदी	-9653
▁सद्	-9654
▁हरी	-9655
दावली	-9656
नुलाई	-9657
योजित	-9658
वर्धन	-9659
विहीन	-9660
साहेब	-9661
▁अखिल	-9662
▁आपसी	-9663
▁जिन्	-9664
▁ताना	-9665
▁भागे	-9666
▁मिलि	-9667
▁मूलत	-9668
▁यक्ष	-9669
▁ुद्ध	-9670
णात्मक	-9671
णाश्रम	-9672
मिन्ता	-9673
िरहन्छ	-9674
▁अगष्ट	-9675
▁कोषको	-9676
▁क्रूर	-9677
▁गरिएक	-9678
▁ग्रीक	-9679
▁ग्रेट	-9680
▁जागीर	-9681
▁बाइबल	-9682
▁भाइरस	-9683
▁युनिभ	-9684
▁रुमाल	-9685
▁लिङ्क	-9686
▁लेखेर	-9687
▁समयका	-9688
ङ्गीतिक	-9689
ेश्वरको	-9690
▁उन्मूल	-9691
▁खेल्दै	-9692
▁गरेरयस	-9693
▁गायिका	-9694
▁जीवाणु	-9695
▁तर्फको	-9696
▁थापाका	-9697
▁देख्ने	-9698
▁परमाणु	-9699
▁बागलुङ	-9700
▁मनमोहक	-9701
▁मिल्यो	-9702
▁मुटुको	-9703
▁लक्षित	-9704
▁सफ्टवे	-9705
▁साधनको	-9706
▁साल्पा	-9707
▁सुकेको	-9708
तमिलनाडु	-9709
▁एकेडेमी	-9710
▁तरिकामा	-9711
▁तीमध्ये	-9712
▁मध्ययुग	-9713
▁नेपालीको	-9714
▁पन्जाबमा	-9715
▁प्रयासमा	-9716
▁व्यङ्ग्य	-9717
तराष्ट्रको	-9718
▁कपिलवस्तु	-9719
▁तान्त्रिक	-9720
▁विद्यालयको	-9721
▁गाउँपालिकार	-9722
▁सङ्क्रान्ति	-9723
▁जङ्गबहादुरको	-9724
▁डब्ल्यूडब्ल्यू	-9725
अफ	-9726
छे	-9727
जेल	-9728
पत्	-9729
पिन	-9730
भास	-9731
शिर	-9732
सेफ	-9733
ाडा	-9734
्वर	-9735
▁ेल	-9736
उँदो	-9737
टाले	-9738
टिया	-9739
ट्दै	-9740
दशैं	-9741
देवल	-9742
न्द्	-9743
बाली	-9744
लाले	-9745
वनमा	-9746
वरहो	-9747
समूह	-9748
स्पद	-9749
ुरको	-9750
ैतिक	-9751
▁खपत	-9752
▁जम्	-9753
▁जरू	-9754
▁नुन	-9755
▁पान	-9756
▁पिक	-9757
▁बिल	-9758
▁र्न	-9759
▁शीर	-9760
▁साई	-9761
▁हिज	-9762
नीलाई	-9763
प्रेर	-9764
बाहिर	-9765
रामको	-9766
वलीमा	-9767
व्यास	-9768
संगको	-9769
िमिरे	-9770
ुइँचो	-9771
्याएर	-9772
▁अभिव	-9773
▁एसिड	-9774
▁कर्फ	-9775
▁खरीद	-9776
▁खोलि	-9777
▁खोले	-9778
▁देवि	-9779
▁प्रब	-9780
▁राहु	-9781
▁वैभव	-9782
▁सरदर	-9783
▁हुनत	-9784
उत्तरी	-9785
ङ्ग्रो	-9786
न्दिरा	-9787
▁कोतमा	-9788
▁खानको	-9789
▁ज्वरो	-9790
▁टेस्ट	-9791
▁फाइनल	-9792
▁बाबजु	-9793
▁मङ्गल	-9794
▁मुद्र	-9795
▁मुहान	-9796
▁विकार	-9797
▁शिवले	-9798
▁सुत्र	-9799
▁हुँने	-9800
द्वितीय	-9801
बायोटिक	-9802
▁अवधिका	-9803
▁उपधारा	-9804
▁उपलव्ध	-9805
▁क्वयेर	-9806
▁गाउँले	-9807
▁तेक्वा	-9808
▁दनुवार	-9809
▁दामोदर	-9810
▁प्रमूख	-9811
▁फाल्ने	-9812
▁भिक्षु	-9813
▁महानगर	-9814
▁मैथिली	-9815
▁रचियता	-9816
▁रोक्ने	-9817
▁एसियाको	-9818
▁कमान्डर	-9819
▁निर्वाण	-9820
▁फराकिलो	-9821
▁बहुदलीय	-9822
▁राख्छन्	-9823
▁समकालीन	-9824
▁परमेश्वर	-9825
▁बेलायतका	-9826
▁राज्यबाट	-9827
▁वस्तुलाई	-9828
▁विभाजनको	-9829
▁जलविद्युत	-9830
▁दिनुपर्ने	-9831
▁यातायातको	-9832
▁समस्याहरू	-9833
▁सम्बन्धको	-9834
▁गर्नुपर्दछ	-9835
▁मन्दिरहरूमा	-9836
▁बालबालिकालाई	-9837
इम	-9838
नव	-9839
गडा	-9840
गरा	-9841
चाँ	-9842
च्य	-9843
मनी	-9844
वडा	-9845
सीम	-9846
ाटे	-9847
िएर	-9848
काजी	-9849
क्रा	-9850
क्रि	-9851
दर्श	-9852
दिएर	-9853
पाने	-9854
बलमा	-9855
भाजन	-9856
म्पो	-9857
विकि	-9858
ष्पक	-9859
हिटी	-9860
हुदी	-9861
ाजिर	-9862
ाबाट	-9863
▁एजे	-9864
▁एम्	-9865
▁गजल	-9866
▁चिउ	-9867
▁छवि	-9868
▁टीम	-9869
▁पिप	-9870
▁पुँ	-9871
▁मकत	-9872
▁मगध	-9873
▁र्ण	-9874
▁लडे	-9875
▁शिख	-9876
▁हिँ	-9877
▁ह्र	-9878
क्यान	-9879
न्तुक	-9880
पत्ति	-9881
भद्रा	-9882
र्जित	-9883
र्मदा	-9884
शुल्क	-9885
ुवानी	-9886
▁इच्छ	-9887
▁एंगे	-9888
▁कथान	-9889
▁खोटा	-9890
▁ताली	-9891
▁दाँत	-9892
▁फ्लो	-9893
▁रसमा	-9894
▁राजि	-9895
▁रेका	-9896
▁रोयल	-9897
▁व्यु	-9898
तर्फका	-9899
द्वान्	-9900
बन्धित	-9901
मार्फत	-9902
शालाको	-9903
श्वर्य	-9904
ाकिएको	-9905
▁अखण्ड	-9906
▁आदिले	-9907
▁उर्वर	-9908
▁एकअर्	-9909
▁कलियु	-9910
▁खान्छ	-9911
▁डडेल्	-9912
▁बन्दो	-9913
▁बिश्व	-9914
▁मर्मत	-9915
▁रातमा	-9916
▁रिजाल	-9917
▁श्वास	-9918
जनावरहो	-9919
वस्थामा	-9920
▁उब्जाउ	-9921
▁खोज्ने	-9922
▁खोल्ने	-9923
▁जनालाई	-9924
▁तोकेको	-9925
▁धाराका	-9926
▁बाँच्न	-9927
▁बिरालो	-9928
▁भएकोमा	-9929
▁भिक्टो	-9930
▁लोककथा	-9931
▁स्वीका	-9932
▁अगाडिको	-9933
▁ग्रहहरू	-9934
▁चुनावको	-9935
▁छोरीलाई	-9936
▁देहान्त	-9937
▁मन्न्री	-9938
▁मारिएका	-9939
▁लिमिटेड	-9940
▁विसर्जन	-9941
▁शङ्खहरु	-9942
▁शाखाहरू	-9943
▁समूहलाई	-9944
▁सुधारको	-9945
▁उत्तीर्ण	-9946
▁पर्यावरण	-9947
▁प्रायजसो	-9948
▁फर्केपछि	-9949
▁मध्यवर्ग	-9950
▁युद्धबाट	-9951
▁विसङ्गति	-9952
▁षडयन्त्र	-9953
▁इलेक्ट्रो	-9954
▁इष्टमित्र	-9955
▁दक्षिणतिर	-9956
▁प्रकाशनको	-9957
▁प्राधिकरण	-9958
▁व्यापारको	-9959
▁एकउपनिषदहो	-9960
▁सदस्यहरूले	-9961
▁हत्याकाण्ड	-9962
▁पशुपतिनाथको	-9963
▁प्रक्रियामा	-9964
▁प्रतिवेदनका	-9965
▁युद्धभुमिमा	-9966
▁बाछिटालेखनको	-9967
▁स्वर्गद्वारी	-9968
तं	-9969
पै	-9970
ंजन	-9971
गाड	-9972
ग्ध	-9973
डाइ	-9974
दोष	-9975
वटै	-9976
सिङ	-9977
स्च	-9978
▁कछ	-9979
▁नह	-9980
▁लय	-9981
▁वल	-9982
▁ह्	-9983
कुटी	-9984
गाली	-9985
ग्दी	-9986
टलाई	-9987
ड्को	-9988
त्यो	-9989
नाला	-9990
महार	-9991
रियो	-9992
लिंग	-9993
व्रत	-9994
स्रा	-9995
▁उखु	-9996
▁रेख	-9997
▁र्म	-9998
▁वली	-9999
▁ानी	-10000
त्यमा	-10001
र्द्ध	-10002
विकास	-10003
▁अभिन	-10004
▁एफएम	-10005
▁केरा	-10006
▁गानो	-10007
▁छोडे	-10008
▁दलाई	-10009
▁पिरी	-10010
▁बिही	-10011
▁मैना	-10012
▁रोटी	-10013
▁र्ने	-10014
▁लंका	-10015
▁विभि	-10016
उदयपुर	-10017
र्माको	-10018
लागिरी	-10019
▁आवद्ध	-10020
▁कश्यप	-10021
▁टिमको	-10022
▁थरहरू	-10023
▁नजरुल	-10024
▁लद्दा	-10025
▁लोकमा	-10026
▁वीर्य	-10027
▁सक्छन	-10028
▁सन्धी	-10029
▁ससाना	-10030
दायित्व	-10031
प्ताहिक	-10032
▁उदेश्य	-10033
▁चुनावी	-10034
▁डिजिटल	-10035
▁न्त्री	-10036
▁न्युजि	-10037
▁प्वाँख	-10038
▁भगदत्त	-10039
▁महासङ्	-10040
▁विक्री	-10041
▁समूहले	-10042
गणतन्त्र	-10043
▁गरिएपछि	-10044
▁लिच्छवी	-10045
▁अंग्रेजी	-10046
▁अध्यात्म	-10047
▁आइपुग्दा	-10048
▁खानेकुरा	-10049
▁ग्रन्थका	-10050
▁शक्तिलाई	-10051
▁शिक्षकको	-10052
▁हजुरबुवा	-10053
▁उत्पादनका	-10054
▁मध्ययुगीन	-10055
▁नियन्त्रित	-10056
▁लक्ष्मीदेवी	-10057
इला	-10058
उछन	-10059
दीप	-10060
धीन	-10061
नेत	-10062
भरण	-10063
वको	-10064
सरो	-10065
▁ंग	-10066
▁थी	-10067
▁रब	-10068
▁लख	-10069
कासन	-10070
ग्रे	-10071
बाहु	-10072
सुवा	-10073
स्वर	-10074
▁उपज	-10075
▁कैय	-10076
▁महल	-10077
▁वात	-10078
▁वाद	-10079
▁ीले	-10080
तिबाट	-10081
दण्डी	-10082
ल्पना	-10083
सिएको	-10084
ोकाको	-10085
▁अपरा	-10086
▁ईसाई	-10087
▁गोलो	-10088
▁निलो	-10089
▁पचास	-10090
▁मेसो	-10091
▁वन्द	-10092
▁सत्र	-10093
▁सिडि	-10094
▁स्टो	-10095
खुट्टे	-10096
यानन्द	-10097
ाखाँची	-10098
▁उभिएर	-10099
▁कमलको	-10100
▁गाइने	-10101
▁देखाए	-10102
▁देशकै	-10103
▁मिलाई	-10104
▁शङ्कर	-10105
▁संसद्	-10106
▁सदनको	-10107
▁सम्भा	-10108
▁सहरले	-10109
▁स्टेड	-10110
तिहरूको	-10111
प्राचीन	-10112
▁आवासीय	-10113
▁कक्षमा	-10114
▁कात्या	-10115
▁जंगलमा	-10116
▁जनकपुर	-10117
▁जनाउने	-10118
▁डिभिजन	-10119
▁देवीका	-10120
▁पुग्नु	-10121
▁फोक्सो	-10122
▁समूहको	-10123
▁सुचारु	-10124
म्बोडिया	-10125
▁गर्भवती	-10126
▁नेताहरू	-10127
▁पानीलाई	-10128
▁पारिएको	-10129
▁पुग्छन्	-10130
▁प्रजाती	-10131
▁बनाईएको	-10132
▁बैङ्कका	-10133
▁सहकार्य	-10134
▁स्विकार	-10135
▁उनीहरूका	-10136
▁एकादशीको	-10137
▁कम्पनीका	-10138
▁किल्लामा	-10139
▁गजेन्द्र	-10140
▁नरेन्द्र	-10141
▁पदोन्नति	-10142
▁प्रवर्तक	-10143
▁विधेयकमा	-10144
▁संरचनामा	-10145
▁सांसारिक	-10146
▁सैनिकहरू	-10147
▁अधिकारीले	-10148
▁अमेरिकाका	-10149
▁क्रियाशील	-10150
▁पुर्याएका	-10151
▁महाभारतमा	-10152
▁रामेछापमा	-10153
▁साङ्गीतिक	-10154
▁सिङ्गापुर	-10155
▁स्मारकहरू	-10156
▁चलचित्रहरू	-10157
▁परिवर्तनको	-10158
▁प्रणालीलाई	-10159
▁ब्रह्माण्ड	-10160
▁अङ्ग्रेजीमा	-10161
▁स्वास्थ्यको	-10162
▁सिन्धुपाल्चोक	-10163
▁स्वच्छन्दतावादी	-10164
कू	-10165
फत	-10166
भन	-10167
खको	-10168
थिव	-10169
दूत	-10170
पाइ	-10171
बुत	-10172
रणी	-10173
लगा	-10174
खाली	-10175
ड्का	-10176
दयको	-10177
मानै	-10178
वतार	-10179
वेणी	-10180
्रात	-10181
▁अचल	-10182
▁इमा	-10183
▁छेउ	-10184
▁भति	-10185
▁मिन	-10186
▁रवी	-10187
▁हलु	-10188
▁िया	-10189
▁्दा	-10190
गरानी	-10191
टाउने	-10192
टाहरू	-10193
त्म्य	-10194
दिन्छ	-10195
प्राक	-10196
बुटवल	-10197
र्श्व	-10198
वादमा	-10199
स्टाइ	-10200
ाराको	-10201
▁असहज	-10202
▁क्रे	-10203
▁गीता	-10204
▁गुजर	-10205
▁छोडी	-10206
▁पुगि	-10207
▁प्यू	-10208
▁बर्ण	-10209
▁मिथि	-10210
▁मेची	-10211
▁म्यू	-10212
▁रुकु	-10213
▁रोना	-10214
▁लङ्ग	-10215
▁सारी	-10216
त्तीसग	-10217
मद्भगव	-10218
स्तरमा	-10219
▁अल्लो	-10220
▁अवरोध	-10221
▁उपर्य	-10222
▁उस्तै	-10223
▁कार्त	-10224
▁कोइला	-10225
▁खोटाङ	-10226
▁खोल्न	-10227
▁गराएर	-10228
▁चल्यो	-10229
▁ताम्र	-10230
▁नोक्स	-10231
▁मुकाम	-10232
▁लाभको	-10233
▁लिङ्ग	-10234
▁संहार	-10235
▁हेरचा	-10236
गाविसमा	-10237
पश्चिमा	-10238
बकुल्ला	-10239
रपालुवा	-10240
लिपिन्स	-10241
▁अनुदान	-10242
▁अब्दुल	-10243
▁अयोग्य	-10244
▁असहयोग	-10245
▁कागजात	-10246
▁कानूनी	-10247
▁जोडेको	-10248
▁तामाको	-10249
▁तालिका	-10250
▁न्यानो	-10251
▁परास्त	-10252
▁पितामह	-10253
▁रामलाई	-10254
▁वरपरका	-10255
▁व्यापी	-10256
▁समाजिक	-10257
स्थितिमा	-10258
▁अग्निहो	-10259
▁गोरखपुर	-10260
▁चाँदीको	-10261
▁निगरानी	-10262
▁पक्षहरु	-10263
▁फाइनलमा	-10264
▁भारतलाई	-10265
▁भुटानको	-10266
▁रक्तचाप	-10267
▁स्कुलमा	-10268
▁उत्पादित	-10269
▁पुग्दछन्	-10270
▁मूल्यांक	-10271
▁संस्थाका	-10272
▁हनुमानका	-10273
विश्वेश्वर	-10274
▁नेपालगन्ज	-10275
▁प्रशासकीय	-10276
▁व्यवसायको	-10277
▁हिन्दीबाट	-10278
▁उत्तराखण्ड	-10279
▁कांग्रेसका	-10280
▁कांग्रेसले	-10281
▁क्याम्पसको	-10282
▁मानिसहरूमा	-10283
▁आवश्यकतालाई	-10284
▁निर्देशनालय	-10285
▁विमानस्थलको	-10286
▁अर्थतन्त्रको	-10287
▁एन्टिबायोटिक	-10288
कप	-10289
बं	-10290
िङ	-10291
तुल	-10292
दिङ	-10293
बिस	-10294
बीर	-10295
भिन	-10296
वाइ	-10297
विज	-10298
श्त	-10299
ेटी	-10300
▁ीर	-10301
कुण्	-10302
कुवा	-10303
क्ला	-10304
ग्रत	-10305
ङ्गल	-10306
तिज्	-10307
विना	-10308
▁आहम	-10309
▁तीस	-10310
▁धुन	-10311
▁नसक	-10312
▁पंच	-10313
▁पद्	-10314
▁म्य	-10315
▁लगी	-10316
▁वहा	-10317
▁शब्	-10318
कारले	-10319
जीलाई	-10320
धारमा	-10321
र्केर	-10322
लिखेल	-10323
ाएपछि	-10324
▁कोटि	-10325
▁चिसा	-10326
▁धूलो	-10327
▁निषे	-10328
▁फ्रि	-10329
▁बजाए	-10330
▁मर्न	-10331
▁वारा	-10332
▁श्या	-10333
▁श्रो	-10334
तर्फको	-10335
त्नीको	-10336
मारारा	-10337
रात्रि	-10338
वैष्णव	-10339
स्थानी	-10340
ारिएको	-10341
्चारको	-10342
▁अगस्त	-10343
▁अदुवा	-10344
▁आइपुग	-10345
▁एमाले	-10346
▁कलिला	-10347
▁गरिदै	-10348
▁चान्स	-10349
▁जागरण	-10350
▁डराएर	-10351
▁तलेजु	-10352
▁तिहाइ	-10353
▁देशभर	-10354
▁नदिने	-10355
▁बस्दा	-10356
▁बोलाई	-10357
▁भागवत	-10358
▁मर्दा	-10359
▁मुरली	-10360
▁यहुदी	-10361
▁योर्क	-10362
▁लाहोर	-10363
▁श्रेय	-10364
▁सतहमा	-10365
उँदैनन्	-10366
राचार्य	-10367
▁कश्मीर	-10368
▁क्लबको	-10369
▁जानकार	-10370
▁तिम्रा	-10371
▁नदिहरू	-10372
▁निकाला	-10373
▁पाटनका	-10374
▁प्रप्त	-10375
▁बालाजु	-10376
▁बिक्रम	-10377
▁रोगहरू	-10378
▁लेप्चा	-10379
▁लैजाने	-10380
▁स्ट्रा	-10381
▁स्वादि	-10382
▁आगन्तुक	-10383
▁आमन्त्र	-10384
▁उपलब्धी	-10385
▁चर्चामा	-10386
▁डाउनलोड	-10387
▁पङ्क्ति	-10388
▁बिद्रोह	-10389
▁मनकामना	-10390
▁मेलमिला	-10391
▁विचारको	-10392
▁सदस्यले	-10393
महाभारतको	-10394
▁छुट्याउन	-10395
▁जीवात्मा	-10396
▁दिल्लीको	-10397
▁दुसान्बे	-10398
▁संगीतकार	-10399
▁सदस्यलाई	-10400
▁सरकारबाट	-10401
▁सिकारलाई	-10402
▁अर्जुनलाई	-10403
▁विश्वासका	-10404
▁अभिमन्युको	-10405
▁तिनीहरूलाई	-10406
▁न्यायालयको	-10407
▁ब्यक्तिलाई	-10408
▁व्यवस्थापक	-10409
▁संक्रान्ति	-10410
▁क्रान्तिलाई	-10411
▁विद्यालयहरू	-10412
▁सम्मअमेरिकाका	-10413
▁इतिहासकारहरूको	-10414
अर	-10415
षी	-10416
ँही	-10417
जोन	-10418
नरी	-10419
▁्च	-10420
इदिए	-10421
कहाँ	-10422
क्जे	-10423
डोटी	-10424
निरी	-10425
बाजी	-10426
बिसे	-10427
यतका	-10428
यमित	-10429
योगी	-10430
ोच्च	-10431
▁आया	-10432
▁बहन	-10433
▁रत्	-10434
▁विध	-10435
▁सेट	-10436
▁्वा	-10437
कारिक	-10438
तिहार	-10439
त्तरी	-10440
न्वेष	-10441
पात्र	-10442
बत्ती	-10443
भीष्म	-10444
ाउँका	-10445
▁उतार	-10446
▁चुचु	-10447
▁दबाब	-10448
▁पेसा	-10449
▁फासि	-10450
▁बापत	-10451
▁मष्ट	-10452
▁मोही	-10453
▁रङको	-10454
▁वत्स	-10455
▁सिग्	-10456
▁सिधै	-10457
▁सुकै	-10458
त्रामा	-10459
मानन्द	-10460
संहिता	-10461
हरसिंह	-10462
▁अनुपा	-10463
▁अवस्थ	-10464
▁इस्मा	-10465
▁कलाको	-10466
▁काउन्	-10467
▁नाचमा	-10468
▁महिमा	-10469
▁राजको	-10470
▁विहार	-10471
▁हरिया	-10472
्चालनको	-10473
▁अन्वेष	-10474
▁चालिसे	-10475
▁धातुको	-10476
▁नाचगान	-10477
▁पूर्वज	-10478
▁बिहानै	-10479
▁महावीर	-10480
▁माटोमा	-10481
▁रङ्पुर	-10482
▁समाजले	-10483
▁सिँचाइ	-10484
्यावलोकन	-10485
▁अनियमित	-10486
▁अन्यत्र	-10487
▁कलेजबाट	-10488
▁किसिमले	-10489
▁क्लबबाट	-10490
▁नमस्कार	-10491
▁पक्षलाई	-10492
▁पङ्क्षी	-10493
▁पहिलेको	-10494
▁पुरुषले	-10495
▁प्रदूषण	-10496
▁बैङ्कमा	-10497
▁सर्वत्र	-10498
निर्वाचित	-10499
▁कम्पनीमा	-10500
▁कविताहरू	-10501
▁जनावरहरू	-10502
▁देहरादुन	-10503
▁प्रजापति	-10504
▁राजवंशको	-10505
▁स्याङ्जा	-10506
▁रक्षात्मक	-10507
▁उद्देश्यका	-10508
▁काङ्ग्रेसले	-10509
▁प्रतिबन्धित	-10510
▁सुरेन्द्रको	-10511
▁क्षेत्रहरूको	-10512
▁प्रकारकोजनावरहो	-10513
अद	-10514
कस	-10515
बट	-10516
ईन्	-10517
धनग	-10518
बिन	-10519
हिँ	-10520
हिं	-10521
ाटी	-10522
ुको	-10523
▁तम	-10524
▁्ण	-10525
कीको	-10526
कोटी	-10527
गंगा	-10528
ज्जा	-10529
णाको	-10530
न्सी	-10531
बर्ग	-10532
माता	-10533
मुखे	-10534
मूलक	-10535
सारी	-10536
सिङ्	-10537
ीतथा	-10538
ूर्त	-10539
▁अवध	-10540
▁कोश	-10541
▁खटि	-10542
▁छाउ	-10543
▁तता	-10544
▁दिस	-10545
▁पनी	-10546
▁रास	-10547
▁सत्	-10548
▁हर्	-10549
▁ारत	-10550
क्सिङ	-10551
पहिलो	-10552
पुष्प	-10553
बैतडी	-10554
श्रवा	-10555
▁अलग्	-10556
▁पहिच	-10557
▁पिरो	-10558
▁बिसं	-10559
▁युकु	-10560
▁विवे	-10561
▁सवार	-10562
▁सिक्	-10563
▁सिन्	-10564
▁सेतु	-10565
▁स्टक	-10566
▁स्वे	-10567
▁ेपाल	-10568
अभिमान	-10569
इसकेको	-10570
प्रयाग	-10571
समावेश	-10572
स्चियन	-10573
ाउँहरू	-10574
▁अक्षा	-10575
▁आसपास	-10576
▁कार्ड	-10577
▁क्याथ	-10578
▁चीनका	-10579
▁जम्मू	-10580
▁पत्थर	-10581
▁फारसी	-10582
▁बस्नु	-10583
▁बिदेश	-10584
▁मारुन	-10585
▁सर्वे	-10586
▁सल्तन	-10587
बुल्लाह	-10588
▁आदित्य	-10589
▁ईतिहास	-10590
▁उत्थान	-10591
▁उन्नति	-10592
▁कर्मको	-10593
▁कामहरू	-10594
▁कार्यक	-10595
▁गीतकार	-10596
▁जयन्ती	-10597
▁दिनबाट	-10598
▁नीतिको	-10599
▁पूजाको	-10600
▁बजारको	-10601
▁महारथी	-10602
▁मालपोत	-10603
▁मिलेको	-10604
▁राख्यो	-10605
▁शैलीका	-10606
▁स्विडे	-10607
▁हातबाट	-10608
▁उपचारको	-10609
▁कुराहरु	-10610
▁कोलेस्ट	-10611
▁गोदावरी	-10612
▁टाउकोमा	-10613
▁टेलिफोन	-10614
▁नेपालमै	-10615
▁प्रह्ला	-10616
▁बिहीबार	-10617
▁ब्रान्ड	-10618
▁मानन्धर	-10619
▁रणनीतिक	-10620
▁लाभदायक	-10621
▁उद्योगमा	-10622
▁देशहरूले	-10623
▁निर्वाचक	-10624
▁पर्यटकिय	-10625
▁प्रतिपदा	-10626
▁बिलिबिलि	-10627
▁म्यानमार	-10628
▁राज्यपाल	-10629
▁विराजमान	-10630
▁व्यावहार	-10631
▁इन्द्रलाई	-10632
▁परिवर्तित	-10633
▁प्रयोगलाई	-10634
▁राष्ट्रमा	-10635
▁राष्ट्रीय	-10636
▁वर्तमानमा	-10637
▁सत्याग्रह	-10638
▁समुन्द्री	-10639
▁कांग्रेसमा	-10640
▁कालान्तरमा	-10641
▁किसानहरूले	-10642
▁क्रिस्चियन	-10643
▁मन्त्रीपरि	-10644
▁विधिपूर्वक	-10645
▁कार्यकारिणी	-10646
▁मुद्रास्फीति	-10647
▁राष्ट्रपतिलाई	-10648
खत	-10649
धव	-10650
मद	-10651
रज	-10652
इस्	-10653
टिश	-10654
डफा	-10655
दमन	-10656
फिक	-10657
ाला	-10658
ेट्	-10659
▁अँ	-10660
▁कन	-10661
▁पण	-10662
▁ेत	-10663
इलाम	-10664
क्सन	-10665
गीता	-10666
चनमा	-10667
ज्ने	-10668
धुरी	-10669
न्टो	-10670
न्ते	-10671
ुण्ड	-10672
▁उडा	-10673
▁एले	-10674
▁कपा	-10675
▁कुश	-10676
▁चिम	-10677
▁छाड	-10678
▁जले	-10679
▁तल्	-10680
▁दुव	-10681
▁पोथ	-10682
▁बिउ	-10683
▁भिज	-10684
▁रणो	-10685
▁हिड	-10686
गरेका	-10687
टिक्स	-10688
षधिको	-10689
सूत्र	-10690
स्मरण	-10691
ानहरू	-10692
ापाका	-10693
ालयको	-10694
▁कटुस	-10695
▁खुम्	-10696
▁चोटी	-10697
▁जनमत	-10698
▁जाना	-10699
▁थारू	-10700
▁दुरी	-10701
▁नाचि	-10702
▁प्रि	-10703
▁भुत्	-10704
▁वाचन	-10705
▁सम्भ	-10706
▁सिटी	-10707
▁सोको	-10708
▁हिरा	-10709
▁हुनै	-10710
देवीले	-10711
भूमिमा	-10712
मसत्ता	-10713
वादलाई	-10714
सरकारी	-10715
स्थामा	-10716
हिमाचल	-10717
हेर्नु	-10718
्ज्याङ	-10719
▁अनुष्	-10720
▁अमिलो	-10721
▁आतङ्क	-10722
▁आपूर्	-10723
▁जरूरी	-10724
▁दललाई	-10725
▁दिएकी	-10726
▁पुष्प	-10727
▁बनावट	-10728
▁बिग्र	-10729
▁मरेका	-10730
▁रसिया	-10731
▁राइफल	-10732
▁रूपको	-10733
▁रोगका	-10734
▁लडेको	-10735
▁लिएकी	-10736
▁वार्ड	-10737
▁वैद्य	-10738
▁श्राप	-10739
▁समालो	-10740
▁हराउन	-10741
ब्रह्मा	-10742
वलपरासी	-10743
▁अलिकति	-10744
▁खोजीमा	-10745
▁जनजीवन	-10746
▁नहुँदा	-10747
▁न्याया	-10748
▁पुरस्क	-10749
▁बाँडफा	-10750
▁भोजनमा	-10751
▁राजारण	-10752
▁लेखेको	-10753
▁वर्गीय	-10754
▁विपरित	-10755
▁समष्टि	-10756
▁सम्पति	-10757
▁सुरूमा	-10758
▁हिमनदी	-10759
▁हुनुका	-10760
बहादुरले	-10761
राजस्थान	-10762
हमन्त्री	-10763
▁अधिनियम	-10764
▁अवलम्बन	-10765
▁उन्मूलन	-10766
▁पार्श्व	-10767
▁पुत्रको	-10768
▁प्रत्यक	-10769
▁फैलिएका	-10770
▁बिहारमा	-10771
▁राजाहरू	-10772
▁विरोधमा	-10773
▁विवादित	-10774
श्रीलङ्का	-10775
▁पराक्रमी	-10776
▁प्रभावको	-10777
▁बार्सिलो	-10778
▁बाहिरबाट	-10779
▁बेलायतले	-10780
▁ब्यबस्था	-10781
▁भेटिन्छन	-10782
▁रामायणमा	-10783
▁वरिपरिको	-10784
▁विशेषतया	-10785
▁सामान्यत	-10786
▁सूचीबद्ध	-10787
▁हुन्छिन्	-10788
▁इन्जिनियर	-10789
▁केन्द्रमा	-10790
▁त्यत्तिकै	-10791
▁निर्देशित	-10792
▁भक्तजनहरू	-10793
▁ललितपुरका	-10794
▁पूर्णरूपमा	-10795
▁प्रधानमन्त	-10796
▁सम्बन्धलाई	-10797
अप	-10798
हद	-10799
ुद	-10800
उनी	-10801
गरे	-10802
गार	-10803
जवा	-10804
ट्ज	-10805
तीत	-10806
लिग	-10807
वला	-10808
सात	-10809
ेटो	-10810
▁शर	-10811
▁हम	-10812
अफ्र	-10813
च्चै	-10814
तबाट	-10815
दिने	-10816
दिल्	-10817
न्छु	-10818
बिया	-10819
यनगर	-10820
र्था	-10821
ल्नु	-10822
शुली	-10823
सिको	-10824
स्कर	-10825
हुनु	-10826
ाल्न	-10827
्जाब	-10828
्याउ	-10829
्योङ	-10830
▁उसै	-10831
▁एमए	-10832
▁कलम	-10833
▁जीउ	-10834
▁टार	-10835
▁दूर	-10836
▁निश	-10837
▁न्त	-10838
▁भएछ	-10839
▁लीग	-10840
▁वाग	-10841
▁वान	-10842
▁शोध	-10843
थ्र्य	-10844
भाग्य	-10845
मिश्र	-10846
राहरु	-10847
वर्तन	-10848
स्तिक	-10849
ाउनका	-10850
ोकामा	-10851
्याली	-10852
▁अम्ब	-10853
▁आलोक	-10854
▁इजला	-10855
▁कमजो	-10856
▁क्रा	-10857
▁गिरि	-10858
▁चेली	-10859
▁जवान	-10860
▁तलको	-10861
▁दम्प	-10862
▁परमे	-10863
▁मनसा	-10864
▁महरा	-10865
▁राँच	-10866
▁वीरग	-10867
▁वेला	-10868
▁स्टु	-10869
▁हाली	-10870
क्षकको	-10871
गिरिजा	-10872
रात्री	-10873
श्रेष्	-10874
▁असहाय	-10875
▁आरक्ष	-10876
▁कुन्त	-10877
▁खेलेर	-10878
▁गुमाए	-10879
▁निपुण	-10880
▁पट्टी	-10881
▁प्रता	-10882
▁बस्यो	-10883
▁भएनन्	-10884
▁मदिरा	-10885
▁मनसुन	-10886
▁मागेर	-10887
▁रहन्न	-10888
▁रुखमा	-10889
▁लगाउँ	-10890
▁वाध्य	-10891
▁सरसफा	-10892
▁हालका	-10893
भन्नाले	-10894
▁उद्धार	-10895
▁उल्लङ्	-10896
▁कपालमा	-10897
▁कान्छो	-10898
▁केनेडी	-10899
▁दुबैको	-10900
▁धाराको	-10901
▁निन्दा	-10902
▁पुग्दा	-10903
▁प्रेमी	-10904
▁बार्ने	-10905
▁माछाको	-10906
▁सबैजसो	-10907
▁सिकारी	-10908
▁सूत्रा	-10909
▁सूर्यो	-10910
▁हितलाई	-10911
त्रिपुरा	-10912
▁इलाकामा	-10913
▁ईश्वरको	-10914
▁कर्नाटक	-10915
▁कस्तुरी	-10916
▁देशभक्त	-10917
▁निकाल्न	-10918
▁पर्वतमा	-10919
▁भरद्वाज	-10920
▁भोजनालय	-10921
▁मानिसका	-10922
▁मिसिन्छ	-10923
▁विष्टको	-10924
▁व्रतकथा	-10925
▁अपेक्षाक	-10926
▁आधुनिकता	-10927
▁कोरियाली	-10928
▁गरेतापनि	-10929
▁जर्मनीले	-10930
▁जिन्नाको	-10931
▁दागबत्ती	-10932
▁नातिकाजी	-10933
▁नेपालीले	-10934
▁प्रतिकार	-10935
▁प्रतिदिन	-10936
▁प्रतीकको	-10937
▁प्रधानको	-10938
▁प्रहरीले	-10939
▁भावनाबाट	-10940
▁मोर्चामा	-10941
▁विद्वान्	-10942
▁विश्वलाई	-10943
▁विष्टलाई	-10944
▁स्वचालित	-10945
▁त्यसभन्दा	-10946
▁त्यसमध्ये	-10947
▁दार्जिलिङ	-10948
▁मूल्याङ्क	-10949
▁वर्णाश्रम	-10950
▁अभिमन्युले	-10951
▁आइन्स्टाइन	-10952
▁क्यालिफोर्	-10953
▁छोराहरूलाई	-10954
▁प्रतिबिम्ब	-10955
▁प्रदर्शनमा	-10956
▁एकादशीहरूको	-10957
▁न्यायाधीशले	-10958
▁स्वामित्वमा	-10959
▁सङ्ग्रहालयमा	-10960
▁अर्थशास्त्रको	-10961
▁प्रतिस्पर्धामा	-10962
ंख	-10963
अथ	-10964
चै	-10965
ाड	-10966
कोण	-10967
गाइ	-10968
टिङ	-10969
तां	-10970
दया	-10971
ानै	-10972
▁िन	-10973
अन्न	-10974
कलाई	-10975
कार्	-10976
टाका	-10977
ड्दै	-10978
तेको	-10979
न्धन	-10980
पोषण	-10981
यमान	-10982
लोमा	-10983
शीको	-10984
ष्कर	-10985
सीका	-10986
स्तक	-10987
ह्या	-10988
ोलमा	-10989
▁असा	-10990
▁खाँ	-10991
▁खाइ	-10992
▁खोक	-10993
▁चना	-10994
▁थरी	-10995
▁धरा	-10996
▁नका	-10997
▁पेर	-10998
▁सल्	-10999
खर्के	-11000
दरवार	-11001
द्दीप	-11002
पुच्छ	-11003
बहिनी	-11004
योगको	-11005
र्नेल	-11006
लिङको	-11007
लोकमा	-11008
▁इमेल	-11009
▁केशर	-11010
▁चिन्	-11011
▁जलमा	-11012
▁तोके	-11013
▁त्रै	-11014
▁धुवा	-11015
▁पुमा	-11016
▁बैज्	-11017
▁मधुर	-11018
▁माइल	-11019
▁मादल	-11020
▁रिया	-11021
▁विरु	-11022
▁सुन्	-11023
▁स्पो	-11024
धानीको	-11025
र्चुला	-11026
श्यहरू	-11027
ीयशाखा	-11028
▁एक्लो	-11029
▁चुच्च	-11030
▁जन्तु	-11031
▁तहहरू	-11032
▁धार्म	-11033
▁प्रणा	-11034
▁मस्को	-11035
▁माइती	-11036
▁मुजफ्	-11037
▁रगतको	-11038
▁विकेट	-11039
▁विदुर	-11040
▁साहिब	-11041
▁सुर्य	-11042
▁सुसज्	-11043
अमेरिकी	-11044
महारानी	-11045
हुन्छन्	-11046
▁इजरायल	-11047
▁उच्चतम	-11048
▁कार्बो	-11049
▁खुलेको	-11050
▁पेशामा	-11051
▁भूमध्य	-11052
▁मनोनीत	-11053
▁मिसाएर	-11054
▁स्तनको	-11055
▁कार्यलय	-11056
▁गराइएको	-11057
▁फासिस्ट	-11058
स्वतन्त्र	-11059
▁अध्ययनको	-11060
▁अवस्थिति	-11061
▁कार्यभार	-11062
▁परिवारले	-11063
▁माध्यमले	-11064
▁युनाइटेड	-11065
▁रेलमार्ग	-11066
▁विचारलाई	-11067
त्युदण्डको	-11068
फ्रान्सेली	-11069
▁अफ्रिकामा	-11070
▁अस्पतालको	-11071
▁उपन्यासमा	-11072
▁निर्माणका	-11073
▁पंक्षीहरू	-11074
▁परिमार्जन	-11075
▁राजधानीको	-11076
▁वातावरणमा	-11077
▁कार्यान्वय	-11078
▁कार्यालयले	-11079
▁पदयात्राको	-11080
▁उत्तरदायित्व	-11081
▁पुनर्स्थापना	-11082
▁विद्यालयहरूमा	-11083
▁कार्यक्रमहरूको	-11084
थन	-11085
पछ	-11086
कता	-11087
काउ	-11088
तम्	-11089
धीर	-11090
शित	-11091
ीया	-11092
ूना	-11093
्चो	-11094
▁टर	-11095
▁शक	-11096
▁्द	-11097
क्षय	-11098
जपुर	-11099
ट्टो	-11100
धेरै	-11101
प्नु	-11102
म्भु	-11103
लाईन	-11104
लैया	-11105
श्रु	-11106
सेवक	-11107
ियाल	-11108
▁उहा	-11109
▁चेन	-11110
▁छर्	-11111
▁जनर	-11112
▁जाय	-11113
▁टाँ	-11114
▁डाइ	-11115
▁नक्	-11116
▁नभइ	-11117
▁समर	-11118
▁सेव	-11119
▁स्र	-11120
▁होस	-11121
चित्त	-11122
मकर्ण	-11123
वसन्त	-11124
स्मिक	-11125
िसम्म	-11126
▁आरती	-11127
▁खुशी	-11128
▁छोटा	-11129
▁थर्म	-11130
▁थारु	-11131
▁दुश्	-11132
▁नरेश	-11133
▁नवमी	-11134
▁नाभि	-11135
▁पांच	-11136
▁फोटो	-11137
▁बराह	-11138
▁बैङ्	-11139
▁बोका	-11140
▁भूरि	-11141
▁भोटो	-11142
▁मयमन	-11143
▁मिली	-11144
▁मुलु	-11145
▁वाल्	-11146
▁वाहन	-11147
▁षडान	-11148
▁सिल्	-11149
▁हिमश	-11150
▁हेतु	-11151
चेस्टर	-11152
बिन्दु	-11153
सम्यान	-11154
सल्यान	-11155
िकप्टर	-11156
ुद्धको	-11157
▁इटहरी	-11158
▁उत्पी	-11159
▁उपनाम	-11160
▁उपहार	-11161
▁एकदिन	-11162
▁एसियन	-11163
▁कथाको	-11164
▁कल्कि	-11165
▁गरेता	-11166
▁तत्पर	-11167
▁नमूना	-11168
▁नोबेल	-11169
▁पटुका	-11170
▁पेटको	-11171
▁फूलको	-11172
▁बाँके	-11173
▁रातभर	-11174
▁शिरमा	-11175
▁हाकिम	-11176
कर्नाटक	-11177
ज्योतिष	-11178
बाबुराम	-11179
ानीलकण्	-11180
▁अभिन्न	-11181
▁गरिरहे	-11182
▁छन्दको	-11183
▁छात्रव	-11184
▁जयद्रथ	-11185
▁तिरबाट	-11186
▁तुल्सी	-11187
▁दोहोरो	-11188
▁द्रुपद	-11189
▁पटनाको	-11190
▁पिकनिक	-11191
▁बेलुका	-11192
▁भट्टको	-11193
▁भिमसेन	-11194
▁शिशुको	-11195
हयुद्धको	-11196
्जनात्मक	-11197
▁इन्दिरा	-11198
▁जन्मजात	-11199
▁दिनदेखि	-11200
▁पुर्वमा	-11201
▁मध्येका	-11202
▁समाजलाई	-11203
▁समेटेको	-11204
▁सुनिन्छ	-11205
▁स्वास्थ	-11206
▁कोरियाको	-11207
▁क्षमताको	-11208
▁गान्धारी	-11209
▁चाहन्छन्	-11210
▁टुप्पोमा	-11211
▁रवीन्द्र	-11212
▁वैकल्पिक	-11213
▁स्तनधारी	-11214
▁गोरखापत्र	-11215
▁चिनिन्छन्	-11216
▁परिकल्पना	-11217
▁प्रतिलिपि	-11218
▁हेलिकप्टर	-11219
▁आम्बेडकरले	-11220
▁कल्याणकारी	-11221
त्रिपुरेश्वर	-11222
▁विद्यालयबाट	-11223
▁व्यक्तिहरूले	-11224
▁अङ्ग्रेजहरूको	-11225
▁अर्थशास्त्रमा	-11226
▁प्रतिनिधिहरूले	-11227
बू	-11228
ां	-11229
जहा	-11230
नां	-11231
पतन	-11232
पूर	-11233
बने	-11234
भरा	-11235
मकै	-11236
मनो	-11237
यते	-11238
व्व	-11239
शरी	-11240
▁अड	-11241
▁लं	-11242
▁हू	-11243
इन्स	-11244
खबाट	-11245
खामा	-11246
गलको	-11247
गिरि	-11248
याले	-11249
िनले	-11250
ियान	-11251
्रमण	-11252
▁आसन	-11253
▁उनल	-11254
▁खिच	-11255
▁भेग	-11256
▁यजु	-11257
▁रिज	-11258
▁रोड	-11259
▁वल्	-11260
डामणि	-11261
नेवार	-11262
मूल्य	-11263
रक्षक	-11264
लोक्य	-11265
▁अतुल	-11266
▁इन्ड	-11267
▁केशव	-11268
▁क्लि	-11269
▁चलाख	-11270
▁छाता	-11271
▁ट्रफ	-11272
▁नदिई	-11273
▁मस्य	-11274
▁मांस	-11275
▁राती	-11276
▁रेस्	-11277
▁लिंग	-11278
▁संधि	-11279
▁सिया	-11280
▁ुन्छ	-11281
कीर्ति	-11282
जर्मनी	-11283
बनाइयो	-11284
रहरूको	-11285
स्वामी	-11286
▁अन्ति	-11287
▁असन्त	-11288
▁जनाउन	-11289
▁दिनमै	-11290
▁ध्वनि	-11291
▁नसकेर	-11292
▁निरूप	-11293
▁पार्छ	-11294
▁पेरिस	-11295
▁फलफुल	-11296
▁बसन्त	-11297
▁भवानी	-11298
▁योगको	-11299
▁रूलाई	-11300
▁विजया	-11301
▁शीतला	-11302
▁संकटा	-11303
▁समयमै	-11304
पोखरीमा	-11305
मध्येको	-11306
सामान्य	-11307
▁अन्यथा	-11308
▁क्रमिक	-11309
▁गभर्नर	-11310
▁चासोका	-11311
▁जमिनको	-11312
▁दक्षता	-11313
▁पार्दछ	-11314
▁बाङ्गो	-11315
▁भाषाहो	-11316
▁मान्दै	-11317
▁मुर्ती	-11318
▁रोप्ने	-11319
▁संसदले	-11320
क्षेत्री	-11321
क्ष्मीको	-11322
ष्माण्डा	-11323
▁अफ्रिकी	-11324
▁इजरायली	-11325
▁गद्दीमा	-11326
▁ग्रीष्म	-11327
▁चराचुरु	-11328
▁दयानन्द	-11329
▁नचाइन्छ	-11330
▁बनाउनका	-11331
▁बन्धनमा	-11332
▁साथीहरू	-11333
▁स्वार्थ	-11334
ुरेन्टहरू	-11335
▁इलाहाबाद	-11336
▁खेतीपाती	-11337
▁दस्तावेज	-11338
▁विरुवाको	-11339
▁सुसज्जित	-11340
▁स्वर्गमा	-11341
▁उपर्युक्त	-11342
▁नागार्जुन	-11343
▁पुनरावेदन	-11344
▁महत्त्वको	-11345
▁महिनावारी	-11346
▁सम्पर्कमा	-11347
▁उम्मेदवारी	-11348
▁कहिलेकाँही	-11349
▁कालीगण्डकी	-11350
▁चिनिन्थ्यो	-11351
▁तेक्वान्दो	-11352
▁परिमार्जित	-11353
▁प्रवर्द्धन	-11354
▁प्रोत्साहन	-11355
▁फर्किन्छन्	-11356
▁मन्त्रीहरू	-11357
▁लोकविश्वास	-11358
▁राज्याभिषेक	-11359
▁पूर्वमन्त्री	-11360
▁क्षेत्रहरूलाई	-11361
▁अर्थव्यवस्थाको	-11362
▁मन्त्रीमण्डलमा	-11363
रग	-11364
ंजी	-11365
केर	-11366
जगत	-11367
तसर	-11368
निम	-11369
बिए	-11370
भिव	-11371
मिद	-11372
समी	-11373
ाती	-11374
ेषु	-11375
्चक	-11376
▁कद	-11377
▁गन	-11378
▁यह	-11379
उँने	-11380
चियो	-11381
डेरी	-11382
धातु	-11383
नाम्	-11384
नुले	-11385
पाटी	-11386
बीमा	-11387
मिता	-11388
म्की	-11389
म्सी	-11390
साइँ	-11391
्वाइ	-11392
▁असं	-11393
▁जिउ	-11394
▁पन्	-11395
▁पाच	-11396
▁माड	-11397
▁रूस	-11398
▁विन	-11399
▁१मा	-11400
ंक्षा	-11401
कोटमा	-11402
खण्डी	-11403
गान्त	-11404
जन्मा	-11405
डेलले	-11406
तनहुँ	-11407
दादरा	-11408
द्धार	-11409
धिराज	-11410
वर्षे	-11411
सेरले	-11412
हुँदा	-11413
▁अनाव	-11414
▁कपास	-11415
▁कागज	-11416
▁कुसु	-11417
▁गरिब	-11418
▁टिभी	-11419
▁डटकम	-11420
▁नबने	-11421
▁फोरम	-11422
▁बाँस	-11423
▁भेडा	-11424
▁मंगल	-11425
▁मुला	-11426
▁लिला	-11427
▁संयम	-11428
▁सायद	-11429
खुकुरी	-11430
र्जिया	-11431
ाँटीमा	-11432
्रान्त	-11433
्रिएको	-11434
▁अल्पा	-11435
▁अविना	-11436
▁असिरी	-11437
▁आहमेद	-11438
▁कविको	-11439
▁जयपुर	-11440
▁जिन्द	-11441
▁ताँदो	-11442
▁बन्धु	-11443
▁बरदान	-11444
▁बस्ता	-11445
▁माधवी	-11446
▁संकेत	-11447
▁सम्मा	-11448
▁सालका	-11449
▁सालिक	-11450
▁हाइकु	-11451
▁हुन्न	-11452
छत्तीसग	-11453
▁आतिथ्य	-11454
▁उनीहरु	-11455
▁खतराको	-11456
▁गनिन्छ	-11457
▁गराइयो	-11458
▁त्यागि	-11459
▁नमस्ते	-11460
▁परिमाण	-11461
▁पानीका	-11462
▁पुरुषा	-11463
▁पोर्चु	-11464
▁बालकको	-11465
▁महायान	-11466
▁रोल्पा	-11467
▁लगाइदि	-11468
▁लेखिने	-11469
▁विपन्न	-11470
▁व्रतको	-11471
▁सकेपछि	-11472
▁सत्कार	-11473
▁सन्तोष	-11474
▁समेट्छ	-11475
▁अधिपत्य	-11476
▁उत्सवको	-11477
▁कर्मयोग	-11478
▁गर्भबाट	-11479
▁गाउँहरू	-11480
▁तीर्थया	-11481
▁दुर्व्य	-11482
▁निकालेर	-11483
▁नियमहरू	-11484
▁निस्केर	-11485
▁पट्टीको	-11486
▁प्रोटिन	-11487
▁बनाउनको	-11488
▁वैशाखमा	-11489
▁हरियाली	-11490
केन्द्रीय	-11491
हरुद्वारा	-11492
▁अनुहारमा	-11493
▁कार्यहरु	-11494
▁गीतहरूको	-11495
▁चन्दननाथ	-11496
▁जन्माउने	-11497
▁बहिष्कार	-11498
▁बाँडफाँड	-11499
▁भद्रकाली	-11500
▁भित्र्या	-11501
▁मनाउँछन्	-11502
▁मान्छेले	-11503
▁शुक्रबार	-11504
▁स्वर्गको	-11505
▁उद्योगहरू	-11506
▁नजरबन्दमा	-11507
▁पहिलेदेखि	-11508
▁रिपब्लिकन	-11509
▁सम्हाल्नु	-11510
▁शंकराचार्य	-11511
▁संरचनात्मक	-11512
▁पुस्तकालयमा	-11513
▁प्रतिस्थापन	-11514
▁शताब्दीदेखि	-11515
▁विद्यार्थीहरू	-11516
▁एकादशीलाईशुक्ल	-11517
नग	-11518
ेण	-11519
ों	-11520
ंकी	-11521
इनो	-11522
खका	-11523
गाँ	-11524
चरा	-11525
डार	-11526
पूत	-11527
बलि	-11528
▁ाग	-11529
गुल्	-11530
ङ्की	-11531
चरित	-11532
चार्	-11533
टामि	-11534
दिनु	-11535
दियो	-11536
धीका	-11537
पक्व	-11538
बिना	-11539
भन्द	-11540
मयिक	-11541
मीकि	-11542
ाटको	-11543
िहरू	-11544
्रोल	-11545
्वाङ	-11546
▁एलि	-11547
▁कण्	-11548
▁गेट	-11549
▁दुल	-11550
▁नले	-11551
▁बसि	-11552
▁माअ	-11553
▁मीन	-11554
▁लमा	-11555
कुम्भ	-11556
न्धमा	-11557
सुन्ध	-11558
ाउँने	-11559
ारोपण	-11560
▁उग्र	-11561
▁कोमल	-11562
▁ख्वा	-11563
▁गोबर	-11564
▁त्री	-11565
▁दिमा	-11566
▁बज्र	-11567
▁ब्ले	-11568
▁यत्न	-11569
▁रूमा	-11570
▁रेसा	-11571
▁हुमा	-11572
उँदछन्	-11573
तारिया	-11574
नीतिज्	-11575
पक्षीय	-11576
बुल्की	-11577
▁गरिबी	-11578
▁जेम्स	-11579
▁प्रवि	-11580
▁बिबाह	-11581
▁भेगका	-11582
▁भोग्न	-11583
▁सतर्क	-11584
▁सबैमा	-11585
▁सुप्र	-11586
▁हाँगा	-11587
पश्चिमी	-11588
▁अग्रसर	-11589
▁अङ्कित	-11590
▁एंगेल्	-11591
▁क्षेत्	-11592
▁खोलामा	-11593
▁दुवैमा	-11594
▁पर्दछन	-11595
▁बाल्ने	-11596
▁शिवराज	-11597
▁संयोजक	-11598
▁स्पर्श	-11599
▁हरूलाई	-11600
▁उपमन्यु	-11601
▁क्यान्स	-11602
▁गन्धर्व	-11603
▁चोकबजार	-11604
▁जापानको	-11605
▁दलहरूको	-11606
▁देखाउँछ	-11607
▁निरुक्त	-11608
▁पत्नीको	-11609
▁बजारबाट	-11610
▁महानिरी	-11611
▁मित्रता	-11612
▁रचनाहरू	-11613
▁लगाउँदा	-11614
▁विश्वकै	-11615
▁सिंहासन	-11616
▁सिकाउने	-11617
▁इन्द्रले	-11618
▁इस्लामिक	-11619
▁उपयोगिता	-11620
▁गरिसकेको	-11621
▁गाविसहरू	-11622
▁डुबुल्की	-11623
▁पर्यटनको	-11624
▁प्रश्नको	-11625
▁बन्दिपुर	-11626
▁बेलायतमा	-11627
▁भारद्वाज	-11628
▁मेक्सिको	-11629
▁वासस्थान	-11630
विकिपिडिया	-11631
▁पत्रिकाको	-11632
▁प्रकाशनमा	-11633
▁भारदारहरू	-11634
▁व्यवहारमा	-11635
▁शेरबहादुर	-11636
▁साङ्केतिक	-11637
▁साप्ताहिक	-11638
▁जननिर्वाचित	-11639
▁दक्षिणपूर्वी	-11640
यि	-11641
ोध	-11642
ंदी	-11643
ज्र	-11644
डसे	-11645
शार	-11646
ूवा	-11647
▁टन	-11648
▁थल	-11649
▁पथ	-11650
▁िस	-11651
अछाम	-11652
गाको	-11653
ङ्गत	-11654
तीले	-11655
नाडा	-11656
पनको	-11657
प्पु	-11658
बाडी	-11659
रेन्	-11660
हारा	-11661
ूलाई	-11662
ेलमा	-11663
▁चल्	-11664
▁चुर	-11665
▁जनस	-11666
▁टाउ	-11667
▁तोड	-11668
▁दर्	-11669
▁फेद	-11670
▁बल्	-11671
▁बाउ	-11672
▁बाम	-11673
▁बैं	-11674
▁भग्	-11675
▁भैर	-11676
▁रति	-11677
▁वटै	-11678
▁वसो	-11679
▁षष्	-11680
▁हमा	-11681
▁हलो	-11682
▁ह्व	-11683
▁ुन्	-11684
चेतना	-11685
न्टिक	-11686
न्यकु	-11687
प्रभु	-11688
भावित	-11689
र्षमा	-11690
षिलाई	-11691
▁आप्र	-11692
▁इङ्ग	-11693
▁कसुर	-11694
▁कोर्	-11695
▁गरेक	-11696
▁छाती	-11697
▁जडान	-11698
▁जेष्	-11699
▁दराई	-11700
▁दलमा	-11701
▁देवा	-11702
▁पाइन	-11703
▁बाइस	-11704
▁बेल्	-11705
▁मन्थ	-11706
▁माफी	-11707
▁राना	-11708
▁वस्त	-11709
▁हकको	-11710
▁होचो	-11711
त्मकथा	-11712
पुत्री	-11713
मुद्रा	-11714
लाग्दो	-11715
▁असत्य	-11716
▁उन्नत	-11717
▁जानकी	-11718
▁ट्याग	-11719
▁थिईन्	-11720
▁पोर्ट	-11721
▁मिल्न	-11722
▁यसैको	-11723
▁राजका	-11724
▁विमुख	-11725
▁विवेक	-11726
▁सान्त	-11727
▁साविक	-11728
▁साहित	-11729
▁सिलेट	-11730
▁स्तूप	-11731
तिब्बती	-11732
देवताको	-11733
पेन्द्र	-11734
ललितपुर	-11735
▁अर्चना	-11736
▁उत्खनन	-11737
▁केहीले	-11738
▁खाल्डो	-11739
▁चराहरू	-11740
▁चलाएको	-11741
▁जनाएका	-11742
▁तिम्बु	-11743
▁दस्तुर	-11744
▁पूजारी	-11745
▁प्रज्व	-11746
▁प्रिन्	-11747
▁बक्सिङ	-11748
▁बर्लिन	-11749
▁बेइजिङ	-11750
▁मितिले	-11751
▁मिर्जा	-11752
▁विधामा	-11753
▁शान्ती	-11754
▁अर्काको	-11755
▁अहिल्या	-11756
▁आत्मकथा	-11757
▁उपेक्षा	-11758
▁कतिपयले	-11759
▁कर्मचार	-11760
▁कालदेखि	-11761
▁कुकुरको	-11762
▁भाँडाकु	-11763
▁रहनेछन्	-11764
▁वर्षेनी	-11765
▁व्यायाम	-11766
▁साधनहरू	-11767
▁सिंहलाई	-11768
▁सुदर्शन	-11769
▁सुपुत्र	-11770
▁अधिकारका	-11771
▁अधिकारमा	-11772
▁आयोजनाको	-11773
▁उपप्रमुख	-11774
▁उपसभामुख	-11775
▁जर्मनीमा	-11776
▁त्रिपुरा	-11777
▁देखाइएको	-11778
▁निष्पक्ष	-11779
▁पाल्पाली	-11780
▁पुस्तकको	-11781
▁भन्नुभयो	-11782
▁लक्षणहरू	-11783
▁विकासशील	-11784
▁स्वशासित	-11785
▁गुणस्तरीय	-11786
▁देवकोटाको	-11787
▁नागरिकहरू	-11788
▁परीक्षामा	-11789
▁प्रदर्शनी	-11790
▁प्रादेशिक	-11791
▁राजधानीमा	-11792
▁विनाशकारी	-11793
▁सिक्किममा	-11794
इन्डोनेसिया	-11795
▁आन्दोलनलाई	-11796
▁कार्यकालको	-11797
▁देवताहरूको	-11798
▁प्राध्यापक	-11799
▁बाछिटालेखन	-11800
▁भन्नुपर्दा	-11801
▁वस्तुहरूको	-11802
▁जंगबहादुरले	-11803
▁व्यवस्थालाई	-11804
विश्वविद्यालय	-11805
▁अर्थशास्त्री	-11806
▁सूत्रकविताको	-11807
▁मन्त्रिपरिषदको	-11808
ङक	-11809
जत	-11810
जस	-11811
िए	-11812
ँदे	-11813
गता	-11814
गया	-11815
टले	-11816
टेक	-11817
तीक	-11818
पनी	-11819
पुत	-11820
बेच	-11821
भित	-11822
मना	-11823
लीक	-11824
वनी	-11825
शिक	-11826
सरह	-11827
▁जड	-11828
▁नख	-11829
▁यत	-11830
▁रख	-11831
▁ात	-11832
इस्ट	-11833
खाने	-11834
न्तक	-11835
मग्न	-11836
महान	-11837
मुगल	-11838
मेरो	-11839
म्भव	-11840
रोमन	-11841
र्नी	-11842
शिया	-11843
▁आँप	-11844
▁आसा	-11845
▁चाउ	-11846
▁छिन	-11847
▁तिल	-11848
▁भंग	-11849
▁मथु	-11850
▁रसि	-11851
▁लीन	-11852
▁ूर्	-11853
▁्दछ	-11854
निएका	-11855
पुर्व	-11856
बित्त	-11857
ालयमा	-11858
▁अप्ट	-11859
▁इकाई	-11860
▁कतार	-11861
▁टिकट	-11862
▁डेभि	-11863
▁थ्री	-11864
▁फासी	-11865
▁बादल	-11866
▁भेरी	-11867
▁रोका	-11868
▁लुतो	-11869
▁स्मा	-11870
▁हलमा	-11871
▁हिले	-11872
आधुनिक	-11873
टनैतिक	-11874
डेरेसन	-11875
भरतपुर	-11876
म्बरको	-11877
वस्थित	-11878
सप्तरी	-11879
▁उकालो	-11880
▁उल्टो	-11881
▁कच्चा	-11882
▁कायमै	-11883
▁खाँदा	-11884
▁गुणको	-11885
▁जिरेल	-11886
▁द्वीप	-11887
▁ध्रुव	-11888
▁बर्णन	-11889
▁मजबुत	-11890
▁मूख्य	-11891
▁वनभोज	-11892
▁हुनुअ	-11893
सगरमाथा	-11894
सुर्खेत	-11895
▁अनुकुल	-11896
▁असम्भव	-11897
▁कुनामा	-11898
▁चीनबाट	-11899
▁जाडोमा	-11900
▁जान्थे	-11901
▁जीर्णो	-11902
▁त्यहीं	-11903
▁देखाएर	-11904
▁पङ्क्ष	-11905
▁फैलियो	-11906
▁बाहिरि	-11907
▁भइरहने	-11908
▁भरिएका	-11909
▁भूमिको	-11910
▁मालिका	-11911
▁रोगबाट	-11912
▁लगाइयो	-11913
▁सीमामा	-11914
▁सेनलाई	-11915
▁स्वयम्	-11916
▁हेरचाह	-11917
ट्सम्यान	-11918
म्यानमार	-11919
युरोपेली	-11920
ाउनुपर्छ	-11921
▁आन्द्रा	-11922
▁कार्यका	-11923
▁गर्नबाट	-11924
▁गायत्री	-11925
▁जरासन्ध	-11926
▁जिल्लार	-11927
▁त्रिशूल	-11928
▁नवरात्र	-11929
▁बाबुराम	-11930
▁बास्केट	-11931
▁भैसकेको	-11932
▁मंगलबार	-11933
▁ल्याएका	-11934
▁विजयपुर	-11935
▁विवाहित	-11936
▁सक्दछन्	-11937
▁समाजवाद	-11938
▁सम्हाले	-11939
▁निजहरूले	-11940
▁पर्दथ्यो	-11941
▁प्रभावमा	-11942
▁प्रयासको	-11943
▁वायुसेवा	-11944
▁विद्युत्	-11945
▁विस्थापन	-11946
▁व्याक्ती	-11947
▁शाकाहारी	-11948
▁सफ्टवेयर	-11949
▁सामाग्री	-11950
▁सुमेरियन	-11951
▁हानिकारक	-11952
ानेन्द्रले	-11953
▁खण्डकाव्य	-11954
▁प्रयोगबाट	-11955
▁वातावरणको	-11956
▁शब्दहरूको	-11957
▁सवारीसाधन	-11958
▁स्थापनामा	-11959
▁आदानप्रदान	-11960
▁खड्गबिक्रम	-11961
▁गर्नुहुन्छ	-11962
▁प्रणालीहरू	-11963
▁महालक्ष्मी	-11964
▁शिलालेखहरू	-11965
▁क्षेत्रफलको	-11966
▁प्रोत्साहित	-11967
▁सदस्यहरूलाई	-11968
▁शिक्षामन्त्री	-11969
▁मन्त्रिमण्डलमा	-11970
दक	-11971
षत	-11972
अनि	-11973
गित	-11974
डका	-11975
ड्र	-11976
दाह	-11977
नपा	-11978
न्म	-11979
पुल	-11980
फोर	-11981
बहा	-11982
बुक	-11983
भेट	-11984
मरी	-11985
लाङ	-11986
वेल	-11987
शिल	-11988
साङ	-11989
सैन	-11990
ाडी	-11991
ारस	-11992
िपी	-11993
िमय	-11994
ोडे	-11995
ोरा	-11996
▁थे	-11997
▁धी	-11998
▁नक	-11999
▁पश	-12000
▁ाथ	-12001
▁्ँ	-12002
कोपा	-12003
गायक	-12004
चर्य	-12005
टिने	-12006
न्दर	-12007
पारा	-12008
पुग्	-12009
बुबा	-12010
मल्ल	-12011
रेलू	-12012
षापण	-12013
सूदन	-12014
हरको	-12015
हूदी	-12016
ाइयो	-12017
ानेर	-12018
ारिक	-12019
ालिक	-12020
ेच्च	-12021
ेेेे	-12022
ैनन्	-12023
▁क्ल	-12024
▁गाभ	-12025
▁यस्	-12026
▁युथ	-12027
▁र्स	-12028
▁हैह	-12029
▁ागि	-12030
▁ारण	-12031
▁िलो	-12032
▁्था	-12033
क्सको	-12034
दम्बा	-12035
पट्टि	-12036
भिवेट	-12037
मान्य	-12038
र्जुआ	-12039
र्भिक	-12040
वासीक	-12041
विशेष	-12042
शुद्ध	-12043
श्वास	-12044
ासहित	-12045
▁आरोह	-12046
▁इनार	-12047
▁काटे	-12048
▁कुना	-12049
▁क्ति	-12050
▁गर्व	-12051
▁छत्र	-12052
▁डुबा	-12053
▁नाजी	-12054
▁नाला	-12055
▁पटेल	-12056
▁फैरा	-12057
▁बस्छ	-12058
▁बस्त	-12059
▁भएकै	-12060
▁भरमा	-12061
▁भियत	-12062
▁भैलो	-12063
▁मिसन	-12064
▁साइत	-12065
▁हरिश	-12066
भित्रै	-12067
लासपुर	-12068
्चनपुर	-12069
▁अवलोक	-12070
▁इटाली	-12071
▁क्षेत	-12072
▁खोज्न	-12073
▁गतिको	-12074
▁गद्दि	-12075
▁चरणका	-12076
▁चोरेर	-12077
▁जमाउन	-12078
▁ज्याज	-12079
▁पछिका	-12080
▁पसिना	-12081
▁पाइला	-12082
▁पुकार	-12083
▁बिम्ब	-12084
▁भाग्न	-12085
▁भावको	-12086
▁मङ्गो	-12087
▁रहोस्	-12088
▁लमजुङ	-12089
▁विभेद	-12090
▁समाधि	-12091
▁सल्ला	-12092
▁साइबर	-12093
डेलधुरा	-12094
त्सासुर	-12095
स्ट्रका	-12096
▁अवार्ड	-12097
▁अस्त्र	-12098
▁आँखामा	-12099
▁आन्ध्र	-12100
▁एकाग्र	-12101
▁किशोरग	-12102
▁कुन्ति	-12103
▁कुहिरो	-12104
▁गोल्डक	-12105
▁चीनसँग	-12106
▁छातीमा	-12107
▁जडिबुट	-12108
▁जनरलको	-12109
▁तिमिले	-12110
▁त्रिपा	-12111
▁दासत्व	-12112
▁दुईपटक	-12113
▁देखेका	-12114
▁देब्रे	-12115
▁नसकेका	-12116
▁पराउने	-12117
▁पातहरू	-12118
▁पुर्वी	-12119
▁बकासुर	-12120
▁बन्देज	-12121
▁बागडोर	-12122
▁बिगाहा	-12123
▁बेलुकी	-12124
▁ब्यक्त	-12125
▁भूमिगत	-12126
▁मारेको	-12127
▁मेलाको	-12128
▁लिपपोत	-12129
▁सूचीको	-12130
▁हटाउने	-12131
▁हिमाचल	-12132
प्राप्ति	-12133
विष्णुको	-12134
्चवर्षीय	-12135
▁अनुसूची	-12136
▁अम्बाको	-12137
▁अविनाशी	-12138
▁अव्यक्त	-12139
▁ईश्वरीय	-12140
▁चिनाउने	-12141
▁छुटकारा	-12142
▁टोलीहरू	-12143
▁दायरामा	-12144
▁देखिदैन	-12145
▁नभएकोले	-12146
▁निकुन्ज	-12147
▁पर्वतीय	-12148
▁पार्थिव	-12149
▁पुतनाको	-12150
▁बराबरको	-12151
▁बुर्जुआ	-12152
▁भरतवंशी	-12153
▁भीष्मले	-12154
▁मधुसूदन	-12155
▁मनोविज्	-12156
▁शक्तिका	-12157
▁शर्माको	-12158
▁सुनेपछि	-12159
▁सेकेन्ड	-12160
वीरविक्रम	-12161
स्तिनापुर	-12162
▁एकाधिकार	-12163
▁कुखुराको	-12164
▁कोर्षापण	-12165
▁खुवाइन्छ	-12166
▁नबनेसम्म	-12167
▁पिण्डदान	-12168
▁प्रकाशमा	-12169
▁मुद्दाको	-12170
▁रोनाल्डो	-12171
▁विदेशबाट	-12172
▁सङ्ग्राम	-12173
तराष्ट्रका	-12174
तरास्ट्रका	-12175
▁अनुप्रयोग	-12176
▁अन्नपूर्ण	-12177
▁असन्तुष्ट	-12178
▁काभ्रेपला	-12179
▁कुराहरूमा	-12180
▁क्याथोलिक	-12181
▁क्षेत्रले	-12182
▁गर्नुहोस्	-12183
▁वातावरणीय	-12184
▁विशेषताका	-12185
▁सर्वाेच्च	-12186
▁आक्रमणकारी	-12187
▁आयुर्वेदको	-12188
▁कुष्माण्डा	-12189
▁त्रिभुवनको	-12190
▁निर्देशनमा	-12191
▁पवित्रताको	-12192
▁भिक्टोरिया	-12193
▁मध्यवर्गीय	-12194
▁आफन्तहरूलाई	-12195
▁खेलाडीहरूले	-12196
▁न्यायपालिका	-12197
▁पर्यटकहरूका	-12198
▁प्रधानमन्त्	-12199
▁गाउँपालिकाको	-12200
▁प्रतिस्पर्धी	-12201
▁राष्ट्रहरूले	-12202
▁सम्बन्धीहरूलाई	-12203
आत	-12204
उर	-12205
जडी	-12206
दिव	-12207
साउ	-12208
सेल	-12209
ाता	-12210
▁डट	-12211
▁लस	-12212
▁ीय	-12213
▁्ग	-12214
चामा	-12215
छाने	-12216
जन्म	-12217
जाति	-12218
त्से	-12219
निकल	-12220
वाडी	-12221
शूली	-12222
समाज	-12223
सेको	-12224
स्टी	-12225
▁अहो	-12226
▁कहा	-12227
▁खुक	-12228
▁तुर	-12229
▁दया	-12230
▁पदम	-12231
▁पूर	-12232
▁मला	-12233
▁युर	-12234
▁राग	-12235
▁राण	-12236
▁लगन	-12237
▁सरा	-12238
छुट्ट	-12239
तिहरु	-12240
दन्ति	-12241
भागवत	-12242
सैनिक	-12243
▁करीव	-12244
▁काँच	-12245
▁कांग	-12246
▁केबल	-12247
▁खवास	-12248
▁खेलि	-12249
▁फिजी	-12250
▁बक्स	-12251
▁बन्च	-12252
▁मरिच	-12253
▁मेरी	-12254
▁मोडल	-12255
▁रणनी	-12256
▁राजप	-12257
▁रोक्	-12258
▁रोधी	-12259
▁वीपी	-12260
▁शहीद	-12261
छुट्टै	-12262
देवीका	-12263
न्थिन्	-12264
र्जुमा	-12265
स्तानी	-12266
स्मानी	-12267
ुङ्गेल	-12268
▁एकरूप	-12269
▁खरानी	-12270
▁खाँची	-12271
▁गुलाम	-12272
▁चर्को	-12273
▁थकाली	-12274
▁दिनका	-12275
▁धनुषा	-12276
▁धर्ती	-12277
▁न्दिर	-12278
▁भनिन्	-12279
▁मागको	-12280
▁मेसिन	-12281
▁रहेता	-12282
▁रातको	-12283
महिनाको	-12284
▁आश्रित	-12285
▁चिडिया	-12286
▁चिल्लो	-12287
▁तिथिमा	-12288
▁दार्जि	-12289
▁दिलाउन	-12290
▁देवानी	-12291
▁पूर्वक	-12292
▁प्रोफे	-12293
▁भट्टले	-12294
▁मङ्गला	-12295
▁रोबर्ट	-12296
▁विलियम	-12297
▁सालबाट	-12298
▁सिन्धी	-12299
▁स्टेसन	-12300
▁हुर्का	-12301
जवाहरलाल	-12302
नेपालतथा	-12303
ब्राह्मी	-12304
▁एएफसीको	-12305
▁चलिआएको	-12306
▁जडीबुटी	-12307
▁डाँडामा	-12308
▁तत्वहरू	-12309
▁तथ्यांक	-12310
▁तुलसीको	-12311
▁धर्मलाई	-12312
▁निवासमा	-12313
▁प्रशासक	-12314
▁बनाउँदा	-12315
▁मिनेटमा	-12316
▁रहमानको	-12317
▁राजनेता	-12318
▁वर्षाको	-12319
▁शासकहरू	-12320
▁सुल्तान	-12321
▁स्रोतको	-12322
▁किच्चकको	-12323
▁कुराकानी	-12324
▁तामाकोशी	-12325
▁पुर्याउन	-12326
▁पुस्तकमा	-12327
▁बेरोजगार	-12328
▁भूतपूर्व	-12329
▁मन्दिरका	-12330
▁राजिनामा	-12331
▁सङ्क्रमण	-12332
▁सम्पदाको	-12333
▁ाष्ट्रिय	-12334
▁अधिकारीको	-12335
▁आन्दोलनका	-12336
▁बाबासाहेब	-12337
▁भण्डारखाल	-12338
▁महासागरको	-12339
▁राष्ट्रका	-12340
▁स्थायित्व	-12341
▁अत्याधुनिक	-12342
▁गोपनीयताको	-12343
▁प्राप्तिको	-12344
▁लगानीकर्ता	-12345
▁संविधानसभा	-12346
▁कम्प्युटरको	-12347
▁बहुप्रसिद्ध	-12348
▁श्रीलङ्काको	-12349
,,	-12350
कत	-12351
खस	-12352
बई	-12353
ँडी	-12354
ंति	-12355
किक	-12356
जैन	-12357
डाल	-12358
बली	-12359
लेग	-12360
हेट	-12361
ोलन	-12362
▁एथ	-12363
▁नफ	-12364
खानी	-12365
खेती	-12366
धरान	-12367
न्छन	-12368
बरमा	-12369
भेरी	-12370
र्डि	-12371
र्दु	-12372
र्भा	-12373
लासी	-12374
सतमा	-12375
समको	-12376
ालिङ	-12377
▁अनी	-12378
▁एलो	-12379
▁गल्	-12380
▁गां	-12381
▁पकड	-12382
▁फूट	-12383
▁बिम	-12384
▁भुक	-12385
▁ममा	-12386
▁रोय	-12387
▁लिइ	-12388
▁वरप	-12389
▁विभ	-12390
▁सकल	-12391
▁्यो	-12392
कारका	-12393
क्ष्ण	-12394
त्रिम	-12395
न्चोक	-12396
पहाडी	-12397
सदस्य	-12398
ोत्तर	-12399
्दछन्	-12400
▁अर्ग	-12401
▁इमिर	-12402
▁कहीँ	-12403
▁किशो	-12404
▁गोरा	-12405
▁चुरा	-12406
▁प्रग	-12407
▁फेदी	-12408
▁बच्च	-12409
▁बेसी	-12410
▁भुजा	-12411
▁भुवन	-12412
▁म्यु	-12413
▁लब्ध	-12414
▁सेमि	-12415
▁स्टि	-12416
▁ार्य	-12417
▁्रिय	-12418
इतिहास	-12419
तिरिवा	-12420
त्थामा	-12421
नेश्वर	-12422
न्धिया	-12423
पहरिया	-12424
▁अनुपम	-12425
▁आगामी	-12426
▁गीतका	-12427
▁चिन्न	-12428
▁जिल्ल	-12429
▁दासको	-12430
▁नागको	-12431
▁पकाएर	-12432
▁प्रवल	-12433
▁प्रार	-12434
▁बैतडी	-12435
▁ब्याड	-12436
▁रिन्छ	-12437
▁विकाश	-12438
▁श्याम	-12439
▁सोहरा	-12440
जगन्नाथ	-12441
सम्पर्क	-12442
ुनारायण	-12443
▁अद्भुत	-12444
▁अन्नको	-12445
▁आदिबाट	-12446
▁क्लबका	-12447
▁खानाको	-12448
▁गुजरान	-12449
▁छात्रा	-12450
▁छोराछो	-12451
▁जन्ममा	-12452
▁जलस्रो	-12453
▁जितेकी	-12454
▁ट्रम्प	-12455
▁तराईको	-12456
▁तिनवटा	-12457
▁देखाउन	-12458
▁देवीले	-12459
▁धरानको	-12460
▁निवेदन	-12461
▁पक्षका	-12462
▁पन्तले	-12463
▁पाल्ने	-12464
▁बाँसको	-12465
▁माटोले	-12466
▁मैदानी	-12467
▁यसैबीच	-12468
▁साक्षा	-12469
▁सीमाना	-12470
▁अदालतका	-12471
▁इस्लामी	-12472
▁उपभोग्य	-12473
▁क्रिस्ट	-12474
▁खेतबारी	-12475
▁तर्जुमा	-12476
▁न्यायको	-12477
▁परिप्रे	-12478
▁महिलामा	-12479
▁लोखर्के	-12480
▁विवादमा	-12481
▁शक्तिले	-12482
▁षडानन्द	-12483
▁संरक्षक	-12484
▁अनुमानित	-12485
▁आचार्यको	-12486
▁चित्रकला	-12487
▁दक्षिणको	-12488
▁द्वारिका	-12489
▁नदीहरूको	-12490
▁पार्टीमा	-12491
▁विश्लेषक	-12492
▁स्थितिको	-12493
▁आन्दोलनले	-12494
▁कारागारमा	-12495
▁केन्द्रिय	-12496
▁गणराज्यमा	-12497
▁गोलार्धमा	-12498
▁जनआन्दोलन	-12499
▁दिइन्थ्यो	-12500
▁पार्वतीको	-12501
▁प्रयोजनका	-12502
▁लामखुट्टे	-12503
▁संस्कारको	-12504
▁स्थलहरूमा	-12505
▁हानाहानमा	-12506
▁कोइरालालाई	-12507
▁व्यावहारिक	-12508
▁प्राधिकरणको	-12509
▁योगनरेन्द्र	-12510
▁राजोपाध्याय	-12511
▁सम्प्रदायका	-12512
गाउँपालिकाहरू	-12513
▁मुसलमानहरूको	-12514
▁सिद्धिनरसिंह	-12515
▁प्रधानन्यायाधीश	-12516
ँध	-12517
टू	-12518
ंकन	-12519
कोच	-12520
गंज	-12521
चुङ	-12522
छुत	-12523
जुक	-12524
टेल	-12525
ततै	-12526
पोथ	-12527
भिल	-12528
मसी	-12529
मोक	-12530
यका	-12531
यिक	-12532
साँ	-12533
हले	-12534
ोधन	-12535
▁ीन	-12536
आएका	-12537
इजरा	-12538
जिला	-12539
जीका	-12540
थापा	-12541
न्टी	-12542
पद्म	-12543
पुगे	-12544
बालक	-12545
मानक	-12546
मीले	-12547
रारा	-12548
र्टर	-12549
र्वे	-12550
लिएर	-12551
लेखन	-12552
श्मा	-12553
हालि	-12554
ेनन्	-12555
्जेल	-12556
▁असद	-12557
▁अहं	-12558
▁कता	-12559
▁कूच	-12560
▁खोल	-12561
▁टेक	-12562
▁नरम	-12563
▁पेन	-12564
▁फ्र	-12565
▁बलु	-12566
▁भइन	-12567
▁भान	-12568
▁मंड	-12569
▁मको	-12570
▁मनी	-12571
▁महत	-12572
▁माउ	-12573
▁शव्	-12574
▁शान	-12575
▁सरे	-12576
▁सास	-12577
▁हरण	-12578
▁हवन	-12579
▁हाथ	-12580
ङ्कणी	-12581
टरनेट	-12582
टोत्क	-12583
प्पणी	-12584
मोक्र	-12585
ष्णका	-12586
सुशील	-12587
ाकाको	-12588
ासँगै	-12589
ियरको	-12590
ोडाको	-12591
▁असीम	-12592
▁असुल	-12593
▁आचार	-12594
▁आसाम	-12595
▁इंग्	-12596
▁कारी	-12597
▁क्रस	-12598
▁जर्ज	-12599
▁जादा	-12600
▁तस्क	-12601
▁तहका	-12602
▁तिथी	-12603
▁तुम्	-12604
▁दूर्	-12605
▁द्वा	-12606
▁धरणी	-12607
▁पनेर	-12608
▁भूटन	-12609
▁मागी	-12610
▁रमेश	-12611
▁वर्ड	-12612
▁वार्	-12613
▁व्यय	-12614
▁हतार	-12615
▁ाउने	-12616
▁्त्र	-12617
त्युका	-12618
प्रेमी	-12619
भण्डार	-12620
रामीको	-12621
र्वाणय	-12622
वासीको	-12623
संसदको	-12624
सम्राट	-12625
स्परिक	-12626
ितोष्ण	-12627
▁अंशुव	-12628
▁अरुको	-12629
▁आवस्य	-12630
▁कुलमा	-12631
▁कुलीन	-12632
▁गरायो	-12633
▁चाँडो	-12634
▁जान्द	-12635
▁जितेर	-12636
▁जीवनी	-12637
▁तीरमा	-12638
▁थरीका	-12639
▁निर्व	-12640
▁पटकको	-12641
▁फस्टा	-12642
▁भेषमा	-12643
▁मनलाई	-12644
▁महत्त	-12645
▁यससँग	-12646
▁रहेकी	-12647
▁वस्ति	-12648
▁सद्वि	-12649
▁सार्थ	-12650
▁स्याउ	-12651
तापूर्ण	-12652
बङ्गाली	-12653
लक्ष्मण	-12654
▁असमर्थ	-12655
▁उपपर्व	-12656
▁कन्काई	-12657
▁कलेजको	-12658
▁काँधमा	-12659
▁किनबेच	-12660
▁किम्वु	-12661
▁खानाले	-12662
▁जताततै	-12663
▁दुवैले	-12664
▁देशभरि	-12665
▁नजिकका	-12666
▁पाक्ने	-12667
▁प्यारा	-12668
▁बचाउने	-12669
▁बिन्ती	-12670
▁बोक्ने	-12671
▁राखिने	-12672
▁लेकाली	-12673
▁विकिरण	-12674
▁समुचित	-12675
▁सम्मका	-12676
▁सहकारी	-12677
▁साक्षी	-12678
▁सोल्टी	-12679
▁हाइस्क	-12680
युनेस्को	-12681
▁अन्धकार	-12682
▁इन्स्टि	-12683
▁कारागार	-12684
▁काव्यको	-12685
▁टिप्पणी	-12686
▁पराजुली	-12687
▁मनपर्ने	-12688
▁रेस्लिङ	-12689
▁लडाकुले	-12690
▁ल्याटिन	-12691
▁शरीरबाट	-12692
▁समालोचक	-12693
▁सुरूवात	-12694
ँगुनारायण	-12695
भारतलगायत	-12696
ेन्द्रलाई	-12697
▁अदालतबाट	-12698
▁उत्प्रेर	-12699
▁कात्यायन	-12700
▁केटाकेटी	-12701
▁देखाइन्छ	-12702
▁निजहरूमा	-12703
▁प्यागोडा	-12704
▁प्रसारित	-12705
▁मुद्दामा	-12706
▁विश्वनाथ	-12707
▁व्यबस्था	-12708
▁सद्विचार	-12709
▁सुरुवाती	-12710
▁स्ट्राइक	-12711
▁हात्तीको	-12712
▁अर्जेन्टि	-12713
▁उत्तरदायी	-12714
▁गाउपालिका	-12715
▁पारस्परिक	-12716
▁प्रदेशलाई	-12717
▁भूरिश्रवा	-12718
▁राष्ट्रले	-12719
▁वंशावलीमा	-12720
▁वर्षभन्दा	-12721
▁ह्याभिवेट	-12722
▁अग्निहोत्र	-12723
▁खानेपानीको	-12724
▁प्रगतिवादी	-12725
▁प्रशिक्षित	-12726
▁महाद्वीपीय	-12727
▁अफगानिस्तान	-12728
▁परियोजनाहरू	-12729
▁राष्ट्रियता	-12730
▁च्याम्पियनसि	-12731
▁महाराष्ट्रको	-12732
आद	-12733
नक	-12734
पट	-12735
बध	-12736
षु	-12737
िस	-12738
ील	-12739
ंतर	-12740
ंवर	-12741
ईका	-12742
काग	-12743
ग्य	-12744
छिन	-12745
जिय	-12746
ट्य	-12747
धित	-12748
भिम	-12749
मनु	-12750
मरु	-12751
मास	-12752
यों	-12753
रीन	-12754
र्ध	-12755
सति	-12756
हका	-12757
हाउ	-12758
िरा	-12759
▁उल	-12760
▁जव	-12761
▁जू	-12762
▁धव	-12763
▁नद	-12764
टहरू	-12765
दयमा	-12766
निलो	-12767
पर्थ	-12768
पिका	-12769
प्पी	-12770
ब्बी	-12771
मन्ड	-12772
यसका	-12773
र्डन	-12774
वेला	-12775
शाको	-12776
ान्न	-12777
िकाई	-12778
िरहे	-12779
▁अँग	-12780
▁अपद	-12781
▁इनि	-12782
▁इशा	-12783
▁गरू	-12784
▁गाड	-12785
▁गुम	-12786
▁जरि	-12787
▁जिव	-12788
▁तद्	-12789
▁थोप	-12790
▁देन	-12791
▁धपा	-12792
▁नभै	-12793
▁पुछ	-12794
▁बडी	-12795
▁बां	-12796
▁भयं	-12797
▁मेद	-12798
▁सहम	-12799
▁हान	-12800
▁ेखि	-12801
ङ्गाल	-12802
नाबाट	-12803
रक्षा	-12804
र्कको	-12805
ाउनमा	-12806
ानयोग	-12807
िदेखि	-12808
ेेेको	-12809
▁इनका	-12810
▁इरान	-12811
▁कन्न	-12812
▁कमला	-12813
▁काट्	-12814
▁कोसी	-12815
▁क्षय	-12816
▁खुट्	-12817
▁खोल्	-12818
▁गजुर	-12819
▁गराइ	-12820
▁ग्ला	-12821
▁चेपा	-12822
▁छैनन	-12823
▁जादु	-12824
▁जोगा	-12825
▁डाटा	-12826
▁तस्य	-12827
▁ताका	-12828
▁पंचा	-12829
▁पाकि	-12830
▁बहाल	-12831
▁बहुल	-12832
▁भनिन	-12833
▁माचू	-12834
▁यत्र	-12835
▁लहरी	-12836
▁वाचा	-12837
▁सर्त	-12838
▁सान्	-12839
▁स्पा	-12840
▁हर्ष	-12841
▁हेरी	-12842
▁ालाई	-12843
काभ्रे	-12844
गीताको	-12845
दानन्द	-12846
दिवसीय	-12847
नार्थी	-12848
पाण्डु	-12849
फाल्ने	-12850
बागमती	-12851
भूकम्प	-12852
ल्पनिक	-12853
ष्णाले	-12854
▁अंकित	-12855
▁अधर्म	-12856
▁अन्या	-12857
▁अर्कै	-12858
▁अशक्त	-12859
▁उपत्य	-12860
▁कलकार	-12861
▁कोसिस	-12862
▁खोलेर	-12863
▁गर्छु	-12864
▁गीतले	-12865
▁जलाशय	-12866
▁जोसेफ	-12867
▁दूषित	-12868
▁देवास	-12869
▁निभाए	-12870
▁पक्की	-12871
▁पदभार	-12872
▁पर्दै	-12873
▁प्रलय	-12874
▁फड्को	-12875
▁बाेलि	-12876
▁भाग्य	-12877
▁राप्त	-12878
▁लगायो	-12879
▁विष्ण	-12880
▁सकियो	-12881
▁सडकको	-12882
▁सालमै	-12883
▁स्याल	-12884
तर्फबाट	-12885
भक्तपुर	-12886
महात्मा	-12887
माण्डको	-12888
सङ्ख्यक	-12889
हिन्दीर	-12890
ानुभूति	-12891
▁अमान्य	-12892
▁अवसरको	-12893
▁कबड्डी	-12894
▁किनारा	-12895
▁कोखबाट	-12896
▁गहिराइ	-12897
▁गुनासो	-12898
▁गुफामा	-12899
▁जन्मने	-12900
▁टोकेको	-12901
▁नरहेको	-12902
▁नाम्लो	-12903
▁पटनामा	-12904
▁फलामको	-12905
▁बताउने	-12906
▁बितेको	-12907
▁बिष्णु	-12908
▁बेगनास	-12909
▁भरतपुर	-12910
▁भाग्ने	-12911
▁भीमलाई	-12912
▁महायज्	-12913
▁लागिन्	-12914
▁वनजङ्ग	-12915
▁विवादा	-12916
▁शहरलाई	-12917
▁सिंचाइ	-12918
पनिवेशिक	-12919
पुच्छ्रे	-12920
भानुभक्त	-12921
ोषणापत्र	-12922
▁खोटाङ्ग	-12923
▁गर्नाको	-12924
▁ग्रहणको	-12925
▁जनाउँदै	-12926
▁धार्मीक	-12927
▁प्रथाको	-12928
▁प्रसस्त	-12929
▁फर्केका	-12930
▁फर्केको	-12931
▁फाल्गुन	-12932
▁फैलाउने	-12933
▁ल्याइयो	-12934
▁ल्याउनु	-12935
▁वर्षाले	-12936
▁विवाहका	-12937
▁विश्राम	-12938
▁वेदान्त	-12939
▁संसारकै	-12940
▁समितिका	-12941
▁सम्हालि	-12942
▁साँच्चै	-12943
▁साधनाको	-12944
▁सामन्ती	-12945
▁स्कूलमा	-12946
▁स्पेनको	-12947
▁हत्यारा	-12948
अर्जुनलाई	-12949
च्छिन्द्र	-12950
नगरपालिका	-12951
परिवेक्षण	-12952
ल्याण्डमा	-12953
सम्प्रदाय	-12954
▁अनुपातमा	-12955
▁एतिहासिक	-12956
▁च्याउहरू	-12957
▁तन्त्रको	-12958
▁तमिलनाडु	-12959
▁निबन्धमा	-12960
▁पश्चिमका	-12961
▁पूर्वतिर	-12962
▁प्रतिपाद	-12963
▁बहुमतबाट	-12964
▁मूर्तिमा	-12965
▁युद्धपछि	-12966
▁विधानसभा	-12967
▁स्वेच्छा	-12968
▁हैसियतमा	-12969
तराष्ट्रले	-12970
▁अन्तरिक्ष	-12971
▁केन्द्रका	-12972
▁नेपालीहरू	-12973
▁पत्रिकामा	-12974
▁प्रयासहरू	-12975
▁महारानीले	-12976
▁वास्तुकला	-12977
▁विश्वसनीय	-12978
▁विस्तारित	-12979
▁सन्तानलाई	-12980
▁सम्हालेको	-12981
▁स्टालिनले	-12982
▁हिन्दुहरू	-12983
▁चतुर्दशीमा	-12984
▁मकवानपुरमा	-12985
▁मूल्याङ्कन	-12986
▁वर्णनात्मक	-12987
▁श्रीवैष्णव	-12988
▁सर्वश्रेष्	-12989
▁हुँदैनथ्यो	-12990
दक्षिणपूर्वी	-12991
▁अमावस्यापछि	-12992
▁उम्मेदवारको	-12993
▁तीर्थयात्री	-12994
▁परिस्थितिको	-12995
▁बासिन्दाहरू	-12996
▁रङ्गशालालाई	-12997
▁राष्ट्रभाषा	-12998
▁शताब्दीसम्म	-12999
▁संस्थाहरूमा	-13000
▁प्यालेस्टाइन	-13001
▁विद्यावारिधि	-13002
▁विमानस्थलबाट	-13003
▁सिद्धान्तहरू	-13004
▁ब्राह्मणहरूलाई	-13005
दं	-13006
षभ	-13007
क्च	-13008
गेर	-13009
जङ्	-13010
ड्ड	-13011
नान	-13012
बंध	-13013
भएर	-13014
मिङ	-13015
सेत	-13016
हास	-13017
ुंग	-13018
ैया	-13019
्रै	-13020
▁आश	-13021
▁खग	-13022
▁जप	-13023
▁नय	-13024
▁ाइ	-13025
▁ुट	-13026
क्चा	-13027
ङ्ला	-13028
टोले	-13029
तारो	-13030
थिली	-13031
ध्ये	-13032
नेरा	-13033
प्ने	-13034
मिनि	-13035
राली	-13036
र्तु	-13037
वहरू	-13038
शयमा	-13039
स्वि	-13040
▁अब्	-13041
▁आषा	-13042
▁इजा	-13043
▁गोड	-13044
▁चिह	-13045
▁जोर	-13046
▁पना	-13047
▁बदल	-13048
▁भाउ	-13049
▁भूप	-13050
▁ष्ट	-13051
▁सले	-13052
▁स्फ	-13053
▁्रो	-13054
▁्षा	-13055
कर्षण	-13056
क्रमा	-13057
क्साइ	-13058
भरिका	-13059
मतीको	-13060
लीहरू	-13061
विर्य	-13062
संगीत	-13063
संसार	-13064
हुँको	-13065
ियानो	-13066
ोत्तम	-13067
ोषणको	-13068
▁कर्क	-13069
▁कलाक	-13070
▁कोला	-13071
▁गरुड	-13072
▁चालक	-13073
▁जीको	-13074
▁नाना	-13075
▁बन्य	-13076
▁बहने	-13077
▁ब्रो	-13078
▁मुसा	-13079
▁रावल	-13080
▁लोको	-13081
▁वाणी	-13082
▁विकट	-13083
▁साटो	-13084
▁साहु	-13085
▁सिजन	-13086
▁सेरो	-13087
▁स्कट	-13088
▁ित्र	-13089
उँछिन्	-13090
कहरूको	-13091
गायतका	-13092
धर्मको	-13093
नावशेष	-13094
पोटामि	-13095
प्रवेश	-13096
स्वर्ग	-13097
▁अगाडी	-13098
▁खाएमा	-13099
▁चाैरी	-13100
▁तालीम	-13101
▁नेत्र	-13102
▁भन्थे	-13103
▁भीमको	-13104
▁माथवर	-13105
▁मुमिन	-13106
▁रोहित	-13107
▁लेखिए	-13108
▁विषयक	-13109
▁वेदमा	-13110
▁शारदा	-13111
▁सुदुर	-13112
▁ह्रास	-13113
ङ्खलामा	-13114
सङ्ख्या	-13115
सुरक्षा	-13116
▁केसीले	-13117
▁खुम्बु	-13118
▁खुलेका	-13119
▁ग्याँस	-13120
▁जन्मको	-13121
▁निकाले	-13122
▁निगमको	-13123
▁नेताका	-13124
▁पूर्खा	-13125
▁पूर्ति	-13126
▁प्रबर्	-13127
▁बिभाजन	-13128
▁बिषालु	-13129
▁बेग्लै	-13130
▁भिक्षा	-13131
▁मनोनयन	-13132
▁रेखदेख	-13133
▁विभूति	-13134
▁विषालु	-13135
▁शब्दले	-13136
▁शुरुमा	-13137
▁संरक्ष	-13138
▁सिंचाई	-13139
▁सिस्नो	-13140
मुम्बईमा	-13141
सर्वोच्च	-13142
▁उस्मानी	-13143
▁कब्जियत	-13144
▁गोरखाको	-13145
▁जनचेतना	-13146
▁दैलेखको	-13147
▁परिपक्व	-13148
▁पाउँछन्	-13149
▁बर्दिया	-13150
▁मानेपाल	-13151
▁लागेपछि	-13152
▁लोकबाजा	-13153
▁विषयहरू	-13154
▁संसारभर	-13155
ल्याण्डको	-13156
▁अन्तर्रा	-13157
▁अभियानका	-13158
▁उपमहानगर	-13159
▁उल्लिखित	-13160
▁चिसापानी	-13161
▁जिन्नाले	-13162
▁जीविकोपा	-13163
▁डडेलधुरा	-13164
▁प्रमाणको	-13165
▁बङ्गालका	-13166
▁महासन्धि	-13167
▁व्याक्ति	-13168
▁शिवलिङ्ग	-13169
▁संख्याको	-13170
▁सुन्दरता	-13171
▁हनुमानले	-13172
थाइल्याण्ड	-13173
▁निष्क्रिय	-13174
▁भग्नावशेष	-13175
▁वेबसाइटको	-13176
▁सुरुवातमा	-13177
पाकिस्तानको	-13178
▁चारैतिरबाट	-13179
▁नारायणहिटी	-13180
▁मच्छिन्द्र	-13181
▁राज्यहरूले	-13182
▁देवताहरूलाई	-13183
▁गिरिजाप्रसाद	-13184
▁छुट्टाछुट्टै	-13185
▁प्रक्रियालाई	-13186
▁लिच्छविकालमा	-13187
▁सर्वसाधारणको	-13188
▁प्रधानसेनापति	-13189
▁कार्यक्रमहरूमा	-13190
लज	-13191
ुख	-13192
ट्न	-13193
दछन	-13194
दाङ	-13195
बिच	-13196
मित	-13197
विन	-13198
सदर	-13199
सोम	-13200
हना	-13201
िरस	-13202
ेटा	-13203
्दछ	-13204
▁अय	-13205
▁उच	-13206
▁खल	-13207
ंगिक	-13208
काले	-13209
खुरा	-13210
णाली	-13211
दाता	-13212
नजिक	-13213
नामि	-13214
बोधो	-13215
लेमा	-13216
विरू	-13217
शल्य	-13218
सालै	-13219
सियम	-13220
स्ला	-13221
ोत्त	-13222
▁अटो	-13223
▁अपर	-13224
▁अलै	-13225
▁आगम	-13226
▁उज्	-13227
▁ग्य	-13228
▁तवर	-13229
▁थपि	-13230
▁थाइ	-13231
▁दाई	-13232
▁द्य	-13233
▁नरा	-13234
▁नाद	-13235
▁बगै	-13236
▁बटा	-13237
▁बटु	-13238
▁माफ	-13239
▁वैध	-13240
▁ारी	-13241
ँचालो	-13242
करणमा	-13243
टिल्य	-13244
देशको	-13245
धारको	-13246
निर्म	-13247
लकाता	-13248
िनीले	-13249
▁अचेल	-13250
▁अवज्	-13251
▁कारक	-13252
▁कोपा	-13253
▁खेरी	-13254
▁गरीब	-13255
▁गोडा	-13256
▁जागर	-13257
▁टाइम	-13258
▁ट्यु	-13259
▁ध्या	-13260
▁नक्स	-13261
▁नरिव	-13262
▁नसक्	-13263
▁पदवि	-13264
▁पाचन	-13265
▁फर्म	-13266
▁बस्थ	-13267
▁बासी	-13268
▁मधेस	-13269
▁मनाङ	-13270
▁रूले	-13271
▁वनको	-13272
▁संज्	-13273
▁सन्१	-13274
▁्थान	-13275
अफगानि	-13276
ध्वभरण	-13277
मिछाने	-13278
▁अपमान	-13279
▁आलोचक	-13280
▁उन्ना	-13281
▁कछुवा	-13282
▁कथानक	-13283
▁कालका	-13284
▁कुलका	-13285
▁केन्द	-13286
▁खाएको	-13287
▁चण्डी	-13288
▁चिनिन	-13289
▁चैत्य	-13290
▁जमेको	-13291
▁जानको	-13292
▁टेलिक	-13293
▁डोगरी	-13294
▁निदान	-13295
▁बगाले	-13296
▁राजार	-13297
▁रुखकट	-13298
▁विहान	-13299
▁स्नेह	-13300
▁हजुरआ	-13301
फाइनलमा	-13302
र्जीलिङ	-13303
लेन्द्र	-13304
▁अलग्गै	-13305
▁असंख्य	-13306
▁एसएलसी	-13307
▁खुलासा	-13308
▁गरिँदै	-13309
▁चाहेको	-13310
▁चिनारी	-13311
▁चिनिया	-13312
▁छोडेका	-13313
▁डुवर्स	-13314
▁तराईका	-13315
▁तापमान	-13316
▁दुख्ने	-13317
▁देखिएन	-13318
▁देख्दा	-13319
▁फूलहरू	-13320
▁बताउँछ	-13321
▁बोक्सी	-13322
▁भोग्नु	-13323
▁मारेका	-13324
▁मिश्री	-13325
▁म्याने	-13326
▁युनियन	-13327
▁राधीका	-13328
▁रुक्मि	-13329
▁वरिपरी	-13330
▁वर्णको	-13331
▁वाग्ले	-13332
▁विर्ता	-13333
▁श्रेणी	-13334
▁सकिदैन	-13335
▁सत्यको	-13336
▁समेतको	-13337
▁हराएका	-13338
न्यकुब्ज	-13339
▁अक्षांश	-13340
▁अपराधको	-13341
▁क्रिश्च	-13342
▁खेलिएको	-13343
▁गर्भपतन	-13344
▁गाभिएको	-13345
▁ग्रिष्म	-13346
▁जलाशयमा	-13347
▁दर्शनमा	-13348
▁दूतावास	-13349
▁द्वारका	-13350
▁धर्मराज	-13351
▁यूरोपीय	-13352
▁राखीएको	-13353
▁रुकुमको	-13354
▁सन्धिका	-13355
▁हालसालै	-13356
▁हेरिएको	-13357
साम्राज्य	-13358
साहित्यमा	-13359
▁अध्ययनले	-13360
▁अनावश्यक	-13361
▁उत्तेजित	-13362
▁कथाहरूमा	-13363
▁निष्कासन	-13364
▁पद्धतिको	-13365
▁परिषद्का	-13366
▁पाल्पाको	-13367
▁प्रमुखले	-13368
▁बाइसधारा	-13369
▁भ्यागुतो	-13370
▁मानिसहरु	-13371
▁सन्तुष्ट	-13372
▁समेटिएको	-13373
▁उर्ध्वभरण	-13374
▁एक्सचेन्ज	-13375
▁कार्बोहाइ	-13376
▁त्यसपछिका	-13377
▁द्वन्द्वा	-13378
▁प्रगतिशील	-13379
▁प्रोग्राम	-13380
▁शास्त्रमा	-13381
अष्ट्रेलिया	-13382
▁आयुर्वेदिक	-13383
▁केन्द्रहरू	-13384
▁क्यालेन्डर	-13385
▁गान्धारीको	-13386
▁प्राप्तिका	-13387
▁भाँडाकुँडा	-13388
▁यिनीहरूलाई	-13389
▁सैनिकहरूको	-13390
▁हिजबुल्लाह	-13391
▁कर्मचारीहरू	-13392
▁क्षुद्रग्रह	-13393
▁एकादशीभनिन्छ	-13394
▁पत्रकारिताको	-13395
अम	-13396
ङर	-13397
जब	-13398
वो	-13399
्ड	-13400
ंचा	-13401
अल्	-13402
ईलो	-13403
टित	-13404
तान	-13405
थलो	-13406
धनु	-13407
धरा	-13408
पडी	-13409
पले	-13410
बाज	-13411
भिय	-13412
मेध	-13413
याङ	-13414
लिए	-13415
ेले	-13416
्यक	-13417
्वि	-13418
▁गड	-13419
▁टक	-13420
▁सफ	-13421
▁सव	-13422
क्रे	-13423
चलित	-13424
च्यू	-13425
जहाज	-13426
तिकी	-13427
त्रै	-13428
थाने	-13429
दामा	-13430
द्यो	-13431
नुजा	-13432
पाते	-13433
मधुर	-13434
माधव	-13435
मानि	-13436
मैजु	-13437
रातो	-13438
र्को	-13439
षदको	-13440
ाममा	-13441
▁असल	-13442
▁आखि	-13443
▁आधु	-13444
▁इको	-13445
▁उछि	-13446
▁खनि	-13447
▁खुब	-13448
▁जस्	-13449
▁जास	-13450
▁दवा	-13451
▁नसु	-13452
▁बेश	-13453
▁भाद	-13454
▁मजब	-13455
▁माह	-13456
▁मेन	-13457
▁रहु	-13458
▁लेक	-13459
▁वोट	-13460
▁सखा	-13461
▁हिल	-13462
▁ेही	-13463
▁्रे	-13464
किराँ	-13465
चन्दन	-13466
धारहो	-13467
नाल्ड	-13468
न्सले	-13469
फिफार	-13470
रातमा	-13471
र्फत्	-13472
वासको	-13473
शीलता	-13474
सरस्व	-13475
स्टार	-13476
हाकिम	-13477
ाक्री	-13478
ेरेको	-13479
▁अधिन	-13480
▁एकको	-13481
▁कच्छ	-13482
▁कालु	-13483
▁कुवा	-13484
▁खिला	-13485
▁जानी	-13486
▁जोगी	-13487
▁नंवर	-13488
▁निया	-13489
▁पन्थ	-13490
▁परिद	-13491
▁पहें	-13492
▁पिचू	-13493
▁भस्म	-13494
▁भेटी	-13495
▁याहु	-13496
▁राज्	-13497
▁लगाउ	-13498
▁लाहो	-13499
▁वकिल	-13500
▁विवश	-13501
▁सेवक	-13502
▁ाज्य	-13503
इन्छन्	-13504
चित्रा	-13505
त्तिका	-13506
रात्मक	-13507
रेडियो	-13508
र्सानी	-13509
वासिनी	-13510
ष्णाको	-13511
स्तरका	-13512
▁अंतरि	-13513
▁अंतिम	-13514
▁आश्रय	-13515
▁गरिएन	-13516
▁गरिनु	-13517
▁गर्मि	-13518
▁गलामा	-13519
▁गल्ती	-13520
▁चाँदी	-13521
▁ट्रिय	-13522
▁तिव्व	-13523
▁तिहाई	-13524
▁थर्मल	-13525
▁दिँदा	-13526
▁दिंदै	-13527
▁ध्वजा	-13528
▁नर्सि	-13529
▁पनेरू	-13530
▁पलायन	-13531
▁पल्टन	-13532
▁पातमा	-13533
▁फरिया	-13534
▁बाजार	-13535
▁बुँदे	-13536
▁भयंकर	-13537
▁भ्रात	-13538
▁मिर्ग	-13539
▁लड्ने	-13540
▁विनास	-13541
▁वीरता	-13542
▁वैष्ण	-13543
▁शिविर	-13544
▁सक्नु	-13545
▁स्थूल	-13546
▁हक्की	-13547
अभिनेता	-13548
जगदम्बा	-13549
मद्भगवद	-13550
शितोष्ण	-13551
▁अधिकरण	-13552
▁अन्तर्	-13553
▁अवधिको	-13554
▁आशावार	-13555
▁उपल्लो	-13556
▁काग्रे	-13557
▁खानपान	-13558
▁खेलिने	-13559
▁गाभियो	-13560
▁जहाजको	-13561
▁जेलबाट	-13562
▁डिल्ली	-13563
▁दीक्षा	-13564
▁देखियो	-13565
▁नर्मदा	-13566
▁पुर्वा	-13567
▁बताएको	-13568
▁बदलामा	-13569
▁बाबजुद	-13570
▁मानवता	-13571
▁माभारत	-13572
▁मारियो	-13573
▁मुटुमा	-13574
▁यथावत्	-13575
▁रैथाने	-13576
▁लिएपछि	-13577
▁विषयका	-13578
▁शाहसँग	-13579
▁संसाधन	-13580
▁सेनानी	-13581
▁सेवनले	-13582
▁स्पेनी	-13583
▁स्वरले	-13584
▁हराएको	-13585
▁हावामा	-13586
काप्रसाद	-13587
कारहरूले	-13588
ङ्गेश्वर	-13589
सिन्धुली	-13590
▁इन्डियन	-13591
▁कानुनले	-13592
▁कुण्डमा	-13593
▁गइरहेको	-13594
▁गुरुङ्ग	-13595
▁गोत्रका	-13596
▁जनवरीमा	-13597
▁जोडिन्छ	-13598
▁देखाएका	-13599
▁धाराहरू	-13600
▁पक्षहरू	-13601
▁परिषदका	-13602
▁पर्थ्यो	-13603
▁प्रदेशर	-13604
▁बजाईन्छ	-13605
▁भइरहेका	-13606
▁भादगाउँ	-13607
▁भित्रको	-13608
▁मुहम्मद	-13609
▁राक्षसी	-13610
▁वल्लीमा	-13611
▁विश्लेष	-13612
▁श्रीराम	-13613
▁सुनाउने	-13614
▁हेरिन्छ	-13615
उपत्यकाको	-13616
साइँकुण्ड	-13617
▁अभियानको	-13618
▁एकआधारहो	-13619
▁कूटनीतिक	-13620
▁ग्रन्थको	-13621
▁तेह्रथुम	-13622
▁त्यसैलाई	-13623
▁निर्दलीय	-13624
▁निस्कन्छ	-13625
▁पुत्रलाई	-13626
▁पुत्रहरू	-13627
▁भविष्यको	-13628
▁भीमसेनको	-13629
▁माध्यमको	-13630
▁यात्राको	-13631
▁रहेतापनि	-13632
▁रामायणको	-13633
▁शास्त्री	-13634
▁शुभारम्भ	-13635
▁संसारलाई	-13636
▁संहितामा	-13637
▁सङ्गीतमा	-13638
▁हैसियतले	-13639
तमिलनाडुको	-13640
▁कीर्तिमान	-13641
▁केन्द्रले	-13642
▁छुट्याएको	-13643
▁टापुहरूमा	-13644
▁तत्वहरूको	-13645
▁निकालिन्छ	-13646
▁निबन्धलाई	-13647
▁पूर्वतर्फ	-13648
▁प्रान्तमा	-13649
▁बास्केटबल	-13650
▁ब्राजिलले	-13651
▁भेटिन्छन्	-13652
▁मूल्यांकन	-13653
▁रुपान्तरण	-13654
▁विविधताको	-13655
▁संरक्षणमा	-13656
▁सिद्धार्थ	-13657
▁किलोमीटरको	-13658
▁चाडपर्वहरू	-13659
▁टेलिभिजनको	-13660
▁टेलिभिजनले	-13661
▁प्रशासनलाई	-13662
▁मस्तिष्कमा	-13663
▁महाकाव्यका	-13664
▁राष्ट्रलाई	-13665
▁समुन्द्रमा	-13666
▁दुर्योधनलाई	-13667
▁ब्रह्माजीले	-13668
▁माइक्रोसफ्ट	-13669
▁सफलतापूर्वक	-13670
▁सम्पत्तिलाई	-13671
ाएरविकिपिडिया	-13672
▁उपमहाद्वीपमा	-13673
▁प्रतिनिधिसभा	-13674
▁विशेषाधिकारको	-13675
▁पुरस्कारप्रदान	-13676
बस	-13677
खती	-13678
जेय	-13679
टया	-13680
तिन	-13681
थाङ	-13682
दुई	-13683
दुत	-13684
धिर	-13685
नेल	-13686
फेर	-13687
बिज	-13688
बुध	-13689
विव	-13690
शाय	-13691
षाण	-13692
सडक	-13693
ुलु	-13694
्जु	-13695
्रय	-13696
▁खी	-13697
उच्च	-13698
कुरो	-13699
गिरी	-13700
ग्रो	-13701
ङलिङ	-13702
ज्दा	-13703
टीले	-13704
ण्डी	-13705
तोमा	-13706
धेनु	-13707
निचर	-13708
न्का	-13709
न्छो	-13710
न्डि	-13711
न्तो	-13712
पहरू	-13713
पुरे	-13714
फिया	-13715
भरको	-13716
र्मो	-13717
लकोट	-13718
लम्व	-13719
हाइट	-13720
ादैन	-13721
ालाई	-13722
ूल्य	-13723
▁अटल	-13724
▁अमी	-13725
▁कही	-13726
▁कोच	-13727
▁तिक	-13728
▁पसे	-13729
▁पिच	-13730
▁फेल	-13731
▁बबर	-13732
▁मदत	-13733
▁रजि	-13734
▁रशि	-13735
▁वरी	-13736
▁शरद	-13737
▁हाट	-13738
▁हाड	-13739
▁ाजा	-13740
▁िने	-13741
कालका	-13742
कोटको	-13743
गद्दी	-13744
तापुर	-13745
देशमा	-13746
धार्थ	-13747
न्डोज	-13748
पिङको	-13749
प्रती	-13750
भावमा	-13751
मणलाई	-13752
मुल्य	-13753
मैदान	-13754
मोक्ष	-13755
राग्य	-13756
रिकोट	-13757
वर्धक	-13758
वैदिक	-13759
श्रोत	-13760
ष्टमी	-13761
सहरमा	-13762
सियार	-13763
स्फोट	-13764
ानीले	-13765
ान्दछ	-13766
िताको	-13767
्यारो	-13768
▁अगाड	-13769
▁अनुभ	-13770
▁आतंक	-13771
▁कामी	-13772
▁कुबा	-13773
▁केजी	-13774
▁कैदी	-13775
▁खोकी	-13776
▁गाली	-13777
▁छुट्	-13778
▁डेटा	-13779
▁तोरी	-13780
▁दर्स	-13781
▁धितो	-13782
▁नाशक	-13783
▁पखाल	-13784
▁पदका	-13785
▁पदले	-13786
▁पापी	-13787
▁पावर	-13788
▁पूणि	-13789
▁बेवा	-13790
▁भैरह	-13791
▁मच्च	-13792
▁मनले	-13793
▁महाम	-13794
▁महेश	-13795
▁मापे	-13796
▁मिसी	-13797
▁राङ्	-13798
▁लायक	-13799
▁लैजा	-13800
▁विश्	-13801
▁सामू	-13802
▁साहस	-13803
▁सुत्	-13804
▁हाला	-13805
आन्ध्र	-13806
ग्राफी	-13807
जेरिया	-13808
डसेडिङ	-13809
डियाको	-13810
तात्मा	-13811
त्तिमा	-13812
द्धिले	-13813
प्रत्य	-13814
ब्रिटे	-13815
महाराज	-13816
वल्क्य	-13817
व्यक्त	-13818
हरुबाट	-13819
िहरूले	-13820
ीयुक्त	-13821
्याउनु	-13822
▁अँध्य	-13823
▁अपांग	-13824
▁अर्पण	-13825
▁आजीवन	-13826
▁उल्लं	-13827
▁कोषमा	-13828
▁जहिले	-13829
▁तस्मा	-13830
▁तुच्छ	-13831
▁दाउरा	-13832
▁दिएमा	-13833
▁देख्छ	-13834
▁नचिके	-13835
▁नहोस्	-13836
▁नुहाइ	-13837
▁परम्प	-13838
▁परलोक	-13839
▁परेकी	-13840
▁पुतना	-13841
▁फूलमा	-13842
▁फैलिन	-13843
▁बेङ्क	-13844
▁महलमा	-13845
▁मोडेल	-13846
▁यहूदी	-13847
▁राजसी	-13848
▁राजाप	-13849
▁लासमा	-13850
▁लैजान	-13851
▁ल्याइ	-13852
▁विध्व	-13853
▁सक्रा	-13854
▁सहस्र	-13855
▁सावित	-13856
▁सुनाए	-13857
▁स्काउ	-13858
▁स्ट्र	-13859
▁हलेदो	-13860
▁हुदाँ	-13861
▁हेनरी	-13862
▁हेरेर	-13863
तावासमा	-13864
तिबिम्ब	-13865
पर्थ्यो	-13866
मानसिंह	-13867
मुस्ताङ	-13868
सङ्ग्रह	-13869
स्तानको	-13870
ेलियाली	-13871
्चायतको	-13872
▁अछामको	-13873
▁इच्छुक	-13874
▁उद्यान	-13875
▁कर्णको	-13876
▁काश्मी	-13877
▁खुट्कि	-13878
▁खोजेका	-13879
▁गरेकोछ	-13880
▁गाडेको	-13881
▁गाड्दा	-13882
▁गोपीनी	-13883
▁छर्केर	-13884
▁छोड्नु	-13885
▁जनश्रु	-13886
▁टोकियो	-13887
▁तिर्नु	-13888
▁दाजुको	-13889
▁नपाइने	-13890
▁निकटतम	-13891
▁न्वारन	-13892
▁पार्दै	-13893
▁फुन्छो	-13894
▁फूलडाँ	-13895
▁बजेटको	-13896
▁बोकाको	-13897
▁ब्राह्	-13898
▁भ्रष्ट	-13899
▁मद्रास	-13900
▁मरेपछि	-13901
▁लक्षणा	-13902
▁लेखनमा	-13903
▁वंशजको	-13904
▁विगतमा	-13905
▁विभक्त	-13906
▁वीरहरू	-13907
▁शनिवार	-13908
▁संचालक	-13909
▁समाउने	-13910
▁साहसिक	-13911
▁सुरुका	-13912
▁स्तनमा	-13913
▁स्थगित	-13914
▁हिजोआज	-13915
कर्ताहरू	-13916
जयप्रकाश	-13917
लुम्बिनी	-13918
सिन्धिया	-13919
▁आधिकारी	-13920
▁काँग्रे	-13921
▁गरेकोले	-13922
▁गर्नेको	-13923
▁चान्सलर	-13924
▁छोडिदिए	-13925
▁तीक्ष्ण	-13926
▁त्यतिकै	-13927
▁देखिन्न	-13928
▁नजिकबाट	-13929
▁निकायका	-13930
▁पर्वहरू	-13931
▁पाँडेका	-13932
▁फर्निचर	-13933
▁भित्रका	-13934
▁भेटिएका	-13935
▁मद्दतले	-13936
▁मध्यभाग	-13937
▁मनोवैज्	-13938
▁मिसिएका	-13939
▁मुजिबले	-13940
▁मोहम्मद	-13941
▁संग्राह	-13942
▁सतहदेखि	-13943
▁सदस्यका	-13944
▁सदस्यीय	-13945
▁सिग्देल	-13946
▁स्याहार	-13947
▁स्रष्टा	-13948
▁स्वाभाव	-13949
▁हितकारी	-13950
▁अध्ययनमा	-13951
▁उपनिषदको	-13952
▁उमेरदेखि	-13953
▁काल्पनिक	-13954
▁गुरिल्ला	-13955
▁दिइरहेका	-13956
▁नगेन्द्र	-13957
▁निस्केका	-13958
▁परिकारको	-13959
▁परिपूर्ण	-13960
▁परिष्कार	-13961
▁फर्किएका	-13962
▁बलरामलाई	-13963
▁बेलाबेला	-13964
▁भावनालाई	-13965
▁मनुष्यको	-13966
▁महापुरुष	-13967
▁मेलमिलाप	-13968
▁लोडसेडिङ	-13969
▁वित्तिकै	-13970
▁शक्तिहरू	-13971
▁संरचनाका	-13972
▁संरचनागत	-13973
▁समितिहरू	-13974
▁सवैभन्दा	-13975
▁साक्षरता	-13976
▁स्टेडियम	-13977
▁हरिहरपुर	-13978
▁अधिकारहरू	-13979
▁उपन्यासको	-13980
▁कार्यवाही	-13981
▁गन्तव्यमा	-13982
▁ताइवानलाई	-13983
▁निस्किएको	-13984
▁प्रतिशतले	-13985
▁बताउनुभयो	-13986
▁भरद्वाजको	-13987
▁योद्धाहरु	-13988
▁विश्वकपमा	-13989
▁सहानुभूति	-13990
▁हजारभन्दा	-13991
▁हुनेगर्दछ	-13992
याधिवक्ताको	-13993
▁इलाकाहरूमा	-13994
▁कान्यकुब्ज	-13995
▁क्यान्सरको	-13996
▁क्रान्तिमा	-13997
▁चन्द्रमाको	-13998
▁डिसेम्बरका	-13999
▁तत्वहरूलाई	-14000
▁प्रयोगवादी	-14001
▁महीनाभित्र	-14002
▁मित्रसेनले	-14003
▁स्मरणशक्ति	-14004
▁हरिशचन्द्र	-14005
▁काङ्ग्रेसमा	-14006
▁कार्यालयबाट	-14007
▁जंगबहादुरको	-14008
▁निम्त्याएको	-14009
▁वायुमण्डलमा	-14010
▁संस्थाहरूको	-14011
लक्ष्मीप्रसाद	-14012
▁पाकिस्तानलाई	-14013
▁मन्त्रालयलाई	-14014
▁राजारणबहादुर	-14015
▁कार्यपालिकाको	-14016
ंट	-14017
एता	-14018
खंड	-14019
चर्	-14020
टका	-14021
डास	-14022
णां	-14023
निव	-14024
प्स	-14025
मणी	-14026
विड	-14027
शरण	-14028
▁अथ	-14029
▁एर	-14030
▁दय	-14031
▁बं	-14032
अरुण	-14033
उनमा	-14034
उनले	-14035
कुरु	-14036
जरबै	-14037
पसमा	-14038
प्तड	-14039
प्ला	-14040
फलको	-14041
फेरो	-14042
बीसी	-14043
मतको	-14044
मुलन	-14045
युक्	-14046
यूरो	-14047
रियन	-14048
रोमा	-14049
र्कि	-14050
लागू	-14051
्तिय	-14052
▁आएक	-14053
▁खना	-14054
▁खुल	-14055
▁खैँ	-14056
▁ण्ड	-14057
▁तलब	-14058
▁तीत	-14059
▁नाल	-14060
▁फोन	-14061
▁बाज	-14062
▁बाव	-14063
▁मेक	-14064
▁म्म	-14065
▁यमु	-14066
▁र्छ	-14067
▁वरा	-14068
▁वाल	-14069
▁वेल	-14070
▁सका	-14071
▁्ता	-14072
▁्थल	-14073
किशोर	-14074
गर्दै	-14075
पर्या	-14076
पर्वत	-14077
रधुरी	-14078
रह्यो	-14079
राधिक	-14080
शान्त	-14081
ाकेको	-14082
ुम्ने	-14083
्जाबी	-14084
्रीको	-14085
▁अण्ड	-14086
▁आईपी	-14087
▁आडमा	-14088
▁क्षि	-14089
▁क्षी	-14090
▁गिरा	-14091
▁चाँद	-14092
▁जलेर	-14093
▁जोत्	-14094
▁फ्नो	-14095
▁बयान	-14096
▁बलका	-14097
▁बिजे	-14098
▁भावी	-14099
▁मारी	-14100
▁राउत	-14101
▁राहत	-14102
▁रियो	-14103
▁लण्ड	-14104
▁लम्ब	-14105
▁वारे	-14106
▁विस्	-14107
▁संवत	-14108
▁सरका	-14109
▁सिलि	-14110
▁हाहा	-14111
इजरायल	-14112
क्रमको	-14113
पाँचथर	-14114
मुण्डा	-14115
मैथिली	-14116
रामेछा	-14117
र्दछन्	-14118
र्ववेद	-14119
्चमीका	-14120
▁कच्ची	-14121
▁खडेरी	-14122
▁खसेको	-14123
▁गर्भा	-14124
▁छोएको	-14125
▁तल्ला	-14126
▁दर्पण	-14127
▁दुर्र	-14128
▁न्युन	-14129
▁बंगला	-14130
▁मरणोप	-14131
▁महँगो	-14132
▁महाजन	-14133
▁राईको	-14134
▁लिइने	-14135
▁लिनको	-14136
▁स्वधा	-14137
गाविसको	-14138
चरितमान	-14139
राजधानी	-14140
श्राद्ध	-14141
सर्लाही	-14142
▁क्लबमा	-14143
▁गुणहरू	-14144
▁जुत्ता	-14145
▁पर्वका	-14146
▁पिताले	-14147
▁पूर्णत	-14148
▁फुल्ने	-14149
▁भाडामा	-14150
▁भुकम्प	-14151
▁मिथिला	-14152
▁मुलुकी	-14153
▁लिलामी	-14154
▁सन्यास	-14155
निरपेक्ष	-14156
मन्दिरमा	-14157
▁अवतारको	-14158
▁आपराधिक	-14159
▁उपचारका	-14160
▁क्रोधित	-14161
▁गाउँबाट	-14162
▁गोलाकार	-14163
▁पन्जाबी	-14164
▁प्रजनन्	-14165
▁फलफूलको	-14166
▁बाजाहरू	-14167
▁भइरहन्छ	-14168
▁मरुभूमि	-14169
▁मुलुकका	-14170
▁मूल्यमा	-14171
▁योजनामा	-14172
▁वार्सिक	-14173
▁विन्डोज	-14174
▁विश्वमै	-14175
▁शिवसागर	-14176
▁सुभद्रा	-14177
राजेन्द्र	-14178
लक्ष्मीको	-14179
ष्णबहादुर	-14180
▁अधिवक्ता	-14181
▁अवस्थाले	-14182
▁कुलदेवता	-14183
▁छापाखाना	-14184
▁प्रतिकूल	-14185
▁प्रवक्ता	-14186
▁बाँडिएको	-14187
▁बाजागाजा	-14188
▁मताधिकार	-14189
▁मध्येबाट	-14190
▁वर्गिकरण	-14191
▁संस्थागत	-14192
▁समितिलाई	-14193
▁सेरोफेरो	-14194
▁उपमन्त्री	-14195
▁क्रिकेटको	-14196
▁जात्राहरू	-14197
▁पदार्थलाई	-14198
▁ब्यक्तिको	-14199
▁भण्डारीको	-14200
▁महाभूकम्प	-14201
▁मान्छेहरू	-14202
▁यातायातका	-14203
▁व्यापारका	-14204
▁संरक्षणको	-14205
▁संस्कारमा	-14206
▁सङ्ग्रहित	-14207
▁सेमीफाइनल	-14208
▁जिम्मेदारी	-14209
▁फिनल्यान्ड	-14210
▁बाल्यकालमा	-14211
▁मरणोपरान्त	-14212
▁राष्ट्रसङ्	-14213
▁नागरिकहरूको	-14214
▁परामर्शदात्री	-14215
▁स्वतन्त्रताका	-14216
चं	-14217
डह	-14218
मस	-14219
सँ	-14220
आदी	-14221
ईने	-14222
एक्	-14223
खास	-14224
टुक	-14225
तुर	-14226
पाक	-14227
पेन	-14228
बला	-14229
बाइ	-14230
भवन	-14231
लखन	-14232
लगि	-14233
वाड	-14234
सां	-14235
हरे	-14236
ाडो	-14237
ाना	-14238
ासन	-14239
ोरे	-14240
▁धै	-14241
▁मस	-14242
▁रव	-14243
▁ुख	-14244
गहुँ	-14245
ज्जन	-14246
ण्डे	-14247
त्रय	-14248
द्वै	-14249
फेयर	-14250
यिका	-14251
रुपी	-14252
शब्द	-14253
शिल्	-14254
षिमु	-14255
हाडी	-14256
हुदै	-14257
हेका	-14258
होली	-14259
ाराज	-14260
्चमा	-14261
्रिड	-14262
▁कस्	-14263
▁चरस	-14264
▁टिन	-14265
▁टोप	-14266
▁तपो	-14267
▁दहि	-14268
▁दोभ	-14269
▁पग्	-14270
▁बरफ	-14271
▁बिह	-14272
▁बेस	-14273
▁यान	-14274
▁यीन	-14275
▁युट	-14276
▁रुस	-14277
▁लेन	-14278
▁ससु	-14279
▁सेक	-14280
कलाको	-14281
कश्यप	-14282
काहरू	-14283
क्षीण	-14284
क्समा	-14285
दोलखा	-14286
प्रेस	-14287
यास्त	-14288
▁एकाई	-14289
▁एकिन	-14290
▁एथले	-14291
▁कम्य	-14292
▁कलाम	-14293
▁खाता	-14294
▁गइन्	-14295
▁जिति	-14296
▁थरका	-14297
▁दुखी	-14298
▁नगरि	-14299
▁पङ्ख	-14300
▁पत्थ	-14301
▁बर्ड	-14302
▁मन्च	-14303
▁महत्	-14304
▁मुर्	-14305
▁लिपी	-14306
▁वक्त	-14307
▁वायू	-14308
▁शैया	-14309
▁समया	-14310
▁सुखद	-14311
▁सुगम	-14312
▁हरित	-14313
▁ाहरू	-14314
खण्डमा	-14315
देखिनै	-14316
नाथलाई	-14317
नेपालग	-14318
पुगेका	-14319
यारण्य	-14320
सोभियत	-14321
ोरपाटन	-14322
▁अफिसर	-14323
▁अरुणा	-14324
▁अरूले	-14325
▁इन्डो	-14326
▁एलोवे	-14327
▁एल्बम	-14328
▁गरिमा	-14329
▁चम्चा	-14330
▁दुइटा	-14331
▁देवान	-14332
▁धमारी	-14333
▁धितोप	-14334
▁न्छन्	-14335
▁फत्ते	-14336
▁फलहरू	-14337
▁मूर्त	-14338
▁रगतमा	-14339
▁रथलाई	-14340
▁रूसको	-14341
▁रोगले	-14342
▁लग्यो	-14343
▁लिगले	-14344
▁वनवास	-14345
▁वाजपे	-14346
▁विदेह	-14347
▁शिवजी	-14348
▁सिन्द	-14349
▁सूचिक	-14350
▁स्वयम	-14351
द्वीपको	-14352
मिन्ताङ	-14353
रामेछाप	-14354
▁क्यारो	-14355
▁क्वाटर	-14356
▁जोडिने	-14357
▁तस्बिर	-14358
▁नभएपनि	-14359
▁पकाउने	-14360
▁पाहुना	-14361
▁भर्खरै	-14362
▁मुनिको	-14363
▁यसलाईब	-14364
▁राष्ट्	-14365
▁वर्तमा	-14366
▁वसोवास	-14367
▁वहाँको	-14368
▁विधायक	-14369
▁वैशाली	-14370
▁शासकले	-14371
▁समूहका	-14372
▁स्तरिय	-14373
▁स्नायु	-14374
▁हैसियत	-14375
द्धमार्ग	-14376
वसन्तपुर	-14377
सम्पत्ति	-14378
हरूसँगको	-14379
ाल्यान्ड	-14380
्युनिस्ट	-14381
▁अशान्ति	-14382
▁आधुनिकी	-14383
▁कहाँबाट	-14384
▁काँक्री	-14385
▁गन्तब्य	-14386
▁चेतनाको	-14387
▁दरबारका	-14388
▁नास्तिक	-14389
▁निरंकुश	-14390
▁पार्कमा	-14391
▁प्रशाको	-14392
▁बस्दछन्	-14393
▁भ्रमणको	-14394
▁महालेखा	-14395
▁रास्ट्र	-14396
▁लिन्छन्	-14397
▁विचारका	-14398
▁शर्माले	-14399
▁शिक्षित	-14400
▁सकेसम्म	-14401
▁सुनुवार	-14402
▁सूचनाको	-14403
▁स्मार्ट	-14404
अन्नपूर्ण	-14405
शास्त्रका	-14406
साहित्यको	-14407
ुङ्गेधारा	-14408
▁अनुच्छेद	-14409
▁अभयारण्य	-14410
▁किल्लाको	-14411
▁क्षेत्रा	-14412
▁देशहरूको	-14413
▁प्रशस्तै	-14414
▁फाउन्डेस	-14415
▁मन्त्रको	-14416
▁महाप्रभु	-14417
▁रचनात्मक	-14418
▁रुक्मिणी	-14419
▁रेग्मीले	-14420
▁व्रतबन्ध	-14421
▁शब्दावली	-14422
इङ्ल्यान्ड	-14423
नेपाललगायत	-14424
ष्टिकोणबाट	-14425
▁अधिकारलाई	-14426
▁अफ्रिकाको	-14427
▁जीवनकालमा	-14428
▁त्रैलोक्य	-14429
▁महाधिवेशन	-14430
▁मूर्तिलाई	-14431
▁विद्यापति	-14432
▁व्यवसायमा	-14433
▁सर्वेक्षण	-14434
▁कर्मचारीको	-14435
▁कार्तविर्य	-14436
▁चलचित्रलाई	-14437
▁प्रमाणीकरण	-14438
▁विवादास्पद	-14439
▁निर्देशनहरू	-14440
▁सुपरिवेक्षण	-14441
▁इन्द्रजात्रा	-14442
कण	-14443
जै	-14444
अगा	-14445
अहि	-14446
इका	-14447
कनी	-14448
किर	-14449
धिस	-14450
नार	-14451
पुन	-14452
माथ	-14453
मूद	-14454
रुस	-14455
हेल	-14456
ुपद	-14457
ूरो	-14458
्नै	-14459
▁इल	-14460
▁इश	-14461
▁टै	-14462
▁पग	-14463
▁ाह	-14464
ँलाई	-14465
अवधी	-14466
ईएको	-14467
एफसी	-14468
क्सू	-14469
ङ्दी	-14470
टेका	-14471
तराई	-14472
दयाल	-14473
दाहा	-14474
नाता	-14475
पकको	-14476
पनमा	-14477
पीको	-14478
र्थे	-14479
र्यो	-14480
ल्टा	-14481
स्कट	-14482
ेटको	-14483
्याक	-14484
▁अलक	-14485
▁अवस	-14486
▁उजा	-14487
▁खप्	-14488
▁जार	-14489
▁दूत	-14490
▁धूम	-14491
▁नबु	-14492
▁नून	-14493
▁मिथ	-14494
▁यमा	-14495
▁सीत	-14496
कानून	-14497
कीलाई	-14498
चारको	-14499
थानको	-14500
दक्षि	-14501
दमाहा	-14502
धीलाई	-14503
पट्टन	-14504
पदीका	-14505
भनिने	-14506
मुकाम	-14507
राजनि	-14508
रिन्छ	-14509
रूपले	-14510
लीलाई	-14511
वाताल	-14512
षिर्क	-14513
सुदूर	-14514
हिष्क	-14515
िरहने	-14516
▁अछुत	-14517
▁अस्प	-14518
▁आजका	-14519
▁कत्य	-14520
▁कथित	-14521
▁केसर	-14522
▁क्लो	-14523
▁खाजा	-14524
▁गाडि	-14525
▁गीति	-14526
▁छुवा	-14527
▁टेली	-14528
▁तारे	-14529
▁दशमी	-14530
▁धन्य	-14531
▁धुरी	-14532
▁नाँच	-14533
▁नीलो	-14534
▁नेवा	-14535
▁प्रभ	-14536
▁बांध	-14537
▁बेक्	-14538
▁भष्म	-14539
▁भानु	-14540
▁भेदन	-14541
▁मतको	-14542
▁मुनी	-14543
▁मेहन	-14544
▁रिका	-14545
▁वापत	-14546
▁विता	-14547
▁सन्थ	-14548
▁सर्ब	-14549
▁सलाई	-14550
▁सांग	-14551
▁होमि	-14552
▁्द्र	-14553
कैलाली	-14554
चितुवा	-14555
जारहरू	-14556
टोत्कच	-14557
द्रुपद	-14558
न्द्रो	-14559
पंक्ति	-14560
पक्षको	-14561
पोथर्म	-14562
भूतिको	-14563
र्वर्ड	-14564
शासनमा	-14565
शिक्षण	-14566
शेर्पा	-14567
िरोमणि	-14568
▁अरबका	-14569
▁उनीले	-14570
▁कागती	-14571
▁कानको	-14572
▁खम्बा	-14573
▁जायते	-14574
▁तर्पण	-14575
▁तहलाई	-14576
▁ताइपे	-14577
▁तिनले	-14578
▁दलहरू	-14579
▁दहीको	-14580
▁दाम्प	-14581
▁नन्दा	-14582
▁पदहरू	-14583
▁पर्सा	-14584
▁पहलमा	-14585
▁प्रशं	-14586
▁फ्रिक	-14587
▁भैरवी	-14588
▁मजबूत	-14589
▁महमूद	-14590
▁मानिक	-14591
▁रगतले	-14592
▁रजवार	-14593
▁रूपमै	-14594
▁लगाएत	-14595
▁लुटेर	-14596
▁सजावट	-14597
▁सर्ने	-14598
▁सोसाइ	-14599
▁हातको	-14600
क्रिकेट	-14601
न्देक्स	-14602
प्रतिष्	-14603
भाषाहरू	-14604
मलेसिया	-14605
महिनामा	-14606
राज्यमा	-14607
स्थानमा	-14608
▁अनलाईन	-14609
▁अर्न्त	-14610
▁आसामको	-14611
▁उपग्रह	-14612
▁कर्फबल	-14613
▁काट्ने	-14614
▁काशीमा	-14615
▁केंद्र	-14616
▁खेल्नु	-14617
▁ख्याती	-14618
▁गरियको	-14619
▁गरेपनि	-14620
▁चुच्चो	-14621
▁जागरुक	-14622
▁टिमबाट	-14623
▁टुर्ना	-14624
▁ट्रिपल	-14625
▁दसैँमा	-14626
▁दिसपुर	-14627
▁नदीबाट	-14628
▁निरूपण	-14629
▁परस्पर	-14630
▁पाईएको	-14631
▁फिक्का	-14632
▁बाजुरा	-14633
▁ब्रम्ह	-14634
▁भएसँगै	-14635
▁भाइलाई	-14636
▁भोजनको	-14637
▁मनोनित	-14638
▁माथिका	-14639
▁मानवको	-14640
▁मुस्ता	-14641
▁युक्ति	-14642
▁राजपूत	-14643
▁रानीले	-14644
▁रामसार	-14645
▁राशिमा	-14646
▁विरासत	-14647
▁शहरहरू	-14648
▁सामरिक	-14649
▁स्पोर्	-14650
▁हजारको	-14651
▁हुनुको	-14652
आधिकारिक	-14653
बित्तिकै	-14654
▁इण्डिया	-14655
▁इस्माइल	-14656
▁कपडाहरू	-14657
▁क्षत्री	-14658
▁चिनिएको	-14659
▁चिलाउने	-14660
▁तल्लामा	-14661
▁तारिखका	-14662
▁दिनुभयो	-14663
▁पुराणका	-14664
▁पुर्याए	-14665
▁बज्रयोग	-14666
▁बाहेकका	-14667
▁ब्रम्हा	-14668
▁भन्नेमा	-14669
▁योफिफार	-14670
▁लाग्दैन	-14671
▁वाषिर्क	-14672
▁विचारमा	-14673
▁वित्तिय	-14674
▁विवाहमा	-14675
▁व्रतालु	-14676
▁शस्त्रा	-14677
▁श्लोकमा	-14678
▁सुम्पेर	-14679
▁हाइड्रो	-14680
राजनितिज्	-14681
शेरबहादुर	-14682
▁अँध्यारो	-14683
▁अनिरुद्ध	-14684
▁अपनाइएको	-14685
▁आप्रवासी	-14686
▁इजिप्टको	-14687
▁उपाधिहरू	-14688
▁उपेन्द्र	-14689
▁खेलहरूको	-14690
▁चीनसँगको	-14691
▁दुलालथोक	-14692
▁धर्मशाला	-14693
▁निबन्धका	-14694
▁पूर्वबाट	-14695
▁भक्तजनको	-14696
▁माल्दिभ्	-14697
▁रोकथामका	-14698
▁वामपन्थी	-14699
▁शान्तिका	-14700
▁सभ्यतामा	-14701
▁समुद्रको	-14702
▁सरकारसँग	-14703
▁सूर्यबाट	-14704
▁सूर्योदय	-14705
▁हुँदैनन्	-14706
▁अध्ययनबाट	-14707
▁कलकत्तामा	-14708
▁कुम्भकर्ण	-14709
▁डडेल्धुरा	-14710
▁निकालिएको	-14711
▁परिवारसँग	-14712
▁प्रतिशतको	-14713
▁प्रभावलाई	-14714
▁प्रयोजनको	-14715
▁फ्रान्सले	-14716
▁बीजापुरका	-14717
▁विद्रोहको	-14718
▁विश्वभरका	-14719
▁वेबसाइटमा	-14720
▁सभ्यतालाई	-14721
▁सरस्वतीको	-14722
▁सिपाहीहरू	-14723
▁सुविधाहरू	-14724
▁सूर्यास्त	-14725
▁स्थापनाका	-14726
▁हाइपोथर्म	-14727
▁अनुयायीहरू	-14728
▁कालिगण्डकी	-14729
▁जनावरहरूको	-14730
▁परिवर्तनका	-14731
▁प्रयोगशाला	-14732
▁भविष्यवाणी	-14733
▁महामन्त्री	-14734
▁शकुन्तलाको	-14735
▁जीर्णोद्धार	-14736
▁टुर्नामेन्ट	-14737
▁नेदरल्यान्ड	-14738
▁सिद्धान्तका	-14739
▁अर्थतन्त्रमा	-14740
▁प्रजातिहरूमा	-14741
▁राष्ट्रहरूमा	-14742
▁विकिपिडियामा	-14743
▁विद्यार्थीले	-14744
▁विश्वयुद्धको	-14745
▁जिम्मेवारीहरू	-14746
▁परापूर्वकालमा	-14747
▁बालबालिकाहरूको	-14748
ाएरविकिपिडियालाई	-14749
ंभ	-14750
दग	-14751
ंदर	-14752
उँन	-14753
कोत	-14754
छाउ	-14755
जूद	-14756
जेन	-14757
दलभ	-14758
रणो	-14759
रहन	-14760
विल	-14761
षत्	-14762
सीए	-14763
हनु	-14764
ीयु	-14765
ोकल	-14766
▁ँग	-14767
▁इर	-14768
▁एट	-14769
▁खट	-14770
▁धे	-14771
▁पप	-14772
▁यल	-14773
▁ैन	-14774
आसाम	-14775
कमला	-14776
काष्	-14777
गच्छ	-14778
गाछी	-14779
चेरी	-14780
छ्या	-14781
जहरू	-14782
ट्जर	-14783
त्कम	-14784
देही	-14785
ध्यै	-14786
निष्	-14787
न्जर	-14788
फलमा	-14789
फोटक	-14790
बाना	-14791
ब्यु	-14792
मधेश	-14793
माथी	-14794
म्फि	-14795
रागी	-14796
र्सल	-14797
लयमा	-14798
लिने	-14799
वलाई	-14800
स्लो	-14801
ीबाट	-14802
ुटार	-14803
्राई	-14804
्वमा	-14805
▁अथक	-14806
▁उखे	-14807
▁उषा	-14808
▁एंव	-14809
▁कटा	-14810
▁किङ	-14811
▁कुक	-14812
▁खर्	-14813
▁जगा	-14814
▁तको	-14815
▁दशा	-14816
▁दिउ	-14817
▁दिग	-14818
▁पिट	-14819
▁पीत	-14820
▁पीप	-14821
▁पुण	-14822
▁पोत	-14823
▁बद्	-14824
▁बनी	-14825
▁बाक	-14826
▁बाध	-14827
▁भलो	-14828
▁महे	-14829
▁माम	-14830
▁यमप	-14831
▁रँग	-14832
▁रिउ	-14833
▁रिय	-14834
▁रुट	-14835
▁लेप	-14836
▁शिल	-14837
▁सदै	-14838
▁सुच	-14839
▁हीन	-14840
▁्यस	-14841
▁्यु	-14842
काउने	-14843
गमनका	-14844
ग्राद	-14845
ग्लाइ	-14846
जनहरू	-14847
टाएका	-14848
ड्याल	-14849
पर्दो	-14850
बर्मा	-14851
रथाको	-14852
राक्ष	-14853
लिन्छ	-14854
वलीको	-14855
श्यले	-14856
सार्व	-14857
सूचना	-14858
ाटबाट	-14859
्रामक	-14860
▁आजकल	-14861
▁इकाइ	-14862
▁उसका	-14863
▁कामा	-14864
▁गाथा	-14865
▁छाडी	-14866
▁छिटा	-14867
▁छैन्	-14868
▁जुधा	-14869
▁डरले	-14870
▁दरले	-14871
▁दिगो	-14872
▁दिर्	-14873
▁पुरी	-14874
▁फटया	-14875
▁बलिङ	-14876
▁बेहत	-14877
▁भिषण	-14878
▁भुइँ	-14879
▁भुट्	-14880
▁मानो	-14881
▁युवे	-14882
▁रहको	-14883
▁रुचा	-14884
▁रुसी	-14885
▁र्दछ	-14886
▁वाङ्	-14887
▁विभी	-14888
▁सहपा	-14889
▁सुखी	-14890
▁सुहा	-14891
▁स्रे	-14892
▁हाउस	-14893
▁ह्यु	-14894
ंत्रिक	-14895
कल्याण	-14896
कारिता	-14897
टनाबाट	-14898
तत्त्व	-14899
त्यादि	-14900
दामोदर	-14901
नाल्टी	-14902
पुष्पक	-14903
मरसिंह	-14904
युइएफए	-14905
युवराज	-14906
र्खुवा	-14907
र्मेली	-14908
र्सिटी	-14909
वार्ता	-14910
स्तरको	-14911
▁आफूमा	-14912
▁उदारी	-14913
▁एएफसी	-14914
▁कमिला	-14915
▁कासिम	-14916
▁किन्न	-14917
▁कोतको	-14918
▁क्रिम	-14919
▁क्षीण	-14920
▁खुसीय	-14921
▁गतिले	-14922
▁चलेका	-14923
▁चांदी	-14924
▁छिर्न	-14925
▁टोलको	-14926
▁डिम्ब	-14927
▁तन्तु	-14928
▁दबाउन	-14929
▁दाङको	-14930
▁नखानु	-14931
▁नाकमा	-14932
▁परेमा	-14933
▁पिडित	-14934
▁फाइबर	-14935
▁फालेर	-14936
▁बच्ने	-14937
▁ब्राउ	-14938
▁भस्मा	-14939
▁भाईको	-14940
▁मंत्र	-14941
▁मधेसी	-14942
▁मनसाय	-14943
▁मैथिल	-14944
▁रणजीत	-14945
▁रसुवा	-14946
▁रहनेछ	-14947
▁रामका	-14948
▁रोपनी	-14949
▁रोपाई	-14950
▁लन्डन	-14951
▁लिप्य	-14952
▁लोकता	-14953
▁लोसार	-14954
▁विन्द	-14955
▁संग्र	-14956
▁सप्ता	-14957
▁सिक्न	-14958
▁सेनका	-14959
▁ाइएको	-14960
कहरूलाई	-14961
कार्यको	-14962
गोपालको	-14963
चार्यको	-14964
त्त्वमा	-14965
दिन्छन्	-14966
निर्देश	-14967
निर्मित	-14968
वादीलाई	-14969
सम्पन्न	-14970
▁अनुकरण	-14971
▁आर्कषण	-14972
▁इनारमा	-14973
▁कपालको	-14974
▁कमजोरी	-14975
▁कष्टकर	-14976
▁कार्बन	-14977
▁किर्ति	-14978
▁कुबाचा	-14979
▁खानपिन	-14980
▁खानामा	-14981
▁खोलेका	-14982
▁ख्याली	-14983
▁गराइदि	-14984
▁गरिसके	-14985
▁गुलाफी	-14986
▁चेष्टा	-14987
▁जबसम्म	-14988
▁टुक्का	-14989
▁तबसम्म	-14990
▁तानसेन	-14991
▁तेलिया	-14992
▁दिनहुँ	-14993
▁दुर्बल	-14994
▁नलिएको	-14995
▁नीलकण्	-14996
▁पसलहरू	-14997
▁पाउनको	-14998
▁पुज्ने	-14999
▁प्रवास	-15000
▁फैलाउन	-15001
▁महाकाल	-15002
▁माग्ने	-15003
▁मानियो	-15004
▁मास्टर	-15005
▁मुखबाट	-15006
▁मेम्फि	-15007
▁यसैलाई	-15008
▁रराज्य	-15009
▁रहेछन्	-15010
▁राधाको	-15011
▁संसदका	-15012
▁सक्तैन	-15013
▁सद्भाव	-15014
▁सपनामा	-15015
▁समयलाई	-15016
▁हिर्का	-15017
▁ेन्द्र	-15018
त्रिशुली	-15019
निर्वाचन	-15020
रसंयुक्त	-15021
शमशेरलाई	-15022
▁अङ्गहरू	-15023
▁अप्टिकल	-15024
▁अल्पायु	-15025
▁आँखाबाट	-15026
▁आसपासको	-15027
▁उकास्ने	-15028
▁कालमोचन	-15029
▁क्यामेर	-15030
▁गरियोस्	-15031
▁गोरखामा	-15032
▁गोवर्धन	-15033
▁छापिएको	-15034
▁जनताहरू	-15035
▁जरिबाना	-15036
▁तपाईँले	-15037
▁ताइवानी	-15038
▁देखाइने	-15039
▁धेरैजना	-15040
▁नराम्रा	-15041
▁निर्दोष	-15042
▁नीतिलाई	-15043
▁पखेटाको	-15044
▁परिषदले	-15045
▁प्रतापी	-15046
▁फागुनमा	-15047
▁बालकहरू	-15048
▁बैङ्किङ	-15049
▁भगवानले	-15050
▁मानिसमा	-15051
▁मुल्यको	-15052
▁मूर्तिक	-15053
▁मेलम्ची	-15054
▁यत्तिकै	-15055
▁यिनिहरू	-15056
▁राजवंशी	-15057
▁राधालाई	-15058
▁रूपरेखा	-15059
▁विचारले	-15060
▁विस्फोट	-15061
▁व्यहोरा	-15062
▁सकिँदैन	-15063
▁सात्यकि	-15064
▁सामुहिक	-15065
▁सुपुष्प	-15066
▁सूत्रमा	-15067
▁हुदैनन्	-15068
▁हेडम्बा	-15069
संखुवासभा	-15070
संवैधानिक	-15071
▁अदालतलाई	-15072
▁आधिकारीक	-15073
▁उपविधाका	-15074
▁कालरात्र	-15075
▁गर्नेहरू	-15076
▁गीर्वाणय	-15077
▁जनगणनाको	-15078
▁जिल्लाकै	-15079
▁जीवनस्तर	-15080
▁डेनमार्क	-15081
▁तरकारीको	-15082
▁दिनुपर्छ	-15083
▁निर्णयका	-15084
▁पिछडिएका	-15085
▁पुस्ताको	-15086
▁बन्नुभयो	-15087
▁बिरामीको	-15088
▁बेवास्ता	-15089
▁बैङ्कहरू	-15090
▁ब्याख्या	-15091
▁मङ्गलबार	-15092
▁मार्टिने	-15093
▁रथयात्रा	-15094
▁विकासलाई	-15095
▁शास्त्रा	-15096
▁सक्रियता	-15097
▁सर्पगन्ध	-15098
▁सांकेतिक	-15099
▁स्टुडियो	-15100
▁स्रेस्ता	-15101
अन्तर्गतका	-15102
▁अनुबन्धित	-15103
▁अन्त्यतिर	-15104
▁अभिलेखबाट	-15105
▁अर्थपूर्ण	-15106
▁इतिहासलाई	-15107
▁उत्तरतर्फ	-15108
▁जातिहरूको	-15109
▁तिर्थस्थल	-15110
▁निबन्धकार	-15111
▁पार्टीहरू	-15112
▁पाहुनालाई	-15113
▁पिरामिडको	-15114
▁पुँजीवादी	-15115
▁ब्रह्माले	-15116
▁भित्रिएको	-15117
▁मानन्धरले	-15118
▁राणाकालीन	-15119
▁शम्शेरलाई	-15120
▁समशितोष्ण	-15121
▁सेनासँगको	-15122
▁स्त्रीहरु	-15123
चीनकोतिब्बत	-15124
पाण्डवहरूको	-15125
▁अमेरिकाबाट	-15126
▁असन्तुष्टि	-15127
▁अहिंसात्कम	-15128
▁कीर्तिनिधि	-15129
▁दक्षिणतर्फ	-15130
▁दर्शनार्थी	-15131
▁निष्कर्षमा	-15132
▁नेपोलियनले	-15133
▁परियोजनाको	-15134
▁फटयाङ्ग्रा	-15135
▁राख्नुपर्छ	-15136
▁लडाकुहरूले	-15137
गिरिजाप्रसाद	-15138
▁कम्पनीहरूले	-15139
▁कान्तिपुरका	-15140
▁कुरुक्षेत्र	-15141
▁गर्नेहिन्दू	-15142
▁जिल्लाहरूको	-15143
▁परिवर्तनपछि	-15144
▁प्रत्याभूति	-15145
▁बताउनुहुन्छ	-15146
▁ब्रह्मपुत्र	-15147
▁भारदारहरूले	-15148
▁महानिरीक्षक	-15149
▁राजमार्गलाई	-15150
▁राज्यबनाइयो	-15151
▁सन्धिअनुसार	-15152
▁गाउँपालिकामा	-15153
▁प्रतिनिधिहरु	-15154
▁प्रतिबिम्बित	-15155
▁रेसलमेनियामा	-15156
▁कार्यान्वयनको	-15157
▁नारायणगोपालको	-15158
▁लक्ष्मीप्रसाद	-15159
▁रेस्टुरेन्टहरू	-15160
▁प्रधानमन्त्रीमा	-15161
आम	-15162
इङ	-15163
शत	-15164
टाल	-15165
टिम	-15166
थाई	-15167
लिज	-15168
ाथो	-15169
्ति	-15170
▁तक	-15171
▁सख	-15172
▁हँ	-15173
▁िल	-15174
▁्प	-15175
ँदेल	-15176
कोदो	-15177
कोमा	-15178
खिया	-15179
गणना	-15180
गरको	-15181
च्या	-15182
जबाट	-15183
जानी	-15184
त्रे	-15185
दिमा	-15186
नीका	-15187
प्रस	-15188
प्सी	-15189
बारा	-15190
भाषी	-15191
याना	-15192
र्थि	-15193
स्नु	-15194
होरो	-15195
िमिर	-15196
▁उक्	-15197
▁कुम	-15198
▁खाल	-15199
▁गैं	-15200
▁छिर	-15201
▁दाम	-15202
▁नमि	-15203
▁नोक	-15204
▁पाक	-15205
▁मंद	-15206
▁रोम	-15207
▁वेग	-15208
▁सुप	-15209
▁िमा	-15210
खास्त	-15211
ङ्गमा	-15212
चाहिँ	-15213
टर्की	-15214
त्मान	-15215
देशका	-15216
धारीत	-15217
निकोड	-15218
न्ध्य	-15219
भारतर	-15220
भूषित	-15221
मण्डप	-15222
र्माण	-15223
वर्षा	-15224
शङ्कर	-15225
सेन्ट	-15226
ाथोकी	-15227
ियनको	-15228
ेशिया	-15229
▁आवरण	-15230
▁कमाइ	-15231
▁कुटु	-15232
▁छोटक	-15233
▁टेक्	-15234
▁डोरी	-15235
▁त्रा	-15236
▁दूरी	-15237
▁नगरा	-15238
▁निधो	-15239
▁पहिर	-15240
▁पेन्	-15241
▁प्रप	-15242
▁बिजय	-15243
▁भोला	-15244
▁यकिन	-15245
▁लाइन	-15246
▁हिटल	-15247
▁्छन्	-15248
भनिएको	-15249
महादेव	-15250
मोर्चा	-15251
राजाको	-15252
रोल्पा	-15253
लागाईं	-15254
विनायक	-15255
ीकरणको	-15256
▁कालको	-15257
▁टप्पा	-15258
▁टोलमा	-15259
▁तापको	-15260
▁त्यसअ	-15261
▁दुष्ट	-15262
▁दूधको	-15263
▁धुवाँ	-15264
▁बलुचि	-15265
▁मूलका	-15266
▁म्याड	-15267
▁यक्ति	-15268
▁वंशले	-15269
▁वाष्प	-15270
▁श्रवण	-15271
▁हास्य	-15272
किस्तान	-15273
द्वारमा	-15274
रादाबाद	-15275
लान्टिक	-15276
शमशेरका	-15277
स्तानमा	-15278
हरियाणा	-15279
ुङ्गामा	-15280
्चकन्या	-15281
▁अनिकाल	-15282
▁कंग्रे	-15283
▁खुवाउन	-15284
▁खेल्दा	-15285
▁गिरावट	-15286
▁जान्ने	-15287
▁टिस्टा	-15288
▁डेब्यु	-15289
▁तुर्की	-15290
▁द्विसद	-15291
▁धरानमा	-15292
▁नुनिलो	-15293
▁पहाडका	-15294
▁फ्लोरि	-15295
▁बैंकको	-15296
▁बोलाउन	-15297
▁ब्ल्या	-15298
▁रावणले	-15299
▁लोकगीत	-15300
▁व्युत्	-15301
▁सुग्री	-15302
टनाहरूको	-15303
बङ्गालको	-15304
रवीन्द्र	-15305
▁अपभ्रंश	-15306
▁आश्वासन	-15307
▁इत्यादी	-15308
▁क्यानडा	-15309
▁गरेकोमा	-15310
▁गोल्डकप	-15311
▁चाैरीको	-15312
▁जनार्दन	-15313
▁जर्जिया	-15314
▁दर्शनका	-15315
▁पेट्रोल	-15316
▁ब्यापार	-15317
▁ब्राजिल	-15318
▁भियतनाम	-15319
▁मुजफ्फर	-15320
▁मोतीलाल	-15321
▁विकासले	-15322
▁विलक्षण	-15323
▁श्रीमद्	-15324
▁सन्धिमा	-15325
[...]
